#version: 0.2 - Trained by `huggingface/tokenizers`
Ð °
Ñ ĭ
Ġ Ð
Ð µ
Ð ½
Ñ Ĥ
Ñ Ģ
Ð »
Ñ ĸ
Ñ ģ
Ð ´
Ò Ľ
Ð ¼
Ñ ĥ
Ð º
Ð° ÑĢ
Ð ¾
Ð° Ð
Ò ĵ
Ð° Ð½
Ò £
Ð ¸
Ñĭ Ð½
ĠÐ ¶
Ð° Ð»
ĠÐ ±
Ñ Ī
Ð ·
Ðµ ÑĢ
Ġ ÒĽ
Ð ³
Ġ ÑĤ
Ð ¿
Ðµ Ð½
Ñĸ Ð½
Ð´ Ñĭ
Ð° Ñģ
ĠÐ º
Ó Ļ
Ò ±
Ó ©
Ðµ ÑĤ
ÑĤ Ñĭ
Ð°Ð ¹
Ġ Ñģ
Ò ¯
ĠÐ ¼
Ñĭ Ð»
Ð´ Ð°
Ð ±
Ð ¹
Ð° ÑĤ
Ð´ Ñĸ
ĠÐ ¾
Ð° ÒĽ
Ðµ Ðº
Ñĭ ÒĽ
Ð° Ñĥ
ÑĤ Ñĸ
Ð¾ Ð»
ĠÐ ´
Ðµ Ñģ
Ñĭ Ñģ
Ðµ Ð»
Ñĭ Ò£
Ð° Ð¼
Ñĸ Ð»
Ñ ı
Ðµ Ð¼
Ð´ Ðµ
ĠÐ µ
Ð°Ð ·
Ñĸ Ð¼
Òĵ Ð°Ð½
Ñĸ ÑĢ
Òĵ Ñĭ
Ò ļ
Ġ Ó©
Ñĭ Ð·
Ð³ Ñĸ
Ð¸ Ñı
Ñģ ÑĤ
Òĵ Ð°
Ð¾ ÑĢ
Ñĭ Ð¼
Ð´ Ð°ÑĢ
ÓĻ Ð½
ÑĤ Ð°ÑĢ
Ò± ÑĢ
ÑĭÐ½ Ð´Ð°
ĠÐº Ó©
Ġ ÑĪ
ÑĭÐ½ ÑĭÒ£
Ġ ÓĻ
ÓĻÐ½ Ðµ
ĠÐ¶ ÓĻÐ½Ðµ
Ñ ħ
Ñĸ Ò£
Ð°Ð ¿
Ð ¶
Ñĭ Ð¿
Ð´Ñĭ Ò£
Ð°Ð ±
Ġ Òļ
Ðµ Ð¹
Ñĭ ÑĢ
Â »
Ñĸ Ð·
Â «
ĠÐ ¿
ĠÐ Ĳ
ĠÐ± Ð°Ñģ
Ð³ ÐµÐ½
ĠÐ ½
Ð³ Ðµ
Ð°Ð» ÑĭÒĽ
Ñĸ Ðº
Ð ²
ÑĤÑĭ ÑĢ
ÐµÑĤ ÑĤÑĸ
Ġ Ò¯
Ð° Òĵ
ĠÐ± Ð¾Ð»
Ġ Ð°Ð»
Ð¾ Ð½
ÑĭÐ½ Ð°
ÑĤ ÐµÑĢ
Ð´ Ð°Ð½
Ð¸ Ðº
Ð» ÑĭÒĽ
Ñĥ ÑĢ
ĠÐ¶ ÑĭÐ»
Ġ 2
Ð° Ò£
Ð´ ÐµÑĢ
ÑĪ Ð°
Ġ Ð°ÑĢ
Ð Ĳ
Ð¾ Ð¹
ÑĸÐ½ Ð´Ðµ
Ò± Ð»
Ð° Ð´Ñĭ
Ò¯ ÑĢ
Ñ Ĩ
Ġ Â«
ĠÐ ĳ
Ð» Ð°ÑĢ
Ð± Ð»
ÑĸÐ½ ÑĸÒ£
ĠÐ¾ ÑĢ
ĠÐ´ Ðµ
Ġ Ð°Ñĥ
Ð°Ð» Ð°ÑĢ
â Ģ
Ð°Ð» Ñĭ
Ð¸ Ð½
Ð» ÐµÐº
ÑĤ Ðµ
Ð´Ñĭ ÒĽ
Ñĸ Ñģ
Ñĸ Ð¿
ĠÐ ¡
0 1
Ð°Ð· Ð°ÒĽ
Ġ Ð°
ÐµÑĤÑĤÑĸ Ðº
Ñ Ħ
Ð°Ñģ Ñĭ
ÑģÑĤ Ð°Ð½
ĠÐ ľ
ÑĸÐ½ Ðµ
ĠÐ¼ ÐµÐ½
ÑĤ Ñĥ
Ð¾ Ð¼
Ñģ Ñĭ
ÐµÐ¼ Ð»ÐµÐº
Ġ ÑĢ
ĠÐ± ÐµÑĢ
ÑĤ Ð°
ĠÐ± ÑĸÑĢ
ÒĽ Ð°
ĠÒĽ ÑĭÐ·
Ðµ Ð·
Ġ Ò±
ÑĤ Ð°Ð½
ĠÒĽ Ð°Ð»
ÑĪ ÑĭÐ»
Ġ 1
ÑĤÑĭ ÒĽ
Ġ âĢ
Ġ (
ĠÐºÓ© ÑĢ
ĠÒĽ Ð°ÑĢ
Ð° ÑĤÑĭ
Ð´Ñĸ Ò£
Ðµ Ò£
Ðº ÐµÐ½
ĠÐ± Ð¾Ð¹
Ġ Ð°Ð¹
Ð¼ ÐµÑĤ
Ð´ Ð°Ð¹
ĠÐ ĸ
ÑĭÐ½ ÑĪÐ°
ĠÐ ļ
ĠÐ ŀ
ĠÓ© Ð·
ÐµÐ¼Ð»ÐµÐº ÐµÑĤÑĤÑĸÐº
Ġ2 01
Ð½ ÑĭÒ£
Ð¾ Ñģ
Ð¿ Ð°ÑĢ
ÑĭÑģ Ñĭ
Ðµ Ñĥ
Ð¼ ÐµÐ½
Ð³Ñĸ Ð·
ĠÑĤ ÑĥÑĢ
Ð´Ð° Ñĥ
ĠÐ±Ð¾Ð¹ ÑĭÐ½ÑĪÐ°
Ð½ Ð°Ð»
Ó© Ð»
ĠÐ ¢
ĠÐ ·
ÑĨ Ð¸Ñı
ĠÐ¾ Ð±Ð»
Ð°ÑĤ ÑĭÐ½
ÑĢ Ñĥ
Ò± Ð¼
Ð ¡
Ð°Ð¹ Ð»
Ð°Ð·Ð°ÒĽ ÑģÑĤÐ°Ð½
Ġ Ñħ
ĠÒĽÑĭÐ· Ð¼ÐµÑĤ
Ð» ÐµÑĢ
Ñĸ ÑĪ
ĠÐ± Ð°ÑĢ
Ð´ ÐµÐ½
ĠÐº ÐµÐ»
ĠÑĤÑĥÑĢ Ð°Ð»Ñĭ
ĠÐº Ò¯
ÐµÑĤ ÑĸÐ½
ĠÐ ¸
ÑĤÑĭ Ò£
ÒĽ Ð°ÑĢ
Ġ Ð°ÑĤ
Ð ľ
. .
Ñĭ Òĵ
Ðµ Ð´Ñĸ
Ðº ÑĸÐ¼
ĠÐ¼ ÐµÐ¼Ð»ÐµÐºÐµÑĤÑĤÑĸÐº
ĠÐ¶ Ð°Ñģ
ĠÒĽ Ò±
Ð¾ Ð²
ĠÐ¶ Ò¯ÑĢ
ĠÐ± ÑĸÐ»
Ðº Ñĸ
ÓĻ ÑĢ
Ñ Į
ĠâĢ ĵ
ĠÒ¯ ÑĪ
Ð´Ð° Ð¼
ĠÑĤ Ò±ÑĢ
ÓĻ Ñģ
Ðº Ðµ
ĠÐ¶ Ò±Ð¼
ÒĽ Ð°Ð½
Ġ -
Ñ į
ĠÒĽ Ò±ÑĢ
ĠÑĤ Ò¯
Ð ĳ
Ñģ ÐµÑĤ
Ð¾ Ð³
ĠÐ ł
ÐµÑģ Ñĸ
ÐµÐ» ÐµÑĢ
Ð ¢
Ġ Ó
ĠÐºÓ©ÑĢ ÑģÐµÑĤ
Ð°ÑĤ ÑĤÐ°ÑĢ
Ð°Ð± ÑĭÐ»
Ð¾ ÒĽ
ÑĤ Ð°Ð¼
Ð» Ñĸ
ĠÑģ Ð°Ð»
ĠÒĽ Ð¾Ð»
ĠÐº ÐµÐ·
ÑĤ ÑĭÐ½
Ð ķ
Ġ Ð°ÒĽ
Ġ Ð°Ñģ
Ð´Ñĸ Ðº
ĠÒļ Ð°Ð·Ð°ÒĽÑģÑĤÐ°Ð½
ÑĭÐ½Ð´Ð° ÒĵÑĭ
ĠÒ¯ÑĪ ÑĸÐ½
ĠÑĤ Ð°Ð»
ĠÐ¶Ò±Ð¼ ÑĭÑģ
Ðº ÐµÑĢ
Ġ ÑĸÑĪ
ĠÓ© ÑĤ
Â Ń
Ð» ÑĸÐº
ĠÐ¾ ÒĽ
Ð¿ Ñĥ
Ð³ ÐµÑĢ
ĠÐ± Ó©Ð»
Ñĭ Ð±
ĠÐ¶ Ò¯
Ðµ Ð´
ĠÐ ķ
ÑĤ Ð¸
ÑĪ Ñĸ
Ð°Ñģ ÑĭÐ½ÑĭÒ£
ĠÐ¾Ð±Ð» ÑĭÑģÑĭ
ĠÒĽ Ð¾ÑĢ
ĠÐ´ Ð°
Ð¸Ðº Ð°Ð»ÑĭÒĽ
ĠÐ¶ Ð°ÑĢ
ĠÐ°Ñĥ Ð´Ð°Ð½
Ġ Ñį
ÑĤ Ð°Ð»
Ð¾ Òĵ
ĠÐºÒ¯ Ð½
ÓĻ Ñĥ
ĠÐ¼ Ò¯
ÒĽ Ð¾ÑĢ
ÐµÑģ Ð¿Ñĥ
ĠÓĻ ÐºÑĸÐ¼
ÑĤÑĭÑĢ Ð°Ñĥ
ÐµÑģÐ¿Ñĥ Ð±Ð»
ĠÐ¼ ÐµÐº
Ñģ ÑĭÐ½
ÑĤ Ð°Ñĥ
ÐµÐ¹ ÑĸÐ½
ĠÐµ Ñģ
ĠÓĻ Ð»
Ġ Ð°Ð½
Ðµ ÑĪ
ÑĤÑĸ Ðº
ÐµÑģ Ðµ
Ð° ÒĵÐ°Ð½
Ġ ÑĦ
Ð³ ÑĸÐ½
ÑĪÑĭÐ» Ð°ÑĢ
Ð¸ ÑĤ
ĠÐ±ÐµÑĢ Ñĥ
ĠÒĽ Ð°Ð±ÑĭÐ»
ĠÐ°ÑĢ Ð½Ð°Ð»
ÑĪ Ñĭ
Ðµ Ð²
Ðµ Ð¿
Ð´Ð° ÒĵÑĭ
Ð ļ
ĠÐ±Ð°Ñģ ÒĽÐ°ÑĢ
Ðº ÑĸÐ½
ÑĭÐ¼ ÐµÐ½
ĠÐ± Ð°Ð»
ĠÐ°ÑĢÐ½Ð°Ð» ÒĵÐ°Ð½
Ġ Òĵ
Ð° ÒĵÑĭ
ĠÐ¶ Ð¾Ð»
ĠÐ´Ðµ Ð¿
Ñĥ ÒĵÐ°
ĠÐ¶ ÐµÐ¼
ĠÑĪ Ð°ÑĢ
Ð» Ð°Ð¼
ĠÐ° Ð´Ð°Ð¼
ĠÑĤ Ð°ÑĢ
ĠÐ¶ÑĭÐ» Ð´ÑĭÒ£
Ñ İ
ÒĽÐ¾ÑĢ Ð»ÑĭÒĽ
Ó© Ð·
Ð ŀ
ÑĪ ÑĸÐ»
Ð¸ Ð¼
ÑĭÐ½ Ð°Ð½
Ð ĸ
ĠÐĲ Ð»
Ġ Ð°Ð·
ĠÐ Ł
ĠÑĤÒ¯ Ñģ
Ð Ĩ
Ð³ ÑĸÐ»
Ð°Ð½ Ñĭ
Ð°Ð¹Ð» Ð°Ñģ
ĠÐ¶ÐµÐ¼ ÒĽÐ¾ÑĢÐ»ÑĭÒĽ
Ġ Ò
Ġ Ñĥ
ĠÐ¾ ÑĤÑĭÑĢ
ĠÐ¶ ÐµÑĢ
ĠÐ ³
Ð ł
ĠÐ½ Ðµ
ÑĭÐ± Ð°Ð¹Ð»Ð°Ñģ
ÐµÑģÐ¿ÑĥÐ±Ð» Ð¸Ðº
ĠÒ¯ Ð¹
Ó© Ð½
Ð¿Ð°ÑĢ Ð°ÑĤ
ĠÐ± Ð°Òĵ
ĠÓĻ ÑĢ
Ñĭ ÒĵÑĭ
ĠÓ ĺ
Ð°Ð¹ Ð´Ñĭ
ĠÐ´ Ð°Ð¼
ĠÐ¶Ò¯ÑĢ Ð³ÑĸÐ·
ĠÐ¿ Ð°Ð¹
Ð°Ð ¶
Ð± Ð¸
ÑĸÐ½Ð´Ðµ Ð³Ñĸ
ĠÐ¶ Ð°Òĵ
ĠÐ Ŀ
ĠÐ Ķ
0 0
Ð¸Ñı Ð»ÑĭÒĽ
Ñĥ Ñĭ
Ð¹ ÑĭÐ¼
ÐĲ ÑĤÑĭÑĢÐ°Ñĥ
Ġ ÑĸÑģ
Ð´ Ð°Ð»
ĠÐł ÐµÑģÐ¿ÑĥÐ±Ð»Ð¸Ðº
ĠÐº Ð¾Ð¼
ĠÐ¶ ÐµÑĤ
ÑĢ Ð¾
ĠÑĤ ÑĸÐ»
Ð° Ðº
ĠÐµ Ð»
Ð° Ñı
ĠÐ±ÑĸÐ» ÑĸÐ¼
ĠÐµ ÑĢ
Òĵ ÑĭÐ½
ĠÐµ Ð¼
ÑĤÑĸ Ò£
ÐµÐº Ðµ
Ð°Ñģ ÑĤÑĭÑĢ
ĠÐ±Ð°ÑģÒĽÐ°ÑĢ Ð¼
ĠÒĽÐ°Ð±ÑĭÐ» Ð´Ð°Ñĥ
Ð½ Ñĭ
Ð¾Ð» Ð¾Ð³
Ð¿ ÐµÐ½
Ð¼ Ð°Ð½
ĠÑĤ Ò¯ÑĢ
ÐµÐ¼ ÐµÑģÐµ
ĠÑģ Ð¾
Ñĸ ÑģÑĤ
Ð°Ñģ ÑĭÐ½Ð´Ð°
Ð° ÑĨÐ¸Ñı
i Ð½
Ð°Ð ³
Ð°ÑĤÑĭ Ñģ
ÑĤ Ð°Ð¿
Ðµ Ð±
ĠÓ© Ð½
ĠÐ ¨
ĠÒĽ Ð°Ð¹
ĠÐ¶ Ó©Ð½
ÒĽ ÑĭÐ»
ĠÐ¶ Ð°Ò£
ĠÐ¾Ð±Ð» ÑĭÑģ
Ð¸ Ð»
ĠÑĪ ÑĭÒĵ
ÐµÑĢ ÐµÐº
Ñģ Ð°Ð½
Ð¸ Ð·
ĠÐ°Ñĥ ÑĭÐ»
Ð´Ð°ÑĢ Ñĭ
ĠÐ¸ Ð½
ÓĻ Ð»
Ð Ķ
ĠÐ¾ÑĢ ÑĭÐ½
Ð± ÐµÐº
ĠÐ°Ð½ ÑĭÒĽ
Ñĭ ÑĤ
Ð¸ ÑģÑĤ
Ð°Ð½ ÑĭÑģ
ÑĭÐ» ÑĭÐ¼
ĠÐ±Ð¾Ð» ÑĭÐ¿
Ð Ŀ
Ñ ĩ
ĠÒĽ Ð°Ð¼
ĠÐ »
Ð° ÑĪ
ĠÑĸÑĪ ÐºÑĸ
Ð°ÑĢ Ñĭ
Ð¸ Ñħ
ĠÐ¶Ð°Òĵ Ð´Ð°Ð¹
Ð°Ð ²
Ðº ÑĸÐ·
ĠÐ± Ò±Ð»
ĠÐ½ ÐµÐ¼ÐµÑģÐµ
ĠÐ± ÐµÐ»
ĠÐ±Ó©Ð» ÑĸÐ¼
ĠÐºÓ©ÑĢÑģÐµÑĤ ÑĸÐ»
ĠÒ± Ð¹ÑĭÐ¼
Ð» Ð°Ð½
ÐµÑģ ÑĤ
ĠÑĤ Ó©
Ġ 3
ĠÐ¶ Ð°Ð»
ĠÑĤ Ðµ
Ñģ Ð°ÑĤ
Ð½ Ð¸
ĠÐ¶ Ð°ÑĤ
ĠÐ°Ð· Ð°Ð¼
ÒĽ Ñĭ
ĠÑĤ ÓĻÑĥ
ÑĭÐ» ÒĵÐ°Ð½
.. .
ĠÒĽ Ð¾Ñģ
Ð¾ Ð±
ĠÐ´Ðµ Ð³ÐµÐ½
ÑĸÐ½ ÐµÐ½
ĠÐµ Ò£
ĠÐ· Ð°Ò£
ĠÐ¾ Ð¹
ÐµÐ» Ð´ÐµÑĢ
ĠÐ¶ ÐµÐºÐµ
ĠÒĽ Ð°ÑĤÑĭÑģ
ÑĪÑĭÐ» ÑĭÒĽ
Ð¾ Ð¿
2 01
ĠÐ Ĩ
Ðµ Ð³
Ñħ Ð°Ð½
ĠÑĤÐ°Ð» Ð´Ð°Ñĥ
ÑĸÐ¼ ÐµÐ½
ĠÑĤ Ð¸
ÑĭÐ¼ ÑĭÐ·
Ð¼ ÐºÑĸÐ½
ĠÑģ ÑĭÐ±Ð°Ð¹Ð»Ð°Ñģ
Ñģ ÑĸÐ·
Ð¸Ðº Ð°
Ð¿ Ð¾ÑĢ
ĠÐ¶ Ð°Ð·
Ð°Ñģ ÑĭÐ½
Ð°Ð½ ÑĭÒ£
ÑĸÐº ÑĤÑĸ
ĠÐĳ Ò±Ð»
Ġ Ð°Ð¿
Ñĭ ÑĤÑĥ
Ð°Ð¼ Ð°Ð½
ĠÐ¾ Ð»Ð°ÑĢ
Ðµ Ð³Ðµ
ĠÐµ Ð½
ĠÐ¼Ò¯ Ð¼ÐºÑĸÐ½
ĠÐ¾ÒĽ Ñĥ
ĠÐ¼ Ð°ÒĽ
Ð¾ÒĽ ÑģÐ°Ð½
Ð» Ñĭ
Ð¼ ÐµÑĤÑĤÑĸÐº
ĠÐ°ÒĽ Ð¿Ð°ÑĢÐ°ÑĤ
Ð´Ñĸ ÑĢ
ĠÐ¶ÑĭÐ» ÒĵÑĭ
Ð¸ Ñģ
ĠÐ°Ð» Ñĥ
ÑĤÐµ Ñĥ
ĠÐ¶ÑĭÐ» Ñĭ
Ð°ÒĽ ÑĤÑĭ
ĠÐ±Ð¾Ð» Ð°Ð´Ñĭ
Ò¯ Ð¹
ĠÑĤ Ð¾Ð»
ĠÐ±Ð°Òĵ Ð´Ð°ÑĢ
ĠÓĻÐ» ÐµÑĥ
Ð¸ ÑĢ
Ġ201 8
ÐµÐ½ ÑĤ
ÑĤÐ°ÑĢ Ñĭ
ÑĸÐ» Ð³ÐµÐ½
Ð± Ð°
ÐµÑĤ ÑĤÐµÑĢ
ĠÒĽ Ð°Ð·Ð°ÒĽ
ĠÐµÐ¼ ÐµÑģ
Ðº ÑĸÐ»
ÐµÑĢ Ñĸ
ÑĤ ÑĤÑĭÒĽ
ĠÐ± Ð°Ð¹Ð»
Ð¾Ñģ Ð¿Ð°ÑĢ
ĠÐ½Ðµ Ð³ÑĸÐ·
ĠÐ± Ò±
ĠÑģ Ð°ÒĽ
ĠÐ¶ Ð°Ð½
Ġ "
ĠÐ±Ð°Ñģ ÑĪ
ĠÒĽ Ð°ÑĤ
ÑĸÐ¼ Ð´Ñĸ
ĠÐ¶ Ð¾ÑģÐ¿Ð°ÑĢ
Ð´Ñĭ ÑĢ
ĠÐ°Ñģ ÑĭÑĢ
ĠÑį Ðº
ÑĤÐµ Ð¿
ÑĸÐ¼ ÑĸÐ·
ĠÐ±Ð°ÑģÒĽÐ°ÑĢÐ¼ Ð°ÑģÑĭ
ĠÐ¾ ÑģÑĭ
ĠÑĤÒ±ÑĢ ÒĵÑĭÐ½
ĠÑĢ ÐµÑĤ
Ð°Ð± Ð°ÑĢ
ĠÑħ Ð°Ð»ÑĭÒĽ
ĠÐµ ÐºÐµÐ½
ĠÑĤÓĻÑĥ ÐµÐº
ĠÒĽÐ¾Ð» Ð´Ð°Ð½
ĠÒĽ Ð°Ð½
ÑĤ ÑĢ
Òĵ Ð°Ð»
ĠÐºÓ© Ð¿
Ð± Ð°Ñģ
Ġ Ò±Ð»
Ð Ł
ĠÐ¼ Ò±
ÑĤ Ð¾ÑĢ
Ð¼ ÑĸÑĢ
ĠÐ¶Ò¯ÑĢÐ³ÑĸÐ· Ñĥ
ĠÐ´ ÐµÐ¹ÑĸÐ½
Ð¾ Ð·
ĠÒ¯ Ð»
ĠÓ ¨
ĠÐºÓ© Ð·
ĠÐ¾ Ð½ÑĭÒ£
ĠÐºÓ©ÑĢÑģÐµÑĤÑĸÐ» ÐµÑĤÑĸÐ½
Ñģ Ð°
ĠÐ¾ÑĢ ÑĤ
ĠÐ±Ð°ÒĵÐ´Ð°ÑĢ Ð»Ð°Ð¼
ĠÑĤÓĻÑĥÐµÐº ÐµÐ»Ð´ÐµÑĢ
ĠÑģ Ó©Ð·
ĠÑģ Ð¾Ð½
Ð° ÒĵÐ°
ĠÐ¼ ÓĻÑģ
ĠÐĲ ÒĽ
ÒĽÑĭÐ» Ñĭ
ĠÐ ¥
ĠÐ±Ð°Ð¹Ð» Ð°Ð½ÑĭÑģ
ĠÑĪÑĭÒĵ Ð°ÑĢ
ÑĤ ÑĸÐ½
Ð´Ðµ Ð³Ñĸ
ĠÐ¾ Ð»
ĠÐ±Ð¾Ð» ÒĵÐ°Ð½
ĠÐ ĺ
Ð½ ÑĸÒ£
ÐµÑĤ Ñĸ
ÓĻÑģ ÑĸÐ¿
ĠÒĽÒ± ÒĽ
ĠÑģ Ñĥ
ĠÓĻÐ»ÐµÑĥ Ð¼ÐµÑĤÑĤÑĸÐº
ĠÐ¶ Ð°ÒĽ
ĠâĢ Ķ
ĠÑģ Ð°Ð¹
ĠÑĤ ÓĻÑĢ
Ð³ Ð°Ð½
ÑĭÐ» Ð´Ñĭ
ĠÐ ²
ÑĤ ÐµÐ½
Ð± ÑĸÑĢ
ÐµÐ¹ Ð´Ñĸ
ĠÐº Ð¾Ð½
â Ħ
âĦ ĸ
ĠÑħ Ð°Ð±Ð°ÑĢ
Ð°ÑĤÑĤÐ°ÑĢ Ð´Ñĭ
Ñĥ Ð°
Ġ201 7
Ð´Ð°ÑĢ Ð´ÑĭÒ£
ÑĪ Ðµ
ĠÑģ Ð°Ð½
ĠÐº ÐµÑĢÐµÐº
ĠÑĤ Ð°Ð±
Ð° Ð´
ĠÐ¶Ò¯ Ð·
Ð¾Ð½ Ð¾Ð¼
Ñħ Ð½
ÑĭÑģ ÑĭÐ½ÑĭÒ£
ĠÒĽ Ð¾Ð¹
ĠÒĽÐ°ÑĢ ÑģÑĭ
ĠÐ¶Ò¯ Ð¹
ĠÐ° Ñı
ĠÑĤ Ò±Ð»
Â» ,
Ñĥ Ð»
ĠÐ°ÑĢ ÒĽÑĭÐ»Ñĭ
ĠÑģ ÓĻ
ĠÐ¼ÐµÐº ÐµÐ¼
ÐµÐ» Ñĸ
ĠÑĤÓĻÑĥÐµÐºÐµÐ»Ð´ÐµÑĢ ÑĸÐ½Ðµ
Ò£ Ð³
Ð¸ Ð¿
Ð´Ð°Ð» Ð°Ð½
Ð¼ Ð°ÒĽ
ÑĤÑĭ Ð»
ÐµÐ»ÐµÑĢ Ñĸ
Ġ 5
Ð´Ð°ÑĢ Ð´Ñĭ
Ð´Ðµ Ñĥ
Ġ ÑĸÑģÑĤ
Ð°Ò£ ÑĭÐ·
Ñģ ÑĭÐ·
Ð¸ ÑĨ
Ðķ Ð¡
ĠÐº ÐµÑĤ
ĠÓ©ÑĤ ÐºÑĸÐ·
Ð ¨
Ġ I
ĠÑĤ Ñĥ
ĠÒĽ Ð°Ð·
Ð¼ Ð°
ĠÐ¿Ð°Ð¹ Ð´Ð°Ð»Ð°Ð½
ĠÐłÐµÑģÐ¿ÑĥÐ±Ð»Ð¸Ðº Ð°ÑģÑĭÐ½ÑĭÒ£
ĠÒĽ Ð°Ð¶
Òļ Ð°Ð·Ð°ÒĽÑģÑĤÐ°Ð½
Ðº ÐµÑģ
Ð¾ Ðº
ĠÐº ÐµÒ£
ĠÐ¼ÓĻÑģ ÐµÐ»
ĠÐ¾ÑĢ Ð³Ð°Ð½
ÓĻ ÑĤÐ¸
ĠÑģ ÑĤÐ°Ð½
ĠÐ¶Ó©Ð½ ÑĸÐ½Ð´ÐµÐ³Ñĸ
ĠÐ¼ ÓĻ
Ġ 4
Ġ âĦĸ
ÓĻÑĤÐ¸ Ð¶
Ð´Ñĭ ÑĢÑĥ
Ð´ ÐµÑģ
Ð° Ñħ
ĠÐ¶Ð°Ò£ Ð°
Ð´ÐµÑĢ Ñĸ
Ð°Ð»Ð°ÑĢ Ð´Ñĭ
ĠÐ¶ Ð¾Òĵ
ĠÐ¶ Ð¾ÒĽ
ĠÐº ÐµÐ¹ÑĸÐ½
ĠÐ¶ Ð°Ñĥ
Ð ĺ
ÑĤ Ð°Ð¹
Ð°ÒĽ ÑĭÑĤ
Ð¾Òĵ Ð°Ð¼
ÐµÑĢ ÑĤ
ĠÐ¿ ÑĢÐ¾
Ð¸ Ð°Ð»
Ð¾Ð»Ð¾Ð³ Ð¸Ñı
ĠÑĤ Ð¾ÒĽÑģÐ°Ð½
Ð±Ð° ÐµÐ²
Ð°Ð± Ð°ÒĽ
Ð¿ Ñĭ
ĠÒ °
ĠÑĤ Ò±
ĠÒ± ÑģÑĭÐ½
ĠÐº ÐµÑģÑĤ
Ð½ Ð°Ð½
ÑĤ i
Ñģ ÐµÑĢ
ĠÑĪÐ°ÑĢ ÑĥÐ°
Ð°ÒĽ ÑĭÑĢ
Ñĥ Ð³Ðµ
ĠÐ± ÑĸÐ·
ĠÑģÑĤÐ°Ð½ Ð´Ð°ÑĢ
ĠÒĽ Ð°Ñĥ
Ġ1 9
ĠÑģ ÑĭÐ½
ÑĤÑĭÐ½ Ð´Ñĭ
ĠÒĽÐ¾ÑĢ Ñĭ
ĠÐ½ ÓĻÑĤÐ¸Ð¶
ĠÐ°ÑĥÐ´Ð°Ð½ Ñĭ
ĠÐ°Ð½ÑĭÒĽ ÑĤÐ°Ð¼
ĠÒļ Ð°ÑĢ
Ð «
Ð» ÐµÐ¼
ÒĵÐ°Ð½ Ð°
ĠÑģ Ð¾Ð»
ÑĤÑĸ Ð¿
ĠÐ± Ð¸
ĠÐ¾ Ðº
ĠÑģ Ò±ÑĢ
ÑĤ ÑĤÐ°ÑĢ
ÑĸÑģ Ñĸ
Ð¿ Ð°Ð½
Ġ ÒĵÐ°Ð½Ð°
Ð°ÑģÑĤÑĭÑĢ Ñĥ
ĠÑģ Ð°Ñı
Ð± ÐµÑĢ
ÑĪÑĸÐ» ÑĸÐº
ÐµÐº ÑĤÑĸ
ĠÐ° Ðº
ĠÑĤ Ð°Ð¿
Ð°Ñģ ÑĭÐ·
Ð° Ð´Ð°
ÐµÐ¼Ð»ÐµÐº ÐµÑĤ
ĠÐ°Ð¹ ÑĤ
ĠÑĤ ÑĸÑĢ
ĠÒĵ ÑĭÐ»ÑĭÐ¼
Ð¸ÑģÑĤ ÑĢ
ÑĸÐ» Ð´Ñĸ
ĠÑĤ ÐµÑĢ
ĠÐºÐµÑģÑĤ ÐµÑģÑĸ
Ð°ÑĢ Ð°Ð»ÑĭÒĽ
ĠÐ¾Ðº ÑĢÑĥ
ÑĤÑĭÑĢ Ñĥ
ĠÐ´Ð°Ð¼ Ñĥ
ĠÐ¡ Ð¾Ð½
ĠÑĤ ÐµÒ£
Ð°Ð»Ð°ÑĢ Ð´ÑĭÒ£
ĠÓĻÐºÑĸÐ¼ Ñĸ
ÑĤ Ð°Ñģ
ĠÑģÐ¾ Ò£
Ñģ Ðº
ĠÐ°ÑĥÑĭÐ» Ð´ÑĭÒĽ
ĠÒĽÒ±ÒĽ ÑĭÒĽ
Ð´ÐµÐ½ Ð¸
ĠÑĪ ÐµÑĪ
Ñĭ ÑĪ
Ðµ Ð³ÐµÐ½
Ð´ ÐµÐ»
Ñģ ÑĭÐ½Ð´Ð°
ÒĵÐ° ÑĪ
Ð´Ðµ Ð¹
Ð¸ Ð´
ĠÓ© Ð»
ĠÐ±Ð°Ñģ ÒĽÐ°
ĠÐ¶ Ð¾Ð±
Ð»Ð°ÑĢ Ñĭ
Ð°Ð· Ð°ÑĢ
Ð» Ð°Ñĥ
Ð°Ñģ ÑĭÐ½Ð´Ð°ÒĵÑĭ
ÑĤÑĭ Ð¿
ĠÐ± ÐµÐº
ĠÐµ ÑĤ
ĠÐ±ÐµÐ» Ð³ÑĸÐ»
ÑĢ ÐµÐ·
Ðµ Ð¶
ĠÓ© Ð¼ÑĸÑĢ
ĠÑĤÒ±Ð» Òĵ
ĠÐµÐ½ Ð³ÑĸÐ·
ĠÐµÑģ ÐµÐ¿
ÑĤÐµÑĢ Ñĸ
ÑĸÐ½ Ð´
ĠÐµ Ð´Ñĸ
Ð± Ð°Ð¹
ĠÐ ĵ
ÐµÐ» ÑĸÐº
ĠÓ©Ð· Ð³ÐµÑĢ
ĠÐºÓ© ÑĪ
Ñģ ÑĭÐ½ÑĭÒ£
Ó ĺ
ĠÒĽÐ¾ÑĢÑĭ ÑĤÑĭÐ½Ð´Ñĭ
ĠÐ´Ð°Ð¼ ÑĭÑĤÑĥ
ÐµÑģ ÑĸÐ½
Ġ Ð°Ð²
Ð¸ Ð¾Ð½
ĠÒĽÐ°Ð» ÑĭÐ¿
ĠÐ±Ó©Ð»ÑĸÐ¼ Ñĸ
ĠÐĳ ÑĸÑĢ
ĠÐ¼ Ð¸Ð½
ÑĭÒ£ ÑĭÐ·
Ġ 7
ĠÑĤ ÐµÐº
ĠÑĤÐµ ÑħÐ½
ĠÐµ ÐºÑĸ
ĠÑģ Ð°Ñĥ
ĠÒĽ Ð¾ÒĵÐ°Ð¼
ĠÐ°ÑĤ ÒĽÐ°ÑĢ
Ðº ÐµÐ»
ĠÐ¼ÐµÐº ÑĤÐµÐ¿
Ð¼ Ð°Ð¹
Ð¸ Ð´ÐµÐ½
ĠÐ±Ð°Ð¹Ð»Ð°Ð½ÑĭÑģ ÑĤÑĭ
Ð° ÑĦ
ĠÐ¾ Ð½
ĠÐ¼ Ð°ÑĤ
Ð°ÑĤÑĭ Ð¿
Ġ 6
ĠÐ±Ð°ÑģÑĪ ÑĭÑģÑĭÐ½ÑĭÒ£
ĠÐ±Ð¾Ð» Ð´Ñĭ
ĠÐ¾ÑĢ ÑĤÐ°
ÒĽ ÑĭÐ½
Ñĸ Ð³Ñĸ
ĠÑģÓĻ Ð¹
Ð°Ð»Ð°ÑĢ Ñĭ
ĠÑĥ Ð°ÒĽÑĭÑĤ
Ð°Ð¼ ÑĭÐ·
ĠÐ¶Ò¯Ð· ÐµÐ³Ðµ
Ð¼ Ñĥ
ĠÐ¶Ð°ÑĤ ÒĽÐ°Ð½
ĠÐ¿ ÐµÐ½
Ð°Ð¹ Ñĭ
ĠÐºÓ©ÑĢÑģÐµÑĤ Ñĥ
Ð Ľ
Ñģ Ð°Ñĥ
ĠÒĽÒ± Ð¶
ĠÐŀ Ð»
ÑĸÐ¼ Ð´ÐµÑĢ
Ò± ÒĽ
ĠÐ¶ Ð¸Ð½
ĠÐ¼ ÑĸÐ½Ð´
ĠÐ°Ð·Ð°Ð¼ Ð°ÑĤÑĤÐ°ÑĢÐ´Ñĭ
ĠÐºÐµÐ» Ð³ÐµÐ½
Ðº ÑĥÑĢ
Ð»Ñĸ Ð³Ñĸ
Òĵ ÑĭÐ½Ð°
ĠÐ´ ÐµÐ½
ĠÐº ÓĻÑģÑĸÐ¿
ĠÐ°ÑĥÐ´Ð°Ð½ Ð´ÑĭÒĽ
ĠÐłÐµÑģÐ¿ÑĥÐ±Ð»Ð¸Ðº Ð°ÑģÑĭ
ĠÐ°Ð¹ Ð½Ð°Ð»
ÑĢÐµÐ· Ð¸Ð´ÐµÐ½
ĠÑģÓĻÐ¹ ÐºÐµÑģ
ĠÐ¶Ð°ÑĢ ÑĤÑĭ
ĠÐ Ĺ
Ð° ÑĤÑĭÑĢ
Ð¼ ÐµÐº
ÑĤ ÐµÐ¼
ÐºÐµÑĢ Ð»ÐµÑĢ
ĠÐ± Ð°ÒĵÑĭ
Ð°Ñģ ÑĭÐ½Ð°
ĠÐº Ð¾ÑĢ
Ġ /
Ġ201 6
ÑĭÐ» ÑĭÑģ
ÐµÑģ ÑĸÐ½ÑĸÒ£
Ð´ i
Ð³ ÑĸÐ½ÑĸÒ£
ĠÑįÐº Ð¾Ð½Ð¾Ð¼
ĠÐºÒ¯Ð½ Ñĸ
Ð°ÑĤ ÑĤÑĭ
ÑĤÐ° ÒĵÑĭ
ĠÒ ®
ĠÐ° ÑĪ
ĠÐ¶ÐµÐ¼ÒĽÐ¾ÑĢÐ»ÑĭÒĽ ÒĽÐ°
ĠÑĤÐ°ÑĢ Ð¸Ñħ
ĠÐ± Ð°Ð¹
ĠÓ© Ñģ
ĠÑĤ Ð°Ò£
Ð°Ð¹ ÑĭÐ½
ÑĤÐ°Ð» ÒĵÐ°Ð½
ÑĢ Ð°Ð½
ĠÐ°Ð» ÑĭÐ¿
Ð°Ð· Ñĭ
Ñĥ Ñĸ
ĠÐ±ÐµÐº Ñĸ
ÑĤÐ°ÑĢ Ð´ÑĭÒ£
ĠÒĽ Ð°Ð±
Ð¿Ð¾ÑĢ ÑĤ
ĠÐµ ÑĤÑĥ
Ð°ÒĽ ÑĭÐ»
ĠÐ·Ð°Ò£ Ð´Ñĭ
Ò °
ÓĻÐ» ÑĸÐ¼
Ñģ Ð¸Ñı
ĠÐ±Ð°ÑĢ Ð»ÑĭÒĽ
ĠÓĻÐºÑĸÐ¼ ÑĸÐ½ÑĸÒ£
Ð´Ð°ÑĢ ÒĵÐ°
ÑĪÑĸÐ» ÐµÑĢ
ÑĢ ÑĤ
i Ð»
ÑĤÐ°ÑĢ Ð´Ñĭ
ĠÐ £
ĠÒĽÐ°ÑĤ Ð°ÑĢ
Ð Ĺ
Ð´Ð°ÑĢ ÑĭÐ½ÑĭÒ£
Ġ ...
ĠÒ± ÑģÑĤ
ĠÑĤ Ð°Ð±ÑĭÐ»
Ð°Ð» ÒĵÐ°Ð½
ĠÑģ Ð°Ð±Ð°ÒĽ
ĠÐ°Ñĥ ÑĢÑĥ
Ð¾ ÑĤ
ÑĭÐ» Ð°Ð´Ñĭ
Ð¾Ð»Ð¾Ð³ Ð¸ÑıÐ»ÑĭÒĽ
ĠÐ¶Ð°Ñĥ Ð°Ð¿
Ó ¨
Ð»Ð°ÑĢ Ð´ÑĭÒ£
Ð¼ Ð°ÑĤÑĭ
ĠÐ± Ò±ÑĢ
ĠÑĢ ÐµÑģ
Ġ 8
ÐµÐ¹ Ð½
ĠÐ¼ Ð°Ð¼Ð°Ð½
Ñĥ ÑĪÑĭ
ÑĤÑĸ Ð»
ÑĸÐ¼ Ñĸ
ÑĤÐ°ÑĢ ÑĭÐ½
ĠÐ¾Ð±Ð»ÑĭÑģ ÑĤÑĭÒĽ
ÑĸÒ£ ÑĸÐ·
ÑĪÑĭÐ» ÑĭÒĵÑĭ
Ñģ ÑĭÑĢ
Ð» ÐµÑģ
ÑĤ Ò¯
ĠÓ© ÐºÑĸÐ»
ĠÐ± Ò¯
ĠÐ Ń
ĠÑĸÑĪ ÑĸÐ½Ð´Ðµ
ĠÐ¶Ð°Ð» Ð¿Ñĭ
ĠÐ°ÑĢ Ð½
ĠÐ¶Ð¾Òĵ Ð°ÑĢÑĭ
ĠÒĽ Ñĥ
Ð¸ Ð²
Ð´ Ð¶
Ð¸ Òĵ
ĠÑĤ Ð°Ñģ
ĠÑĤÒ¯Ñģ ÑĸÐ½
ĠÑģ Ð°Ð¿
Ð¾ÑĢ Ð¼
ĠÐº ÑĸÑĢ
ĠÐ°Ð» Ð´
ĠÒ±Ð¹ÑĭÐ¼ Ð´
ÑĪ Ð°ÑĢ
ĠÐ¼ ÐµÐ´
Ð¸Ð½ Ð³
ÐĲ Ð»
ĠÑģ ÐµÐ½
ĠÐ± Ñİ
Ð» Ð°Ñģ
ĠÑģÑĤÐ°Ð½Ð´Ð°ÑĢ ÑĤÑĭ
ĠÐ¼ ÐµÑĢ
ÑĸÐ½ ÑĪÑĸ
Ð± Ðµ
Ð°Ð»Ð°ÑĢ ÑĭÐ½
ĠÐ°ÑĢ ÑĤ
ĠÐµÒ£ Ð±ÐµÐº
ÐµÑĢ Ð¸Ð°Ð»
ÑĤÑĸ ÑĢ
ĠÐ´ ÓĻÑĢ
ĠÐ¾Ð»Ð°ÑĢ Ð´ÑĭÒ£
Ġ2 0
ĠÓ©ÑĤ ÐºÐµÐ½
ĠÐľ ÐµÐ¼Ð»ÐµÐºÐµÑĤÑĤÑĸÐº
ÑĭÒĽ ÑĤÑĭ
ÓĻ Ð¶
ĠÒĽÑĭÐ·Ð¼ÐµÑĤ ÑĤÐµÑĢ
Ð°Òĵ ÑĭÐ½
Ð´Ñĸ Ð³Ñĸ
ÑĭÒĵ ÑĭÐ½
ĠÐº Ò¯ÑĢ
ĠÑĤÐ¸ ÑĸÑģ
ĠÐ±Ð¾Ð» Ð¼
Ñģ Ðµ
Ñģ ÑĭÐ»
ĠÐ¼ ÓĻÐ»ÑĸÐ¼
ĠÐ¾ÑĢ Ð½Ð°Ð»
2 0
ĠÐ· ÐµÑĢÑĤ
ĠÒĽ Ð¾
ĠÑħ Ð°Ð»
ĠÐľ Ò±
ĠÑĤÐ¾Ð» ÑĭÒĽ
ĠÑĤ Ð°Òĵ
ĠÐ¼Ð¸Ð½ Ð¸ÑģÑĤÑĢ
ĠÑģÐ°ÒĽ ÑĤÐ°Ñĥ
) ,
Ð°Ð»Ñĭ Òĵ
ĠÐº ÐµÑĪ
ĠÐ±Ð¾Ð» ÑģÐ°
ÑĭÐ½Ð´Ð° Ñĥ
Ð± Ñĸ
Ð £
ĠÒļ Ò±ÑĢ
Ñģ ÐµÐ½
Ð½ ÐµÐ½
ĠÐ ¤
ÑĭÑĢ ÑĤ
Ð»Ð°ÑĢ Ð´Ñĭ
ĠÐ¿ Ð°ÑĢ
Òĵ Ð°Ñĥ
ĠÐ±Ð°Ñģ ÑĤÐ°Ð¿
ĠÐ¶ Ð¸
Ð¸ Ð¹
ĠÐºÐµÐ· Ð´ÐµÑģ
ÑĸÐ» ÐµÐ´Ñĸ
ĠÐ¶Ð°ÑĢ Ð¸Ñı
ĠÓĻÐ» ÐµÐ¼
Ð½ Ð°Ð¼
ĠÐ¼ Ð°Ò£ÑĭÐ·
Ð¸ÑĨ Ð¸Ð½
ÑĸÑģÑĤ ÐµÑĢ
Ðº ÐµÑĥ
ĠÑĤ Ó©Ð»
Ð»ÐµÐº ÑĤÑĢ
Ó© ÑĢ
ĠÐ¼ ÑĭÒ£
ĠÐ¶ ÐµÒ£
ĠÒļ Ð°Ð·Ð°ÒĽ
ĠÐ¶ ÐµÐ»
ĠÐ°Ð¿ Ð¿Ð°ÑĢ
ĠÐ±Ò± Ð·
Ð°Ð» Ð°
_ _
ĠÐ°Ð» ÒĵÐ°Ð½
Ð¾ Ð´
ÐµÐ¹ ÑĤÑĸÐ½
ĠÓ© Ò£
ÑĤ Ð¾Ð¼
ĠÒĽÐ°Ð¶ ÐµÑĤ
ĠÐ¼ÓĻ Ð´ÐµÐ½Ð¸
ĠÒĽÐ°Ð¼ ÑĤÐ°Ð¼
ĠÓĻ Ð´Ñĸ
Ð ĵ
ĠÒļ Ð°Ð·
ĠÐ¾ÐºÑĢÑĥ Ð³Ñĸ
ĠÐ¶Ð°Ñģ Ð°Ñĥ
ĠÒĽÐ°Ð¼ÑĤÐ°Ð¼ Ð°ÑģÑĭÐ·
Ð´ÐµÑĢ ÑĸÐ½
ĠÐ°Ð½ÑĭÒĽÑĤÐ°Ð¼ Ð°
ĠÐºÐµÐ· ÑĸÐ½Ð´Ðµ
ĠÐµÑĢ ÐµÐº
ĉ Ċ
Ð°Ð» Ð´Ñĭ
ĠÓ© ÑĤÐµ
Ð´ÑĭÒĽ ÑĤÐ°Ð½
ĠÐ±Ð¾Ð» Ð°ÑĤÑĭÐ½
ĠÑĤ Ð¾Ð¿
ĠÐºÓ© ÑĤÐµÑĢ
Òĵ Ð°Ð·Ñĭ
Ð°Ð» Ð°Ñĥ
Ð¼ ÑĭÐ·
ĠÑĢ Ðµ
ĠÐ±Ñİ Ð´Ð¶
Ò¯ Ð½Ð¸
ĠÐ°Ð¿Ð¿Ð°ÑĢ Ð°ÑĤÑĭ
ĠÐ± Ð°ÒĽÑĭÐ»
ĠÑģÐ¾Ð½ Ð´Ð°Ð¹
ÐºÑĸÐ¼ ÐµÑĤ
ĠÑĤ Ð°Ð¼
ÓĻ Ð¼
ĠÐ¼Ð°ÒĽ ÑģÐ°ÑĤ
ĠÐºÐµÐ» ÑĸÑģ
Ġ Ñı
ĠÒĽÐ°ÑĤÑĭÑģ ÑĤÑĭ
Ġ2 00
ĠÐ¾ÑĤÑĭÑĢ ÑĭÐ¿
ĠÑĤÐ°Ð¿ ÑģÑĭÑĢ
ÑĭÑģ ÒĽÐ°
Ñĥ ÑĪÑĭÐ»Ð°ÑĢ
Ġ201 5
ĠÒĽÐ°ÑĢ Ð¶
ÒĵÑĭ Ð·
Ġ1 0
Ð´ ÐµÐ¼
ĠÐŀ ÑģÑĭ
Ð¼Ð°Ð½ ÒĵÐ°Ð·Ñĭ
ĠÑĤÓĻÑĢ Ð±Ð¸
Ð» ÐµÑĥ
Ñ Ĭ
ĠÐŁ ÑĢÐµÐ·Ð¸Ð´ÐµÐ½
Ð°ÑĤ ÑĤÑĭÒĽ
ĠÐºÐµÐ· Ð´Ðµ
ĠÐ±Ð°Ð» Ð°Ð»Ð°ÑĢ
Ġ 9
Ð» ÑĮ
ÑĤ Ð°Ð´Ñĭ
ĠÐºÐµÐ· ÐµÒ£
o n
Ð´Ð°ÑĢ ÑĭÐ½
ĠÐºÓ© Ð¼ÐµÐº
Ð°ÒĽ Ñĭ
ĠÓĻ Ð¹
Ñĥ Ð½
ĠÐ¿ ÑĢ
ĠÐ´Ðµ Ò£Ð³
Ġ Ð°Òĵ
ĠÐĲÒĽ ÑĤ
ÐµÑĢ Ñģ
ÑĤ ÐµÑģ
ĠÐ±Ð°ÒĵÑĭ ÑĤ
Ð¸Ñı ÑģÑĭ
ÐµÐ½ ÑĸÒ£
ĠÑĤ Ð°Ñĥ
ĠÑĤÓ© Ð¼ÐµÐ½
ĠÒļ Ðł
Ð´ Ð°Ð¿
ÐĲ ÒĽ
ÑĤÐµÑĢ Ð´ÑĸÒ£
Ð°Ð¹ ÑĤÑĭÐ½
ĠÐ¾ÑĢ Ð½
ÑĭÐ¼ Ð´Ñĭ
ĠÐ¶ Ñĸ
ĠÐ¼ ÐµÐ¼Ð»ÐµÐºÐµÑĤ
Ò »
Ð¶ ÑĭÐ»Ð´Ñĭ
ÑĭÑģ ÑĤÑĭÒĽ
ĠÓĻ Ñģ
ĠÑĤ Ð°Ð½
ĠÐº Ñĸ
Ò¯ Ð»
Ð»ÐµÑĢ Ñĸ
ĠÐĨ ÐĨ
ĠÒ±Ð» ÑĤÑĤÑĭÒĽ
ÑĸÐ» ÑĸÐ¼
ĠÐºÐ¾ÑĢ Ð¿Ð¾ÑĢ
Ð°Ð¼ Ð±
Ó© Ð¹
ÑģÑĤÐ°Ð½ Ð°
Ð»Ð°ÑĢ ÑĭÐ½ÑĭÒ£
Ð´Ñĸ ÑĢÑĥ
Ð ¥
ÑĭÐ· ÑĭÐ»
Ð¶ Ð°Ð½
ĠÑĸÑģ ÐºÐµ
ĠÓ©Ð½ ÐµÑĢ
ĠÐºÓ© Ð»ÐµÐ¼
Ð¾Ð² Ð°
ĠÒĽÐ¾ÑĢ ÒĵÐ°Ñĥ
ĠÑģÑĭÐ½ ÑĭÐ¿
ĠÐ Ĵ
Ð³ÑĸÐ» ÑĸÐºÑĤÑĸ
ÐµÑģ ÑĸÐ½Ð´Ðµ
ĠÐ±Ð°ÒĽÑĭÐ» Ð°Ñĥ
ÑĤ ÐºÐµÐ½
ĠÐ¼Ð°ÑĤ ÐµÑĢÐ¸Ð°Ð»
ĠÑĤÐ°Ð» Ð°Ð¿
ÑĭÐ» Ð¼
ĠÐ¾ ÑĤ
ĠÐºÐµÐ» ÐµÐ´Ñĸ
ÑĭÐ» ÑĭÐ¿
Ð°Ð» ÑĮ
ÑĤÒ¯ Ñģ
Ð´ÐµÑĢ ÑĸÐ½ÑĸÒ£
ĠÐ°ÑģÑĭÑĢ Ñĥ
Ð°ÒĽ ÑĤÐ°ÑĢ
Òĵ ÑĭÑģ
ĠÐķ Ð»
Ñģ Ñĸ
ĠÒĽÐ°Ð» Ð°ÑģÑĭ
ĠÐ¾ Ð½Ñĭ
ĠÒĽ ÑĭÑĢ
Ñĥ ÑĭÐ½
Ð³ i
Ð¾Ð³ ÑĢ
Ð¸Ð· Ð¼
) .
ĠÐº ÐµÐ¹
ĠÐŀ ÑĢ
ĠÑĤ ÑĸÐ·
ĠÐĲ ÑĤÑĭÑĢÐ°Ñĥ
ĠÑģ ÑĸÐ·
ĠÑĢÐµÑĤ ÑĸÐ½Ð´Ðµ
Ð° ÑĪÐ°
ĠÑĤ Ð°ÒĽÑĭÑĢ
ÑĤÐµÑĢ ÑĸÐ½
ĠÒ¯Ð» ÐºÐµÐ½
201 8
Ð» Ð°
ÑĸÑĢ Ð³Ñĸ
ĠÐ¶ Ð°Ð¹
ĠÐ½ÐµÐ³ÑĸÐ· Ð³Ñĸ
ĠÑĤÑĸÐ» Ñĸ
a r
Ð½ Ð¾
Ð´ ÐµÑĤ
ÐķÐ¡ ÐĨ
ĠÐĲÐ» Ð¼Ð°ÑĤÑĭ
ĠÐ°Ð» Ð´Ñĭ
Ðº ÑĨÐ¸Ñı
ĠÐºÐ¾ÑĢÐ¿Ð¾ÑĢ Ð°ÑĨÐ¸Ñı
ĠÑħÐ°Ð»ÑĭÒĽ Ð°ÑĢÐ°Ð»ÑĭÒĽ
ÑģÐ°Ñĥ Ð»ÑĭÒĽ
ĠÐ¶ÐµÑĤ ÐºÑĸÐ·
Ð°Ð·Ð°ÑĢ Ð±Ð°ÐµÐ²
ĠÐºÒ¯ ÑĪ
ĠÒĽÐ°Ð» Ð°
Ð¿ ÐµÑĢ
ÐķÐ¡ Ð¢
ÐµÐ» ÐµÐ½
ĠÐ¿ Ð¾
ÐµÑĪ Ðµ
ĠÐ¶Ð°ÑĢÑĤÑĭ Ð¶ÑĭÐ»Ð´Ñĭ
ĠÐ¼ÐµÐ´ Ð¸ÑĨÐ¸Ð½
ĠÒĽÐ°Ð¹ ÑĤÐ°
Ñģ Ð°ÑĤÑĭ
ĠÐ¾ÒĽ ÑĭÑĤÑĥ
ÐµÑĤÑĤÑĸ Ò£
Ð¸Ñģ ÑģÐ¸Ñı
ĠÐ°ÑĤ Ð°
Ð· Ñĭ
ĠÐ¡ Ð¾Ð»
ĠÒĽÒ±ÑĢ Ð°Ð¼
ĠÒĽ Ð°Ñģ
Ð» ÑĭÒĵÑĭ
Ð°ÑĤÑĭÐ½ Ð°Ñģ
ĠÑģ ÐµÐ±
i ÑĢ
ĠÐļ ÐķÐ¡Ð¢
ĠÐļÐķÐ¡Ð¢ ÐķÐ¡ÐĨ
Ð¼ Ð°Òĵ
ĠÐĲ ÑĢ
1 9
ĠÒĵÑĭÐ»ÑĭÐ¼ Ð¸
ÑģÑĤ Ð°ÑĢ
ÐµÐ´ Ð°Ð³
Ð°Òĵ Ð°ÑĤ
ĠÒĽÐ°Ð¼ ÑĤÑĥ
ÑĭÐ½ Ð´Ñĭ
Ð´ÐµÑĢ Ð´Ñĸ
ÐµÐ´Ð°Ð³ Ð¾Ð³
k z
Ġ Ò±ÑĢ
ĠÑģ ÓĻÑĥ
ÑĤ ÐµÐ»
Ð± ÑĬ
Ð Ĵ
ĠÐ°ÑĤ ÑĤÑĭ
Ðº Ð°
ÒĽ Ð°Ñĥ
âĢ Ķ
Ð½ Ð°
ĠÐº ÐµÐ¼
Ð¼Ñĥ Ð½Ð°Ð»
ĠÑĪ ÐµÐº
ĠÓ©ÑĤ ÑĤÑĸ
ĠÑģ Ð°ÑĢ
ĠÓĻ Ð´Ðµ
ĠÑĤÐ°Ð±ÑĭÐ» Ð°Ð´Ñĭ
Ð°ÑĤ Ñĥ
ĠÐ¶Ð°ÒĵÐ´Ð°Ð¹ Ð´Ð°
ĠÐ°Ð» Ð°Ð´Ñĭ
ĠÐ°ÑĢ Ð°ÑģÑĭÐ½Ð´Ð°
ĠÐµ ÑĪ
Ð· Ð°Ð¼
Ð» ÐµÑĤ
ĠÐ±ÐµÐºÑĸ ÑĤÑĥ
ĠÓĻÑĢ Ñĸ
ĠÐ¶Ñĸ Ð±ÐµÑĢ
Ðľ ÐµÐ¼Ð»ÐµÐºÐµÑĤÑĤÑĸÐº
ĠÐĳ Ð°Ñģ
ĠÒĽ Ð°Òĵ
ĠÐ Ľ
ĠÑĤÓ© ÑĢ
ĠÑħÐ°Ð±Ð°ÑĢ Ð»
ĠÑģ Ð¿Ð¾ÑĢÑĤ
ĠÐ¶ Ð°ÑĤÑĭÑĢ
ĠÐº Ð°Ð·
ĠÐ½ÓĻÑĤÐ¸Ð¶ ÐµÐ»ÐµÑĢÑĸ
Ñĥ ÑĭÐ½Ð°
ĠÐ¶Ð°ÒĽ ÑģÑĭ
ĠÐ·ÐµÑĢÑĤ ÑĤÐµÑĥ
ĠÐ±Ð¾Ð» ÑĥÑĭ
ĠÐ´ Ò¯Ð½Ð¸
ĠÑģ Ð°ÑĤÑĭÐ¿
ĠÐ¾ÑĢÑĭÐ½ Ð±Ð°Ñģ
ÐºÑĥÑĢ Ñģ
ĠÐ±Ð°ÑģÑĪ ÑĭÑģÑĭ
ÑĤ ÑĤÑĭ
i Ð¼
Ð½ ÐµÑĢ
Ð°ÑĢ Ð°
e r
ÒĵÐ°ÑĪ ÒĽÑĭ
ĠÐ½ Ð°Ñĥ
ĠÐ±Ò±ÑĢ ÑĭÐ½
ÑĦ ÐµÑĢ
ÑĤÑĸ ÑĢÑĥ
t i
ĠÒĽ ÑĭÐ¼ÑĭÐ·
ĠÑģ ÐµÑĢ
ÑĤÐµÑĢ Ð´Ñĸ
ĠÐ¾ÑĢÐ½Ð°Ð» Ð°Ñģ
Ð¸ÑĤ ÐµÑĤ
i Ðº
ÑĤÒ¯Ñģ ÑĤÑĸÐº
Ñĥ Ð¼
Ð´ Ð¸
Ð¼ÑĥÐ½Ð°Ð» Ð´ÑĭÒĽ
ĠÐ¶ÑĭÐ» ÒĵÐ°
ĠÐ´ÐµÒ£Ð³ ÐµÐ¹
a n
ĠÑį Ð»ÐµÐºÑĤÑĢ
ĠÐ¶ÐµÑĢ Ð³ÑĸÐ»ÑĸÐºÑĤÑĸ
ĠÐ¼ÐµÑĢ Ð·
Ñĭ Ð¹
ĠÐ¿ ÓĻÐ½
ĠÐĲ Ð¹
ĠÒĽ Ð¸
ĠÐľ Ðľ
Ð¡ ÑĭÐ±Ð°Ð¹Ð»Ð°Ñģ
ÑģÑĤ Ð¸
ĠÐ´Ðµ Ð´Ñĸ
ĠÐĲ Òļ
ĠÒ¯ Ð·
ĠÐ¾ Ò£
ĠÐ°Ð» Ð¼
Ð¸ ÑĦ
ÑĸÐ¿ ÑĤÑĸ
ĠÒ¯ ÑģÑĤ
ĠÐ» Ð°Ñĥ
ĠÐ¿Ð°Ð¹Ð´Ð°Ð»Ð°Ð½ Ñĥ
ĠÐ¥ Ð°Ð»ÑĭÒĽ
ĠÑĪÐ°ÑĢÑĥÐ° ÑĪÑĭÐ»ÑĭÒĵÑĭ
ĠÐ¶Ð¾ÑģÐ¿Ð°ÑĢ Ñĭ
ĠÒĽÒ±ÑĢ Ð°Ð»
ĠÑĤ ÐµÐ»
Ð¸Ð¼ ÑĭÐ»
ÑĨÐ¸Ñı Ð»ÑĭÒĽ
ÐµÐº ÑĤÐ¾ÑĢ
ĠÐ± ÐµÑĤ
ĠÑģ Ò¯Ð¹
ĠÐ¿Ð°Ð¹ Ð´Ð°
ÐµÐ½ Ñĸ
ĠÐ±ÑĸÑĢ Ñĸ
Ð¸ Ð±
ĠÐ¾Ð±Ð»ÑĭÑģ ÑĭÐ½ÑĭÒ£
ĠÒĽÐ°Ð» ÒĵÐ°Ð½
ĠÑĢ Ò±ÒĽ
ĠÓĻ ÑģÐµÑĢ
ĠÐµ ÑĤÐµ
ĠÓ¨ Ð·
ĠÐķ ÑĢ
Ð´Ð°ÑĢ ÑĭÐ½Ð°
ĠÐ±ÑĸÑĢ ÑĸÐ½ÑĪÑĸ
ĠÐºÑĸ ÑĤÐ°Ð¿
ÐºÑĸÐ½ ÑĪÑĸ
Ð°Ð» Ð°Ð´Ñĭ
ĠÐ¼Ò¯Ð¼ÐºÑĸÐ½ Ð´ÑĸÐº
ĠÑĪ ÑĭÐ½
ĠÒĽÐ¾ÑĢÑĭÑĤÑĭÐ½Ð´Ñĭ ÑģÑĭ
ĠÑĤÐµÒ£ Ð³Ðµ
ÒĽ ÑĤÑĭ
ĠÐ³ Ð°Ð·
ĠÐºÐ¾Ð¼ Ð¸ÑģÑģÐ¸Ñı
Ñģ Ð°ÒĽ
ĠÐļ Ó©
ĠÐ¶Ò¯ÑĢ Ð³ÐµÐ½
ÑģÑĸÐ· Ð´ÑĸÐº
Ð¸Ð½ Ð°ÑĢ
Ð´ Ð°Ñģ
Ðº Ò¯Ð¹
ÐµÐ½ ÑĤÑĸ
ÑĤÐ°Ð½ Ð´ÑĭÑĢÑĥ
ĠÑĢ Ñĥ
Ð± Ð°ÑģÑĭ
Ñģ ÑĭÐ¼
ĠÑĪ ÑĭÒĽ
âĢ Ŀ
âĢ ĵ
ÑĤ Ð¾ÒĽÑģÐ°Ð½
Ð¿ Ð°ÒĽ
ĠÐ°Ð¿ Ð¿Ð°ÑĢÐ°ÑĤ
Ġ ÑĸÑĢ
201 7
ĠÐĿ Ò±ÑĢ
ĠÐ¶Ò±Ð¼ÑĭÑģ ÑĤÐ°ÑĢ
ĠÒ° Ð»
Ò±Ð» Ñĭ
Òĵ ÑĭÐ»
ÐºÐµÑĢ Ð»ÑĸÐº
Ð°Ð½ Ðº
ĠÐ¾Ð¹ ÑĭÐ½
Ð°Ð¹ Ð´Ð°
ĠÐµÑģ ÐºÐµÑĢ
Ð°Ð»ÑĭÒĵ ÑĭÐ½Ð´Ð°
ĠÑĤÒ¯ÑĢ Ð´Ðµ
ĠÐ± Ð¾Ñģ
ÑĭÑģ ÑĭÐ½Ð´Ð°
ĠÒ± Ð·
Ð· ÑĸÑĢ
ÑĤÐ¸ Ð²
ĠÓ©Ð· Ð³Ðµ
ĠÐ½ ÑĭÑģ
ÑĤi Ðº
ĠÐ¼ Ðµ
ĠÐ¶ Ð°Ð±
ĠÑĦ Ð¸Ð»
ĠÐ¼Ò± Ð½
ĠÐ±ÐµÑĢ ÐµÐ´Ñĸ
ĠÐ¼ Ò±ÑĢ
Òļ Ò±ÑĢ
ĠÐ½ Ð°
Ñģ Ð¸
ĠÓ©Ð· Ñĸ
Ñĥ Ð´Ð°Ð½
ÑĪ ÑĸÑģÑĸ
ĠÓ©Ð½ Ð´ÑĸÑĢ
ÐµÑģ ÑĸÐ½Ðµ
ĠÐ¾ÑĤÑĭÑĢ ÒĵÐ°Ð½
Ñģ Ð¿
Ð· Ð¸Ñı
ĠÒĽÐ°ÑĢ Ð°Ð¹
Ġ ,
ĠÐ°ÑĤ ÑĭÐ½Ð´Ð°ÒĵÑĭ
ĠÐ»Ð°Ñĥ Ð°Ð·
ÓĻÐ¶ ÑĸÑĢ
ĠÑĤÒ¯ÑĢ Ð»Ñĸ
Ð¾Ð³ÑĢ Ð°ÑĦ
Ð»Ð°ÑĢ ÑĭÐ½
ĠÑģÐ°Ñı ÑģÐ°ÑĤ
ÑģÑĤÐ¸ ÑĤÑĥ
Ò±Ð» ÑĤÐ°Ð½
Ð°Ð»Ñĭ ÒĵÑĭ
ĠÓĻÐ´Ðµ Ð±Ð¸
ÐµÑģÐ¿ÑĥÐ±Ð» Ð¸ÐºÐ°Ð»ÑĭÒĽ
ĠÐ±Ð°Ñģ ÑĤÑĭ
ĠÑģ ÐµÐ·
Ġ ÑĸÐ·
ÑĸÐº ÑĸÑĢ
ĠÑģ ÑĭÐ¹
.. ..
ĠÐ¼ Ð»
ĠÑĤÐ°Ð»Ð´Ð°Ñĥ Ð´Ñĭ
ĠÐºÓ©ÑĢ ÑĸÐ½
Ġ1 5
ĠÑĤÒ±ÑĢ ÒĵÐ°Ð½
ĠÐµÐ½Ð³ÑĸÐ· Ñĥ
ĠÐ±ÑĸÑĢ Ð³Ðµ
Ð½Ð¸ Ð²
Ð»ÐµÑĢ ÑĸÐ½
Ð°ÑĤÑĤÐ°ÑĢ ÒĵÐ°
ĠÐ¶Ò¯ÑĢÐ³ÑĸÐ· ÑĸÐ»Ð³ÐµÐ½
Ð» Ð¾
ĠÐ¼Ò± ÒĵÐ°Ð»
ĠÐ°Ñĥ ÑĭÑĢ
ĠÑģ Ó©Ð¹
Ð°Ñĥ ÑģÑĭÐ¼
ĠÐĿ Ð°Ð·Ð°ÑĢÐ±Ð°ÐµÐ²
ĠÒ¯ ÐºÑĸÐ¼ÐµÑĤ
ĠÐ°ÑĢÐ½ Ð°Ð¹Ñĭ
ĠÑĪÐ°ÑĢÑĥÐ° ÑĪÑĭÐ»ÑĭÒĽ
i n
ĠÐ±ÐµÑĢ ÐµÑĤÑĸÐ½
ĠÐ¾ÒĽÑĥ ÑĪÑĭÐ»Ð°ÑĢ
ĠÒĽÑĭÐ·Ð¼ÐµÑĤ ÐºÐµÑĢÐ»ÐµÑĢ
Ð¼ ÐµÑĤÑĤÑĸ
Ð¼ Ð¸
Ð½Ð¸Ð² ÐµÑĢÑģ
ĠÐ¼ÐµÐ´Ð¸ÑĨÐ¸Ð½ Ð°Ð»ÑĭÒĽ
Ð» ÐµÐ½
ĠÐ±Ð°ÒĵÐ´Ð°ÑĢÐ»Ð°Ð¼ Ð°Ð»Ð°ÑĢ
ĠÑĤ Ð¾ÒĽ
Ñģ ÑĸÐ½
ĠÐ±ÑĸÐ· Ð´ÑĸÒ£
ÑĭÐ» Ð°ÑĤÑĭÐ½
ÑĤÐ° ÒĵÐ°Ð½
Ð¼ Ò±
Ð»Ñĸ Ð³ÑĸÐ½
Ð¼ ÑĭÐ½
ĠÐ¼ÐµÐº ÐµÐ½
Ð´Ñĭ ÒĵÑĭ
Ð³ ÑĸÐ½Ð´Ðµ
Ð Ń
ĠÑĪ Ð°ÒĽÑĭÑĢ
ĠÒĽ Ò±Ð»
ĠÒĽ Ð¾Ð½
ĠÒĽÐ°Ð» Ð°Ð»ÑĭÒĽ
âĢ ¦
ĠÐºÐ¾Ð½ ÐºÑĥÑĢÑģ
Ð´ÐµÑĢ Ð´ÑĸÒ£
ĠÐ´ ÑĸÐ½
ÑĤÐµ Ð³ÐµÐ½
ĠÒĽÐ°Ð» Ð°Ð¹
ĠÐ¿ÑĢÐ¾ ÑĨ
a l
Ð³ ÑĸÐ½Ðµ
ĠÓ©Ð» ÐµÒ£
ĠÐ°Ð» ÑĥÒĵÐ°
ĠÐ°Ñı ÑģÑĭÐ½Ð´Ð°
ĠÐ°Ñı ÒĽ
ĠÒĽÐ°Ð»ÑĭÐ¿ ÑĤ
ĠÐ´ ÐµÐ¼
Ð°Ð¹Ð» Ñĭ
ĠÑģ Ð¸Ð¿
ĠÒĽÒ±ÑĢ ÑĭÐ»
Ġ- -
Ð°Ò£ ÑĤÐ°ÑĢ
ÑĭÒĵ ÑĭÐ½Ð°
ĠÑģ Ð¸Ñı
ĠÐĸ Ò±Ð¼
Ð°Ñģ ÑĭÑĢ
ĠÑĪ ÐµÑĤ
ÒĽ Ð¸Ð¼ÑĭÐ»
ĠÑĤÐ°Ð» Ð´Ð°Ð¼
ĠÐ°Ñĥ Ð´Ð°ÑĢ
ĠÐĳ ÑĸÐ·
Ò±ÑĢ ÑĭÑģ
ÑĨ Ð¸Ð¾Ð½
Ðº ÑĸÑĪ
ĠÐ¼ Ð¾Ð½
ĠÐ¶Ð¾Ð» Ð´Ð°ÑĢÑĭ
ĠÒ±Ð¹ÑĭÐ¼Ð´ Ð°ÑģÑĤÑĭÑĢÑĥ
ÑĢ ÑĭÐ·
ĠÑħ Ð°ÑĤ
Ð°Ð¼ Ð°
É Ļ
ÑģÑĤ ÑĢ
Ġ1 2
ĠÑĤÐ°Ð± Ð¸Òĵ
Ðº ÐµÐ¼
Ð»Ð°Ð½ ÒĵÐ°Ð½
ÑĤ Ð°ÑĤ
ĠÐĸ Ð°ÑĢ
ĠÐ· Ð°Ð¼Ð°Ð½
ÑĤÑĥ Ð´ÐµÐ½
ÐµÐ¼ Ð°ÑĤ
ĠÓ© ÑĢ
ĠÒļ Ò±
ĠÐ´ Ð°Ð¹ÑĭÐ½
Ð¸ÑĤ Ð¾ÑĢ
ÑĤÐµ Ð³Ñĸ
ĠÒ± ÑĪ
ĠÐ±Ð°Ð» Ð°
ĠÐ´ Ð¸
ĠÐ¼ Ð°ÑĢ
Ġ/ /
ĠÐ´ ÐµÐ¹Ð´Ñĸ
Ð¸ Ðµ
ĠÐ½ Ð°ÒĽÑĤÑĭ
ĠÐ¿ ÐµÐ´Ð°Ð³Ð¾Ð³
ĠÐ¼Ð°Ò£ÑĭÐ· Ð´Ñĭ
Ð°ÑĤÑĭ Ð»
ĠÑģÐ¾ ÑĤ
ĠÐ¢ Ò¯ÑĢ
ĠÒĽ Ð¾Ð·
ĠÐ±Ð°ÑģÒĽÐ°ÑĢ Ñĥ
Ò¯ Ð½
Ð´Ñĸ Ð³ÑĸÐ½
ĠÐ±Ð°ÑģÒĽÐ°ÑĢÐ¼ Ð°ÑģÑĭÐ½ÑĭÒ£
Ġ C
ĠÐ± ÓĻÑĢ
ĠÑģÐ¸Ñı ÒĽÑĤÑĭ
Ð°Ð½ Ð´Ñĭ
ĠÐºÓ© Ðº
ÐµÐ± Ñĸ
ĠÓ©Ð·Ð³ÐµÑĢ ÑĸÑģÑĤÐµÑĢ
Ġ A
ĠÑĤ Ð°Ð½ÑĭÑģ
Ð°Ñĥ ÑĪÑĭÐ»Ð°ÑĢ
ĠÐ±ÐµÐ»Ð³ÑĸÐ» Ñĸ
ĠÐºÒ¯ Ð¹
ĠÐ¼Ò¯ ÑĪ
Ð°ÑĢ Ð»ÑĭÒĽ
ĠÒĽÐ°Ð¶ ÐµÑĤÑĤÑĸ
ÒĵÑĭ Ð¼
ĠÓ©Ò£ ÑĸÑĢ
s t
ĠÑĦ Ð°Ðº
ĠÑĤ ÓĻÐ¶ÑĸÑĢ
ÑĸÐ» ÐµÑĤÑĸÐ½
ĠâĢ ľ
ĠÐ¼ÐµÐºÐµÐ¼ ÐµÑģÑĸ
ĠI I
ĠÐĸ Ð¾Ð»
ĠÐºÒ¯ÑĢ ÐµÑģ
Ò£ ÑĸÐ»
ÑĭÒĵ ÑĭÐ½ÑĭÒ£
ĠÒĽÐ¾Ð» Ð´Ð°Ñĥ
Ð°Ñĥ Ñĭ
Ð¾ÑĢ Ð´Ð°
Ð´Ðµ Ð¿
ĠÐ° ÑĪÑĭÐ»
ĠÐºÐ¾Ð¼ Ð¿Ð°Ð½
ĠÑĤÐ°Ð»Ð´Ð°Ð¼ Ð°Ð»ÑĭÒĽ
ĠÐ´ÐµÐ¹ÑĸÐ½ Ð³Ñĸ
ĠÐ°Ð² ÑĤÐ¾Ð¼
ĠÐĳÑĸÑĢ Ð°ÒĽ
Ñĥ Ð±
ĠÓ©ÑĤ ÑĸÐ½
Ð¾ ÑģÑĤÐ°Ð½
Ġ1 1
ĠÐ¾ÑĢÑĤ Ð°Ð»ÑĭÒĽ
Ð ¤
Ð´Ð° ÒĵÐ°Ð½
ÒĵÑĭ ÑĢ
Ġ Ð°Ð³
ĠÒĽ ÑĭÑģ
ÑĤÐµÑĢ Ð³Ðµ
ĠÒĽÐ¾ÒĵÐ°Ð¼ Ð´ÑĭÒĽ
ÑĭÐ¼ ÑĪÐ°
ĠÓ©Ð· ÑĸÐ½
ĠÐŀ Ð½ÑĭÒ£
ĠÐ¶Ð°ÑĢÑĤÑĭÐ¶ÑĭÐ»Ð´Ñĭ ÒĵÑĭÐ½Ð°
ĠÐĸ Ð°Ò£
ÑĪ ÑĭÑģÑĭ
Ð» Ð°Ð¹
Ñĥ ÑĤ
ĠÐ¿Ð°Ð¹ ÑĭÐ·
ĠÐĺ Ð½
ĠÑĢÒ±ÒĽ ÑģÐ°ÑĤ
Ð°ÒĵÑĭ Ð¼
ÐµÐ»ÐµÑĢ ÑĸÐ½
Ð½ÐµÑĢ Ð³
ĠÒĽÐ°Ñĥ ÑĸÐ¿
ĠÒĵ Ð¾Ð¹
Ð¼ Ð°ÒĵÐ°Ð½
Ð±ÑĬ ÐµÐºÑĤÑĸ
ÑĭÐ½ ÒĵÐ°Ð½
ĠÐĹ Ð°Ò£
Ġ1 8
Ð¸ Ð³
ĠÓĻÑĢ ÐµÐº
Ð¾ Ð±Ð¸
ĠÐ¿ ÑĸÐºÑĸÑĢ
Ð¹ ÑĢ
Òĵ Ð°Ð¹
ÑĥÐ» ÑĮ
ÑĤ ÑĤÑĸ
Ð°ÑĨÐ¸Ñı Ð»ÑĭÒĽ
ĠÐĲ ÑģÑĤÐ°Ð½Ð°
Ġ ÓĻÐ½
ĠÓ©Ð· ÑĸÐ½ÑĸÒ£
ĠÐº Ð¸
Ðĳ Ò±Ð»
ĠÑģÐ°Ð» Ð°ÑģÑĭÐ½Ð´Ð°ÒĵÑĭ
Ð°ÑĢ ÑĤ
ĠÑģ ÑĭÑĢÑĤ
ĠÐ°Ð¹ ÑĭÑĢ
ĠÐŁÑĢÐµÐ·Ð¸Ð´ÐµÐ½ ÑĤÑĸ
ĠÒĽ Ð°ÑĤÑĭÐ½Ð°Ñģ
ÐµÑģ ÐµÐ¹
ÑģÑĤ ÐµÑĢ
ĠÑĤÒ±Ð»Òĵ Ð°Ð»Ð°ÑĢÐ´ÑĭÒ£
ĠÐ´ Ð°Ñĥ
ĠÑģÐ°Ð¹ ÑĭÐ½
Ð»Ð°ÑĢ ÒĵÐ°
Òĵ Ð½Ð¸
ĠÐ¼ÓĻÐ´ÐµÐ½Ð¸ ÐµÑĤ
ĠÐºÐµÐ» Ðµ
ĠÐ¼ ÓĻÐ½
ĠÒĽÐ¾Ð»Ð´Ð°Ð½ Ñĥ
ĠÐ¼Ð°ÒĽÑģÐ°ÑĤ ÑĭÐ½Ð´Ð°
ĠÐº ÐµÑĢ
Ð°Ð»Ð°ÑĢ ÒĵÐ°
e n
Ð¾ Ò£
ÑĸÐ¼ÑĸÐ· Ð´ÑĸÒ£
ĠÐ½ÑĭÑģ Ð°Ð½
ĠÒĽÐ°Ð½ Ð´Ð°Ð¹
ĠÒĽÐ°Ñģ Ð¸
ĠÒ Ĵ
ÑĤÐµÐ¼ Ðµ
ĠÐ¼ÑĸÐ½Ð´ ÐµÑĤÑĤÑĸ
ĠÑģ ÐµÐº
Ñĥ ÑĭÐ»
ĠÑįÐºÐ¾Ð½Ð¾Ð¼ Ð¸ÐºÐ°Ð»ÑĭÒĽ
ÑĤÑĭÐ» ÒĵÐ°Ð½
ĠÐ°Ð¹ ÑĤÑĥ
ÑĭÑģ ÑĤÐ°ÑĢ
ÑĤÑĥÐ´ÐµÐ½ ÑĤ
Ðº Ð¾Ð½Ð¾Ð¼
ĠÑģ ÑĸÐ»
ĠÐ´ ÐµÑĢÐµÐº
ÑĭÐ» ÑĥÑĭ
Ð½ ÐµÑĪÐµ
Ð½ ÐµÑģ
ĠÒĽÒ± Ð½
ĠÐ´ ÓĻÐ»
Ð°Ñģ Ð°
ĠÐ¸ Ð¼
ĠÐ»Ð°ÑĥÐ°Ð· ÑĭÐ¼
Ò± Ñģ
ĠÐ´ Ò±ÑĢÑĭÑģ
Ð¿Ð°ÑĢ ÑĤÐ°Ð¼
ĠÑĤ Ð°ÒĵÑĭ
ĠÐ±ÐµÑĢ Ð³ÐµÐ½
Ð°Ð¹ ÑĭÐ½Ð´Ð°Ñĥ
ĠÐ°Ðº ÑĤÑĸ
ĠÐ°Ð¹ÑĤ ÒĽÐ°Ð½
ĠÐ°Ð»Ð´ ÑĭÐ½
ĠÑĤÐ°ÒĽÑĭÑĢ ÑĭÐ±
ĠÒĽÐ°ÑĢ Ð°Ð¶
ĠÑģ Ò¯ÑĢ
ĠÐ¾ ÒĵÐ°Ð½
Ð¾Ð±Ð¸ Ð»ÑĮ
Ð°ÑĤ ÑĥÑĢ
ÑĤÐ°Ð¼ Ð°
ĠÐ°ÑĢÑĤ ÑĤÑĭÑĢÑĥ
ĠÐ± ÐµÑģ
ĠÐµ ÐºÑĸÐ½ÑĪÑĸ
ÑĢ Ð°ÑĤ
ĠÐ¿ Ð°ÑĤ
ĠÒĽÐ¸ ÑĭÐ½
ÑĸÑģ ÑĤÑĸÐº
ĠÐ±ÐµÑĢ ÑĸÐ»Ð³ÐµÐ½
ĠÑĤÐµÑħÐ½ Ð¾Ð»Ð¾Ð³Ð¸Ñı
ĠÐ¼ Ó©Ð»
Ò ®
ÐµÐ¼ ÑĸÐ·
ĠÐ¼ Ð°ÑĥÑģÑĭÐ¼
ÐµÑĤ ÐºÐµ
ĠÒĽÒ±ÑĢ ÑĭÐ»ÑĭÑģ
ĠÐºÐµÐ» ÑĸÐ¿
ĠÐºÐµÒ£ ÐµÑģ
Ð° ÐµÐ²
Ð°ÑĤ Ð¸Ð²
ĠÐ¼ Ð°Ð·
ĠÐµÐºÐµÐ½ ÑĸÐ½
Ð°Ð¹ ÑĤ
Ò£Ð³ ÑĸÐ¼
ĠÐ¸ Ðµ
ĠÑĤÐ¸ ÑĸÐ¼Ð´Ñĸ
ĠÐ±Ò¯ Ð³ÑĸÐ½
ĠÐ¼ ÐµÑĤ
ĠÒĽ Ð°Ò£ÑĤÐ°ÑĢ
i Ò£
Ġ 0
ĠÐ°ÒĽ ÑĭÐ½
ÑģÑĭÐ½ Ð´Ð°Ð¹
ĠÓ©ÑĤÐºÑĸÐ· Ñĥ
ÐĲ Ð·Ð°Ð¼
Ñĥ Ñģ
ĠÑĪÑĭÒĽ ÒĽÐ°Ð½
ÑĭÐ» ÑĭÒĽ
Ð°Ð» Ð´ÑĭÒĽ
ĠÑĤÐ¾ÒĽÑģÐ°Ð½ ÑĭÐ½Ð´Ð°
Ð´ ÑĢ
Ó© Ð±Ðµ
Ð¢ ÐĲ
ĠÓĻ Ð·ÑĸÑĢ
ĠÐ¶Ò±Ð¼ÑĭÑģ Ð¿ÐµÐ½
ĠÑĥ Ð½Ð¸Ð²ÐµÑĢÑģ
ĠÑĤÑĸÑĢ ÐºÐµÑĥ
Ð°Ð¼ ÐµÐ½
ÒĽ Ò±
ĠÐ°Ð» ÒĵÐ°ÑĪÒĽÑĭ
ÑħÐ°Ð½ Ð¸
ÑĤÐ°Ð» Ð´Ñĭ
ĠÑĪÐµÑĪ ÑĸÐ¼
ĠÐ±ÑĸÐ» Ð´ÑĸÑĢ
Ð°Ð» ÑĭÐ¼
Ñĥ Ð´Ñĭ
ÑĸÐ» ÑĸÐ¿
ĠÒĵ Ð°ÑģÑĭÑĢ
ĠÑįÐ»ÐµÐºÑĤÑĢ Ð¾Ð½
ĠÐºÐµÑĤ ÐºÐµÐ½
Ñģ Ò±Ð»ÑĤÐ°Ð½
Ð± Ð°ÑĤ
ĠÐ± Ñĸ
Ġ ÑĭÒĽ
Ð´Ð°ÑĢ ÑĭÐ½Ð´Ð°
ÒĽ ÑĭÐ·
ĠÐ±Ð°ÑĢ ÑĭÑģÑĭÐ½Ð´Ð°
1 0
ĠÑģ ÑĥÑĢ
Ñģ Ð¸Ñħ
ĠÐĳ Ð°Ð»
Ġ1 4
ĠÓĺ ÑĢ
ĠÐº Ð»
ĠÐ±Ð°Ñģ ÑĪÑĭÐ»Ð°ÑĢ
ĠÒ¯ Ð½
Ð½ Ð¾Ð²
Ġ2 5
Ð¾ Ñĩ
iÐ½ Ð´Ðµ
ĠÐ´ ÓĻ
ÐµÐ¼ ÐµÐ½
ĠÑħÐ°Ð±Ð°ÑĢÐ» Ð°Ð¹Ð´Ñĭ
ĠÐ¿ Ð»
ĠÒĽÐ°ÑĢÐ¶ Ñĭ
Ð¸Ð» Ð»
Ð°Ðº ÑĤ
1 7
ĠÑĤÐµÐº ÑģÐµÑĢ
Ðº ÑĸÑĢ
Ðº Ð¾Ð¼
ĠÐ¡ ÑĸÐ·
ĠÐºÓ© Ò£ÑĸÐ»
Ðµ ÑĦ
ĠÐ± ÐµÐ¹Ð½
Òļ Ð°Ð·
ĠÑĤÒ±ÑĢÒĵÑĭÐ½ Ð´Ð°ÑĢÐ´Ñĭ
Ñĥ Ð´Ð°
ĠÐ¾ÑĢÑĭÐ½ Ð´Ð°Ð»
ĠÐº Ð»Ð°Ñģ
ĠÐ°Ð´Ð°Ð¼ Ð½ÑĭÒ£
ĠÐ±ÐµÐ» ÑģÐµÐ½
ĠÒ°Ð» ÑĤÑĤÑĭÒĽ
ĠÐ¼Ó©Ð» ÑĪ
ÑĤÐµÑĢ ÑĸÐ½ÑĸÒ£
ÑĪ ÑĭÐ½
ĠÑħÐ°Ð» ÒĽ
ĠÒĽ Ð°
ĠÐº ÑĥÑĢ
ĠÒĽÑĭÐ·Ð¼ÐµÑĤ Ñĸ
ĠÐ´Ðµ Ð¿Ð°ÑĢÑĤÐ°Ð¼
ĠÐ¼ ÐµÐ¼Ð»ÐµÐº
ĠÑģ Ð¾Òĵ
Ñĥ ÑĪÑĭÐ»ÑĭÒĽ
ÑĸÐ» Ñĥ
Ġ Ñĩ
ĠÐ¼ÓĻÑģÐµÐ» ÐµÐ»ÐµÑĢÑĸ
Ð¿ Ð°Ð¹
ĠÐµÑĤÐµ Ð´Ñĸ
ÒĽ Ð°Ñģ
ÑĢ Ð¸
Ġ201 4
ÑĤÐ°ÑĢ ÒĵÐ°
Ñģ Ð°ÑĢ
ĠÒ¯Ð¹ ÑĢ
ĠÐºÐµÐ» Ð´Ñĸ
ĠÐ±ÑĸÑĢ Ð½ÐµÑĪÐµ
Ð¼ Ðµ
ĠÓĻÑģ ÐºÐµÑĢ
ĠÑĤÓĻÑĢ ÑĤÑĸ
ÓĻÑģ Ñĸ
ĠÑģÐµÐ± ÐµÐ¿
ÑĭÐ¼ Ð°Ð»
ĠÐ¶ÑĭÐ» Ð´Ð°Ð½
ĠÐµÑĢÐµÐº ÑĪÐµ
ĠÐ´ÓĻÑĢ Ñĸ
ÐµÑĤ ÐµÑĢ
ĠÑĢÐµÑģ Ð¼Ð¸
Ġ ÑĭÐ½
ĠÒ±Ð¹ÑĭÐ¼Ð´ Ð°ÑģÑĤÑĭÑĢ
ĠÐ±ÑĸÑĢ Ð°ÒĽ
Ñģ ÑĭÐ½Ð°
ĠÑĤÒ±ÑĢ Ð°ÒĽÑĤÑĭ
Ð°ÑĤ ÐµÐ³
ĠÐ¶Ò¯ Ðº
Ò¯ÑĢ Ð»Ñĸ
ÑĭÑģ ÑĤÑĭÑĢ
ĠÑģ Ð°Ð½Ñĭ
ĠÒĽÒ±Ð¶ Ð°ÑĤÑĤÐ°ÑĢ
ĠÒĽ Ð°Ð·Ð°ÒĽÑģÑĤÐ°Ð½
Ð°Ð» Ð¿Ñĭ
ĠÐ±Ó©Ð»ÑĸÐ¼ ÑĸÐ½ÑĸÒ£
Ð°Ð¼ ÑĭÑĢ
ÑĭÑģ ÑĤÑĭ
Ð¼ ÐµÐ¹
ĠÑĤÒ¯Ñģ ÐºÐµÐ½
ÐĿ Ò±ÑĢ
ĠÐ·Ð°Ò£ Ð½Ð°Ð¼
Ð°ÑĪ Ð°ÒĽ
ĠÑĤÐ¾ÒĽÑģÐ°Ð½ ÑĭÐ½Ð°
ĠÐµÑĢÐµÐº ÑĪ
ĠÑĤÒ±Ð»Òĵ Ð°Ð»Ð°ÑĢÐ´Ñĭ
ĠÒļÒ±ÑĢ Ð¼Ð°Ð½ÒĵÐ°Ð·Ñĭ
Ġ19 9
ĠÒĽÐ¾Ñģ ÑĭÐ¼ÑĪÐ°
ĠÑĪÑĭÒĵÐ°ÑĢ Ð¼Ð°
ĠÐºÓ©ÑĪ ÑĸÑĢ
ĠÑģÐ¸Ð¿ Ð°ÑĤ
ĠÐ¶Ó©Ð½ ÑĸÐ½Ð´Ðµ
Ð´ Ñĥ
Ò¯ Ð³ÑĸÐ½
ĠÐĶ ÐµÐ½
ĠÐº Ñĥ
ÐµÑģ Ñģ
ÑĸÐ» ÑĸÐº
ÐµÐ»ÐµÑĢ Ð´Ñĸ
ĠÐ¶ ÐµÐº
ĠÐ´ÐµÐ½ ÑģÐ°ÑĥÐ»ÑĭÒĽ
ĠÐł ÐµÑģÐµÐ¹
ÑĤÐµ Ò£
ÑĤÐ°Ð» Ð°Ð´Ñĭ
ÑĢ Ð°Ð¼
Ð°Ñĥ ÒĵÐ°
ĠÐľ ÐµÐ½
Ġ S
ĠÐ°Ð» Ð¼Ð°Ð¹
ĠÐ°Ð·Ð°Ð¼ Ð°ÑĤÑĤÑĭÒĽ
__ __
ĠÐ± ÐµÐ¹
ĠÐ¿ Ð¾ÑĢ
ĠÒļ ÑĭÐ·ÑĭÐ»
Ð´ÐµÐ» Ð³ÐµÐ½
Ð°Ð² Ð»Ð¾
Ð°Ñħ ÑģÐº
Ð¸Ð¼ Ð¿
ÒļÒ±ÑĢ Ð¼Ð°Ð½ÒĵÐ°Ð·Ñĭ
ĠÐ°Ð´Ð°Ð¼ Ð´Ð°ÑĢ
Ð¸Ñı Ð½ÑĭÒ£
ĠÓĻÐºÑĸÐ¼ ÑĪÑĸÐ»ÑĸÐº
ĠÓĻ ÐºÐµÐ»
Ð½ Ðµ
Ð°ÑĤ Ð¾ÑĢ
ĠÑįÐºÐ¾Ð½Ð¾Ð¼ Ð¸ÐºÐ°
ĠÐº ÐµÐ¿
ĠÑģ ÑĤÑĥÐ´ÐµÐ½ÑĤ
Ð°Ð²Ð»Ð¾ Ð´Ð°ÑĢ
Ð¼ ÐµÑĢ
ĠÑĦ ÑĥÐ½
Ð°Ñı Ð½
ĠÑĤÑĥ ÒĵÐ°Ð½
Ð°ÑĤ ÑĤÑĭÒ£
ĠÑħÐ°Ð±Ð°ÑĢ Ð»Ð°Ð¼
ÒĽ Ð°Ð¹
Ġ t
ĠÐ¡Ð¾Ð½ Ð´ÑĭÒĽÑĤÐ°Ð½
Ð± Ð¾Ð»
ĠÐĲ Ð½
o r
Ñĥ ÑĪ
ĠÐº Ðµ
ĠÐ°ÑĢ Ð°ÑģÑĭÐ½Ð´Ð°ÒĵÑĭ
ĠÐĲÒĽÑĤ ÓĻ
Ġ1 7
Ġ W
Ð¿ Ðµ
ĠÓĻ Ò£Ð³ÑĸÐ¼
Ġ1 6
ĠÐ¼ Ð°
Ġ N
ĠÐ½ Ð°ÑĢ
Ġ ÑĨ
Ð°Ð· Ð°
ĠÐ°Ð¹ ÑĤÑĭÐ¿
ĠÑĤÑĸÑĢ ÐºÐµÐ»
ÓĻ Ð´ÐµÐ½Ð¸
ĠÐºÓ© Ð±
ĠÑģÐ°Ð¹ ÑĤ
Ð´ ÐµÐº
ÐµÐ» ÑĮ
Ð¾ÑĢ ÑĭÐ½
ĠÒļÐ°Ð·Ð°ÒĽÑģÑĤÐ°Ð½ Ð½ÑĭÒ£
Ñĥ Ð´ÑĭÒ£
ÑĸÐ½Ðµ Ð´Ñĸ
Ð¸Ð· Ð½ÐµÑģ
ĠÓĺ Ð»
ÐĲÐ·Ð°Ð¼ Ð°ÑĤÑĤÐ°ÑĢÒĵÐ°
ÐµÐ» ÐµÑĥ
ÑĭÑģ ÑĭÐ½Ð°
ÐºÐµÐ½ ÑĤ
Ð¼ ÐµÐ¹Ð´Ñĸ
Ġ |
ĠÑĤ Ð°ÒĽ
2 5
Ġ1 3
ĠÑģ ÑĭÑĢ
Ð¼ ÑĸÐ½
Ð¶ Ñĭ
ĠÑģ Ò¯
Ð°ÑħÑģÐº Ð¾Ð¼
Ò Ĵ
Òļ Ð°Ð·Ð°ÒĽ
ĠÑĤÓ©ÑĢ Ð°Òĵ
ĠÐ± Ð°Ð½Ðº
Ð´Ñĭ ÒĵÑĭÐ½Ð°
Ðµ Ð³Ñĸ
ĠÐ¿ Ð¾Ð»
ĠÐ¾ Ð´Ð°Ð½
ĠÐ°ÒĽÐ¿Ð°ÑĢÐ°ÑĤ ÑĤÑĭÒĽ
ĠÐ½ ÓĻÑĢ
ĠÐ¼Ð°Ð· Ð¼Ò±
ĠÒ¯Ð¹ Ð»ÐµÑģ
ĠÐ¾Ð»Ð°ÑĢ Ð´Ñĭ
ĠÐ¼ÐµÐºÐµÐ¼ ÐµÑģÑĸÐ½ÑĸÒ£
ĠÑĪ Ñĭ
ĠÐ°Ð²ÑĤÐ¾Ð¼ Ð¾Ð±Ð¸Ð»ÑĮ
ĠÒĽÐ°Ð· ÑĸÑĢÐ³Ñĸ
ĠÐºÐ»Ð°Ñģ Ñģ
ĠÑģ Ð°ÒĵÐ°ÑĤ
1 2
ĠÐ±Ð¾Ð¹ Ñĭ
ÐµÐ½ Ð³ÐµÐ½
Ð½Ñĭ Ðµ
ĠÐ¾ÑĢÑĤ Ð°Ð»ÑĭÒĵÑĭ
ĠÐ¶Ð°Ð± Ð´ÑĭÒĽ
Ġ Ñĭ
ĠÐºÓ© Ð»ÑĸÐ³Ñĸ
ĠÒĽÐ°Ð»ÑĭÐ¿ÑĤ Ð°ÑģÑĤÑĭÑĢÑĥ
ÓĻÑģ ÑĸÐ»
ĠÒĽÐ°Ð» Ð°ÑģÑĭÐ½ÑĭÒ£
Ð¹ ÑĤÐºÐµÐ½
ĠÐ±ÑĸÐ» ÑĸÐºÑĤÑĸ
Ð¸ ÐµÐ²
ĠÐ°Ð¹ Ð¼Ð°ÒĽ
ĠÐ¼Ð°ÒĽ Ð°Ð»
ĠÐ±Ó©Ð» ÑĸÐ½
ÑĪ ÐµÐº
Ð± ÑĢ
ĠÐ±Ð°Ð¹ ÒĽÐ°Ñĥ
ĠÑĥÐ°ÒĽÑĭÑĤ ÑĤÐ°
ĠÐĳ ÑĸÐ»ÑĸÐ¼
ĠÐ±ÐµÑĢ Ð´Ñĸ
Ð°ÒĵÐ°Ð½ Ð´Ð°
ĠÐ¶Ð°Ð» Òĵ
ĠÑģ Ð°Ð¹Ð»
Ð± ÐµÐ½
ĠÐ±Ð°Ñģ Ð¿
Ñ ŀ
ĠÐºÐ¾ÑĢÐ¿Ð¾ÑĢÐ°ÑĨÐ¸Ñı ÑģÑĭÐ½Ð´Ð°
ĠÒĽÐ°Ð» Ð°ÑģÑĭÐ½Ð´Ð°
ĠÒĽÐ°Ð· Ð°Ð½
ĠÐ¼ Ð°Ð»
ĠÐ´ ÐµÑĢ
Ð¶ ÐµÑĤ
ĠÐ°Ð·Ð°Ð¼ Ð°ÑĤÑĤÐ°ÑĢ
ĠÐ±ÐµÐ»ÑģÐµÐ½ Ð´Ñĸ
ÑĭÒĽ ÑĤÑĭÒĽ
ĠÒĽÐ°ÑĤÑĭÑģ Ñĥ
1 1
ĠÑĥ ÓĻ
ĠÒĽ ÑĭÐ»Ð¼
ĠÒĽÐ°ÑĢ Ð°ÑĪÐ°
ÑģÑĤ ÐµÐ¼
ĠÑĢ ÐµÑģÐ¿ÑĥÐ±Ð»Ð¸ÐºÐ°Ð»ÑĭÒĽ
ÒĽ ÑĭÑĢ
ÑĭÑģ ÑĭÐ½
e d
Ð°ÒĵÐ°Ð½ Ð´Ñĭ
ĠÑĢÐµ Ð´Ð°
Ð¾ ÑĦ
ĠÒĽÐ°ÑĢ Ð°Ð¿
ĠÐ°ÑĤ Ð°Ð¿
ĠÐº ÐµÑģ
Ð¸ ÑĨÐ¸Ñı
ÑĸÐ³Ñĸ ÑĤ
ÐµÑģ ÑĤÐ¸
ĠÐºÐ°Ð· Ð°ÑħÑģÐºÐ¾Ð¼
Ð¹ÑĤÐºÐµÐ½ Ñĸ
Ð» Ð°Ð¿
ĠÐ°Ð² ÑĤ
ĠÐķ Ð³ÐµÑĢ
ĠÐ¸Ð½ ÑĦ
ÑĥÑĢ Ð½Ð°Ð»
Ð°Ð» ÑĭÐ¿
ĠÐ¾ÑĢÐ½Ð°Ð»Ð°Ñģ ÒĽÐ°Ð½
ĠÑĪ ÑĸÐ»
ÑĭÒĵ ÑĭÑģ
Ð» ÑĭÒĵÑĭÐ½
ÑĤÐµ Ð±
ĠÓ©ÑĤÑĸÐ½ ÑĸÑĪ
ĠÑĤÐµ Ð³ÑĸÐ½
Ð°Ð»Ð°ÑĢ ÑĭÐ½ÑĭÒ£
Ġ3 0
ĠÑĤ ÐµÐ¼
Ð´Ð°Ð¹ Ð´Ñĭ
5 0
ĠÐķ Ò£
Ð¸ÑĢ ÐµÐºÑĤÐ¾ÑĢ
ĠÐºÐ¾Ð¼ Ð¼ÑĥÐ½Ð°Ð»Ð´ÑĭÒĽ
Ð¸Ñı ÑģÑĭÐ½ÑĭÒ£
ĠÑģÐ°Ñĥ Ð´Ð°
ÑĤÐ°ÑĢ ÑĭÐ½ÑĭÒ£
ĠÒĽÐ°Òĵ Ð¸Ð´
Ð½ Ð´Ñĸ
ÑĤÐ° ÑĨÐ¸Ñı
Ð°Ñĥ ÑĭÑĢ
ÑĤÐµÑĢ Ð½
ĠÓ©ÐºÑĸÐ» Ð´ÐµÑĢÑĸÐ½
ĠÒ¯Ð· Ð´ÑĸÐº
ĠÐµÐ½ Ð´Ñĸ
ĠÑħ Ð°Ð½
ĠÐ±Ò± Ð¹ÑĢ
ĠÐ¶ÐµÐ» ÑĤÐ¾ÒĽÑģÐ°Ð½
Ðķ Ð»
ÐĲ Ðł
ĠÐ°ÑĤÒĽÐ°ÑĢ ÑĥÑĪÑĭ
ĠÐ¶ÐµÒ£ ÑĸÐ»
i k
Ò±ÑĢ ÑĤ
ÑĤÑĸÐ» Ð³ÐµÐ½
ĠÐ±Ð¾Ð» Ñĥ
Ð¶ ÑĭÐ¼
ÑĭÒĵÑĭ Ð¿
ĠÐ¶ Ñĥ
ĠÐ¡ ÑĭÐ±Ð°Ð¹Ð»Ð°Ñģ
ĠÐ½Ð°Ñĥ ÑĢÑĭÐ·
ÐµÑĤÐµÑĢ Ð¸Ð½Ð°ÑĢ
ĠÐ¼ Ñĥ
ÑĪ ÑĸÐº
ĠÑĥ Ñĩ
ĠÐµ ÑĤÑĸÐ¿
ÐºÒ¯Ð¹ ÐµÐº
ĠÑĤÐ°Ð» ÒĽÑĭÐ»
ÐµÐº ÑĨÐ¸Ñı
ĠÐ¸Ð½ Ð²
ĠÒĽÒ±Ð¶ Ð°ÑĤ
Ġ1 00
Ð»ÐµÑĢ Ð´Ñĸ
ÑĤ Ð°Ð¹Ð´Ñĭ
ĠÐŀ ÑĤÐ°Ð½
ÒĽ Ð°ÑĤ
Ñĸ ÑĤ
ĠÒ±ÑģÑĤ Ð°Ð·
Ð»ÐµÑĢ Ð´ÑĸÒ£
ÐµÐ»ÐµÑĢ ÑĸÐ½ÑĸÒ£
ĠÒĽÒ±ÑĢ ÑĭÐ»ÑĭÐ¼
Ð´Ñĸ Ð³ÑĸÐ½ÑĸÒ£
Ð´ÐµÑĢ Ð³Ðµ
ĠÒĽÑĭÐ· Ð¼ÐµÑĤÑĤÑĸ
ĠÐŀ Ð»Ð°ÑĢ
t t
ĠÐ°Ð½ÑĭÒĽ ÑĤÐ°Ñĥ
ĠÐº ÐµÑĤÑĤÑĸ
Ñı ÑĢ
Ð¼ Ð¸Ð½
ĠÒĽÐ¾ÑĢÑĭÑĤÑĭÐ½Ð´Ñĭ Ð»Ð°ÑĢÑĭ
ĠÑģÐ¾Ò£ ÒĵÑĭ
ĠÐ¼ ÐµÒ£
Ð¾Ð» ÑĮ
ĠÐ¼Ð» Ð½
ĠÐ¾ÑĢÑĭÐ½Ð±Ð°Ñģ Ð°ÑĢ
ĠÐºÓ©Ð¿ ÑĤÐµÐ³ÐµÐ½
ÑĦÐµÑĢ ÐµÐ½
Ð°Ð» Ð°Ð¹
ĠÐ¶ Ò±
ÑĭÑĤ Ð°Ð¹
ĠÐ°Ð½ÑĭÒĽÑĤÐ°Ð¼ Ð°ÑģÑĭ
iÐ½ iÒ£
Ð°ÑĢ Ð´ÑĭÒ£
ĠÐ½ÐµÐ³ÑĸÐ· ÑĸÐ½Ð´Ðµ
ĠÐ¶ÐµÑĢ Ð´Ðµ
ÐµÐº Ñģ
ĠÐ¶Ð°Ñģ Ð°Ð»ÒĵÐ°Ð½
ĠÐľÒ± Ð½
ĠÐºÐµÐ¹ Ð±ÑĸÑĢ
ĠÑĤ ÑĭÒ£
ĠÑĢÐµÑģ ÑĥÑĢ
ĠÐĲÐ» Ð»Ð°
ĠÓ©Ð½ ÑĸÐ¼
Ðĳ ÑĸÑĢ
ÑĪ ÑĭÒĽ
ĠÐ°ÑĢ Ð°Ð»
ĠÐļ Ð¾Ð½
. ,
ĠÑĤÒ¯Ñģ ÑĸÑĢ
ĠÐ±ÑĸÑĢ Ð»ÐµÑģ
Â» .
ĠÐ¾ÐºÑĢÑĥ Ð³
Ð°Ð¹ ÑĭÐ¼
ĠÑĤÐµÑħÐ½ Ð¸ÐºÐ°Ð»ÑĭÒĽ
ÑĢ ÐµÐº
ĠÑĤÐ°ÑĢ Ð°Ð¿
ti on
ĠÑı Ð·Ñĭ
ĠÑĤÒ¯ Ð·
Ġ201 3
ĠÐºÓ©ÑĢÑģÐµÑĤÑĸÐ» Ð³ÐµÐ½
ĠâĢ ¢
ĠÐºÐµÐ·Ð´ÐµÑģ Ñĥ
ÑĭÐ» Ñĭ
ĠÐ¼Ð¾Ð½ Ð¸ÑĤÐ¾ÑĢ
ĠÐ±ÑİÐ´Ð¶ ÐµÑĤ
ĠÐ¶Ð°Ñģ Ð°Ð¿
Ð¸ÑĤÐµÑĤ ÑĸÐ½ÑĸÒ£
ÑĤÑĢ Ð°ÑĤÐµÐ³
ĠÑĸÑģÑĤ ÐµÑĢ
ĠÐ¿ ÑģÐ¸Ñħ
ĠÐ¼Ð°ÒĽ ÑģÐ°ÑĤÑĭ
1 8
ĠÒĽÐ°Ð»ÑĭÐ¿ ÑĤÐ°Ñģ
Ð¾ÑģÑĤÐ°Ð½ Ð°Ð¹
ĠÐ¶Ð°ÒĵÐ´Ð°Ð¹ Ð»Ð°ÑĢ
ĠÑĤÓ©Ð» ÐµÐ¼
ÐµÑĢ Ð»ÑĸÐº
ĠÐµÐ¼ Ð´ÐµÑĥ
Ð°Ð½ Ð°
ĠÐºÐµÐ»ÑĸÑģ ÑĸÐ¼
ĠÑĤ Ð¾Ð±
ĠÐ¾Ð½ Ð´Ð°
ĠÐ¾ÑĢ ÑĭÑģ
Ð¸ ÑĤÐ°ÑĢ
o m
ĠÐ¸ Ð³ÐµÑĢ
Ð»Ð°Ð½ Ð´ÑĭÑĢÑĥ
ĠÐ±Ð°Òĵ Ð°Ð»Ð°Ñĥ
ÒĵÑĭ ÑĪ
Ðĳ ÑĸÐ·
ÑĸÑģ ÑĸÐ½
Ó©Ð· Ñĸ
ĠÐĸÒ±Ð¼ ÑĭÑģ
ĠÒĽÐ°Ð·Ð°ÒĽÑģÑĤÐ°Ð½ Ð´ÑĭÒĽ
Ġ Ð°Ð±
ĠÑĤÓĻÐ¶ÑĸÑĢ Ð¸Ð±
ĠÐ´ Ð¸ÑĢÐµÐºÑĤÐ¾ÑĢ
ĠÑĪÐµÑĤ ÐµÐ»
ĠÐ¶Ð¾Ð» Ð°ÑĥÑĪÑĭÐ»Ð°ÑĢ
ÑĭÐ» Ð°Ð¹
ÐºÑĸ ÑģÑĤÐ°Ð½
ĠÓĺ Ð±
ĠÓĻÐ¹ ÐµÐ»
ĠÒĽÐ°Ð± ÑĸÐ»
ÐµÐ´ Ð¶
ĠÑĸÑģÑĤ ÐµÑĢÑĸ
Ð¼ Ð°ÑĤ
Ð´Ñĸ Ð¼
ĠÐ¾ÑĢÑĭÐ½Ð±Ð°Ñģ Ð°ÑĢÑĭ
ÐµÑĦ Ð¾Ð½
ĠÐ¾ ÑģÑĭÐ½Ð´Ð°Ð¹
ĠÐµÑĢ ÐµÐ¶
ĠÒĽÐ¾Ð· ÒĵÐ°Ð»
ĠÑĤÒ±ÑĢ Ð°Ð´Ñĭ
ĠÐºÐµÑĪ ÐµÐ½
ÐĲ Òļ
Ðµ Ð³ÑĸÐ·
ÑĤÑĸ Ð³Ñĸ
ĠÒĵ Ð°Ð»ÑĭÐ¼
ĠÑģ Ð°Ð±
ĠÐĳ Ò±
ĠÐĸ ÐµÑĢ
ÐµÐ¹Ð½ ÐµÑĤ
ĠÐ¼ Ð¾Ð»
ÒĵÑĭÑģ ÑĤÐ°Ñĥ
ÐºÐ¾Ð½Ð¾Ð¼ Ð¸ÐºÐ°Ð»ÑĭÒĽ
Ð°Ð½ Ð´
Ð°Ð» ÑĭÑģ
Ð°Ð ¸
ĠÐ¼ÓĻÐ»ÑĸÐ¼ ÐµÑĤ
Ð¸Ð½ Ð°
ĠÑĤÒ±ÑĢ Ð°ÑĤÑĭÐ½
ĠÐ± Ð¸Ð·Ð½ÐµÑģ
ĠÐ¼Ó©Ð»ÑĪ ÐµÑĢ
ĠÐ°Ñģ ÑĤÐ°Ð¼
ĠÐ¼ÐµÒ£ Ð³ÐµÑĢ
ĠÓĻÑģÐºÐµÑĢ Ð¸
ĠÐ¸Ð½ ÑģÑĤÐ¸ÑĤÑĥ
ÒĵÐ°Ð½ Ð´Ð°
ĠÐ°Ð³ ÐµÐ½ÑĤ
Ð»ÑĸÐº ÑĤÑĸ
ĠÐ¡Ð¾Ð½ ÑĭÐ¼ÐµÐ½
ĠÑĤ ÑĸÐº
ÐµÑĤÑĤÐµÑĢ Ñĸ
Ð´Ñĭ Ð¼
ĠÓĻÑĢ ÑĸÐ¿
a z
ĠÐ¼Ð°Ò£ÑĭÐ· Ñĭ
u r
ĠÑĪ Ð°Ð¼
ĠÑģ Ð°Ð»ÑĭÒĽ
Ðº ÐµÑĤ
Ð°Ñģ ÑĭÐ½Ð°Ð½
Ð± ÑĭÑĢ
Ð°Ò£ ÒĵÑĭÑģÑĤÐ°Ñĥ
ĠÐ¼ÐµÐ½ ÑĸÒ£
ĠÐºÐµÐ» ÑĤÑĸÑĢ
Òļ ÑĭÐ·ÑĭÐ»
ÑĭÐ¼ÑĭÐ· Ð´ÑĭÒ£
ĠÑı ÒĵÐ½Ð¸
ĠÐ¸ Ð´Ðµ
ĠÑĢÑĥ ÑħÐ°Ð½Ð¸
ĠÑĢ Ð°Ñģ
l e
ĠÐ± Ó©
i Ð·
ĠÐĳ Ð¸
Ð¾Ð³ÑĢÐ°ÑĦ Ð¸Ñı
ĠÐ¶ ÑĸÐ³ÑĸÑĤ
ĠÑģÓĻÑĥ ÑĸÑĢ
Ðº ÓĻÑģÑĸÐ¿
Ð¸Ñħ Ð°ÑĤ
ĠÑģÒ±ÑĢ Ð°ÒĽ
ĠÒĽÐ°Ð±ÑĭÐ» Ð´Ð°Ð½
ĠÐºÓĻÑģÑĸÐ¿ Ð¾ÑĢÑĭÐ½
ĠÐŀ ÒĽ
Ð¾ Ð¶
ĠÐ¼ Ð¸Ð»Ð»
Ð½ Ð¸Ðº
ĠÐ¼ ÑĭÐ½Ð°
ÐŁ Ð¾
Ð¡ Ð¾Ð½
ÐµÐ´ ÐµÐ»
ĠÐ¼ Ð°Ð¼ÑĭÑĢ
ĠÐ½ Ò±Ñģ
ĠÑģÐ°Ð±Ð°ÒĽ ÑĤÑĭÒ£
ĠÐ¶ÑĭÐ» Ð´ÑĭÒĵÑĭÐ½Ð°
ĠÐ¿Ð°ÑĢ ÑĤ
ĠÐ±Ð°Ñģ ÑĤÐ°Ð´Ñĭ
ĠÐºÓ©ÑĢÑģÐµÑĤ ÐºÑĸÑĪ
ĠÐ¾ Ð¿ÐµÑĢ
Ð°ÑĤ ÑĢ
Ð¶ Ð°Ð¹
Ðĺ Ð½
ĠÒļÑĭÐ·ÑĭÐ» Ð¾ÑĢÐ´Ð°
ĠÑĤÒ¯ Ð¹
ĠÐ¶ÑĭÐ» Ð´Ð°ÑĢÑĭ
ĠÑģÐ°Ñı ÑģÐ¸
ĠÓĻ Ñĥ
ÑĭÑģ ÑĤÐ°Ð½
Ðľ ÐµÐ¼Ð»ÐµÐºÐµÑĤ
Ð¼ ÑĸÐ·
Ð»ÐµÑĢ ÑĸÐ½Ðµ
ĠÑĥÑĩ Ð°Ñģ
Ð¶ Ð°ÑĢ
ĠÑĤÐ°ÑĢÐ¸Ñħ Ð¸
ĠÐ½ Ð¾ÑĢÐ¼
ĠÐ°ÑĥÐ´Ð°Ð½ ÑĭÐ½ÑĭÒ£
ĠÐµÑģ ÐµÐ±
ĠÐ¿Ð» Ð°Ð½Ñĭ
ĠÐ¾ÒĽ Ð¸
ĠÐŁ Ð°Ð²Ð»Ð¾Ð´Ð°ÑĢ
Ġ201 2
ÑĥÑĢ Ð¾Ñĩ
ĠÑĤ ÓĻÑģÑĸÐ»
Òĵ ÑĭÐ½ÑĭÒ£
ĠÑĤ ÑĢ
ĠÑĤÓĻÑĥ ÐµÐ»
Ñģ Ð»Ð°Ð¼
ÑĥÑĢÐ¾Ñĩ Ð½ÑĭÐµ
ÐµÐ¼ ÑĸÐ½
Ñģ ÐµÐº
ÑĪÑĭÐ» ÑĭÒĵÑĭÐ½ÑĭÒ£
ÑĤ Ð¿
ĠÐ´ÓĻÑĢÑĸ Ð³ÐµÑĢ
Ð½ ÐµÐ¼ÐµÑģÐµ
Ð°Ð¼ ÑĭÐ½
ĠÐ½ Ð°Ð·Ð°ÑĢ
Ġ B
ĠÑĢ ÐµÐ³
ĠÐ°Ð¹ ÒĽÑĭÐ½
Ġ i
ĠÐ°ÑĪ ÑĭÒĽ
ĠÑĤÐ¾ÒĽÑģÐ°Ð½ ÑĭÐ½Ð´Ð°ÒĵÑĭ
Ð½Ð¾Ð² Ð°ÑĨÐ¸ÑıÐ»ÑĭÒĽ
ÑĭÑģ Ð°Ð»Ñĭ
ĠÐºÐ¾Ð¼ Ð¿
ĠÐŁÑĢÐµÐ·Ð¸Ð´ÐµÐ½ ÑĤ
ĠÐ¾ÑĢ Ð°Ð¹
ĠÐĸ Ð°Ñģ
ĠÒĽÑĭÐ·Ð¼ÐµÑĤ ÑĸÐ½
ĠÐĨ ÑĪ
ÑĸÑģ ÑĸÐ½ÑĸÒ£
Ó© Ð¿
1 4
Ñĥ Ð°ÑĢ
ĠÐ¼ÓĻÑģÐµÐ» ÐµÐ»ÐµÑĢ
Ð¾Ð² ÑĤÑĭÒ£
ÑĦÐµÑĢÐµÐ½ ÑĨÐ¸Ñı
Ðµ Ñı
ĠÐ°Ð» Ð°Ò£
ĠÐ°Ð» Ð°
Ðŀ ÑģÑĭ
ĠÑĤÐ°Ð± ÑĭÑģ
ĠÐ´ÓĻ ÑģÑĤ
ÑĸÐ» ÐµÑĢ
ĠÐ±Ð°Ñģ ÑĤÐ°Ñĥ
ĠÑģÐ°Ð» Ð°ÑģÑĭÐ½Ð´Ð°
ĠÒļÐ°ÑĢ Ð¶Ñĭ
ĠÐ¶ ÓĻÑĢ
ĠÑĤÐ°Ñĥ Ð°ÑĢ
ĠÐ¢ Ð°ÑĢ
ÑĤÑĭ Ñģ
ĠÒĽ Ð°ÑĪ
i a
ĠÐ±Ð°Ñģ ÑĭÐ¼
ĠÐ¾ÑĢ ÑĭÐ½Ð´Ð°Ñĥ
Ð¼ ÐµÐ³ÐµÐ½
ĠÒļ Ð°Ð¹
ĠÑĤÐ°Ð¼ Ð°ÒĽ
ĠÐļ ÐµÒ£
ĠÐ±Ð°ÒĵÐ´Ð°ÑĢÐ»Ð°Ð¼ Ð°ÑģÑĭ
ĠÑĤÐµÐ» ÐµÑĦÐ¾Ð½
ĠÑģ ÑĤÐ¸
ĠÐ² ÐµÑĤÐµÑĢÐ¸Ð½Ð°ÑĢ
ĠÐ°Ð¹ÑĤ ÑĤÑĭ
ĠÓĻÑĢ Ð±ÑĸÑĢ
ÐĲ ÑĥÐ´Ð°Ð½
ĠÑĪ Ð°ÒĵÑĭÐ½
ĠÐºÓ© Ð»ÑĸÐº
ÑĭÐ¼ ÐºÐµÐ½ÑĤ
ĠÒ¯Ð¹Ð»ÐµÑģ ÑĤÑĸÑĢÑĥ
Ġ201 1
ĠÐ¶Ò¯Ð¹ ÐµÑģÑĸ
ĠÐº Ð¾Ð»
ÑĪÐ°ÑĢ Ð°Ð»Ð°ÑĢ
ĠÐ± Ð°ÑĤÑĭÑĢ
ĠÐ±Ð¾Ð» ÑģÑĭÐ½
Ðº Ð¸
ĠÑģÐ¾ Ð·
ĠÐĿÒ±ÑĢ ÑģÒ±Ð»ÑĤÐ°Ð½
ÑĪ ÑĭÐ½ÑĭÒ£
ĠÑĪ ÑĭÒĽÑĤÑĭ
Ð´Ð°ÑĢ Ð´Ð°
Ð°Ñģ ÑĤÐ°Ð½
ĠÑĤÐ°ÑĢ ÑĤÑĥ
ÑĪÑĸÐ» Ñĸ
Ð« Òļ
ÐĶ ÐĹ
ÓĻÑģÑĸ Ð±Ð¸
ÐµÐ¼ Ð¿
ĠÐº ÑĸÑĪ
ĠÑĤ Ð¾ÑĢ
ĠÐĳ Ð°Ð¹
Ð¼Ð°Òĵ ÑĭÐ½Ð´Ð°
ĠÐ£ ÐĶÐĹ
ĠÑĢÐµÐ´Ð° ÐºÑĨÐ¸Ñı
ÐµÐ» ÐµÐº
Ð¸ Ð´Ðµ
Ð»ÐµÑĢ ÑĸÐ½ÑĸÒ£
ĠÐ¶Ð°ÑĢÐ¸Ñı Ð»Ð°Ð½ÒĵÐ°Ð½
Ð¾Ð» Ð°
ĠÐ°Ð» Ð°ÑĤÑĭÐ½
ÐºÐ¾Ð¼ Ð¼ÑĥÐ½Ð°Ð»Ð´ÑĭÒĽ
ÒĽÒ± Ð¶
ĠÒ±Ð· Ð°ÒĽ
ĠÑħÐ°Ð»ÑĭÒĽ ÑĤÑĭÒ£
ÑħÐ°Ð½ Ð°
ĠÐ¶ ÑĭÑĢ
ĠÒĽÐ°ÑĢ Ð°
ĠÐ´ÓĻÑĢ ÐµÐ¶
ĠÐ· Ð¾ÑĢ
ÑĭÐ» Ñĥ
ĠÐ¶Ð°Ñģ Ð°ÒĵÐ°Ð½
Ð»Ð°Ð¼ ÐµÐ½ÑĤ
ĠÐĸÐ°Ò£ Ð°
ÐµÐº ÑĤÐµÐ¿
ĠÑĤÐ¸ÑĸÑģ ÑĤÑĸ
ĠÐĲ Ð±Ð°Ð¹
ĠÑĤÓ© ÑĢÑĤ
ÐŁÐ¾ ÑĥÑĢÐ¾ÑĩÐ½ÑĭÐµ
ĠÐ¶Ð¸ Ñĸ
ĠÐ¶Ð°Ð½ ÑĭÐ½Ð´Ð°ÒĵÑĭ
ĠÑĤ ÑĭÐ½
ĠÐ¼Ð°ÑĤ ÐµÐ¼Ð°ÑĤ
ĠÒĽÐ¾Ñģ Ð°
ĠÐ¼ÓĻÐ»ÑĸÐ¼ ÐµÑĤÑĤÐµÑĢ
ĠÐºÓ©Ð»ÐµÐ¼ Ñĸ
ĠÐ°Ñģ Ð°
ĠÐº Ð°Ð½
Ġ ÑĸÐ»
Ġ .
Ò¯ Ð·
ĠÐ°ÑĢ Ð°Ð»ÑĭÒĵÑĭÐ½Ð´Ð°
3 0
Ð°Òĵ Ð´Ð°ÑĢ
ÑĪÑĸÐ»ÐµÑĢ Ð´ÑĸÒ£
ÓĻÑĥ ÑĸÑĢ
ĠÐĲ Ñģ
ĠÑį Ð½ÐµÑĢÐ³
ĠÑĤÐ°Òĵ Ð°Ð¹ÑĭÐ½Ð´Ð°Ñĥ
ĠÓ©Ð· Ð°ÑĢÐ°
Ġ Ð°Ò£
ĠÐ±ÓĻÑĢ Ñĸ
ĠÑĪÑĸÐ» Ð´Ðµ
ĠÑĢÐµÑĤ ÑĤÐµÑĥ
ĠÐ± ÐµÐ·
ĠÑĪ ÑĭÒĵÑĭÐ¿
ĠÒĽÒ±Ð¶ Ð°ÑĤÑĤÐ°ÑĢÐ´Ñĭ
Ð°Ñģ ÑĤÑĭ
ĠÑĪÐ°ÑĢ ÑĤ
ĠÐķ ÑĥÑĢ
ĠÐ¶ ÑĥÑĢÐ½Ð°Ð»
Ò ¢
ĠÐĸ Ð°Ð½
Ð°Ð» Ð°Ð»ÑĭÒĽ
ĠÑģÑĭÐ½ÑĭÐ¿ ÑĤÑĭÒ£
ĠÐ°Ð¿Ð¿Ð°ÑĢÐ°ÑĤ ÑĭÐ½ÑĭÒ£
ĠÐ· ÐµÑĢ
ĠÐ¼Ð°Ð·Ð¼Ò± Ð½
ĠÒ± Ð¼
ĠÐ¾ÑĢÑĤ Ð°Ð»ÑĭÒĵÑĭÐ½Ð´Ð°
ĠÒ¯ ÑĢ
Ñı Ð½
ĠÒĽÒ±Ð½ Ð´Ñĭ
ĠÑĤÐ°Ð¿ÑģÑĭÑĢ Ð¼
r e
ĠÐµÑĤ ÐµÑĤÑĸÐ½
ĠÐ¼ÐµÑĢÐ· ÑĸÐ¼
ĠÒĽÐ°ÑĢ ÑĭÐ¼
ĠÐ¢ Ð°Ð»
Ð´ ÐµÐ»Ñĸ
2 00
ĠÐ±ÐµÑĢ Ñĸ
ĠÒĽÐ°Ð±ÑĭÐ»Ð´Ð°Ñĥ ÑĭÐ½Ð°
ĠÒ± Ð¹
ĠÐ°Ð» ÑĤÑĭÐ½
ĠÐ´Ðµ Ð¿Ñĥ
ĠÐ· ÐµÐ¹Ð½ÐµÑĤ
ĠÐ¶ÑĭÐ» Ð´Ð°ÑĢÒĵÐ°
ĠÒĽÐ¾ Ñİ
ÐµÐ¹ ÑĤ
ÑĤÐ°ÑĢ ÑĭÐ½Ð°
ĠÑĤ Ð°Ð¼ÑĭÐ·
ÑĭÐ¿ ÑĤÑĭ
ÐµÐ¼Ð¿ Ð¸Ð¾Ð½
Ð´Ñĥ ÑģÑĤÑĢ
ĠÒĽÐ°ÑĢ Ð°ÑģÑĤÑĭÑĢ
ĠÒ±Ð» ÑĤ
ĠÒĽÒ±ÑĢÑĭÐ» ÑĭÑģÑĭ
Ð°Ð» Ð°ÑĤÑĭÐ½
ĠÓ© ÑĤÑĥ
. )
ĠÑĭ Ð´Ñĭ
ĠÓĻ Ð»Ñĸ
ĠÐ¶Ð¾Ð» Ñĭ
Ð¸ÑĤ ÐµÑĤÑĸ
ĠÐ°ÒĽ ÑĪ
Ð± ÐµÑĤ
ĠÐ°Ð» Ð°ÑģÑĭÐ·
ĠÑĪ ÐµÒ£
ĠÑĤÒ¯Ñģ ÑĤÑĸ
ĠÐ¾ Ð±ÑĬÐµÐºÑĤÑĸ
ĠÐºÐ¾Ð¼Ð¿Ð°Ð½ Ð¸Ñı
ĠÐ±Ð°Ð» Ð°Ð½Ñĭ
ĠÐ¼ ÑĸÐ½Ðµ
ĠÐ· Ð¸Ñı
ĠÐľ Ð°ÑĢ
Ð°Ñģ Ó©Ð·
ĠÑĪ Ð°Ð¹
ĠÒĽÐ°ÑĤ ÑĤÑĭ
ĠÑĭÐ½ ÑĤÑĭ
Ð¾Ñģ ÑĭÐ½
ĠÐļ Ð¾Ð¼
i l
ĠÐ±Ò±Ð· ÑĥÑĪÑĭÐ»ÑĭÒĽ
ĠÐ¶ Ð°Ð¿
ÒĽÐ° ÑĪ
Ð»Ñĸ Ð³ÑĸÐ½ÑĸÒ£
Ñį ÐºÐ¾Ð½Ð¾Ð¼Ð¸ÐºÐ°Ð»ÑĭÒĽ
ĠÒĽÒ±ÑĢ Ñĥ
ĠÒĽÐ°Ð¼ÑĤÑĥ Ð´Ñĭ
ĠÐ¶Ð°ÑĤ Ð°Ð´Ñĭ
ĠÒļÐ°ÑĢ Ð°ÒĵÐ°Ð½Ð´Ñĭ
ÑĪÑĸÐ» ÑĸÐ³Ñĸ
Ġ Ð°Ð¼
ĠÐķ Ñģ
ĠÑģÐ¾Ð½ ÑĭÐ¼ÐµÐ½
Ð°ÑĤÑĤÐ°ÑĢ Ñĭ
Ð°Ñĥ Ð»Ñĭ
iÐ½ Ðµ
ÑĭÐ» Ð°ÑĢ
1 6
Ðł Ð¢
ĠÐ¼ Ð°Ð¹
ĠÐ³ Ðµ
Ðĳ Ð°Ð»
ÑĸÑģ ÑĤÑĸ
ĠÒĽÒ±ÒĽÑĭÒĽ ÑĤÑĭÒĽ
ĠÑģÐ°ÑĢ Ð°Ð¿
ĠÑĪÐ°ÑĢ Ð°Ð»Ð°ÑĢ
Ð¼ Ð°Ð¹Ð´Ñĭ
ĠÑĪ ÐµÐ±
Ð´Ð° ÒĽ
Ðľ ÐĲ
Ġ +
ĠÒ± ÒĽ
ĠÐ´Ð¸ Ð°Ð³
ÑĸÑĢ ÐµÑģÐµ
Ð¾ ÒĵÐ°
ĠÐ¢ ÑĸÐ»
ĠÓĻÐ¹ ÐµÐ»Ð´ÐµÑĢ
ĠÐľ Ð°ÒĽ
Ðŀ ÑĢ
ĠÐ°ÑĢ ÑĤÑĭÒĽ
ĠÑĸÑĢ Ñĸ
Ð°Ð± Ñĭ
Ó¨ Ð·
Ñģ Ð°Ð¼
ÓĻ Ð¹
Ð°Ñģ ÑĭÐ¼ÐµÐ½
ÐµÐ» ÐµÐ¹
ÐĲ ÑĢ
ĠÐ¶Ò±Ð¼ÑĭÑģ ÑĤÐ°ÑĢÑĭ
ĠÐºÐµÐ» ÐµÑģÑĸ
ĠÐ¿ÐµÐ´Ð°Ð³Ð¾Ð³ Ð¸ÐºÐ°Ð»ÑĭÒĽ
ĠÐŀ ÑĢÑĤ
ĠÐ¶Ð°ÑĢ ÑĭÒĽ
ĠÐĲÒĽÑĤ Ó©Ð±Ðµ
ĠÐ°Ð² ÑĤÐ¾ÑĢ
ĠÐ¶Ð°Ò£ Ð°Ð»ÑĭÒĽ
Òļ Ð°ÑĢ
ĠÐ ¯
ĠÑĦ Ð¾ÑĢ
Ġ5 0
ĠÒĽÒ± Ð¹
ĠÐĸÐ¾Ð» Ð´Ð°Ñĥ
ĠÐŁ Ð°ÑĢ
ÐµÐ³ ÑĸÐ½Ð´Ðµ
ĠÑĤ Ð°
ĠÑĪÐµÒ£ Ð±ÐµÑĢ
ĠÐŀ Ò£
ĠÐ¼Ò¯ Ð»
ÑĦ Ð¾ÑĢÐ¼
ĠÑĤÓ©Ð» ÐµÑĥ
ĠÒĽÐ°Ð» Ð´Ñĭ
r i
ÑģÑĭÐ» Ð°Ð¹
Ð¸ Ñĩ
Ð°Ð³ ÐµÑĢ
ĠÐ¼ Ð¾Ð¹
Ġ P
ĠÐŀ Ð½
ÒĵÐ° Ð´Ñĭ
ĠÐ±Ð°Ð¹ ÒĽ
ÒĽ ÑĭÐ¼
Ġ T
ĠÐ¶Ð°ÒĽ ÑĭÐ½
ĠÑģ ÐµÐ¼
ÑĥÑĢ Ð³
Ð¸Ð» ÑĮ
ĠÐ¼ÐµÐ¼Ð»ÐµÐºÐµÑĤ ÑĤiÐº
ĠÐ±ÐµÑĢ ÑĸÐ¿
ĠÑģÑĸÐ» ÑĤÐµÐ¼Ðµ
ÐµÐ» ÐµÑģ
Ð» Ñı
ÑĭÑĢ ÑĭÐ¼
ĠÐĶÐµÐ½ ÑģÐ°ÑĥÐ»ÑĭÒĽ
ĠÐ¾ÑĢÑĭÐ½Ð±Ð°ÑģÐ°ÑĢ Ð»Ð°ÑĢÑĭÐ½ÑĭÒ£
ÐµÑĤ Ñĥ
ÑĸÐ¼ Ð½ÑĸÒ£
ĠÐºÐµÐ» ÐµÑĤÑĸÐ½
ĠÒ¯ Ð¼
Ġ [
ĠÐ°Ð»Ð´ ÑĭÐ½Ð´Ð°
ĠÐ¶Ò¯ÑĢ ÐµÐº
ĠÒĽÐ°ÑĢ Ð°Ñĥ
ĠÑĤ ÑĭÑĢ
ĠÐ¶ÐµÑĤ ÐµÐº
ĠÐ¼ ÐµÐ¹
ĠÐ¾ÑĢÐ³Ð°Ð½ Ð´Ð°ÑĢ
ĠÐ°Ñģ Ð¿
ĠÒļ Ð¾ÑģÑĤÐ°Ð½Ð°Ð¹
ÐµÒ£ ÑĸÐ·
ĠÐ¿ ÐµÑĢ
ĠÐºÓĻÑģÑĸÐ¿ ÐºÐµÑĢÐ»ÑĸÐº
ĠÐ¶ÐµÐ¼ÒĽÐ¾ÑĢÐ»ÑĭÒĽ ÑĤÑĭÒ£
ĠÑģ ÑĤÑĢÐ°ÑĤÐµÐ³
ĠÑĥÓĻ ÐºÑĸÐ»
ĠÒļ Ð¾Ð»
ÒĽ Ò±ÑĢ
Ñ ī
ĠÐµÐ» Ð´Ñĸ
ÑĮ Ñİ
ÒĽ Ð°Ð·
ÓĻÐ´ÐµÐ½Ð¸ ÐµÑĤ
ĠÐĲÒĽÑĤÓĻ ÑĤÐµ
ĠÐ¸Ð½Ð² ÐµÑģÑĤÐ¸
ĠÐ¿ÑĢÐ¾ ÐºÑĥÑĢ
ĠÐľ ÓĻÑģ
ÑĭÑĢ Ð°ÒĽ
ÐµÑĥ Ñĸ
ĠÐºÓ© Ð»
ĠÐ¶ÑĭÐ» Ð´ÑĭÒĽ
Ð¿ Ð°Ð»
ĠÐ±Ð°Ð»Ð°Ð»Ð°ÑĢ ÒĵÐ°
ĠÓĻÐºÑĸÐ¼ Ð´ÑĸÐ³ÑĸÐ½ÑĸÒ£
ĠÒĽÑĭÑĢ ÐºÒ¯Ð¹ÐµÐº
a t
ĠÐºÓ©ÑĢ ÑĸÐ¿
Ð³i Ð·
ĠÐ¼ ÐµÑĢÐµÐº
ĠÒĽÐ¾ÑĢ ÒĵÐ°Ð»
ĠÐ¶ Ð¾
ÑĤÑĭ ÒĵÑĭ
ĠÐºÐ°Ð· Ð°Ðº
ÐĲÒĽ Ð¿Ð°ÑĢÐ°ÑĤ
1 5
ĠÑģ ÑĸÒ£
Ó© Ðº
ĠÐ± Ð°ÑıÐ½
ĠÑĤÐµÑĢ ÐµÒ£
Ð¸Ð¼ Ð°ÑĢ
ĠÐ±Ð°ÒĵÑĭÑĤ ÑĤÐ°Ð»ÒĵÐ°Ð½
ĠÐ¶ Ð°Ð¹Ð»Ñĭ
ĠÑģÓĻÑĥ Ð»ÐµÑĤ
Ð¸Ðº Ð°ÑģÑĭ
ĠÐ¢Ò¯ÑĢ ÐºÑĸÑģÑĤÐ°Ð½
ĠÑĭÐ½ÑĤÑĭ Ð¼Ð°ÒĽ
Ġ F
ĠÐ¶Ð°Ò£ Ð°ÑĢ
ĠÓ©Ð½ ÑĸÐ¼Ð´ÐµÑĢ
ĠÐº ÓĻÑģÑĸÐ±Ð¸
Ðķ ÑĢ
Ð´ÑĭÑĢ ÑĭÐ»ÒĵÐ°Ð½
ĠÐµÐ» Ð´ÑĸÒ£
ĠÒĽÐ°Ñĥ Ð»
Ġ2 4
ÐĲ ÑģÑĤÐ°Ð½Ð°
ĠÑĤÑĸÐ· ÑĸÐ¼Ñĸ
ĠÑĩ ÐµÐ¼Ð¿Ð¸Ð¾Ð½
ÐµÑĤ ÑĸÐ½ÑĸÒ£
ĠÑıÐ·Ñĭ ÐºÐµ
Ðº ÑĢ
ĠÐĲ Ð·Ð¸Ñı
ÑĤÑĤÐ°ÑĢ ÑĭÐ½
201 6
ĠÐ± Ð°Ð·
ĠÒļ Ð¾ÑĢ
ÑĤÐµÑĢÐ½ ÐµÑĤ
ĠÑģÒ±ÑĢ Ð°ÒĽÑĤÐ°ÑĢ
ĠÐºÐµÐ¹ÑĸÐ½ Ð³Ñĸ
ĠÐ¼Ð¾Ð½Ð¸ÑĤÐ¾ÑĢ Ð¸Ð½Ð³
ĠÐ¶Ð°Ñģ ÑĤÐ°ÑĢ
ĠÑĤÓĻÑĢÑĤÑĸ Ð±Ñĸ
ĠÐ´ ÐµÐ¹
Ðµ Ð³ÑĸÐ½
Ð°Ð´ ÐµÐ¼
ĠÐ°Ð» ÑĭÐ½ÒĵÐ°Ð½
ĠÐ¸Ð´Ðµ Ñı
ÑĸÐ» Ñĸ
ĠÐ´ ÐµÑģ
ĠÑĦ Ð¾ÑĢÐ¼
ĠÐ¶Ð°ÑĥÐ°Ð¿ ÑĤÑĭ
Ð°ÑĤÑĤÐ°ÑĢ ÑĭÐ½ÑĭÒ£
Ð°Ð¼Ð± ÑĭÐ»
Ġ Â»
ĠÐ¾ÑĢ ÑĭÐ½Ð´Ð°
ÐµÐ¼ Ñĸ
Ñĥ Ð´Ñĸ
ĠÒĽÐ°Ð½ Ð°
ĠÑģÑĭÑĢÑĤ ÒĽÑĭ
Ð°Ð½ Ð´ÑĭÑĢÑĥ
ĠÐ¼Ò±Ð½ Ð´Ð°Ð¹
Òĵ Ð°ÑĢ
ÒĽÒ±Ð¶ Ð°ÑĤ
ĠÐ±Ð°ÑĢ ÑĭÐ¿
ÑĭÑģ ÑĤÑĭÒ£
ĠÐ±Ð¾Ð»Ð¼ Ð°Ð¹Ð´Ñĭ
ĠÑįÐ»ÐµÐºÑĤÑĢÐ¾Ð½ Ð´ÑĭÒĽ
Ð¶ ÑĭÐ»
ĠÐ¶Ð¾Òĵ Ð°ÑĢ
ĠÐ¡ ÐµÑĢ
ĠÐ± Ð°
ÐĲÐ» Ð¼Ð°ÑĤÑĭ
ÐºÐµÑĢ Ñĸ
ĠÐ «
ĠÑĪ Ð¾
ÐĲ Ð¹
ÑģÑĤ Ð²
ĠÐ° ÒĵÐ°ÑĪ
ÐµÑĤ ÑĢ
ĠÐ¶ÓĻÑĢ Ð´ÐµÐ¼
ĠÐ°Ð¹ ÑĭÐ½Ð´Ð°
K Z
ĠÐ°Ñĥ ÑĭÐ·
ĠÐº ÑĸÑģÑĸ
Ñĭ Ð¹ÑĭÐ¼
Ð³ÑĸÐ» ÑĸÐº
Ð³Ðµ Ð´ÐµÐº
ĠÐ±Ð°Ð» Ð°Ð»Ð°ÑĢÐ´Ñĭ
ÑĸÐ¼ Ð´ÑĸÐº
ĠÐ±ÐµÑĢ ÑĸÐ»ÐµÐ´Ñĸ
ĠÐ¡Ð¾Ð½ Ð´Ð°Ð¹
ĠÑĤÓĻÑĢ ÑĤÑĸÐ¿
ĠÐº Ð°ÑĢÑĤ
ĠÒ±Ð» Ñĭ
Ð¾Ð» ÑĭÒĽ
ĠÓ©Ð½ Ð´ÑĸÑĢÑĥ
Ġ M
Ð½Ñĭ Ð¹
ĠÐ¶Ð¸ ÑĭÐ½
ĠÐ±Ð¾Ð» Ð°ÑĪÐ°ÒĽ
ÑĤÐµÑĢ ÑĸÐ½Ðµ
Ð» Ð°ÒĵÐ°Ð½
Ð¼ Ð°ÒĵÑĭ
ĠÐ¶Ð¾ÑģÐ¿Ð°ÑĢ Ð»Ð°Ñĥ
ÑģÑĭÐ» Ð¼Ð°Ð½
ĠÒ¯Ð» Ð³Ñĸ
Ðķ Ñģ
ĠÑĤ Ð¾Ð¹
" ,
Ð¸Ð½ Ðµ
ĠÐ¼ ÓĻÑĢ
Ñħ Ð°Ð¼
ĠÒļÐ°Ð·Ð°ÒĽ ÑĪÐ°
ĠÐ¨ ÑĭÒĵÑĭÑģ
ĠÐ±Ð°ÑģÐ¿ Ð°ÑģÓ©Ð·
Ð° Ò»
ÑĤÑĭ Ð¼
Ð¶ Ð¾Ð»
ÑĭÒĽ ÑĤÑĭÑĢÑĥ
Ð¸ÑģÑĤ ÐµÑĢ
ĠÑĤÐ°ÒĽÑĭÑĢ ÑĭÐ¿
ĠÑģ Ò±
ĠÐ¶Ð¸Ð½ Ð°ÒĽ
Ð´Ð°Ð¹ ÑĤÑĭÐ½
Ð°Ð» Ð°Ð¼
Ðº ÑĨÐ¸Ð¾Ð½
ĠÐ±Ð¾Ð» Ð°
ĠÐ¶Ð°ÑĥÐ°Ð¿ ÐºÐµÑĢ
ĠÑĤÒ¯ÑĢ Ñĸ
a k
ĠÓĻÐ´Ñĸ ÑģÑĤÐµÐ¼
ĠÐ¥Ð°Ð»ÑĭÒĽ ÒĽÐ°
ĠÐ¾ÑĤ Ð±Ð°Ñģ
ĠÑģÓ©Ð· Ð´ÐµÑĢ
ĠÒ±ÑģÑĭÐ½ Ñĥ
ĠÐľ ÐµÐ¼Ð»ÐµÐºÐµÑĤ
Ġ D
Ðľ Ò±
ĠÐ±ÐµÐ» Ð³Ñĸ
Ðľ Ð°ÒĽ
Ð»Ð°Ð¼ ÐµÐ½ÑĤÑĸ
Ġ2 7
Ñĭ ÒĵÐ°Ð½
ÐµÐ¼ ÐµÐ¹
Ġ2 3
ĠÑģÐµÐº ÑĸÐ»Ð´Ñĸ
ĠÐ±Ð°Ñģ ÑĤÐ°ÒĵÐ°Ð½
ĠÐºÓ©Ð· ÒĽÐ°ÑĢ
ĠÐºÓ©ÑĢ Ð³ÐµÐ½
Ð°ÑĤÐ¸Ð² ÑĤÑĸÐº
ĠÐ±Ò¯Ð³ÑĸÐ½ Ð³Ñĸ
ĠÑĢ ÓĻÑģ
ÓĻÑĥ ÐµÐ»
ĠÐĲ Ð´Ð°Ð¼
ĠÐ¿ÑĢÐ¾ ÑĦ
ÑĤÐµ ÑħÐ½
ĠÑĭÐ½ÑĤÑĭÐ¼Ð°ÒĽ ÑĤÐ°Ñģ
ĠÐº Ð¾Ð´
ĠÒĽÐ°Ð· ÑĸÑĢ
ÓĻÐ¼ ÐµÐ»
ĠÐºÐ¾Ð½ ÑĦÐµÑĢÐµÐ½ÑĨÐ¸Ñı
ÑĨ Ð¸
ĠÐ´ Ð¾Ð»
Ñģ Ñĥ
ĠÐĲ Ð±
ĠÑģÐ°Ñı ÑģÐ°ÑĤÑĭ
ÑĤ Ò¯ÑĢÐ»Ñĸ
ĠÐµÑĤ ÐºÐµÐ½
ĠÑĪÐµÐº ÑĤÐµÑĥ
ĠÐ³ Ð¸Ð¿
Ð°Ñģ ÑĤ
ĠÑĦÑĥÐ½ ÐºÑĨÐ¸Ñı
ĠÒĽÐ°Ð» Ð´ÑĭÑĢ
ĠÑĸÑģÑĤ ÐµÑĥ
Ð»ÐµÑĢ Ð³Ðµ
ĠÑĤÐ°Ð±Ð¸Òĵ Ð°ÑĤ
ÐµÑģ ÑĸÐ·
Ð°Ð¼ Ð°Ð·
ĠÐ½ Ó©
ĠÐ±Ò¯ ÐºÑĸÐ»
ĠÐ¸Ð½ Ð´ÑĥÑģÑĤÑĢ
ÑĢÐ¾ Ð¿
Ð¼ Ð¾Ð»Ð°
ĠÐºÐ¾Ð¼Ð¸ÑģÑģÐ¸Ñı ÑģÑĭÐ½ÑĭÒ£
ĠÑĤÓ©ÑĢÐ°Òĵ Ð°ÑģÑĭ
ĠÑĢÐµÑģÑĥÑĢ ÑģÑĤÐ°ÑĢ
ĠÑĤÐ°Ñģ ÑĭÐ¼Ð°Ð»
Ð´Ð° Ð´Ñĭ
ĠÒĽÐ°ÑĤÑĭÑģ ÑĥÑĪÑĭÐ»Ð°ÑĢ
ĠÐĲÒļ Ð¨
Òĵ ÑĭÐ½Ð´Ð°
ĠÑģÐ°ÒĽ ÑĤÐ°Ð½Ð´ÑĭÑĢÑĥ
ĠÒĽÐ°ÑĢ Ð°Ð¼
ĠÐ±Ó©Ð» Ñĸ
ĠÐ°ÑĤÒĽÐ°ÑĢ ÑĭÐ»ÒĵÐ°Ð½
ĠÑģÐ°Ð» ÑĭÐ¿
ĠÐľ ÓĻÐ´ÐµÐ½Ð¸ÐµÑĤ
ÑĤÑĭÑĢ ÑĭÐ¿
ĠÓĻÑĢÐµÐº ÐµÑĤ
ÒĵÑĭ ÑĢÑĥ
Ð¿ Ð°Ð·
ĠÐ½Ð°Ñĥ ÒĽÐ°Ñģ
ĠÐ¶ÐµÑĢ Ð³Ðµ
Ġ2 2
ĠÑĤ ÑĭÑģ
ĠÐļ Ð¢
ĠÐ±Ð°Ñģ ÑĤÐ°Ð¼
ÑĪ ÑĸÐ½ÑĸÒ£
ĠÐ¶ Ò±ÑĢÑĤ
ÑĪ Ð°ÒĽ
ĠÐķ Ð½Ð´Ñĸ
Ð´Ð°ÑĢ ÑĭÐ½Ð°Ð½
ĠÓ¨ Ð¹ÑĤÐºÐµÐ½Ñĸ
ĠÑģ Ð¾Ð¼
ÑĸÐ¼ÑĸÐ· Ð´Ñĸ
ĠÑĤÐµÐºÑģÐµÑĢ Ñĥ
ĠÐ¨ ÑĭÐ¼ÐºÐµÐ½ÑĤ
ĠÒĽÐ¾ÑĢ ÒĵÐ°Ð½
ĠÐ±Ð°ÑģÑĪÑĭÐ»Ð°ÑĢ ÑĭÐ½ÑĭÒ£
ĠÐ¼Ð¸Ð½Ð¸ÑģÑĤÑĢ ÑĸÐ½ÑĸÒ£
ĠÐºÐ°Ð·Ð°Ðº ÑĪÐ°
ĠÐ» Ð¸ÑĨ
ĠÐºÒ¯Ð½ Ð´ÐµÐ»
ĠÐ¿ ÑĢÐµÐ·Ð¸Ð´ÐµÐ½
Ġ2 8
Ġ E
ĠÐ±ÐµÐ»Ð³ÑĸÐ» ÐµÐ½Ð³ÐµÐ½
ĠÐµ Ð³ÐµÑĢ
ĠÑĤÐ¾Ð»ÑĭÒĽ ÑĤÑĭÑĢÑĥ
ĠÐ´ÐµÐ¿Ð°ÑĢÑĤÐ°Ð¼ ÐµÐ½ÑĤÑĸ
ĠÐ±ÑİÐ´Ð¶ ÐµÑĤÑĤÑĸÐº
Ð°Ð½ Ð´ÑĭÒĽ
e s
ĠÑĤÐ°Ð±Ð¸Òĵ Ð¸
ĠÐ°Ð¹Ð½Ð°Ð» ÑĭÑģ
Ðĳ Ò¯Ð³ÑĸÐ½
ĠÒĽÐ¾ Ñı
ĠÐ¶Ò¯ÑĢ ÑĸÐ¿
ĠÐĳ Ð°ÑĢÐ»ÑĭÒĽ
ĠÐ¶Ð°Òĵ ÑĭÐ½Ð°Ð½
ĠÐ±Ð°Ñģ ÑĪÑĭÐ»ÑĭÒĵÑĭÐ½ÑĭÒ£
ĠÑĤ Ð°Ð½Ñĭ
Ð°Ñħ Ð°Ð±
Ð´Ñĭ ÒĵÑĭÐ½
ÑĪÑĭÐ»Ð°ÑĢ Ð´ÑĭÒ£
ÐµÐ»ÐµÑĢ Ð´ÑĸÒ£
Ðĸ Ð°Ò£
ĠÑįÐº Ñģ
ĠÐ´ÑĸÐ½ Ð¸
ĠÑĥ Ð°ÒĽÑĭ
i Ð¿
ĠÒĵ Ð¸Ð¼Ð°ÑĢ
ĠÑģ Ð¾ÒĽ
Ð°Ð´ Ð¸
ĠÐ´Ð° ÑıÑĢ
Ðŀ Ð±Ð»
Ð Ļ
ĠÑģÐ°Ð¹Ð» Ð°Ñĥ
Ð¼Ð°Ð¹ ÑĤÑĭÐ½
ĠÐ± ÓĻÑģ
ÓĻÐ¼ÐµÐ» ÐµÑĤÐºÐµ
ĠÐ± iÑĢ
ĠÑĥÑĩÐ°Ñģ Ðº
5 7
ĠÐĸ Ð°Ð»Ð¿Ñĭ
Ð°ÑĢ Ð´
ÑĤ ÒĽÐ°Ð½
ĠI V
ĠÐ± Ð°ÑĥÑĭÑĢ
ĠÑĭÒĽ Ð¿Ð°Ð»
Ð´Ðµ Ð³ÐµÐ½
ĠÐº ÑĸÐ¼
ĠÒĽÐ°Ð¼ ÒĽÐ¾ÑĢ
ĠÐ°ÑĤ Ð°Ð»ÒĵÐ°Ð½
ĠÒļ ÑĭÑĤÐ°Ð¹
ĠÑģÐ°Ð¿ Ð°ÑģÑĭÐ½
ĠÑĤÒ¯Ñģ ÑĸÐ¿
ĠÐĲÐ» Ð°Ð¹Ð´Ð°
Ð¾Ðº Ñģ
ĠÑĤÐ°Ò£ Ð´Ð°
ĠÐ°Ð´Ð°Ð¼ Ð´Ð°ÑĢÐ´ÑĭÒ£
ĠÐ°ÒĽ ÑĪÐ°
ĠÒĽÐ°Ð·Ð°ÒĽ ÑĪÐ°
ĠÑĤÐ¾Ð» Ð¼Ð°ÒĵÐ°Ð½
Ð¿ ÑĢ
ĠÑģÑĥÑĢ ÐµÑĤ
i m
ĠÐµÐ» Ð´ÐµÑĢ
ĠÐ°ÒĽ Ð¿Ð°Ð½
ĠÐĲ Ñĥ
Ð¼ Ð°Ð»
ĠÑĤÐ°ÑĢÐ¸Ñħ Ñĭ
ĠÐ¼ÑĸÐ½Ðµ Ð·
ĠÐ· Ð°ÑĤÑĤÐ°ÑĢ
Ð´ÑĭÒĽ ÑĤÐ°ÑĢ
ÑĤÐ°Ð» ÑĭÐ¿
Ð°Ñģ Ñģ
Ð³ ÑĸÑĢ
ĠÒĽÐ¾Ð» Ð¶ÐµÑĤ
ĠÑĤÒ¯ Ð½
Ð½Ð¾ ÑģÑĤ
Òĵ Ð°Ð¼Ð±
ĠÒ±ÑģÑĭÐ½ ÑĭÑģ
ĠÐºÒ¯ Ð»
ĠÑĤÑĸÑĢÐºÐµÐ» Ð³ÐµÐ½
Ġ2 6
ĠÒĽÐ¾Ð»Ð´Ð°Ð½ ÑĭÑģÒĽÐ°
ÐµÐ´ Ð¸
ĠÐº ÑĢ
ÑĭÐ½ Ñĭ
Ò£ ÑĸÑĢ
ĠÒĽÐ¾Ð½ Ð°ÒĽ
Ð¸Ð¼Ð¿ Ð¸
ĠÑĤ ÑĭÐ¹ÑĭÐ¼
Ñĥ ÑĸÐ½Ðµ
ĠÑĤÓĻÑĢÐ±Ð¸ Ðµ
ÑĭÐ½Ð° Ð´Ñĭ
ĠÒ±ÑĢ Ð¿Ð°ÒĽ
Ð´Ð°ÑĢ Ð¼ÐµÐ½
ĠÐ¼Ò±ÒĵÐ°Ð» ÑĸÐ¼Ð´ÐµÑĢ
ÒĽÑĭ ÑĪ
ĠÐķ ÐºÑĸ
ĠÐľ Ð°Ò£ÒĵÑĭÑģÑĤÐ°Ñĥ
ĠÐĨÐĨ ÐĨ
ĠÐ´ÓĻÐ» ÐµÐ»
ĠÑĦ Ð¸Ð·
ÐµÐ» ÐµÐ³ÐµÐ½
Ð¨ Ð¡
Ð± Ð°ÑģÑĭÐ½ÑĭÒ£
ĠÐ´ÐµÐ½ Ðµ
ÑĤÐ°Ð½ Ñĥ
ĠÑĤÑĸÐº ÐµÐ»ÐµÐ¹
ĠÐŀ Ð»Ð°ÑĢÐ´ÑĭÒ£
ĠÐºÐµÐ· ÐµÐº
ĠÓ©ÐºÑĸÐ» Ð´ÐµÑĢÑĸ
ĠÑĤ ÐµÐ·
ĠÐ±Ð°ÑĢ Ð»ÑĭÒĵÑĭ
ÑĢ Ð°ÒĽ
ĠÐ°ÑĢ ÒĽ
ĠÐ¿Ð°Ð¹Ð´Ð°Ð»Ð°Ð½ ÑĥÒĵÐ°
ĠÓĻÑĢ ÑĤÒ¯ÑĢÐ»Ñĸ
ĠÐ¾ÑĢÐ³Ð°Ð½ Ð´Ð°ÑĢÐ´ÑĭÒ£
ĠÐ³ ÑĢÐ°Ð½
ĠÐ¼ÓĻÑģ Ð»
Ðº Ó©Ð»
Ð± ÐµÑģ
Ð¾ ÑģÑĤ
ĠÑĤ ÑĸÐ¿ÑĤÑĸ
ĠÓ©Ð· ÑĸÐ½Ðµ
1 3
ĠÓ©Ò£ Ð´ÐµÑĥ
Ð³ÑĸÐ» ÐµÑĢ
ĠÑģÐ°Ð» Ð°
. âĢĶ
ĠÐľ ÐłÐ¢
Ð³ÑĸÐ» Ñĸ
ĠÐ¾ÒĽ ÑĭÐ¿
Ð°Ð½Ñĭ ÑĪ
ĠÑģÓĻ ÑĤ
ĠÑĤÒ±ÑĢ ÑĭÐ¿
ĠÑį ÑĤ
ĠÐ¼Ð¸Ð»Ð» Ð¸Ð¾Ð½
0 5
ĠÐ¶Ð°Ò£ ÒĵÑĭÑĢÑĥ
ĠÑģÑĥ Ð±ÑĬÐµÐºÑĤÑĸ
) ;
Ð´Ð°Ð» ÒĵÐ°Ð½
Ð´Ð¸ Ð´Ð°
ĠÐ¡ Ð¾
ĠÐ¶Ð°Ñģ ÑĤÐ°ÒĵÑĭ
ĠÐ± Ðµ
ĠÓĺ Ð¹
m a
ĠÐ¶Ð¸Ð½ Ð°ÒĵÑĭ
ĠÒļ ÑĭÑĢ
.... ....
ĠÐ°ÑĢ Ñħ
ĠÒĽÐ°Ñĥ ÑĭÐ¼
ĠÐµÐ» ÑĸÐ¼ÑĸÐ·
ĠÐĸ Ð¨Ð¡
Ġ Ð°Ð¶
Ð´Ð°Ð½ Ñĥ
ĠÐ¼ÐµÐº ÑĤÐµÐ±
ĠÐ¶Ð°ÑĤ ÑĤÑĭ
ÑĤÐ°ÑĤ Ð¸ÑģÑĤ
ĠÑĪ Ð°ÑĪ
Ð· Ð±
% -
ĠÐ¶Ð¾Ð± Ð°ÑģÑĭ
ĠÒĽÐ°Ð¹ ÑĭÑĢ
Ð» ÐµÐ¿
ĠÐµÑĤ ÑĤÑĸ
ĠÐ¥Ð°Ð»ÑĭÒĽ Ð°ÑĢÐ°Ð»ÑĭÒĽ
ĠÑģÐµÐ½ ÑĸÐ¼
ĠÐ¼Ò¯ Ð´
ĠÑĪ Ð°Ð»
ĠÓĻÑĢÑĸÐ¿ ÑĤÐµÑģ
Ð°Ð¹ ÑĤÑĥ
ĠÒĽÒ±ÑĢ Ð°Ð¹Ð´Ñĭ
ĠÑĤÒ±Ð» ÒĵÐ°
Ð»ÑĸÐº ÑĤÑĸÒ£
ĠÓĻÐºÑĸÐ¼ Ð´ÑĸÐ³Ñĸ
ÑĭÒĵÑĭ Ð¼ÐµÐ½
ĠÑĤÒ¯ÑģÑĸÐ½ ÑĸÐº
ĠÐ±Ð¾Ð» Ð°ÑĢ
ĠÐµÑĢÐµÐºÑĪ ÐµÐ»ÑĸÐº
ÒĽ Ð°ÑĤÑĭÐ½Ð°Ñģ
ĠÐºÓ©Ð¼ÐµÐº ÑĤÐµÑģ
ÐµÑĤ Ð¸ÐºÐ°
Ð± Ð°Ð¿
Ð³ ÑĸÐ¼ÐµÐ½
Ðĳ Ð°Ñģ
Ð°ÑĨÐ¸Ñı Ð»Ð°ÑĢ
ĠÐ°Ð¹ ÑĭÐ¿
ĠÒ® ÐºÑĸÐ¼ÐµÑĤ
ĠÑģÐ°Ð» Ñĥ
ĠÐļ Ò¯Ð½
ĠÐļ ÓĻÑģÑĸÐ¿
ĠÐºÓ©Ð· Ð´ÐµÐ»Ð³ÐµÐ½
ĠÐ° ÑĤÑĭ
ĠÒĽÐ°ÑĥÑĸÐ¿ ÑģÑĸÐ·Ð´ÑĸÐº
ĠÐ¿Ð°Ð¹ Ð´
ĠÐ°Ð½ Ð°
ĠÓ© ÑĤÑĸÐ¿
Ð°ÐºÑĤ Ð¸ÐºÐ°Ð»ÑĭÒĽ
ĠÒ± ÑģÑĤÐ°Ð½
ĠÐ¾ ÑĤÐ°Ð½
Ð¸Ñı ÑģÑĭÐ½
ĠÐ½ÓĻÑĤÐ¸Ð¶ ÐµÑģÑĸÐ½Ð´Ðµ
ĠÐºÐµÒ£ ÐµÐ¹
Ò±Ð» Ð´Ñĭ
ĠÑĤÐ°Ð¼ ÑĭÑĢ
ĠÑĪÑĭÒĵÐ°ÑĢ Ð¼
ed ia
ĠÐĨÑĪ ÐºÑĸ
ÂŃ ÂŃ
ÑĭÒ£ ÒĵÐ°Ð¹
Òļ Ð°Ð»Ð°Ð»ÑĭÒĽ
ĠÐ¼ Ð°ÑĪ
00 0
Ð» Ð¾Ð¼
ĠÑģÐ°Ð» ÑĭÑģÑĤÑĭÑĢ
ĠÐµÐ» ÑĸÐ¼ÑĸÐ·Ð´ÑĸÒ£
Ðº ÑĤ
Ð°Ð½ ÑĤ
ĠÑħ Ð¸Ð¼
ÓĻÑĢ ÐµÐº
ĠÑĤÐ°Ò£ Ð´Ð°Ñĥ
/ /
ĠÐ¼ÑĸÐ½Ð´ ÐµÑĤ
ĠÐŀÑĢÑĤ Ð°Ð»ÑĭÒĽ
ÐµÑĤÑĤÐµÑĢ ÑĸÐ½
ÑĤÐ°Ð¹ ÑĤÑĭÐ½
Ð½Ð°Ð¼ Ð°
ĠÐ´Ò¯Ð½Ð¸ Ðµ
ÒĵÐ°Ð½ Ñĭ
ĠÐºÓ©ÑĢ ÐºÐµÐ¼
ĠÐºÑĥ ÓĻ
ĠÑĦÐ¾ÑĢ ÑĥÐ¼
Ñħ Ð¸
ĠÓ©ÑĤÐµ Ð´Ñĸ
ĠÒĽÐ°ÒĵÐ¸Ð´ Ð°Ð»Ð°ÑĢÑĭÐ½
o u
ĠÐ°ÐºÑĤÑĸ Ð»ÐµÑĢÑĸÐ½
ĠÐ±ÑĸÑĢ ÐµÑĥ
ĠÐ¼ Ð°Ò£
ĠÐ¶Ð°Ð· Ñĥ
ĠÑĦÐ°Ðº ÑĤÐ¾ÑĢ
ĠÓĻ Ðº
Ġ Â
Ñģ ÑĭÐ¼ÐµÐ½
ĠÐ´Ð¸ÑĢÐµÐºÑĤÐ¾ÑĢ Ñĭ
Ñĥ Ð´ÑĸÒ£
Ð¸Ñģ ÑĤÑĸÐº
ĠÐµÑĢ ÑĤÐµ
ĠÐķÒ£ Ð±ÐµÐº
Ð¥ Ð°Ð»ÑĭÒĽ
ĠÒĽÐ¾Ð»Ð¶ÐµÑĤ ÑĸÐ¼Ð´Ñĸ
Ð¿ ÑĸÐ½
Ð»ÑĭÒĽ ÑĤÐ°ÑĢ
ÑĢ Ð´
ĠÒ¯ ÐºÑĸÐ¼
ĠÐ §
ĠÐ¶ÐµÑĤ ÐºÐµÐ½
ĠÐ¼ ÐµÐ·
ĠÐº ÐµÑĢÑĸ
ÑĥÐ»ÑĮ ÑĤ
ĠÑģÐ¾Ð½ ÑĭÒ£
ĠÑĪ Ð°ÒĵÑĭÐ¼
ĠÐĲ ÑģÑĤÐ°Ð½
ĠÐ°Ñĥ ÑĭÑģ
ĠÐ¼Ò± ÑģÑĭÐ»Ð¼Ð°Ð½
Ð°Ð´ ÑĢ
Ðº Ð¾
ĠÑĤ Ð°Ð¹
ĠÑĪ Ð°Ð±
Ð°Ð½ Ð´Ð°
ÓĻÑĢ Ñĸ
ĠÐµ ÑģÑĤ
ĠÑĭÐ´Ñĭ Ñģ
ĠÐ°Ð´Ð°Ð¼ ÒĵÐ°
Ñĥ Ð´Ðµ
ĠÑĤ ÓĻÐ½
Ð³ ÐµÐ»
ĠÑħÐ°Ð±Ð°ÑĢÐ»Ð°Ð¼ Ð°
ĠÐ¾ÑĤ Ð±Ð°ÑģÑĭ
ĠÐ°Ð¹ÑĤÑĥ ÑĭÐ½ÑĪÐ°
ĠÐ¼ÐµÐ½ ÑĪÑĸÐº
ĠÐ¶Ð°Ð· ÑĭÐ¿
Ð¼ ÐµÐ¹ÑĤÑĸÐ½
ĠÑĪÐ°ÑĢ ÑĤÑĤÐ°ÑĢ
ĠÑĤÒ±ÑĢ Ð¼
Ġ h
ĠÐºÓ©ÑĢÑģÐµÑĤ ÐµÐ´Ñĸ
ĠÐ»Ð¸ÑĨ ÐµÐ½
ĠÒĽÐ°ÑĢ Ð°ÒĵÐ°Ð½Ð´Ð°
ĠÑĪÑĭÒĵÐ°ÑĢÐ¼Ð° ÑĪÑĭÐ»ÑĭÒĽ
ĠÐ¼ Ð¸
ĠÒ± Ð¶ÑĭÐ¼
ĠÑĤÑĸÐ» ÑĸÐ½
ĠÐºÒ¯Ð½ Ð³Ðµ
ĠÐ± ÑĭÐ»Ð°Ð¹
ĠÒ± Ñı
ĠÐ¶Ð°ÒĽ ÑģÐ°ÑĢ
ĠÐ°ÑģÑĭÑĢ ÑĭÐ»Ð°Ð´Ñĭ
ĠÒĽÐ°Ð» Ð¿
ĠÐ°Ð¹ ÑĤÑĭÐ»
ĠÒ¯Ð¼ ÑĸÑĤ
ĠÐ° ÒĵÑĭÐ¼
ĠÐ°ÑģÑĭÑĢ Ð°ÑĤÑĭÐ½
ĠÑĤ Ð¾Ð½
Ó© Ò£Ð³
ĠÐ¼Ð» ÑĢÐ´
ĠÐ±Ð°ÒĵÐ´Ð°ÑĢÐ»Ð°Ð¼ Ð°
ĠÐ¼Ð¸Ð½Ð¸ÑģÑĤÑĢ Ð»ÑĸÐ³Ñĸ
ĠÐ¾Ð»Ð°ÑĢ ÒĵÐ°
Ð´i Ò£
ÑĤ ÐµÐ¹
ĠÐ¸Ð½ ÑģÐ¿
Ð±ÑĬ ÐµÐº
Ġ2 9
Ð°Ð½ ÒĵÐ°Ð½
ĠÑĤÒ±Ð»Òĵ Ð°Ð»Ð°ÑĢ
ÒĽ Ð¾ÒĵÐ°
ĠÐ¶Ð°Ñģ ÒĽÐ°
ĠÐ±Ð°ÑĢ Ð°
ĠÐ¼Ò¯Ð¼ÐºÑĸÐ½ Ð´ÑĸÐ³Ñĸ
ĠÐ´ÐµÐ¿Ð°ÑĢÑĤÐ°Ð¼ ÐµÐ½ÑĤ
a tion
Ð¸Ñı ÒĵÐ°
ĠÐŁ ÑĢ
ĠÐ°Ð¿Ð¿Ð°ÑĢÐ°ÑĤ ÑĭÐ½Ð´Ð°
ĠÐ°Òĵ ÑĭÐ»
ÑĸÐ» ÑĸÑģ
ĠÐĲ ÑĤ
Ð¸ Ð±Ðµ
ĠÑĪ ÑĭÑĢ
Ð°Òĵ ÑĭÐ½Ð°
Ġ s
ĠÒĽ Ð°ÒĽ
Ñħ Ð¼ÐµÑĤ
ÐµÐ´ i
ĠÐ¿ÑĢÐ¾ÑĨ ÐµÑģ
ĠÐ± ÑĢ
ÑĭÒ£ÑĭÐ· Ð´Ñĭ
ĠÑģÐµÐ· ÑĸÐ¼
ĠÐºÓ© Ð¼
Ð°Ð» Ð»
ĠÐ¿ÑĢÐ¾ÐºÑĥÑĢ Ð°ÑĤÑĥÑĢ
Ð°Ð¹ ÑĭÒĽ
ĠÒļ Ð¾ÒĵÐ°Ð¼
ĠÑĤÒ¯ÑģÑĸÐ½ Ð´ÑĸÑĢ
Ðľ ÓĻ
Ðľ ÐµÐ½
ĠÐ½ ÐµÑģ
ĠÐº ÐµÐ½
Ð¿ ÐµÐº
ĠÐ°Ð» ÒĵÐ°ÑĪ
ĠÐ¶ÑĭÐ» Ð´Ð°ÑĢ
ÑĭÐ½ ÑĭÐ¿
ÑĸÐ» ÑĥÑĸ
ĠÐ´Ò¯Ð½Ð¸ ÐµÐ³Ðµ
Ñģ ÑĭÒ£
ĠÐĸ Ð¾Òĵ
ĠÓĻ Ð´ÐµÑĤ
Ð» ÐµÐ´Ð¶
Ġ G
ÐµÑĤ iÐ½
ÑĭÐ¼ Ð°
Ðķ Ð³ÐµÑĢ
Ð» Ðµ
ĠÒ® Ð¹
ĠÐ· ÑĥÐ±
ÑĤÐ¸Ð² ÑĤÑĸ
ĠÐºÐ°Ð½ Ð´Ð¸Ð´Ð°
ĠÓĻÐ·ÑĸÑĢ Ð»ÐµÑĥ
Ð°ÑĤ ÑĮ
ĠÓĻÐ´Ñĸ Ñģ
Ð°ÒĽ ÑĭÐ¼
ĠÐ¶Ð°ÒĵÐ´Ð°Ð¹ ÑĭÐ½Ð°
Ð± Ð°ÑĢ
ĠÐ¢ ÐµÐº
ĠÐ°Ðº Ð°Ð´ÐµÐ¼
ĠÒĽ ÑĭÑģÒĽÐ°
ĠÒ¯Ð» ÐµÑģ
Ð¸Ð´Ðµ Ð¾
Ð°ÑĤ Ð°
ĠÒ¯Ð¹ÑĢ ÐµÐ½
Ó©Ð» ÑĸÐº
ĠÐµÐ½Ð³ÑĸÐ· ÑĸÐ»ÐµÐ´Ñĸ
ÑĤ Ò±
ĠÒĽÒ±ÑĢ ÑĭÐ»ÒĵÐ°Ð½
ĠÐ·ÐµÐ¹Ð½ÐµÑĤ Ð°ÒĽÑĭ
ĠÐ± Ð¸Ð»
ĠÑģÐµÐ± ÐµÐ±Ñĸ
ĠÐ¾ÑĢ Ð½Ñĭ
ĠÑĪÑĭÒĵ ÑĭÐ½
ĠÑģ Ð¸Ð½
ĠÐļ Ó©ÑĢ
Ð´ Ð¸Ð½
ĠÑĤÒ¯Ñģ ÐµÐ´Ñĸ
Ð±Ð» ÐµÐ¼
ÑĸÐ½ ÑĪÐµ
Ð· ÑĭÑĢ
ĠÑĪÐµÒ£Ð±ÐµÑĢ ÑĸÐ½Ð´Ðµ
ÑĪÐ° ÒĵÐ°Ð½
Ðķ Ðł
Ð± Ð°Ð»
ĠÑĤ ÑĢÐ°Ð½
ĠÐ±Ð¸ ÑĭÐ»
ĠÑĤÑĸÐ» Ð´ÐµÑĢÐ´Ñĸ
ÐµÐº ÑĤÑĸÒ£
ĠÐ¶Ò¯Ð¹ ÐµÑģÑĸÐ½
ÐĲ ÐĽ
Ð¸ÑĤÐ°ÑĢ Ð»ÑĭÒĽ
ĠÐļ Ð¾ÑĢ
Ð°ÑĤ ÑĭÐ½ÑĭÒ£
ĠÐ±ÐµÑĢ ÑĸÐ»Ð´Ñĸ
ĠÐºÐ¾Ð½ ÑĨ
Ð°Ð»Ð°ÑĢ ÑĭÐ½Ð°
ĠÐļÓ© Ðº
Ðĳ ÑĸÐ»ÑĸÐ¼
Ð¿ Ð°
ĠÒĽÐ°Òĵ Ð°Ð·
ĠÐ° ÒĵÐ°
ĠÐ¢ Ó©
ĠÐľ Ð°ÑĤ
ĠÒļÐ°Ð·Ð°ÒĽÑģÑĤÐ°Ð½ Ð´Ð°
ĠÐ´Ð°Ð¼Ñĥ ÑĭÐ½Ð°
Ð°Ð± Ð¸Òĵ
ĠÑĭÐ½ÑĤÑĭÐ¼Ð°ÒĽÑĤÐ°Ñģ ÑĤÑĭÒĽ
ĠÐ±Ð°Ð» Ð°Ð»Ð°ÑĢÐ´ÑĭÒ£
Ð¸Ð½ Ð¸ÑģÑĤÑĢ
ĠÐºÐµÐ¿ ÑĸÐ»
Òļ Ðł
ĠÓ©Ð» ÑĪ
ĠÒ± Ð½
ÒĽ Ñĥ
201 5
ĠÒĽÐ¾Ð¹ ÒĵÐ°Ð½
ĠÑĢ ÐµÑģÐ¿ÑĥÐ±Ð»Ð¸Ðº
ÒĵÐ°Ð¼Ð± Ð°ÑĢ
2 4
ĠÒĽÒ±ÑĢ Ð¼ÐµÑĤ
ĠÒ±ÑĪ ÑĭÑĢ
ĠÐ¶Ò±Ð¼ÑĭÑģ ÑĤÐ°ÑĢÑĭÐ½
ĠÐ¼ÐµÐºÐµÐ¼ ÐµÐ»ÐµÑĢ
ĠÐ¶Ð°Ð· ÑĭÐ»ÒĵÐ°Ð½
ĠÐµÑĪ ÐºÑĸÐ¼
ĠÒ¯ÑĪÑĸÐ½ ÑĪÑĸ
ĠÓ©Ð½Ð´ÑĸÑĢ ÑĸÑģ
ĠÒĽÐ° Ð´Ð°Ð¼
ĠÐĸ Ð°Ð¼Ð±ÑĭÐ»
ÑģÐº Ð¸Ð¹
ĠÐ¾Ð¹ Ð½
Ð± Ð°Ð½
ĠÐ¼Ðµ ÑħÐ°Ð½
ĠÐ¶ ÑĭÐ½
Ð»Ð°Ð¹ Ð½
ĠÐ´Ð°Ñĥ ÑĭÑģ
17 2
ĠÐ±Ò±ÑĢÑĭÐ½ ÒĵÑĭ
ĠÒļÐ°Ð· ÑĸÑĢÐ³Ñĸ
ĠÐºÐ»Ð°ÑģÑģ ÐŁÐ¾ÑĥÑĢÐ¾ÑĩÐ½ÑĭÐµ
Ðĸ Ð°Ñģ
ĠÐ¡Ð¾Ð» ÑĤÒ¯ÑģÑĤÑĸÐº
ĠÐ¢ ÓĻÑĥÐµÐ»
Ðº Ð¾Ð½
w w
ĠÐ¶Ð¾ Ñİ
Ð»ÐµÑĢ Ð´Ðµ
ĠÐ±Ð°Ð» Ð°Ð½ÑĭÒ£
ĠÐº Ð°ÑĢ
ĠÐ¾ÒĽÑĥÑĪÑĭÐ»Ð°ÑĢ Ð´ÑĭÒ£
ĠÐ¶Ð°Ð½ ÑĥÐ°ÑĢ
ĠÐ± Ð°Ð¿
? Â»
Ð°ÒĵÐ´Ð°ÑĢ Ð»Ð°Ð¼
ĠÐ°ÑĤ Ð°Ñĥ
ĠÒĽ Ð°Ð´Ð°
e l
ĠÐºÓ©ÑĢ ÑĸÐ½ÐµÐ´Ñĸ
ĠÐºÐ¾Ð¼ Ð¼ÐµÑĢ
ĠÓĻÐ» Ð´Ðµ
ÑĸÐ¼ Ð´ÐµÑĥ
ĠÑģÒ¯ ÑĤ
ĠÐ¼Ð°ÒĽ Ñģ
ĠÐ°Ð¹ ÑĤÐ°
ĠÐ± Ð°ÒĵÐ°
Ð³ ÑĢ
Ð¸Ð¿ Ð»Ð¾Ð¼
ĠÐ¼Ò±Ð½ Ð°Ð¹
ĠÐ´ Ð°ÑĢ
ĠÐĳÑĸÐ· Ð´ÑĸÒ£
ĠÐ¡ ÐµÐ¼ÐµÐ¹
ĠÐºÑĥÑĢ Ñģ
ÑĪ i
ĠÐº Ð¸Ð½
ĠÐ¼ÓĻÑģÐµÐ» Ðµ
ĠÒĽÒ± Ð±
ĠÐ¶ÐµÑĤ ÑĸÑģÑĤÑĸÐº
ĠÐĳ Ð°ÑĤÑĭÑģ
Ġ2 1
ÒļÑĭÐ·ÑĭÐ» ÒĽÐ¾ÒĵÐ°
ÑĭÒ£ÑĭÐ· ÒĵÐ°
ĠÐ¶ ÐµÐ´ÐµÐ»
! Â»
Ð´ÐµÑĢ ÑĸÐ½Ðµ
ĠÑĤÐ°Ð»Ð´Ð°Ñĥ ÑĭÐ½ÑĭÒ£
ÑĪÑĭÐ» ÑĭÒĵÑĭÐ½
ĠÐŀÒ£ ÑĤÒ¯ÑģÑĤÑĸÐº
ĠÐºÐµÐ·Ð´ÐµÑģ ÑĤÑĸ
ĠÒĽÑĭÐ·Ð¼ÐµÑĤ ÑĸÐ½ÑĸÒ£
ĠÐĲ Ð·Ð°Ð¼
ĠÐºÓ©Ð· Ñĸ
ĠÐ¼ÐµÐºÑĤÐµÐ¿ ÑĤÐµÑĢ
ĠÑģÐµÐ¼ Ð¸Ð½Ð°ÑĢ
Ġ4 0
: //
tt p
ĠÐºÓ©ÑĢ Ð¼
Ð°ÑĤ ÒĽÐ°Ð½
ĠÐ°ÒĽ Ð¿Ð°ÑĢ
ĠÒ±Ð¹ÑĭÐ¼ ÑĭÐ½ÑĭÒ£
ĠÑģÐ°Ð» ÑĤÐ°Ð½
ĠÑģÐ°Ð¿ Ð°ÑĢ
ĠÐ±ÑĸÐ» Ñĥ
ĠÑĤ ÓĻ
ĠÐº Ð¾
Ð°Ð¹ ÑĭÐ½Ð´Ð°
Ð¶ Ð°ÒĽÑĤÑĭ
Ð± Ð°Ð±
Ð¿ Ð»Ð°Ð½
ĠÒĽÐ°Ð±ÑĭÐ»Ð´Ð°Ñĥ Ð´ÑĭÒ£
ĠÑĤÒ± ÑĤÑĭÐ½
Ò±Ð»Ð´Ñĭ Ð·
ĠÐ¡ Ð°Ñĥ
ĠÐ¶Ò±Ð¼ ÑĭÑģÑĭ
Ò¯ Ñģ
ÒĽ Ò±Ð»
ĠÐ¶Ò¯Ð¹ ÐµÑģÑĸÐ½ÑĸÒ£
ĠÐ±Ó©Ð»ÑĸÐ¼ ÑĪ
ĠÒĽÐ°Ð¹ ÑĤÐ°Ð»
ĠÒĽÐ°Ð¹ ÑĤÐ°ÑĢ
ĠÓĻÐ»ÐµÐ¼ Ð´ÑĸÐº
ĠÐ¼ Ð°ÒĵÐ°Ð½
ĠÓ©Ð· ÐµÐ½
ÑĮ ÐµÑĢ
Ð°Ð»ÑĭÒĵ ÑĭÐ½ÑĭÒ£
ĠÑĤÒ±ÑĢ ÒĵÑĭ
ĠÐ°ÑĢÑĤ ÑĤÑĭÑĢ
Ð°Ð´Ñĭ Ð¼
ĠÐ´ Ð°Ð¹ÑĭÐ½Ð´Ð°Ñĥ
ĠW ik
ĠÒļ ÑĭÐ·
ĠÒĽÐ°Ð´Ð° ÒĵÐ°Ð»
Ó©Ò£Ð³ ÐµÐ»ÐµÐº
Ð° Ð´Ð°Ð½
Ñģ Ð°Ò£
ĠÐĸÒ±Ð¼ÑĭÑģ Ð¿ÐµÐ½
ĠÐºÐ¾Ð¼ Ð¸ÑĤÐµÑĤÑĸÐ½ÑĸÒ£
ĠÐ¾Ð±Ð»ÑĭÑģ ÑĭÐ½Ð´Ð°
ÑĨÐ¸Ñı Ð»Ð°ÑĢ
ĠÐ¶ÐµÑĤ ÑĸÐ»Ð´Ñĸ
ĠÐ´Ð°Ð¼Ñĥ ÑĭÐ½ÑĭÒ£
ĠÐ±Ð¸ ÑĸÐº
ĠÐ¢ Ò±ÑĢ
Ð³Ðµ Ð±ÑĢ
ĠÑĪÑĭÒĵÐ°ÑĢ Ñĥ
ÑĤ Ð°Ò£
ĠÐľ ÑĭÑģÐ°Ð»Ñĭ
ĠÐ°ÒĽ ÑĭÐ»
ÑĸÐ¼ Ðµ
ĠÑĤÐµ Ð¾ÑĢ
ĠÑĢ Ó©Ð»
ĠÑģÐµÑĢ ÑĸÐº
ĠÐ´ÓĻÑģÑĤ Ò¯ÑĢ
ĠÐ±ÑĸÑĢ Ð´ÐµÐ¹
ĠÑĤÑĸÐ» ÑĸÐ½Ð´Ðµ
ĠÐ¶ÐµÑĤÑĸÐ»Ð´Ñĸ ÑĢÑĥ
ĠÐ¿ÑĢÐ¾ Ð±Ð»ÐµÐ¼
ĠÐ½Ó© Ð¼ÑĸÑĢ
ĠÐ¡ ÐµÐ±
Òļ Ð°Ð¹
ĠÐ°ÒĽÐ¿Ð°ÑĢÐ°ÑĤ ÑĤÑĭ
Òļ Ðŀ
ÒĽÒ±ÑĢ ÑĭÐ»ÑĭÑģ
ĠÓ©ÑĤÐºÑĸÐ· ÑĸÐ»Ð´Ñĸ
a s
ĠÐµÑģÐµÐ¿ ÐºÐµ
ÒĵÐ°Ð½ ÑĭÒ£
Ð°Ñĥ ÑĢÑĭÐ·
____ ____
ĠÑĤ Ð¾
ĠÐĸ ÑĭÐ»
ĠÐ¶ Ð°Ð¼
ĠÐºÐ¾Ð¼ Ð¼Ñĥ
ĠÑĤÓĻÑĢÐ±Ð¸ ÐµÐ»ÐµÑĥ
Ð´Ð°ÑĢ ÑĭÐ¼ÐµÐ½
7 172
ĠÑĤÐ°Òĵ Ð°Ð¹ÑĭÐ½
o l
Ð°ÒĽ ÒĽÐ°
ĠÑĪ Ò±
Ð¿ ÐµÐ¹
ĠÐ¶Ò¯ Ð»
ÑĭÐ¼ÑĭÐ· Ð´Ñĭ
ĠÑĢ ÐµÐ¶
ÑĤÑĸ Ð·Ð±
ĠÐ½ Ð°Ñģ
ĠÒĽÒ± ÑĤÑĤÑĭÒĽ
e t
ĠÐ¼Ò±ÒĵÐ°Ð» ÑĸÐ¼
Ñĥ Ð»Ñĭ
ÐĲ Ð¢
ÑĤÐ°ÑĢ Ð´Ð°
ĠÐļ ÐµÐ»
ĠÑĤÐ°ÑĢÐ°Ð¿ ÑĭÐ½Ð°Ð½
ĠÒļ Ð°Ð»
Ó©Ð½ ÐµÑĢ
ĠÐºÒ¯ Ð¼
ĠÒ° Ð»Ñĭ
Ġ K
ÐµÐº ÑĤÐµÑĢ
ĠÑħÐ°Ð»ÒĽ ÑĭÐ½ÑĭÒ£
ĠÑĪÑĭÐ½ ÑĭÒĽÑĤÑĭÑĢÑĥ
ĠÐĳ Ò¯Ð³ÑĸÐ½
ĠÐ¼ÐµÐºÑĤÐµÐ¿ ÐºÐµ
ĠÐĲ Ð²
ĠÐºÒ¯ÑĢ Ð´ÐµÐ»Ñĸ
ĠÒĽ ÑĭÐ»
ĠÐ°Ð»Ñĥ ÑĪÑĭÐ»Ð°ÑĢ
ĠÐ°Ñģ ÑĤ
ĠÐ°Ñĥ Ð¼Ð°ÒĵÑĭÐ½Ð´Ð°
ĠÒĽÒ± Ð·ÑĭÑĢ
ĠÐ¾ÒĽ Ð¸Òĵ
ĠÐ°Ñĥ Ð¼Ð°ÒĽ
ĠÐ°Ð´Ð°Ð¼ Ð´Ñĭ
i s
ĠÐ°ÑĪ ÑĭÐ¿
ĠÐ± Ð°ÒĽ
ĠÑįÐ»ÐµÐºÑĤÑĢÐ¾Ð½ Ð´Ñĭ
ĠÐ´ÐµÐ½ ÑģÐ°Ñĥ
ÐºÓĻÑģÑĸÐ¿ ÑĤÑĸÐº
ĠÐ¼Ð¸Ð½Ð¸ÑģÑĤÑĢ Ð»ÑĸÐ³ÑĸÐ½ÑĸÒ£
ĠÑģÑĤÐ¸ ÑħÐ¸
Ð°Ð» Ð°Ð¿
ĠÐ¶Ñĥ ÑĭÒĽ
Ð¶ ÐµÐ»
ĠÑĪÐ°ÑĢ ÑĤÑĭ
Ðĸ Ð°Ð»Ð¿Ñĭ
Ġ c
ĠÒļÐ°Ð· ÑĸÑĢ
ĠÐ¼Ò¯ Ð³ÐµÐ´ÐµÐº
ĠÑĤÓĻÑĢÑĤÑĸ Ð±
ĠÐ°Ð»Ð´Ñĭ Ð¼ÐµÐ½
ĠÐµ ÑĤÑĸÐ»
ĠÐ¼Ð°ÑĤÐµÐ¼Ð°ÑĤ Ð¸Ðº
ĠÐ±Ð°Ñģ ÑĭÐ¿
ĠÐµÐ´Ñĸ Ð¼
ĠÑģÐ°Ð» ÑĭÐ½ÒĵÐ°Ð½
ĠÐ¾ÑĢÑĤ Ð°ÒĽ
ÐĲ ÑĥÑĭÐ»
ĠÐķÑĥÑĢ Ð¾Ð¿
Ð» Ð¸
ĠÐºÐµ Ð´ÐµÑĢ
ĠÑģ ÑĭÐ·
ĠÐ¶Ð°ÒĵÐ´Ð°Ð¹Ð»Ð°ÑĢ Ð´Ð°
Ñĥ ÑĪÑĸ
ÐĲÒĽ ÑĤ
ĠÒĽÐ°ÑĢÐ¶ ÑĭÐ»
Ð¾Ñģ Ð¾ÑĦ
ĠÐ¼ Ð¾
Ð½ Ð´
ĠÒ±ÒĽ Ñģ
Ð¶ ÑĭÑĢÑĭÐ¼
ĠÐ°Ð¹ÑĤ Ð°Ð´Ñĭ
ĠÐ¿ Ð°
ĠÓĻÐ´ÐµÐ±Ð¸ ÐµÑĤ
iÐ» iÐº
Ð´Ðµ Ð´Ñĸ
ĠÐ¶ÑĭÐ» Ð´Ð°Ð¼
ÑĤÐµ Ð´Ñĸ
ĠÑĤÓĻÐ¶ÑĸÑĢ Ð¸Ð±Ðµ
ĠÐ· Ð°ÑĢ
ĠÐļÐ¾Ð½ ÑģÑĤÐ¸ÑĤÑĥ
ĠÐ°ÒĵÑĭÐ» ÑĪÑĭÐ½
ĠÒĽÒ± Ð¿
ĠÐ¼Ñĥ Ð·Ñĭ
ĠÐºÐµÐ» ÑĤÑĸÑĢÑĥ
ĠÒĽÑĭÐ»Ð¼ ÑĭÑģÑĤÑĭÒĽ
ĠÐ±Ñĸ ÑĤÑĸÑĢ
Ġ6 0
ar d
ÐµÑĤ Ð¸ÐºÐ°Ð»ÑĭÒĽ
ĠÐ°Ð¹ÑĤÒĽÐ°Ð½ Ð´Ð°
ĠÐŀ ÒĵÐ°Ð½
i c
ĠÐ± ÐµÐ½
Ð°Ð¶ Ð°Ð¹
Ð¼ÐµÐ½ ÑĤ
ĠÐ¿ÓĻÐ½ ÑĸÐ½ÐµÐ½
ÐµÑģ ÑģÐ¸Ñı
ĠÐºÐ¾Ð¼ Ð°Ð½Ð´
ÒĽ Ð°ÑģÑĭ
ÑĤÑĸ Ð»ÑĸÐº
ĠÐ¡Ð¾Ð½ Ð´Ð°
ÐĲ ÐĿ
ĠÒĽÐ°ÑĤÑĭÐ½Ð°Ñģ ÑĤÐ°ÑĢÑĭ
Ġ Ð°ÑĤÑĭÐ½
Ð¾ÑĢ ÑĤ
ĠÒĽÐ°Ð·Ð°ÒĽ ÑĤÑĭÒ£
ĠÐļÐµÒ£ ÐµÑģ
ÐµÐ¼Ð°ÑĤ Ð¸ÐºÐ°
ĠÐ±Ó©Ð» ÑĸÐ³Ñĸ
ÑĦ Ð¸Ðº
ĠÐ¾ Ð·
ĠÐ¡ ÐµÐ½
ĠÐŀÑĢ Ð°Ð»
ĠÐµÑĢ ÐºÑĸÐ½
ĠÑĪÐµÑĤÐµÐ» Ð´ÑĸÐº
ÑĭÐ»Ñĭ Ð¾Ð¹
Ð»Ð°ÑĢ ÑĭÐ½Ð°
ĠÐ°Ð»ÒĵÐ°Ð½ Ð´Ð°
ÑģÐ°ÑĤ Ð°Ð¹
ÐĺÐ½ Ð´ÐµÑĢ
ĠÐ¼ÐµÐ¼Ð»ÐµÐº ÐµÑĤÑĤÐµÑĢ
Ñģ ÐµÐ¼
Ð«Òļ Ð¢ÐĲ
ĠÐ¶ Ð¾Ð¹
ÑĪÑĸÐ» ÐµÑĢÑĸ
ĠÐ¼ÓĻ Ð¶
ĠÓ© Ðº
ĠÐ°ÑĢÐ°Ð» Ð°Ñģ
Ð¸ÑĦ ÑĢ
ĠÑĤÓ©Ð¼ÐµÐ½ Ð³Ñĸ
ĠÒĽÐ°ÑĥÑĸÐ¿ ÑģÑĸÐ·
ĠÐ¼Ò¯ Ð»ÑĸÐº
ĠÒ¯ÑĢ Ð´Ñĸ
I I
ĠÐµ ÐºÐµÑĥ
ĠÒĽÐ¾Ð¹ ÑĭÐ¿
ÑĤÑĸ Ð¼
ĠÑĥÓĻÐºÑĸÐ» ÐµÑĤÑĤÑĸ
Ġ ÉĻ
ĠÑģ ÓĻÐ»
Ð»ÐµÑĥ Ð¼ÐµÑĤÑĤÑĸÐº
Ðķ Ð¢
ÑĪÑĸ ÑĤ
ĠÑĤÐ°ÑģÑĭÐ¼Ð°Ð» Ð´Ð°Ñĥ
Òĵ Ñĥ
ĠÐºÒ¯Ð½ ÑĸÐ½Ðµ
Ġ200 9
ĠÐľÒ±Ð½ Ð´Ð°Ð¹
ĠÓ©ÑĤ ÐµÑĤÑĸÐ½
0 7
ĠÓ©ÑĤÐºÑĸÐ· Ð´Ñĸ
ÒĽÐ°ÑĪ Ð°Ð½
ÐµÑģ ÑĸÐ½Ð´ÐµÐ³Ñĸ
ĠÐ¶Ò±Ð¼ÑĭÑģ ÒĽÐ°
ĠÐ¾ÑĢÐ½ ÑĭÐ½Ð°
ÑĢ Ðµ
Ġ6 4
Ñ ľ
ÑĤ Ð°Ð±
ĠI n
ÑĸÒ£ Ð´Ñĸ
Ð»ÐµÐºÑĤÑĢ Ð¾Ð½
ÐµÐ´ ÑĢ
ÑĤÑĸ Ð³ÑĸÐ½
ÑĥÑĤ Ð±Ð¾Ð»
ĠÒĽÐ°Ð»ÑĭÐ¿ÑĤ Ð°ÑģÑĤÑĭÑĢ
ĠÐ¸Ð½ ÑĤÐµÑĢÐ½ÐµÑĤ
ĠÐºÐ¾Ð¼Ð¼ÐµÑĢ ÑĨÐ¸ÑıÐ»ÑĭÒĽ
ÑĸÐ½ Ð´Ñĸ
ĠÐ±Ð¾Ð»Ð¼ Ð°ÑģÐ°
ĠÐ¼Ð¸Ð½ ÑĥÑĤ
ÑĸÒ£ÑĸÐ· Ð´Ñĸ
ĠÑįÐºÐ¾Ð½Ð¾Ð¼ Ð¸Ðº
ÑĮ Ð¼
ĠÑĤÐµÒ£ ÑĸÐ·
Ñģ Ð°Ð»
ÒĽÐ°ÑĤ Ð°ÑĢ
ĠÐºÒ¯Ð½ ÑĤÑĸÐ·Ð±
ĠÐ¡ÐµÐ± ÐµÐ±Ñĸ
ĠÑĤÐ°Ð»ÒĽÑĭÐ» Ð°Ñĥ
ĠÐĸ Ð°ÒĽ
ÓĻ ÐºÑĸÑĢ
ĠÐ´ Ð°Òĵ
Ð³ÐµÐ½ Ñĸ
ĠÒĽÑĭÐ·Ð¼ÐµÑĤÑĤÐµÑĢ Ð´Ñĸ
ĠÑħÐ°Ð±Ð°ÑĢ Ð»Ð°Ð½Ð´ÑĭÑĢÑĥ
ÓĻÑĢ Ð±Ð¸
ÑĭÐ¼ Ñĭ
ĠÐĺ ÑģÐ»Ð°Ð¼
ÐµÐº Ñĸ
ĠÐ¶Ð°ÑĢÐ¸Ñı Ð»Ð°Ð½
v e
ĠÐ¶Ò±Ð¼ÑĭÑģ ÑĭÐ½
ĠÐ¶ÐµÐº ÐµÐ»ÐµÐ³ÐµÐ½
ĠÐ´ Ð¸Ñģ
Ġ Ð°Ð¼Ð°Ð½
ĠÐķÐ» Ð±Ð°ÑģÑĭ
ĠÐļ ÐµÐ¹
ĠÐĲ ÑĥÑĭÐ»
ĠÐ±ÐµÑĢÑĥ Ð³Ðµ
Ð°Ð¼Ð± ÐµÑĤ
ĠÐ¾ÑĤÑĭÑĢ Ð°Ð´Ñĭ
ĠÑĢÐµÐ³ Ð»Ð°Ð¼ÐµÐ½ÑĤÑĸ
ÐµÐ´ Ð¸ÑĨÐ¸Ð½
Ð« ÐĿ
Ðº Ð¸Ð½
Ð³ÑĸÐ» ÐµÑĢÑĸ
Ð´ÑĭÒĽ ÒĽÐ°
ÑĸÐ½ Ñĸ
ÑĸÑĢ ÐµÐº
ÒĽÐ°Ð½ Ð´Ð°Ð¹
ÑĢ Ð¾Ð¼
Ð ¯
Ðľ Ðľ
ĠÐŀ Ð¼
ĠÒ± ÒĵÑĭÐ¼
ĠÐ°ÑĪÑĭÐ» Ð´Ñĭ
Ð°ÑĤ ÒĽÐ°
ĠÐĨ V
ĠÐºÑĸÑĤÐ°Ð¿ ÑħÐ°Ð½
ÑĸÐ¼ Ð´Ðµ
ÑĥÑĪÑĭÐ»Ð°ÑĢ Ð´ÑĭÒ£
ĠÐºÐ¾Ð» Ð»ÐµÐ´Ð¶
ĠÐ¶ÐµÑĤ ÐºÑĸÐ»
ĠÒĽÐ°Ð»ÑĭÐ¿ ÑĤÑĭ
ĠII I
ĠÐµÑĤ Ð¿
Ġ X
Ñģ ÑĭÒĽ
ÑĢ Ð¾Ñģ
ĠÐ´Ð°Ð¼ ÑĥÑĭ
ĠÐ°Ñģ ÑĭÐ»
2 2
ĠÐ¶Ð°ÒĵÐ´Ð°Ð¹ Ñĭ
Ð´ÐµÐ¹ Ð´Ñĸ
ĠÐ¶Ð°ÑģÐ°Ñĥ ÒĵÐ°
Ð» ÑĭÒĵÑĭÐ½Ð°
ĠÐ±Ð°Ñģ ÑĭÐ»ÑĭÐ¼
ĠÒĽÒ±ÒĽÑĭÒĽ ÑĤÐ°ÑĢ
ÐµÐ¼ ÐµÑĤ
ĠÐºÒ¯Ð½ Ð´ÐµÑĢÑĸ
Ðľ Ð°ÑĤ
ĠÐĳ ÐµÐ»
ĠÐ¶ÐµÑĤÐºÑĸÐ· Ñĥ
i Ñģ
ĠÐ¸Ð½ÑģÐ¿ ÐµÐºÑĨÐ¸Ñı
ÑģÑĭÐ»Ð°Ð¹ ÑĪÐ°
ÑĨ ÐµÐ½
ĠÐ¾ÒĽ ÑĭÑĢ
Ð°ÒĵÑĭ Ð·
ĠÑĤÐ°ÒĽÑĭÑĢÑĭÐ± ÑĭÐ½Ð´Ð°
ĠÐŀ Ð½Ñĭ
ĠÐ¸Ð½Ð´ÑĥÑģÑĤÑĢ Ð¸ÑıÐ»ÑĭÒĽ
ĠÐ±Ð°Ñģ ÑĭÐ½
ĠÐ¶Ð°Ò£ ÒĵÑĭÑĢ
ĠÐ±ÑĸÑĢ Ð´ÐµÐ½
Ð°Ð»Ð°ÑĢ ÑĭÐ½Ð´Ð°
ĠÐĳ ÐµÑĢ
Ð± Ò±
ĠÑĤÐ¾Ð»ÑĭÒĽÑĤÑĭÑĢÑĥ Ð»Ð°ÑĢ
Ð´ÐµÑĢ Ð´Ðµ
ĠÐ¼ÐµÑĢÐ· ÑĸÐ¼Ð´Ñĸ
ĠÐ¾ÑĢÐ³Ð°Ð½ Ð´Ð°ÑĢÑĭÐ½ÑĭÒ£
ÑĤÐ°Ñĥ ÒĵÐ°
Ð¡Ð¾Ð½ ÑĭÐ¼ÐµÐ½
ĠÑĥÐ°ÒĽÑĭ ÑĤÑĭ
ĠÐļÓ© Ð¿
ĠÑħÐ°Ð»ÒĽ ÑĭÐ½Ð°
ĠÒĽÐ°ÑĢÐ°Ð¼ Ð°ÑģÑĤÐ°Ð½
Ð¸Ñı Ð´Ð°
ĠÑĤÐ°ÒĽÑĭÑĢÑĭÐ± Ñĭ
ĠÑĸÑģ Ñĸ
ĠÐ±ÐµÑĢÑĥ ÑĪÑĸ
ĠÐ±Ð°Ð» Ð°ÑģÑĭ
ĠÐ±Ó© Ð»ÐµÐº
ĠÐ±Ò± Ð¹ÑĭÐ¼
ĠÑĤÒ± Ð¶ÑĭÑĢÑĭÐ¼
ĠÐ¼ Ð°ÑħÐ°Ð±
ĠÐ½ ÑĭÒĵ
ĠÐ¿ ÓĻ
ĠÑģÐ°ÒĽ ÑĤÐ°Ð»
ĠÐł ÐµÑģÐ¿ÑĥÐ±Ð»Ð¸ÐºÐ°Ð»ÑĭÒĽ
ÐµÐ´ Ð¸ÑĤ
ĠÑĤÐµ Ð°ÑĤÑĢ
ĠÐ± Ð¾
ĠÐ±Ð¾Ð» Ð¶
ĠÐ´ Ð¾Ñģ
ĠÐ¢Ð°Ð» Ð´Ð°Ñĥ
ĠÒĽÐ¾Ð¹ Ð´Ñĭ
ĠÐ¼ÐµÑĤ ÑĢ
Ð¸ÑĢ ÑĥÑĢÐ³
Ġ7 0
ĠÐŃ Ð½ÐµÑĢÐ³
ĠÒĽÐ°ÑĢÐ°Ð¶ Ð°ÑĤÑĤÐ°ÑĢÑĭÐ½ÑĭÒ£
Ð» Ð°ÑĤ
ĠÐºÒ¯Ð½ Ð½ÐµÐ½
Ð» Ñİ
Ġ7 57
ĠÐ¼Ð°ÑĢ Ð°Ð¿
ĠÐ¼Ò± ÒĽ
ĠÑĤÒ¯ÑĢ Ð»ÐµÑĢÑĸ
ĠÐ°Ð²ÑĤ Ð¾Ðº
ĠÐºÓ©ÑĢÑģÐµÑĤ ÐµÑĤÑĸÐ½
ĠÓĻÑģ ÑĸÑĢÐµÑģÐµ
ĠÓ© ÑĢÑĤ
ĠÐ±Ð¾Ð»Ð¼ Ð°ÒĵÐ°Ð½
Ð´ÐµÐ¼ Ñĸ
ĠÑĤÐµÐ¼ ÑĸÑĢ
Ðĸ Ò±Ð¼
ĠÐ°Òĵ Ð·
ĠÒ¯ Ð´ÐµÑĢ
ÐµÐ»ÐµÑĢ ÑĸÐ½Ðµ
Ġ a
ĠÐ´ Ð¾
ĠÑĤ Ð°Ð·Ð°
Ð¸Ð¼Ð¿ ÑĤÐ¾Ð¼
ÐµÑĤÑĤÐµÑĢ Ð´Ñĸ
Ġ201 0
ĠÓ©Ð· ÐµÐºÑĤÑĸ
ĠÒĽÑĭÐ·Ð¼ÐµÑĤÐºÐµÑĢÐ»ÐµÑĢ Ñĸ
ĠÐ´Ð°Òĵ Ð´Ñĭ
ĠÐ´ ÐµÐ»
ĠÐ¼ÓĻ ÑĤÑĸÐ½
ĠÑĤÐ°Ð½ ÑĭÐ¼Ð°Ð»
Ñĥ Ð´
ĠÐŀ Ð¹
ĠÒĽÐ¾Ñģ Ð¿
2 1
Ð¼ Ð°Ñģ
ĠÐ°Ð»Ð¼ Ð°Ð¹Ð´Ñĭ
ĠÐ¾ÑĢÐ³Ð°Ð½ Ð½ÑĭÒ£
ĠÐ´ Ð¸Ð¿Ð»Ð¾Ð¼
ÑĤÐ°Ð½ Ñĭ
ĠÐº Ð°Ð¿
ÑĤÐµÑħÐ½ Ð¸ÐºÐ°Ð»ÑĭÒĽ
ĠÐ¸Ð½ÑģÑĤÐ¸ÑĤÑĥ ÑĤ
ĠÐ¶ Ð°Ð¼Ð°Ð½
ÐµÑģÑģ Ð¾ÑĢ
Ġ :
Ð´ÑĭÑĢ ÑĭÐ¿
Ð¡ Ð¾Ð»
Ð°ÑĦ ÐµÐ´ÑĢ
ĠÐ¶Ð°Ñģ Ð°Ð»
ĠÐ±Ð°Ñģ ÑĪÑĭÐ»ÑĭÒĵÑĭ
ĠÐ±ÑĸÐ· Ð³Ðµ
i t
ĠÑģÐ¾Òĵ ÑĭÑģ
Ġ R
Ò° Ð»
ĠÐºÒ¯ Ð·
ÐĿ Ð°Ð·Ð°ÑĢÐ±Ð°ÐµÐ²
Ð³ÐµÑĢ Ñĸ
ĠÐ¡ Ó©Ð¹
ĠÐ·Ð¸Ñı Ð½
ĠÐ¶Ð¾Ð± Ð°
4 0
ÑĤÐµÑĢ Ð¼ÐµÐ½
ĠÐ°Ñĥ ÑĭÑģÑĤÑĭÑĢ
ĠÐ±Ð°Ñģ ÑĭÐ½Ð´Ð°
ĠÐ±Ð°ÑĢ Ð°Ð´Ñĭ
ĠÐĸ ÐµÑĤ
ĠÒĽÐ°Ð¹ ÑĢÐ°ÑĤ
ÑĸÐ· Ð´Ñĸ
ĠÐĳ Ð°ÑĢ
ĠÐ²ÐµÑĤÐµÑĢÐ¸Ð½Ð°ÑĢ Ð¸Ñı
ĠÐ¾ÒĽÑĭÑĢ Ð¼Ð°Ð½
ĠÑģÑĥ Ð±
ĠÑĪ Ð°Ò£
ÐµÐ¹ ÑĸÐº
ĠÐ¼ ÑĭÑģ
Ð¾Ð» Ñİ
ĠÐºÓ©Ð± ÐµÐ¹
a ÒĽ
ĠÑĤ ÑĭÒĵÑĭ
Òĵ Ð°Ð¼
Ð¾Ð³ÑĢÐ°ÑĦ Ð¸ÑıÐ»ÑĭÒĽ
Ð¶ ÐµÐº
ĠÓ©Ñģ ÑĸÑĢ
ĠÒĽÐ¾Ð»Ð´Ð°Ð½ ÑĭÐ»Ð°Ð´Ñĭ
ĠÒļ Ð°Ð½
ĠÐ´ ÓĻÑĥÑĸÑĢ
ĠÒĽÒ±ÒĽÑĭÒĽ ÑĤÐ°ÑĢÑĭÐ½
ĠÐ± ÑĥÑĭÐ½
ÑĪ Ð°Ð¼Ð°
Ñģ Ð°Ð¹
r a
ĠÑĪ Ð°Ð¿
ĠÓĺ Ñģ
ĠÓĻÐ´ÐµÐ±Ð¸ ÐµÑĤÑĸ
ÐµÐ´ Ð¾Ð¼
ĠÒĽÐ°Ð¼ ÑĤÐ¸
ĠÐ¿ÑĢ Ðµ
ĠÐ· Ð°ÒĽÑĭÐ¼
ĠÒĽÐ¾Ð» ÒĵÐ°
Ò¯Ð¹ ÑĢÐµÐº
Ð´ Ð°Ð³ÐµÑĢ
ÑĢÐ¾ ÑĦ
ĠÐµ Ðº
ĠÐ°Ñģ ÑĤÐ°Ð½
Ðº ÐµÐ¹
ĠÐ½ ÐµÐ¼
ĠÐ±ÐµÐºÑĸ ÑĤÑĸÐ»Ð³ÐµÐ½
Ðµ Ð´ÐµÑĢ
ĠÐ¢Ò¯ÑĢ Ðº
Ñĥ Ð·
ĠÐĲ ÐĿ
ĠÑģÐ°Ð¹ ÑĤÑĭ
ÑĤÐ¸ ÑĦÐ¸Ðº
ĠÐºÐµÑĤ ÐµÐ´Ñĸ
ÑĤ Ð°Ð¶
ÑĸÑģ ÐºÐµ
ĠÐ°Ð» ÒĽ
ÑĤÑĥ ÒĵÐ°
ĠÐĵ ÐµÑĢ
Ð¸ Ð´Ð°
Ð¶ ÐµÐ½
Ð¸Ð½ Ð½Ð¾Ð²Ð°ÑĨÐ¸ÑıÐ»ÑĭÒĽ
ĠÐ¶Ó©Ð½ Ð´ÐµÑĥ
ÑĭÑĪ ÑĤÑĭ
ĠÒļ Ñĥ
ÑĤÑĸÐ½ ÑĪÑĸ
Ð¸ ÐµÑĤ
Ð¸Ð· Ð°
ĠÐµÑģÐºÐµÑĢ ÑĤ
Ð´Ð°Ð¼ Ð°
Ð°ÑĨÐ¸Ñı ÑģÑĭ
ĠÒĽÒ±ÒĽ ÑĭÒĵÑĭ
ĠÑĤ ÐµÑģ
ÑĢ Ð°ÑĦ
ĠÑĪÐµÐ± ÐµÑĢ
ĠÐ¾ÒĽ ÑĥÒĵÐ°
ĠÑģÐµÐ½ ÑĸÐ¼Ð´Ñĸ
Ðļ Ðŀ
. -
ĠÓ©Ñģ ÑĸÐ¼Ð´ÑĸÐº
ÐµÐ³ÑĸÐ· Ð³Ñĸ
ĠÐ¶Ð°Ð» ÒĵÑĭÐ·
ĠÑĤÐ°Ð½ Ñĥ
Ð´Ð°Ð½ Ð´ÑĭÑĢÑĥ
ĠÒĽÐ°Ð» Ð°Ð´Ñĭ
ĠÐº ÐµÑĥ
i p
r o
Ġ p
ĠÐ¾ÑĢÐ³Ð°Ð½ Ð´Ð°ÑĢÑĭ
Ðĺ ÑģÐ°ÑĤÐ°Ð¹
Ð»Ð°Ñĥ ÒĵÐ°
ĠÐ¸Ð³ÐµÑĢ ÑĸÐ»Ñĥ
ĠÐºÓ©ÑĢÑģÐµÑĤ ÑĥÐ³Ðµ
ĠÐ°Ð¹ ÑĤÑĭÐ»ÒĵÐ°Ð½
ĠÐµÑģÐµÐ± ÑĸÐ½ÐµÐ½
ĠÐºÑĸÑĢ ÑĸÑģ
ĠÑģÑĸÐ· Ð´ÑĸÒ£
ĠÐ¶Ð°Ñģ Ð°Ð¹Ð´Ñĭ
Ð£ ÐĶ
ÒĽÑĭÐ· Ñĭ
ĠÒ¯ÑģÑĤ ÐµÐ»
ĠÐ¨ Ð°ÑĢ
ÐµÑĢÑĤ ÑĤÐµÑĥ
ĠÐ¾ÑĤÑĭÑĢ ÑĭÑģÑĭ
ĠÑģ ÑĤÐ°ÑĤÐ¸ÑģÑĤ
2 3
ĠÒĽÐ°Ð±ÑĸÐ» ÐµÑĤÑĤÑĸ
ĠÐºÒ¯Ð½ ÑĸÐ½ÐµÐ½
ĠÐ¼ Ð¸Ðº
ĠÒĽÐ°Ð»Ð¿ ÑĭÐ½Ð°
ĠÐ±ÐµÑĢ Ðµ
ÐµÐ¼ ÑĮÐµÑĢ
ĠÐ½Ð°Ñģ Ð¸ÑħÐ°ÑĤ
ĠÐĳ Ð¾Ð»
ĠÐ¿ÓĻÐ½ Ñĸ
ĠÑģÐ¾Ð½ Ð´ÑĭÒĽÑĤÐ°Ð½
ĠÐ°Ð¹ ÑĤÐ°ÑĢ
ĠÐµÑģ ÐºÐµ
ĠÑĪÑĭ ÒĵÐ°Ð´Ñĭ
ĠÐ°ÑĢÒĽ Ð°ÑģÑĭÐ½Ð´Ð°
Ð°Ð» Ñİ
Ð°Ñĥ Ð¸
ĠÐºÓ©ÑĢÑģÐµÑĤ ÐºÐµÐ½
ĠÐºÒ¯Ð½ÑĤÑĸÐ·Ð± ÐµÐ»ÑĸÐº
ĠÐ¶ÐµÒ£ ÑĸÐ¼
ĠÐ±Ð¸ Ð»ÑĸÐº
ÐµÐ³ ÑĸÐ¼ÐµÐ½
ĠÐ´ Ó©Ò£Ð³ÐµÐ»ÐµÐº
Ð ¦
ĠÐ¡ Ð°Ð¹ÑĤ
ĠÐ ®
ĠÐĳ ÐĲ
ĠÐĿÐ°Ð·Ð°ÑĢÐ±Ð°ÐµÐ² ÑĤÑĭÒ£
ĠÐ¼Ð°ÑĤÐµÐ¼Ð°ÑĤÐ¸Ðº Ðµ
Ð» Ð¸Ð½
ĠÐ¿Ð°Ð¹Ð´Ð°Ð»Ð°Ð½Ñĥ Ð´Ñĭ
Ð±ÐµÐº Ð¾Ð²
ĠÑģÓ©Ð¹ Ð»
ĠÑĥÐ½Ð¸Ð²ÐµÑĢÑģ Ð¸ÑĤÐµÑĤ
ĠÐ¶Ð¾Ð» ÑĭÐ½
ĠÐľ ÐµÐ½ÑĸÒ£
ĠÐ°ÑĪ Ñĥ
ĠÐ¼ÐµÐºÐµÐ¼ ÐµÑģÑĸÐ½Ð´Ðµ
ĠÒ¯ÑĪ iÐ½
ĠÐĲÐĿ Ð«ÒļÐ¢ÐĲ
ĠÐ¡ ÓĻ
Ð°Ð½ Ð½ÑĭÒ£
Ðĸ ÐµÑĢ
ĠÐ´ÐµÐ¿Ñĥ ÑĤ
ĠÑĪ Ð°ÒĽ
Ð¼ Ð°Ñĥ
ĠÐ¶Ð¾Ð» Ð¼ÐµÐ½
Ñģ ÑĸÒ£
ĠÑĤÒ¯ÑģÑĸÐ½ Ð´ÑĸÑĢÑĥ
ĠÐĲÐĿÐ«ÒļÐ¢ÐĲ ÐľÐĲ
ĠÒĽÑĭÐ· ÑĭÐ»
ÒĽÐ°ÑĢ Ð°Ð»ÑĭÒĽ
ĠÐ±Ð°Ñģ ÑĭÐ½Ð°
Ðľ ÐµÐºÑĤÐµÐ¿
ĠÐºÐ¾ÑĢ Ð¿Ñĥ
Ġh ttp
ĠÐ±ÑĸÑĢ ÒĽÐ°ÑĤÐ°ÑĢ
ĠÐ½Ðµ Ð³Ðµ
ÑĭÐ¼ÑĭÐ· ÒĵÐ°
ĠÒļ Ò±Ð»
ĠÐ´ ÑĭÐ±
ĠÐ°Ð¿ ÑĤÐ°
ĠÐ± Ð°Ð±
Ð³ Ð°Ð»
ÐĸÐ°Ò£ Ð°
ĠÐºÐµÐ» ÑĸÐ½
Ð°Ð»Ð°ÑĢ Ð´Ð°
ĠÐ´ Ð°Ð»
ÓĻ Ð·
Ð°Ñı ÒĽ
ĠÐ°Ð¶ ÑĭÑĢ
ĠÐ°Ð»Ð¼ Ð°Ñģ
ĠÐ¾ÒĽÑĥ ÑĪÑĭ
ĠÐ´ÐµÑĢÐµÐº ÑĤÐµÑĢ
ĠÒ¯Ð» Ð³ÑĸÐ»ÐµÑĢÑĸ
ĠÒĽÐ°Ð» Ð°ÑģÑĭÐ½Ð´Ð°ÒĵÑĭ
ĠÐŃÐ½ÐµÑĢÐ³ ÐµÑĤÐ¸ÐºÐ°
ÐµÐ¶ Ò¯Ð·
Ð°ÑĤÑĤÐ°ÑĢ ÑĭÐ½Ð°
Ñħ Ð°ÑĤ
ÑĮÑİ ÑĤÐµÑĢ
ÑĤÐ°ÑĢ ÑĭÐ½Ð´Ð°
ĠÑģÐµÑĢÑĸÐº ÑĤÐµÑģ
ĠÑģÐ°Ð¿ Ð°Ð»Ñĭ
ĠÑĤÐ°ÑĢ Ð¼Ð°ÒĽ
ĠÑĤÑĭÒĵÑĭ Ð·
ÑĸÐ¼ ÑĸÐ½
Ð´Ñĸ Ð³ÑĸÐ½Ðµ
ĠÒĽÐ°Ð± ÑĭÑĢ
ĠÐŁ Ð°Ð¹
ĠÐµ Ð³
! !
ÐµÐ³ ÐµÐ¹
Ġ H
ĠÒĽÑĭÐ·Ð¼ÐµÑĤ ÑĪÑĸÐ»ÐµÑĢ
ĠÒĽÑĭÐ· ÑĭÒĵ
Ġ V
Ð» Ð°Ð¹Ð´Ñĭ
ĠÐ¾ÑĢÐ½Ð°Ð» Ð°ÑģÑĤÑĭÑĢÑĥ
ĠÑħÐ°Ð» ÒĽÑĭ
Ġ3 1
ĠÐ¼Ð°ÑĤÐµÑĢÐ¸Ð°Ð» Ð´Ð°ÑĢÐ´Ñĭ
ĠÑĸÑĢ ÑĸÐº
n d
ĠÑį Ð»ÐµÐ¼
ĠÐ´Ð¸Ð°Ð³ Ð½Ð¾ÑģÑĤ
ÐµÐ´Ð¾Ð¼ ÑģÑĤÐ²
ĠÐ¶Ð°Ð· Ð±Ð°
ÑĸÐ½ Ð³ÐµÐ½
ĠÐ¶Ð°ÒĵÐ´Ð°Ð¹ ÑĭÐ½Ð´Ð°
Ð¾ ÑĪ
Ð°ÒĵÐ° ÑĪ
ĠÐ°Ñĥ Ð°
ĠÐ°Ð´Ð°Ð¼ Ð´Ð°ÑĢÐ´Ñĭ
ĠÐ°Ð¹ ÒĽ
ĠÑĤÑĥÑĢ Ð¸Ð·Ð¼
ĠÐ³ ÐµÐ½
ĠÐ¢ Ð°Ð±Ð¸Òĵ
ĠÑĤÓĻÑĥÐµÐ» ÑģÑĸÐ·
ĠÒ±Ð¹ÑĭÐ¼ Ð´Ð°ÑĢÐ´ÑĭÒ£
ĠÑħÐ°Ð»ÑĭÒĽ ÒĽÐ°
ĠÐ¾ÑĢÑĤ Ð°Ð»ÑĭÒĵÑĭÐ½ÑĭÒ£
ĠÐ¼ Ð°Ð³
Ðķ Ò£
ĠÑĤÑĭÑĢ ÑĭÑģ
ÑĤÐµ Ð±Ñĸ
Ð°Òĵ Ð°Ð¹
ĠÐ¿Ð¾Ð» Ð¸ÑĨÐ¸Ñı
Ð¡ Ðł
ĠÐ¼ÐµÐ¼Ð»ÐµÐº ÐµÑĤÑĤÑĸÒ£
ĠÐ¶Ð°Ð· ÒĵÐ°Ð½
ĠÑĦÐ¸Ð» Ð¸Ð°Ð»
ÑĪÑĭÐ»Ð°ÑĢ ÒĵÐ°
ĠÐ¡ Ð°ÑĢÑĭ
ĠÒĽ Ð°Ð¿
ĠÑĤ ÑĸÐ½
ĠÐ¶Ð¾Òĵ Ð°Ð»
Ġ o
ĠÒ® ÑĪ
ĠÐ¾ÑĢÐ½Ð°Ð»Ð°Ñģ ÑĥÒĵÐ°
ĠÑĤÐ°Ñĥ ÑĭÐ¿
ĠÒĽÐ°ÑĤÑĭÑģ ÑĭÐ¿
ÑĪ Ð°Ð»ÑĭÒĽ
ĠÒĽÐ°ÑĢÐ°Ð¿ Ð°Ð¹ÑĭÐ¼
ĠÐ¼Ð°ÑĪ Ð¸Ð½
ÒĵÑĭÐ» Ð°ÑĢ
ĠÑģ Ò±Ð»
Ð°Ð» Ð¸
ĠÐĵ Ò¯Ð»
ĠÐ¢ Ó©ÑĢ
ĠÐ¼ÓĻÑģÐµÐ» ÐµÑģÑĸ
Ñģ Ð°Ò£ÑĭÐ·
ĠÒ±Ð¹ÑĭÐ¼ Ð´Ð°ÑĢÑĭÐ½Ð°
ĠÑģ Ð¸Ð¼Ð¿ÑĤÐ¾Ð¼
ĠÒĽÐ¾Ð¹ ÑĭÐ»ÒĵÐ°Ð½
ĠÐ´ÐµÒ£Ð³ ÐµÐ¹ÑĸÐ½
ĠÐ¾ÒĽÐ¸ ÒĵÐ°
ĠÑĤÐ¸ Ð³ÑĸÐ·
Ð¸Ñı Ð»Ð°ÑĢ
ĠÒ ³
ĠÐºÑĸÑĪ ÐºÐµÐ½
ĠÐ°ÑĢÐ½ Ð°ÑĥÐ»Ñĭ
ÑĸÐºÑĤÑĸ ÑĢ
ĠÑĦÐ¸Ð» Ð¾ÑģÐ¾ÑĦ
ĠÐ¼ÐµÐº ÑĤÐµÐ±Ñĸ
ĠÐ´ Ð¾Ðº
ĠÐµÑĤÑĥ Ð³Ðµ
ĠÒ±ÑģÑĤ Ð°Ð¿
ĠÑįÐº Ð¾Ð»Ð¾Ð³Ð¸ÑıÐ»ÑĭÒĽ
ÑĭÑĢ Ð°Ñĥ
ĠÑĤÐµÑĢ Ð¼Ð¸Ð½
ĠÑģÑĤÐ°Ð½Ð´Ð°ÑĢ ÑĤÑĤÐ°ÑĢÑĭÐ½
Ðµ Ð´Ðµ
ĠÒĽ Ò±Ð¼
ĠÑĸÑģÑĤ ÐµÐ¹Ð´Ñĸ
Òĵ Ð°ÒĽ
ĠÐ¾Ð» ÐµÐ½
ĠÐļ Ð°Ð·
Ð»ÑĭÒĽ ÑĤÑĭ
Ð»Ð°Ð½ ÑĭÒ£
Ð¸ ÑĤÐ°Ð»
ĠÐºÒ¯ÑĪ ÐµÐ¹
ĠÐ¼Ð°Ð¼Ð°Ð½ Ð´ÑĭÒĽ
ĠÓĻÐ´Ñĸ ÑģÑĤÐµÑĢ
ĠÑĤÒ¯ÑĢ ÑĸÐ½Ð´Ðµ
Ð³Ñĸ ÑĪ
Ð¸Ð¼Ð¿Ð¸ Ð°Ð´Ð°
ĠÐ±Ð°Ð» Ð°Ð±Ð°ÒĽ
ĠÐºÐ» ÑĥÐ±
ĠÑĦ ÑĥÑĤÐ±Ð¾Ð»
ĠÒļÐ°Ð· ÐĲÒĽÐ¿Ð°ÑĢÐ°ÑĤ
ĠÑĤÐµÑħÐ½Ð¾Ð»Ð¾Ð³Ð¸Ñı Ð»Ð°ÑĢ
Ðº Ð»Ð°Ñģ
ÑģÑĤ ÑĢÑĥ
Ð· Ð°ÑĤ
ĠÐ°Ð» Ð´Ð°ÒĵÑĭ
Ð¿ ÑĸÑĢ
ĠÑĢ Ð°Ð´Ð¸
ÑĪ ÑĸÑĢ
Òĵ ÑĭÐ½Ð°Ð½
ĠÓĻÐ´ÑĸÑģÑĤÐµÐ¼ ÐµÐ»ÑĸÐº
ĠÐ¶ ÐµÑĤÑĤÑĸ
Ð± Ð°ÒĽ
a c
ĠÐĲ ÑħÐ¼ÐµÑĤ
ĠÐ¢ÑĸÐ» Ð´ÐµÑĢÐ´Ñĸ
ĠÓ©Ð·ÑĸÐ½ Ð´ÑĸÐº
ĠÐ°Ð·Ð°Ð¼ Ð°ÑĤ
ĠÐ¡ Ð°Ð±Ð°ÒĽ
ĠÐº ÐµÐ½ÑĤ
ĠÐ¼Ð°ÑĢÐ°Ð¿ Ð°ÑĤ
ÐµÐ½ Ð´Ñĸ
ĠÐ´ ÓĻÐ¼
2 7
ĠÑģ Ð¾ÑĢ
Ð¾ÑĤ Ð¾
ĠÐĲ Ð¼Ð°Ð½
Ð»Ñĸ Ð³ÑĸÐ½Ðµ
ĠÓĻ Ð´ÐµÐ¼Ñĸ
Ò¯ ÑĪ
ĠÐºÐµÑĤ ÑĸÐ¿
2 8
ĠÒĽÐ¾Ñģ ÒĽÐ°Ð½
ĠÐºÓ©ÑĢ Ñģ
ĠÐ°Ð·Ð°Ð¼Ð°ÑĤÑĤÐ°ÑĢ Ð´ÑĭÒ£
ĠÐ´Ð°Ð¼ÑĭÑĤÑĥ ÒĵÐ°
ÓĻÑĥ Ð»ÐµÑĤ
ĠÐ°Ð» ÒĵÑĭÑģ
ÒĽ ÑĭÐ¼Ð´Ñĭ
ĠÐ³Ð°Ð· ÐµÑĤÑĸ
ĠÐ±ÐµÐ»Ð³ÑĸÐ» ÐµÑĢ
Ġ m
ĠÐ¿ Ðµ
ĠÐĲÒĽ Ð¼Ð¾Ð»Ð°
ÓĻ Ð´Ñĸ
ĠÑĤ Ð°Ð·
Ò£ ÒĵÑĭÑĪ
Ð°ÑĪ Ð°ÑĢ
ĠÐ°ÑĥÑĢÑĥ ÑħÐ°Ð½
Ġ20 20
ĠÐ¡ ÑĭÑĢ
ĠÒĽ ÑĭÑĪ
ÑĭÐ½Ð´Ð° ÒĵÐ°Ð½
ĠÐº Ð°Ð±
Ð¾Ð² ÐºÐ°
ĠÑĤ Ð°Ðº
ÑĪÑĭÐ»Ð°ÑĢ Ñĭ
ĠÒĽÒ±Ð± ÑĭÐ»ÑĭÑģ
Ñģ ÑĤÑĸ
Ð½ Ð¾Ð·
ÐµÐ³ ÑĸÐ½Ðµ
ĠÐºÐµÐ·ÐµÒ£ Ð´Ðµ
ĠÑĢÐµÑģ ÑĸÐ¼Ð´ÐµÑĥ
w ard
ĠÐ¶Ð¾ÒĵÐ°ÑĢ ÒĵÑĭ
ĠÐ± Ñĥ
Ð¡ ÐŁ
u s
ĠÑĤÒ¯ Ð¿
ĠÐ¯ ÒĵÐ½Ð¸
ÑĭÒĽ ÑĤÑĭÒ£
ĠÐ´ÐµÒ£Ð³ÐµÐ¹ Ð´Ðµ
ĠÐ¾Ð½ Ð»Ð°Ð¹Ð½
Ñĸ ÑĤÐ°Ð¿
Ò±ÑĢ ÑĭÐ»ÑĭÐ¼
ĠÑģÐ°Ð» ÒĵÐ°Ð½
Ð±Ñĸ ÑĤ
ĠÐºÓĻÑģÑĸÐ¿ ÑĤÑĸÐº
ĠÐŁÑĢÐµÐ·Ð¸Ð´ÐµÐ½ÑĤ ÑĸÐ½ÑĸÒ£
ĠÐŀÑĢ ÑĤÐ°
Ġ L
ĠÐ¼ÐµÐ½ Ñĸ
ĠÐ°ÑģÑĭÑĢ Ð°Ð¿
Ð¸ Ð°Ð»Ñĭ
ĠÑĤÑĢÐ°Ð½ Ñģ
ĠÐ°Ð²ÑĤÐ¾Ðº Ó©Ð»ÑĸÐº
ĠÑĦÐ°Ðº ÑĥÐ»ÑĮÑĤ
Ñĥ Ð°Ð½
ĠÐºÐ¾Ð½ Ñģ
ĠÐĲ ÑĥÐ´Ð°Ð½
Ð· Ð°
ĠÐ¾ÑĢÑĤÐ° ÑĪÐ°
ĠÐļ Ð°ÑĢ
Ð¿Ð¾ÑĢ ÑĤÑĤÑĭÒĽ
Ðº Ð°ÑģÑĭ
ĠÐ°ÑĥÐ´Ð°Ð½ ÑĭÐ½Ð´Ð°
ÑĭÒĵ ÑĭÐ½Ð´Ð°
ĠÒĽ Ð¸Ñı
ĠÐ¼ÐµÒ£Ð³ÐµÑĢ Ñĥ
Ñĩ ÐµÐ½
ĠÐµÑģ ÐµÐ±Ñĸ
ĠÐ´Ð°Ð¹ÑĭÐ½ Ð´ÑĭÒĽ
Ð¾Ñģ Ðº
ĠÐ°Ð³ÐµÐ½ÑĤ ÑĤÑĸÐ³Ñĸ
ĠÐĲÐ»Ð»Ð° Ò»
ÑĤÑĭÐ½ Ð°Ð½
ĠÐ°ÒĽÑĪ Ð°Ð»Ð°Ð¹
Ð± ÐµÐ¹
ÑĭÐ¼ Ð´ÑĭÒĽ
ĠÑĪÐµÑĪ Ñĥ
Ñĸ Ð±ÐµÐº
ĠÐ¶Ð°Ñģ Ð°Ð´Ñĭ
ĠÐº Ð°ÑĦÐµÐ´ÑĢ
ÒĵÑĭ Ð¿
ĠÐ¡ Ð¾ÑģÑĭÐ½
Ð¡ ÑĸÐ·
ĠÑįÑĤ Ð½
Ð¸Ñı Ð½Ñĭ
ÑĤÐµÐ» Ð³ÐµÐ½
ĠÐµÑģ ÑĤÑĸ
ĠÐļÓĻÑģÑĸÐ¿ ÐºÐµÑĢÐ»ÑĸÐº
ĠÐľ Ñĥ
en t
Ó© ÑģÐ¿
ĠÒ¯Ð½ ÐµÐ¼Ñĸ
ĠÐĸ ÐµÒ£
ĠÐ±Ó©Ð» Ð¼
ĠÐºÐ¾Ð¼ Ð¸ÑĤÐµÑĤÑĸ
Ð¼ ÐµÑĤÑĤÑĸÒ£
ĠÐ¶Ò±Ð¼ Ñģ
Ð¡ Ð°Ð¹ÑĤ
ĠÐ±Ð°Ñģ ÒĽ
Ð» ÐºÐµÐ½
ÐĨ ÐĨ
ĠÐ² ÐµÐ´Ð¾Ð¼ÑģÑĤÐ²
ĠÓ©ÑĢ ÐºÐµÐ½
Ð°Ñĥ ÑĭÐ½
ĠÒĵÐ°ÑģÑĭÑĢ Ð´ÑĭÒ£
ÑĤÑĸÐ» Ð´Ñĸ
ĠÐºÓĻÑģÑĸÐ¿ ÐºÐµÑĢÐ»ÐµÑĢ
Ð¸Ñı ÑĤ
ĠÐ±ÐµÑĢ Ð¼
ÐĿÒ±ÑĢ ÑģÒ±Ð»ÑĤÐ°Ð½
ÑĨÐ¸Ñı ÑģÑĭ
ĠÐºÐµÐ·Ð´ÐµÑģ ÐµÐ´Ñĸ
ĠÐ· Ð°Ð»
ĠÐµÑģÐºÐµÑĢÑĤ ÐºÑĸÑĪ
ĠÐ½ Ð°Ð¼Ð°Ð·
ĠÑģÓ©Ð· Ñĸ
ĠÒĽÐ¾ÑĢ ÑĪÐ°ÒĵÐ°Ð½
o o
Ò±Ð» ÑĭÐ½ÑĭÒ£
ĠÐ±Ð°ÑģÒĽÐ°ÑĢÐ¼ Ð°
ÐµÑĥ Ð³Ðµ
ĠÑĪÐµÐºÑĤÐµÑĥ Ð»Ñĸ
ÑĭÐ» Ð°
ĠÑģÐ¾Ò£ ÑĭÐ½Ð´Ð°
ĠÑģÑĸÒ£ ÑĸÑĢ
19 9
ĠÐ± Ð»
ĠÑĦÐ°Ðº ÑĤÑĸ
ĠÐ¶Ð°ÑĢ Ð°ÒĽ
ÑģÐº ÐµÐ¼ÐµÐ½
ĠÒĽÐ°ÑĢ ÒĽÑĭÐ½
ĠÐ±Ð°ÑģÑĤÐ°Ð¿ ÒĽÑĭ
ĠÐ¼Ð°Ð¼Ð°Ð½ Ð´Ð°ÑĢ
ĠÐ³ Ò¯Ð»
ĠÒĽÐ°Ð± ÑĭÐ½
ĠÑĤ iÑĢ
Ð»Ð°Ð½ ÑĭÐ¿
ĠÐĳ Ò¯
ĠÒ± ÑģÑĭÐ½Ð°
ĠÐĳ ÐµÐº
ĠÐ¶ÑĭÐ» Ð´Ð°
ĠÐ¾Ð¿ÐµÑĢ Ð°ÑĨÐ¸Ñı
ĠÐ¢ Ò±
ÑĤ ÒĽÐ°ÑĢ
ĠÐ±Ò±Ð¹ÑĢ ÑĭÒĵÑĭÐ½Ð°
ĠÐ¼ÓĻÑĢ ÑĤÐµÐ±
ĠÐ± Ð¾ÑģÑĤÐ°Ð½
ĠÒĽÐ°Ð´Ð°ÒĵÐ°Ð» Ð°Ñĥ
Ó©ÑģÐ¿ ÑĸÑĢ
ĠÐ±Ð°Òĵ ÑĭÐ½
ĠÑģÓ©Ð¹ Ð»ÐµÐ¼
Ð°Ð» ÒĵÐ°ÑĪÒĽÑĭ
Ð±ÐµÐº ÑģÑĤÐ°Ð½
ĠÐ¶Ò¯ÑĢ ÐµÑĤÑĸÐ½
ĠÒĽÐ°ÑĤ Ð°Ò£
ÑĭÑģ ÑĤÐ°ÒĵÑĭ
ĠÐ´ÐµÑĢ Ð±ÐµÑģ
Ġ b
ĠÑĦÑĥÐ½ ÐºÑĨÐ¸Ð¾Ð½
ĠÑģ Ð°ÑĤ
ĠÐºÐµÐ¿ÑĸÐ» Ð´ÑĸÐº
ĠÒĽÑĭÐ·Ð¼ÐµÑĤ ÑĸÐ½Ðµ
u m
ĠÐĸ Ð°Ð·
ĠÐ±ÑĸÑĢ Ð°Ð·
Ðº Ñģ
Ð¼ Ð°Ð»Ñĭ
ĠÐ±ÐµÑĢ ÑĸÐ»ÐµÑĤÑĸÐ½
ĠÓĺ Ð»ÐµÐ¼
ĠÒ¯Ð» ÐµÑģÑĸ
Ñĥ Ð¼ÐµÐ½
ĠÐ¶Ð¾ÑģÐ¿Ð°ÑĢ Ð»Ð°ÑĢÑĭÐ½ÑĭÒ£
ĠÓ©Ð·Ð³ÐµÑĢ ÑĸÑģ
Ð¸Ð² ÑĤÑĸ
Ð°Ð» Ð°Ð½
ĠÑģÐ°Ð» Ð´Ð°ÑĢÑĭÐ½Ð°Ð½
ÑĤÐµÐ½ ÑĪÐµ
ĠÐ°ÑĢ Ð¼Ð°Ð½
ÐµÐ³ÐµÐ½ Ð¼ÐµÐ½
ĠÐ±ÐµÑĢÑĥ Ð´ÑĸÒ£
ĠÑĤÐµÑħÐ½ Ð¸Ðº
Ġ3 5
ĠÐ±ÑİÐ´Ð¶ ÐµÑĤÑĸ
ÐµÐ¼ ÑĸÑĢ
ĠÐ¶Ð°Ñģ ÑĭÑĢ
ĠÐ¶Ð°ÑĤ Ð°ÑĤÑĭÐ½
Ð°Ð»ÑĮ Ð´Ñĭ
Ð¼ ÐµÐ´
ĠÓ©Ð·Ð³ÐµÑĢ ÑĤÑĥ
ÑĪ ÐµÑĤ
ĠÐ¸Ð½ Ð½Ð¾Ð²Ð°ÑĨÐ¸ÑıÐ»ÑĭÒĽ
ĠÐ¶Ð°Ð»Òĵ Ð°ÑģÑĤÑĭÑĢ
ĠÑĤÒ¯ Ð±
ĠÓ©Ð½ ÑĸÐ¼Ð´Ñĸ
ÑĤÐ¾Ð¼ Ð°ÑĤ
ĠÒ¯Ð¹ Ð³Ðµ
ĠÐ¼ÑĭÐ½Ð° Ð´Ð°Ð¹
ĠÐ²ÐµÑĤÐµÑĢÐ¸Ð½Ð°ÑĢ Ð¸ÑıÐ»ÑĭÒĽ
ĠÒļ Ð°Ñģ
ĠÒĽÐ°Ð· ÑĭÐ½
ĠÐº Ð°Ð´ÑĢ
ÑĢÐ°ÒĽ Ò±ÑĢÑĭÐ»ÑĭÐ¼
ĠÑĤÒ± ÒĽÑĭÐ¼
ĠÐ·ÑĥÐ± Ð¾Ð²
ĠÒ¯ÑģÑĤ ÑĸÐ½Ðµ
Ð¾ Ð³ÐµÐ½
ĠÐĿ Ð°ÑĥÑĢÑĭÐ·
Ð¿ÐµÑĢ Ð°ÑĤÑĥÑĢ
ĠÐ¶Ð°Ð· Ð±
ĠÐ¼Ò±ÒĵÐ°Ð» ÑĸÐ¼Ñĸ
ĠÐĶ Ð¶
ĠÑĤÐ°Ð±ÑĭÐ» Ð°ÑĤÑĭÐ½
ĠÐºÓ©ÑĪ ÐµÑģÑĸ
ĠÐµÒ£ Ð±Ðµ
Ð¸ Ð´Ñĭ
ĠÐ°ÑĥÑĢÑĥ Ð´ÑĭÒ£
ĠÐºÐ¸ ÑĸÐ¼
ĠÐ± Ð°ÒĽÑĭÑĤ
ĠÐ¼Ðµ ÑĪÑĸÑĤ
ĠÐ°Ð» Ð³ÐµÐ±ÑĢ
Ð³ÐµÑĢ ÑĪÑĸÐ»ÑĸÐº
ĠÐĵÐµÑĢ Ð¼Ð°Ð½
ĠÐ¸ ÐµÑģÑĸ
Ð¸ ÑĢÑĥ
ĠÑĤ ÐµÑĢÑĸ
ĠÐ¼Ð°ÑħÐ°Ð± Ð±Ð°ÑĤ
ÐºÐ° Ñĩ
ĠÑĤÑĥ ÑĭÐ½
ÐµÐ»ÐµÐ½ Ñĥ
ĠÐ¶ Ò±Ð»Ð´ÑĭÐ·
ĠÐ¿Ð¾ ÑĪ
ĠÐºÓ©Ð· Ð³Ðµ
ÐºÐµÐ» Ð³ÐµÐ½
iÐ½Ð´Ðµ Ð³i
Ġ19 8
ÒļÐ°Ð· ÑĸÑĢÐ³Ñĸ
Ð°Ð¼ Ð°Ð»
ĠÑĤÐ°ÑĢ ÑĤÑĭÐ¿
ĠÓĺ Ð´Ñĸ
ĠÐ¼Ð¸Ð½Ð¸ÑģÑĤÑĢ Ñĸ
ÐķÐ» Ð±Ð°ÑģÑĭ
ĠÑģÐ°Ñĥ Ð°Ð»
ĠÐĸ Ðŀ
ĠÐºÐµÒ£ ÐµÑģÑĸÐ½ÑĸÒ£
ĠÐ¿ Ð°Ð»
ĠÐºÐ» Ð¸Ð½
ĠÐ¼ Ð°ÒĵÑĭÐ½
ĠÐºÐ¾Ð¼Ð¼Ñĥ Ð½Ð¸Ðº
ÐºÐµÑĤ Ð¸Ð½Ð³
ÐĲ Ð¡
Ð°Ñģ ÑĤÐ°ÑĢ
ÐºÐµÑĢ ÑĤÑĥ
ĠÐ¶Ò¯ÑĢÐ³ÑĸÐ· ÑĸÐ»ÐµÐ´Ñĸ
ĠÑĤÐµÑĢ ÑĢ
ĠÒĽÑĭÐ·Ð¼ÐµÑĤ ÐºÐµÑĢ
Ò£ ÑĭÐ·
ĠÐ¿ÑĢÐµÐ·Ð¸Ð´ÐµÐ½ ÑĤÑĸ
ĠÐ°Ð¼ Ð°Ð»
ĠÐ¡Ð¾ Ð´Ð°Ð½
ĠÑĦÐ¸Ð» ÑĮÐ¼
Ðĳ Ð¾Ð»
ĠÒ±ÑģÑĭÐ½ ÑĭÑģÑĤÐ°ÑĢ
Ð°Ñĥ Ð´Ð°Ð½
ÐºÐ¾Ð½Ð¾Ð¼ Ð¸ÐºÐ°
ĠÒĽÐ°Ð±ÑĭÐ» Ð´Ð°Ð´Ñĭ
ĠÐ¶Ð°Ñģ Ð°ÒĽ
ÑĭÐ»Ð¼ Ð°Ð»Ñĭ
ĠÒĽÑĭÐ·Ð¼ÐµÑĤÑĤÐµÑĢ Ð´ÑĸÒ£
ĠÑĤÐ°Òĵ Ð´ÑĭÑĢ
ĠÐ¡ÐµÑĢ ÑĸÐº
ĠÐĺ Ð¼
Ð¿ Ð°ÒĽÑĤÐ°ÑĢ
ÑĮ Ñı
ĠÐµÐºÐµÐ½ Ð´ÑĸÐ³ÑĸÐ½
ĠÑģÐ°Ð» Ð°ÑģÑĭ
Ð»ÑĭÒĽ ÒĽÐ°
ĠÐ¶ÐµÒ£ÑĸÐ» Ð´ÐµÑĤ
Ð°Ñĥ ÑĭÑĤ
ĠÐ¡ Ð°ÑĢ
ÑĤ Ð¸ÐºÐ°Ð»ÑĭÒĽ
ĠÐ¿Ð¾ÑĢ ÑĤÐ°Ð»
ĠÑģÒ±ÑĢ Ð°Ð¿
ĠÓĺ Ñĥ
Ð¾Ò£ ÒĵÑĭ
ĠÐĸ Ð°Ð»
ĠÐ¤ ÑĢÐ°Ð½
Ð» iÐº
ĠÑģ Ð°Òĵ
ĠÓ©Ð· Ð´ÐµÑĢÑĸÐ½ÑĸÒ£
ĠÓ© Ð¹ÑĤÐºÐµÐ½Ñĸ
ĠÒļ Ð¾Ñģ
ĠÐ±Ð°ÒĵÑĭ ÑĤÑĭ
ÐµÑĢ Ð²
ÐºÐ»Ð°Ñģ ÒĽÐ°
ÐºÐ°Ñĩ Ð°ÑĤÑĮ
ĠÐ² ÐµÐ±
ĠÒĽÐ¾Ð»Ð´Ð°Ð½ ÑĭÐ»ÑĥÑĭ
Ð±Ð°ÐµÐ² Ð°
ĠÒĽÒ±ÑĢ Ð°Ð´Ñĭ
ĠÐ°ÑĢÑħ Ð¸Ð²
ĠÑĤÑĸÐ» ÑĪÑĸÑģÑĸ
ĠÑįÐºÑģ Ð¿Ð¾ÑĢÑĤ
ĠÐºÐµÒ£ ÐµÑģÑĸ
ĠÐºÒ¯Ð½Ð´ÐµÐ» ÐµÐºÑĤÑĸ
ĠÒĽÑĥ ÑĭÑģÑĭÐ½ÑĭÒ£
ĠÐ¼ÓĻÑģÐ» Ð¸ÑħÐ°ÑĤ
ÑĤÐ¾ÑĢ Ñĭ
ÑģÑĭÐ» ÑĭÒĽ
ĠÑģÐ°Ð» Ð´Ñĭ
ĠÑģÐ°Ð½ Ð°Ð»Ð°Ð´Ñĭ
ĠÒ¯ÑģÑĤ ÑĸÐ½Ð´Ðµ
ĠÐ±ÑĸÑĢ Ð»ÑĸÐº
ĠÓĻÐ»ÐµÑĥ Ð¼ÐµÑĤ
ĠÐ¡ ÑĭÑĢÑĤ
ÑĸÐ¿ Ð±Ð¸
ÐĲ ÐĹ
a y
Ð°ÑĢ Ð¼Ð°
Ð³ Ð°
ĠÐ± Ð¾ÐºÑģ
ĠÒĽÐ°Ð» Ð°Ð½ÑĭÒ£
ĠÐ¾ÑĢÐ½Ð°Ð» Ð°ÑģÑĤÑĭÑĢ
ĠÐ°Ð» ÑĤÑĭ
ĠÐ¼ÐµÑħÐ°Ð½ Ð¸Ð·Ð¼
Ò±ÑĢ ÑĭÐ½
ĠÐ±Ð°ÑģÑĪÑĭÐ»ÑĭÒĵÑĭ Ð¼ÐµÐ½
Ð´ÑĭÑĢ ÒĵÐ°Ð½
ĠÒĽÒ±Ð¶Ð°ÑĤ ÑĤÐ°Ð¼Ð°
ĠÑħÐ°Ð»ÑĭÒĽ ÑĤÑĭ
ĠÐ° ÑĪÑĭ
ĠÑģÐ¾ Ð´Ð°Ð½
ÑĤÑĸ Ð³ÑĸÐ½ÑĸÒ£
ĠÐ± Ð°Ð»ÑĭÒĽ
Òĵ ÑĭÑģÑĭ
ĠÑģÐ°Ð» ÑĭÐ½Ð°Ð´Ñĭ
ĠÒĽÐ°ÑĤÑĭÑģ ÒĽÐ°Ð½
ĠÒĽÐ¾ÑĢÒĵÐ°Ð» ÒĵÐ°Ð½
ĠÑįÐ»ÐµÐ¼ ÐµÐ½ÑĤ
Ð´Ð°Ñģ ÑĤÑĭÒĽ
Ðķ ÐĿ
ĠÐ½ÐµÐ³ÑĸÐ· Ð´ÐµÐ»Ð³ÐµÐ½
Ð°Ñı ÑģÐ¸
ÑĸÐ¼ÑĸÐ· Ð³Ðµ
Ġ k
201 4
ĠÐļ ÐµÐ½
e w
Ð½ Ð°Ñı
ÑĸÑģ ÑĸÐ½Ðµ
Ð¸ÑĢ ÐµÐº
Ðļ ÓĻÐ¼ÐµÐ»ÐµÑĤÐºÐµ
ĠÐ¼ÐµÐ· Ð³ÑĸÐ»
ĠÒ¯Ð» Ð³ÐµÑĢ
ÑĨ Ð¸Ð¿
Ð¸Ð¼ Ð°
ÐľÓĻ ÑĤÑĸÐ½
0 6
ĠÐŁÐ°ÑĢ Ð»Ð°Ð¼ÐµÐ½ÑĤ
Ð¸Ñı Ð´Ð°ÒĵÑĭ
ÑĭÑģ ÑĭÐ¼ÐµÐ½
ĠÑģ ÐµÐºÑĤÐ¾ÑĢ
ĠÐ±Ó©Ð»ÑĸÐ½ Ð³ÐµÐ½
ĠÑĤÐ¸ ÐµÑģ
ĠÓĻÐºÑĸÐ¼ Ð´ÐµÑĢÑĸÐ½ÑĸÒ£
ĠÐ±Ð°ÒĽÑĭÐ»Ð°Ñĥ Ñĭ
Ð°Ñħ Ð¼ÐµÑĤ
Ð»ÐµÐ½ Ð³ÐµÐ½
Ð´i Ðº
ĠÐ¼ÐµÐ´Ð¸ÑĨÐ¸Ð½ Ð°
ĠÒĽÒ±ÑĢÐ°Ð» Ð´Ð°ÑĢÑĭ
ĠÐ°Ð» ÒĵÐ°
Ð°Ñı Ñĥ
ĠÐ¶Ð°ÑĢÑĤÑĭÐ¶ÑĭÐ»Ð´Ñĭ ÒĵÑĭÐ½Ð´Ð°
Ð¶ Ð°Ñģ
ĠÐ¾ Ð±ÑĬÐµÐº
h e
ĠÐ¿ ÑĸÑģ
ĠÐ´ÐµÐ¿Ð°ÑĢÑĤÐ°Ð¼ÐµÐ½ÑĤ ÑĸÐ½ÑĸÒ£
ĠÒĽÐ°ÑĢ ÑĭÐ·
Ðļ Ð¾Ð½
ĠÐ°Ð» Ð´ÑĭÒ£
ĠÐ±ÑĸÐ»ÑĸÐºÑĤÑĸ Ð»ÑĸÐ³ÑĸÐ½
Ð°Ð½ Ð°ÑģÑĭÐ½ÑĭÒ£
ĠÒĽÑĭÐ· ÑĭÒĽ
ĠÐ±Ð°ÑģÒĽÐ°ÑĢÐ¼ Ð°ÑģÑĭÐ½Ð´Ð°
ĠÒ¯Ð¹ Ð´Ðµ
ÑĸÐ¼ÑĸÐ· Ð´Ðµ
ĠÑĤÐ°Òĵ Ð°Ð¼
ĠÒĽÐ°ÑĤÑĭÑģÑĥ ÑĭÐ¼ÐµÐ½
Ðµ Ñħ
ĠÒĽÐ°Ð¼ÒĽÐ¾ÑĢ Ð»ÑĭÒĵÑĭÐ½
Ñģ Ó©Ð·
in g
ĠÐµÑģÐµÐ¿ ÑĤÐµÑĥ
ĠÐľ ÓĻ
ĠÑĪÑĭÒĵÐ°ÑĢ ÑĭÐ¿
ĠÐ±Ò± ÒĽÐ°ÑĢÐ°Ð»ÑĭÒĽ
ĠÐ½ÐµÐ³ÑĸÐ· Ñĸ
ĠÐ±Ð°ÑģÑĤÐ°Ñĥ ÑĭÑĪ
ÑĭÑģ ÑĤÐ°
ĠÐ±Ð°ÑģÑĪÑĭÐ»Ð°ÑĢ Ñĭ
ĠÐļ Ó©Ð·
ĠÐ± Ð¾Ð¿
ĠÐ¶Ð°Ò£Ð°Ð»ÑĭÒĽ ÑĤÐ°ÑĢ
ĠÑĪÐµÑĪ ÑĸÐ¼Ð´ÐµÑĢ
ĠÐ¶ÑĭÐ» ÒĽÑĭ
ĠÐ¶ÐµÑĤ Ñĸ
ÐµÑĢ Ð»Ñĸ
Ð´Ð°ÑĢ Ð´Ð°Ð½
ĠÐ¿ÑĢÐ¾ÑĦ ÐµÑģÑģÐ¾ÑĢ
ĠÐ¾ÐºÑĢÑĥÐ³ ÑĤÐµÑĢ
Ð°ÑĤ ÑĭÐ½Ð´Ð°
ĠÒĽÐ°ÑĢÐ¶ ÑĭÐ»ÑĭÒĽ
ĠÒĽÐ°ÑĢÐ¶ÑĭÐ» Ð°Ð½Ð´ÑĭÑĢÑĥ
ĠÒĽÐ°ÑĢÐ°Ð¶ Ð°ÑĤ
2 9
Ð¼ Ð¾
ĠÐ¸Ð½ÑĦ ÑĢÐ°ÒĽÒ±ÑĢÑĭÐ»ÑĭÐ¼
ĠÐ¾ÒĽ Ñĭ
ĠÑĤÐµ Ð³Ñĸ
ĠÒļÒ± Ð´Ð°Ð¹
Ġ n
ĠÐ¾Ð¹ Ð»Ð°Ñĥ
Ð³ iÐ½
ĠÐ¿Ð°Ð¹Ð´ Ð°Ð»Ñĭ
ĠÐ´ÓĻÑģÑĤ Ò¯ÑĢÐ»Ñĸ
ĠÒĽÑĭÐ¼ÑĭÐ· Ð´Ñĭ
ĠÐ±ÑĸÑĢ ÑĭÒ£ÒĵÐ°Ð¹
ÑĢÐµÐ· ÐµÐ½
ĠÐ±Ð¾Ð»ÒĵÐ°Ð½ Ð´ÑĭÒĽÑĤÐ°Ð½
ĠÒ±ÑģÑĭÐ½Ð° Ð´Ñĭ
Ñĥ Ð»Ð°ÑĢ
Ñģ Ð¸Ð´
ĠÓĻÒ£Ð³ÑĸÐ¼ Ðµ
ĠÑĢ ÐµÐ·
Ð¿ Ð°Ð¹Ð´Ñĭ
Ðŀ Ð»
ĠÐºÓ©ÑĢÑģÐµÑĤ ÑĸÐ¿
ĠÑĤÓĻÑĥÐµÐºÐµÐ»Ð´ÐµÑĢ ÑĸÐ½ÑĸÒ£
ÒĽ Ð¾Ð»
ĠÐºÓ©Ð¿ ÑĪÑĸÐ»ÑĸÐº
ĠÑĥÐ°ÒĽÑĭÑĤ ÑĪÐ°
ÐŀÑĢ ÑĤÐ°
ĠÐ±Ó©Ð» ÑĸÐº
ĠÐ¡ Ð°Ð¹
ĠÒĽÐ°Ð±ÑĭÐ»Ð´Ð°Ð½ ÒĵÐ°Ð½
Ð¸Ð½ Ð³Ñĸ
ĠÐ½ÓĻÑĤÐ¸Ð¶ ÐµÑģÑĸ
ĠÓĻÐ» Ð³Ñĸ
ĠÒĽÒ± Ð½Ñĭ
ĠÑĥÐ½Ð¸Ð²ÐµÑĢÑģ Ð¸ÑĤÐµÑĤÑĸÐ½ÑĸÒ£
ĠÑĤÐµÑħÐ½ Ð¾Ð»Ð¾Ð³Ð¸ÑıÐ»ÑĭÒĽ
ĠÐ±ÑĸÐ» Ð³ÐµÐ½
ĠÒĽÐ°Ð¼ÒĽÐ¾ÑĢÐ»ÑĭÒĵÑĭÐ½ ÑģÑĭÐ·
ĠÐ» Ð°ÑĤÑĭÐ½
Ð¾Ðº ÑĢÐ°ÑĤ
ĠÑĤÐ°Ð¿ ÒĽÐ°Ð½
ĠÓ©Ð½Ð´ÑĸÑĢ ÑĸÑģÑĤÑĸÐº
al y
ÓĻÑĢÐ±Ð¸ Ðµ
ĠÒļÒ± Ð¿
Ð» Ð°Ð´Ñĭ
ÐĳÑĸÐ· Ð´ÑĸÒ£
ĠÐ¸Ð½Ð²ÐµÑģÑĤÐ¸ ÑĨÐ¸ÑıÐ»ÑĭÒĽ
ÒĵÐ°Ð» Ð¸
Ð¼ ÑĭÑĪ
ĠÐĲ Ñı
ĠÐļ ÐµÐ·
Ð°Ð½ Ð¾Ð²
? !
ÐĲÑĥÐ´Ð°Ð½ Ð´ÑĭÒĽ
ÑĤÐ°Ñĥ ÑĭÑĪ
ĠÓĻ ÐºÐµ
Ð± Ò±Ð»
ĠÐ¿Ð¾ÑĢ Ð½Ð¾
ĠÐ´Ð°Ð¼ÑĭÑĤÑĥ Ð´ÑĭÒ£
Ð´ÑĸÐ³ÑĸÐ½ ÐµÐ½
ĠÐŀ Ð±Ð»
ĠÐ°Ð· ÑĭÒĽ
ĠÐ¾Ò£ Ð°Ð¹
ĠÐĲÒĽ Ð¿Ð°ÑĢÐ°ÑĤ
ĠÐļ ÐľÐľ
Ð· Ð´ÑĸÐº
ÐĨ Ðļ
ÑģÐ°Ð¼ Ð±Ð»
Ð¾ÑĢ ÒĵÐ°Ð½
Ð°Ð² Ð»
ĠÐľÒ± ÑħÐ°Ð¼
ĠÐ½ Ð¾Ð¼
ĠÑĤÐµÐ¼ Ð¿ÐµÑĢÐ°ÑĤÑĥÑĢ
Ò£ Ð³ÑĸÐ»ÑĸÐº
ĠÐĸÐ°ÑĢ Ð±
ĠÐ°Ñģ ÑĤÑĭ
ĠÐľ ÓĻÐ¶
ĠÐ°Ð´Ð°Ð¼ Ð´Ð°ÑĢÒĵÐ°
3 1
ĠÑĤÒ± ÑĤÐ°Ñģ
Ð± Ð°Òĵ
ĠÑģ Ð°ÑĤÑĥ
ĠÐ°Ð»Ñĥ Ð´Ñĭ
ĠÐ½ÓĻÑĢ ÑģÐµ
ÑĸÐ½ ÐµÑģÐµ
ĠÐ±Ð°Ñģ ÑĤÐ°Ð»Ð°Ð´Ñĭ
Ð°Ð± Ð°Ð¹
ĠÐ¼Ò¯ÑĪ ÐµÑģÑĸ
ĠÐºÓ©ÑĢÑģ ÐµÑĤÑĤÑĸ
ÑĸÒ£ÑĸÐ· Ð³Ðµ
Ð°ÑĤÑĤÐ°ÑĢ Ð´ÑĭÒ£
ĠÐ´ÐµÐ¼ Ð°Ð»ÑĭÑģ
Ð°ÑĤ Ð°Ñĥ
ĠÒĽ ÑĭÐ¼
Ñĥ ÑĸÐ½
ĠÐ¸ Ð¼Ð°Ð½
ÑĢ Ð°
Ð» ÑĭÐ¼
Ðķ Ðļ
Ġ 01
ĠÐ¸ ÑĤ
ĠÑĸÑģÑĤ ÐµÐ¹ÑĤÑĸÐ½
Ñĥ ÑħÐ°Ð½Ð¸
Ò¯ Ðº
ĠÑĤÐ¾Ð» Ñĭ
ĠÑĤÐ¾Ð» ÒĵÐ°Ð½
o p
ĠÐ°Ð¹ ÑĢ
Ó¨ ÑĢ
ÑģÑĤ Ð°
ĠÐ¶Ò±Ð¼ ÑģÐ°ÒĽ
ĠÐ°Ñģ ÑĭÐ¿
ĠÐ± ÐµÑĤÑĸÐ½
ĠÐµÑĪ ÒĽÐ°Ð½Ð´Ð°Ð¹
Ð°Ñģ ÑĭÒ£
ĠÐ±ÐµÐ»Ð³ÑĸÐ» ÐµÑĢÑĸ
ĠÐºÓ©ÑĪÑĸÑĢ Ð¼
ĠÐľ Ò¯
Ð´ÑĭÑĢ Ð°ÑĤÑĭÐ½
ĠÐ°Ð»Ð´ ÑĭÐ½Ð°
ĠÐ¼Ð°Ð·Ð¼Ò±Ð½ ÑĭÐ½
ĠÐ¶Ð°Ò£Ð°ÑĢ ÑĤÑĥ
ĠÐĲÐ½ ÑĭÒĽ
ĠÑĤÐµÑĢ Ð³Ðµ
ÐµÑģ Ðº
ĠÒĽÒ±ÒĽÑĭÒĽ ÑĤÐ°ÑĢÑĭ
Ðµ ÑħÐ½
ĠÐ±Ð¾Ð» ÑĥÒĵÐ°
ĠÑĤÑĥ ÑĭÐ½Ð´Ñĭ
Â ©
Ġ d
ÐµÑĢ Ð¼ÐµÐ½
Ð³ iÐ»
2 6
ĠÑĤÑĥÑĢ Ð°
st an
ĠÐ¢ Ó©Ð»
Ð°ÑĤ ÑĤÐ°Ð½
ÓĻ Ðº
ĠÐŀÐ½ Ð´Ð°
ĠÐ±Ð°Ñģ Ñĭ
ĠÑĤÒ±ÑĢÒĵÑĭ Ð´Ð°Ð½
ÑĤ ÐµÐº
] .
ĠÐĲ Ð·
ĠÐ¾ÑĢ Ð¼Ð°Ð½
ĠÐ± iÐ»
Ñĥ Ðº
ĠÐ±Ð°Ñģ ÑĪÑĭ
ĠÒĽÐ°Ð½ ÑĪÐ°
ĠÐ·Ð°Ð¼Ð°Ð½ Ð°ÑĥÐ¸
ĠÐµÐ½Ð³ÑĸÐ· ÑĸÐ»Ð´Ñĸ
ĠÐ½Ð°ÑĢ ÑĭÒĽ
ĠÐķÐ» Ð±Ð°ÑģÑĭÐ½ÑĭÒ£
ĠÑĨ Ð¸ÑĦÑĢ
ĠÑĤÐ¾ÒĽÑģÐ°Ð½ ÒĵÐ°
ÑģÑĤ Ð°Ð·
ĠÐĲÐ» ÑĤÑĭÐ½
ÐµÑģ ÑĤÐ¸Ð²
ĠÐº ÓĻ
ĠÐ¿ÑĢÐ¾ÐºÑĥÑĢÐ°ÑĤÑĥÑĢ Ð°ÑģÑĭ
Ð»ÐµÑĢ ÑĸÐ½Ð´Ðµ
ĠÑĪ ÓĻÐºÑĸÑĢ
ĠÐ° Ð´Ð°Ð»
ĠÑį Ð¿
ĠÑĢÐµ ÑĦÐµÑĢ
ĠÒĽÑĭÐ· Ð¼ÐµÑĤÑĤÑĸÒ£
ĠÐ´ Ò¯
ĠÐ¶Ð¾Ð± Ð°ÑģÑĭÐ½
ĠÐµÑĢ ÐµÑģ
ĠÐ¶ Ð¾ÑĢ
ĠÑģÐ°Ñĥ Ð°ÑĤ
ĠÐ² Ð°Ð»Ñİ
ĠÑĢÐµÐ¶ Ð¸Ð¼
ĠÐµÑĢÐµÐºÑĪ ÐµÐ»Ñĸ
ĠÐ¾ÑĢÑĤÐ° ÒĵÐ°
h ar
ÐľÐ°ÒĽ Ð°ÑĤ
Ð°Ð½ Ñģ
ĠÑģÒ±ÑĢ Ð°Ð½ÑĭÑģ
ĠÐ¼ Ð°Ñģ
ĠÐ°ÑĤ Ð°Ð»Ð°Ð´Ñĭ
Ġ5 5
Ð· Ð¸ÑıÑģÑĭ
ÑĤÑĤÐ°ÑĢ Ð´Ñĭ
ĠÐľ ÐµÐºÑĤÐµÐ¿
ĠÑħÐ°Ð±Ð°ÑĢÐ» Ð°Ð´Ñĭ
Ð°Ð± Ð¸
ĠÐµÑģ Ðµ
ĠÐºÐ¾Ð¼Ð¿Ð°Ð½ Ð¸ÑıÑģÑĭ
ĠÒĽÒ±ÑĢÐ°Ð¼ Ñĭ
a q
ÑĪÐµÑĤ Ð°Ñĥ
ĠÑĢ ÐµÐ²
ÑĤÑĤÐ°ÑĢ Ð´ÑĭÒ£
ĠÐ» Ð¾Ð³
ma il
a ti
ĠÐºÑĸÑĪ Ñĸ
ĠÐ°Ð¹ Ð¼Ð°Òĵ
ÐĲ Ð´Ð°Ð¼
ĠÐ¢Ð°ÑĢ Ð°Ð·
ÐµÑģ ÑĸÒ£
ĠÒ±ÑģÑĭÐ½ ÑĭÐ»ÒĵÐ°Ð½
ĠÐ´Ð¸Ð°Ð³ Ð½Ð¾Ð·
ĠÒĽÑĭÐ· ÑĭÒĽÑĤÑĭ
ĠÓ©Ð»ÐµÒ£ Ð´ÐµÑĢ
ĠÒĽÐ°Ñĥ ÑĸÐ¿ÑĤÑĸ
ĠÐ¾Ð¹ Ð»Ð°Ð¹
ĠÑĤ ÐµÐ½
ĠÐºÐ°Ð± Ð¸Ð½
ĠÑĸÑģ ÑĸÐº
ĠÑĪÐ°Ð± ÑĥÑĭÐ»
ĠÒĽÐ°Ð» Ð°Ð¼
ĠÒ±Ð¹ÑĭÐ¼ Ð´Ð°ÑĢ
ÐµÐ¶Ò¯Ð· ÑĸÐ»ÑĸÐº
ĠÑĸÑĪ ÑĸÐ½Ð´ÐµÐ³Ñĸ
ĠÒĽÐ¾ Ò£
ĠÐ¶ ÐµÐ»Ñĸ
ĠÐ¡ Ñĥ
Ð°ÑĤ Ð°ÑĢ
ĠÐºÓ©ÑĪÑĸÑĢ Ñĥ
ĠÐ¶Ð°Ð±Ð´ÑĭÒĽ ÑĤÐ°Ñĥ
ĠÑĤ Ñĸ
ĠÑħÐ°ÑĤ ÑĤÐ°Ð¼
- -
ĠÐ±Ð°ÒĵÐ´Ð°ÑĢÐ»Ð°Ð¼ Ð°ÑģÑĭÐ½ÑĭÒ£
ĠÐĳÑĸÑĢ ÑĸÐ½ÑĪÑĸ
ĠÐ¼ÐµÑĤ Ð°Ð»Ð»
ĠÒ±Ð¹ÑĭÐ¼ Ð´Ð°ÑĢÑĭÐ½Ð´Ð°
ĠÐľ ÐµÑĢ
ĠÐ´ÐµÒ£Ð³ÐµÐ¹ Ð´ÐµÐ³Ñĸ
ĠÐ¢Ð°Ð±Ð¸Òĵ Ð¸
ÑĸÐ¼ ÑĸÐ½Ðµ
ĠÒĽÐ°ÑĤÑĭÑģ ÑĥÒĵÐ°
ĠÐ¿Ð¾ÑĢ ÑĤ
ĠÑĤÐµÑĢ ÑĸÑģ
ĠÐ¸Ð¼ Ð¿Ð»Ð°Ð½
ĠÐ¼ ÐµÐ¼
ĠÐ°Ð²ÑĤ Ð¾Ð±
ĠÐ¶Ð¾ÑģÐ¿Ð°ÑĢ ÑĭÐ½ÑĭÒ£
ĠÐ½Ò±Ñģ ÒĽÐ°Ñĥ
Ðĸ ÑĭÐ»ÑĭÐ¾Ð¹
ĠÐ¶Ð°ÑĤÑĤÑĭ ÒĵÑĥ
ĠÐ±Ð°ÒĵÐ´Ð°ÑĢÐ»Ð°Ð¼ Ð°ÑģÑĭÐ½
ĠÑĪÐ°ÑĢ Ð°
ĠÑĤÐ¸ÐµÑģ ÑĸÐ»Ñĸ
ĠÑĪ Ð¸Ðº
ĠÐºÐ¾Ð´ ÐµÐºÑģ
ĠÐµÐ½Ð³ÑĸÐ· ÑĸÐ»Ð³ÐµÐ½
ĠÐ¼ÐµÑĢÐ· ÑĸÐ¼Ñĸ
ĠÐº ÑĸÑģ
ĠÐ±Ð°Ð¹ÒĽ Ð°Ð»Ð°Ð´Ñĭ
ÐĨ Ðľ
ĠÒĽÒ±ÑĢÐ°Ð¼ ÑĭÐ½Ð°
ĠÐ±ÑĸÐ»Ð´ÑĸÑĢ ÐµÐ´Ñĸ
on s
ĠÑĢÑĥ Ñħ
Ð´ÐµÑĢ ÑĸÐ¼ÐµÐ½
ĠÐ¶Ò±Ð¼ÑĭÑģ ÑĭÐ½Ð°
ĠÐ·ÐµÑĢÑĤÑĤÐµÑĥ Ð»ÐµÑĢ
ÑĤÐ° ÑĤÑĭ
ĠÐ¶ÐµÐ»ÑĤÐ¾ÒĽÑģÐ°Ð½ Ð´Ð°ÒĵÑĭ
ĠÐ±Ð°Ñģ ÑĭÐ½Ð°Ð½
ĠÐ¼ÐµÐºÑĤÐµÐ± ÑĸÐ½ÑĸÒ£
ĠÒļÐ°Ð·Ð°ÒĽÑģÑĤÐ°Ð½ Ð´Ð°ÒĵÑĭ
ĠÑģ Ð°
ĠÒĽÑĭÐ·Ð¼ÐµÑĤ ÐºÐµ
ĠÐ°ÑģÑĭÑĢ ÑĥÒĵÐ°
ĠÐºÓ©Ð¼ ÐµÐ³ÑĸÐ¼ÐµÐ½
ĠÑģ Ð°Ð¼
Ð¢ÐĲ ÐĿ
ĠÐ¸Ð½ Ð¶ÐµÐ½
ĠÐľÓĻÑģ ÐµÐ»ÐµÐ½
ĠÒĽÑĭÐ·Ð¼ÐµÑĤÐºÐµÑĢÐ»ÐµÑĢ Ð´ÑĸÒ£
ÑĸÐ½ ÑĸÐ¿
Ġ Ò£
ĠÐ± Ð¾ÑĢ
ĠÑĸÑģÑĤ ÐµÐ¿
ĠÐ³Ð°Ð· ÐµÑĤ
Ñĥ Ð¼Ð°Ð½
ĠÐ°Ðº ÑĨÐ¸Ð¾Ð½
ĠÐĸÐ¾Ð» Ð°ÑĥÑĪÑĭÐ»Ð°ÑĢ
ÒĽ Ð°Ð»
Ð´ÑĭÑĢ Ð°Ð´Ñĭ
ĠÒĽÑĥ Ð°Ð½ÑĭÑĪ
ĠÒ¯ÑģÑĤ ÐµÐ¼
Ð±Ò± Ð´Ð°Ð½
ĠÐ¢ Ð¾ÑĢ
ĠÑģÐ°Ð» ÑĤ
ĠÑĤÐ°Ð¿ÑģÑĭÑĢ ÑĭÑģ
ĠÐ»Ð°ÑĥÐ°Ð·ÑĭÐ¼ ÑĭÐ½Ð°
Ġ19 6
ÑĭÐ¼ Ð½ÑĭÒ£
Ð¢ Ò¯ÑĢ
ĠÑĤÐ¾Ð± Ñĭ
Ð¿ ÑĭÐ½
ÓĻ ÑģÑĤ
ĠÐĲÒĽÑĤ Ð°Ò£
ĠÐ¶ Ò±ÒĽ
ÐĲÒĽÑĤ Ó©Ð±Ðµ
ÑĸÐ½Ð´Ðµ Ð¹
ĠÐ¶Ð¾Ð± Ð°Ð»Ð°ÑĢ
ĠÐ¶Ð°Ð¹ ÑĭÐ½Ð´Ð°
ĠÐ¿Ð°Ð¹ÑĭÐ· ÒĵÐ°
ĠÐ½ÑĭÒĵ Ð°Ð¹ÑĤÑĥ
a m
ĠÑĤ Ó©Ð·
ĠÐĲ ÑĤÐ°
ĠÐ±ÑĸÐ»ÑĸÐ¼ Ð´Ñĸ
ĠÐ°Ð»Ñĥ ÑĪÑĭ
ĠÐĲÒĽÑĤÐ°Ò£ ÐºÐµÑĢ
ĠÐ¼ iÐ½
ĠÐ¼Ð¾ Ð´ÐµÐ»
ĠÒļ Ð°Ñĥ
ĠÒĽÐ¾Ð»Ð´Ð°Ð½ ÑĥÒĵÐ°
ĠÐºÐ¾Ð½ ÐºÑĥÑĢ
Ð°ÑĢ ÒĵÑĭ
Ð± ÐµÐ»
ĠÑģÐ°Ð» Ð°ÑģÑĭÐ½ÑĭÒ£
ĠÑģÑĤÐ°Ð½Ð´Ð°ÑĢ ÑĤ
ĠÐ¶ÐµÑĢ Ð´ÐµÐ½
ÐķÑģ ÐºÐµÑĢÑĤÑĥ
ĠÐ»Ð°ÑĥÐ°Ð· ÑĭÐ¼Ð´Ñĭ
Â ®
ĠÑĢÐµÐ³ Ð»Ð°Ð¼ÐµÐ½ÑĤ
ĠÐ´ÐµÒ£Ð³ÐµÐ¹ Ñĸ
ÐµÑĤÑĤÐµÑĢ Ð´ÑĸÒ£
ÑĢÐµÐ·ÐµÐ½ ÑĤÐ°ÑĨÐ¸Ñı
Ð³ÐµÑĢ Ð»ÑĸÐº
ĠÐºÐ¾Ð¼Ð¿ ÑĮÑİÑĤÐµÑĢ
ĠÐĶ ÐµÐ³ÐµÐ½Ð¼ÐµÐ½
ĠÐ±Ð¾Ð¹ ÑĭÐ½Ð´Ð°
ĠÐºÐµÐ· ÑĸÐ½Ð´ÐµÐ³Ñĸ
ĠÑĸÑĢÑĸÐº ÑĤÐµÑĥ
ĠÑĤÐ°ÒĵÐ°Ð¹ÑĭÐ½ Ð´Ð°Ð»
ĠÐº Ð¼
20 20
ĠÐ¶Ð°Ñĥ ÑĭÐ½
ĠÐ½Ò±Ñģ ÒĽ
ĠÐ¶ÐµÑĤ ÑĸÐ¿
ĠÑģÐµÑĢ ÑĤÐ¸ÑĦÐ¸Ðº
Ð°ÑĤÑĭÐ» ÒĵÐ°Ð½
ÐĶ ÐĲ
ĠÐ±ÐµÑĢÑĥ ÑĪÑĸÐ½ÑĸÒ£
Ò±ÒĽ ÑĭÒĽÑĤÑĭÒĽ
ÑĨ Ð¸Ð°Ð»
ĠÐ°Ð» ÑĭÐ½
ĠÐµÐ» Ð³Ðµ
ĠÐ°Ð» ÑĭÑģ
Ñį Ð½
ĠÐ¿Ð¾ Ñį
Ð°Ð»ÑĭÒĵ ÑĭÐ½Ð´Ð°ÒĵÑĭ
ÑĤÐ°Ð½ ÑĭÒ£
ĠÐ¶Ò¯ÑĢ ÐµÐ´Ñĸ
ĠÑĪ Ð¾Ð»
ĠÐ´ Ð¾Ð¿
ĠÐ°Ð½ Ð°Ð»
ĠÑĤÑĸÐ» ÐµÐº
Ð¿ Ð°Ð»Ñĭ
ĠÐºÐµÐ»Ð³ÐµÐ½ Ð´Ðµ
ĠÐ±Ð°ÑĢ ÑĭÐ½ÑĪÐ°
Ð° Ð´Ð°ÒĵÑĭ
ÐµÐ»ÐµÑĢ Ð³Ðµ
ĠÐļ ÐµÑģÑĤ
ĠÑĤÐµÒ£Ð³Ðµ Ð³Ðµ
ĠÐ ¦
3 5
ĠÐ±Ó©Ð» ÑĪÐµÐº
4 5
ĠÒĽÐ¾Ñģ ÑĭÐ¿
ĠC om
Ð¼ Ð¾Ð½
ĠÑģÑĥÐ± ÑģÐ¸Ð´
ĠÐ¼Ð°ÑĤÐµÑĢÐ¸Ð°Ð» Ð´Ð°ÑĢ
ĠÒĽÐ°Ð» ÑĭÒ£
ĠÑĤÐ°Ð» Ð°Ð¹
ĠÓĻÐ»ÐµÐ¼ Ð´ÐµÐ³Ñĸ
ĠÒĽÐ¾Ñģ Ñĥ
ÑĪÐ°ÑĢ Ð°
ĠÐ´ Ð°Ò£
ÑĭÐ»ÑĭÐ¼ Ð¸
ĠÒĽÒ±ÑĢ ÑĭÐ»Ð´Ñĭ
ĠÐ¶ Ð°ÒĵÑĭ
ĠÑħÐ°ÑĤ ÑĪÑĭÑģÑĭ
Ð¸Ð½ Ð½ÑĸÒ£
ÒļÐ°Ð·Ð°ÒĽÑģÑĤÐ°Ð½ Ð½ÑĭÒ£
ĠÓĻ Ð·
ĠÐļ Ð¾Ð´
7 7
Ðµ Ð´ÐµÐ½
ĠÐ±Ð°Ñģ ÑĤÐ°Ð»Ð´Ñĭ
ĠÐ¼ÓĻ Ð¼
ĠÑģÑĤÑĢÐ°ÑĤÐµÐ³ Ð¸ÑıÐ»ÑĭÒĽ
ĠÐ¶ÐµÒ£ÑĸÐ¼ Ð¿Ð°Ð·
Ð°Ð¿ Ð°ÑĢ
ĠÐ´ Ð¾Ð¼
ĠÒĽÐ°Ð¹ ÑĤÑĭÑģ
ĠÐĳÐ°Ð» Ð°Ð»Ð°ÑĢ
ĠÐ¼Ð°Ð¼Ð°Ð½ Ð´Ð°Ð½
ÑĤÑĭ ÒĵÑĭÐ½
ĠÐĶ ÑĸÐ½
ĠÑĤ ÑĭÐ¼
ĠÐ°Ñĥ Ð´
ĠÐ½ Ð°ÑĪÐ°ÑĢ
8 0
ĠÑįÐº ÑģÐ¿
ĠÐ¶Ò¯ Ð³ÑĸÑĢ
Ð»Ð°ÑĢ ÑĭÐ½Ð´Ð°
ĠÐĸ Ò¯ÑĢ
ĠÑģÒ± Ñħ
ÑĪÑĸÐ»Ñĸ Ð³ÑĸÐ½ÑĸÒ£
Ġhttp s
ĠÐ¾ÑĢÑĭÐ½ Ð´Ð°ÑĢÑĭ
ĠÐ¸ ÐµÐ»ÐµÐ½
ĠÐ¡Ð¾Ð½ ÑĭÒ£
Ð°Ð½ Ñĥ
ĠÐ¾ÑĢÑĭÐ½ Ð´Ñĭ
ĠÑĤÐ°Ð»Ð´Ð°Ñĥ Ñĭ
Ð½ Ð°ÑĤ
ĠÑĤÑĭÒ£ Ð´Ð°Ñĥ
Ð¿ Ð°Ðº
ĠÒĽ Ð°ÑĤÑĭÐ½
ĠÑĤÑĭÐ½ ÑĭÑģ
ĠÐ¼ÑĥÐ·Ñĭ Ðº
ĠÐ°Ð¹Ð½Ð°Ð» Ð´Ñĭ
ĠÐ°Ñĥ Ð·
ĠÓ¨ ÑģÐºÐµÐ¼ÐµÐ½
ĠÐ¼Ó©Ð»ÑĪ ÐµÑĢÑĸ
ĠÐ·Ð°ÑĢ Ð´Ð°Ð¿
ĠÐ°ÑģÑĭÑĢ Ð°Ð´Ñĭ
ĠÑĦÐ¸Ð» Ð¸Ð°Ð»Ñĭ
ĠÑģ ÑĤ
ĠÑĤÐµÑĢ Ð°Ð¿
ÑĪÐ°ÑĢ ÑĥÐ°
ĠÐºÓ©Ð·ÒĽÐ°ÑĢ Ð°Ñģ
Ð¸ÑĤÐ°ÑĢ Ð¸ÑıÐ»ÑĭÒĽ
Ð°ÑĢ ÑĤÑĥ
ĠÒ±ÒĽÑģ Ð°Ñģ
Ðº i
ĠÐ°Ð»Ð´ ÑĭÐ½Ð´Ð°ÒĵÑĭ
ĠÑģÓ©Ð¹ Ð»ÐµÑĥ
Ð°ÑĤ ÑĤÐ°Ñĥ
ĠÐºÐµÑĤ Ñĥ
Óĺ ÑĢ
Ġt ur
Ð» Ð¸Ðº
ĠÐ±Ð°Ñģ ÑĤÐ°Ð»
ĠÐ¸ ÑģÐ»Ð°Ð¼
Ð°Ð¼ÑĭÐ· Ð´ÑĭÒ£
ĠÑĤÒ¯Ñģ ÐµÑĤÑĸÐ½
Ð´ÑĭÒĽ ÑĤÑĭ
Ð» Ð¾ÑĢ
ÐĸÒ±Ð¼ ÑĭÑģ
ĠÐ¶ ÉĻ
ĠÐĲ Ðº
ĠÑĤÑĸÐ· Ð±
Ð´ÐµÑĢ ÑĸÐ½Ð´Ðµ
ĠÓ¨Ð· Ð±ÐµÐºÑģÑĤÐ°Ð½
Ġ ÑĭÑģÑĤÑĭÒĽ
A l
Ðº Ð¾Ð²
ÐµÑĢÐ¸Ð°Ð» Ð´Ð°ÑĢÐ´Ñĭ
ÑĸÐº ÑģÑĸÐ·
ĠÑģÐ°Ð» Ð¼Ð°ÒĽ
Ñģ Ð°ÑĤÑĭÐ½
ĠÐļÐµÑģÑĤ ÐµÑģÑĸ
ĠÐ¼ÑĸÐ½Ð´ ÐµÑĤÑĤÐµÑĢÑĸ
ĠÐ°ÑĢ Ð´Ð°Ð³ÐµÑĢ
ĠÓ©Ò£ÑĸÑĢ Ð»ÑĸÐº
ĠÐ´Ð°Ð¼ ÑĭÒĵÐ°Ð½
ĠÐ¶ Ð°ÒĵÑĭÐ¼
ĠÒĽÒ±Ð» Ð°ÒĽ
ĠÓ©Ð· ÑĸÐ½Ð´Ðµ
ĠÑĤÐ°ÑĢ Ð°ÑĤÑĥ
ĠÐº ÑĸÐ½
ĠÐŁÑĢ ÐµÐ¼ÑĮÐµÑĢ
ÑĤÐµÐ» ÐµÐ´Ñĸ
ÑĤÒ± Ð·
Ñģ Ð¿Ð°Ð½
Ð´ ÑĭÐ½
ĠÐ¢ ÑĸÐ¿ÑĤÑĸ
Ð» i
ĠÑĤÐ¾Ð½ Ð½Ð°
Ð»ÑĭÒĽ ÑĤÑĭÒ£
ĠÐ¢ Ð°Òĵ
b u
ÐĳÐ¾Ð» Ð°ÑĪÐ°ÒĽ
0 4
Ð¸ Ð¾
ÑĢ ÐµÑģ
Ðļ Ó©Ð¿
Ð· ÐµÐ¹
e m
ĠÒĽÐ° Ð´ÑĸÑĢ
ĠÑģÑĸÐ· Ð³Ðµ
ĠÐ¿ ÑĸÑĪ
Ñģ ÑĭÐ½Ð´Ð°ÒĵÑĭ
ĠÓ©Ñģ ÑĸÐ¿
ĠÑģÐ°Ð»ÑĭÑģÑĤÑĭÑĢ ÒĵÐ°Ð½Ð´Ð°
ĠÒĽÐ¾ÒĵÐ°Ð¼ Ð½ÑĭÒ£
ĠÐĳ Ð°Ð½Ðº
ĠÐĲÐ» Ð»Ð°Ð½ÑĭÒ£
ĠÐ¿ÑĢ Ð¸Ð½
ĠÐ½ÐµÑģ Ð¸Ðµ
ĠÐ¿Ð°ÑĢÑĤ Ð¸Ñı
ĠÐ±Ò± ÒĵÐ°Ð½
ĠÒĽÑĭÑģ ÒĽÐ°ÑĢ
Ð°Ðº ÑĤÐµÑĢ
ÐµÐ´Ð¸ÑĨÐ¸Ð½ Ð°Ð»ÑĭÒĽ
ĠÐ¼Ò¯ÑĪ ÐµÐ»ÐµÑĢÑĸ
ĠÐ´Ð°ÑıÑĢ Ð»Ð°Ñĥ
ÑĥÑĢ ÐµÑĤ
Ð¸Ð· Ð°ÑĨÐ¸Ñı
ĠÐĶ Ò¯Ð½Ð¸
a d
ĠÐ½ Ð°Ð½
ĠÐ¶Ð¾ÑģÐ¿Ð°ÑĢ ÑĭÐ½
ĠÑĤÐ¾ÑĢ ÑģÑĭÒĽ
ÑĪ Ð°Ñĥ
ĠÐľÐ°ÒĽ Ð°Ð»
ĠÑĤÒ±Ð» ÒĵÐ°Ð½ÑĭÒ£
ĠÐ±Ð¾Ð»ÒĵÐ°Ð½ Ñĭ
ĠÑĪ Ó©Ð¿
Ġ ÑĭÐ»
ÑģÑĤÐ°Ð½ Ð¾Ð²ÐºÐ°
Ð» ÑĭÒĵÑĭÐ½ÑĭÒ£
ÐµÐºÐµ Ð³Ðµ
ĠÑĪÑĭÒĵ Ñĥ
ĠÐºÓ©Ðº Ð¿Ð°ÑĢ
ÑĸÑģ Ñĥ
Ð¶ Ð°Ð¹Ñĭ
ĠÓĻÑĢÑĸÐ¿ÑĤÐµÑģ ÑĤÑĸÐº
ĠÐ±ÓĻÑĢ ÑĸÐ½
ĠÐ¶Ð°Ñģ Ó©ÑģÐ¿ÑĸÑĢ
ĠÑĪÑĭÒĵ ÑĭÑģ
ĠÒĽÑĭÐ»Ð¼ ÑĭÑģ
ÐµÑĤ ÑĢÐ¾Ð¿
ÑĤ ÐµÑģÑĤ
ÑĭÒ£ Ð´Ñĭ
ĠÐ¶ Ð°Ò»
ĠÐ°Ðº ÑĨÐ¸Ñı
ÑĭÐ¼ Ð´Ð°
ĠÐ°Ð½ ÑĤÐ¸
Ð°Ð»ÑĭÒĽ ÑĤÐ°ÑĢ
ĠÐ¶Ð°Ò£ÒĵÑĭÑĢ ÑĤÑĥ
ĠÐ±ÐµÐ» Ð³iÐ»
Ðĳ Ò±
Ð»ÐµÐºÑĤÑĢÐ¾Ð½ Ð´ÑĭÒĽ
ĠÐ¿Ð°Ð¹ÑĭÐ· Ñĭ
ĠÑģ Ð¸
ĠÒĽÐ¾Ð» Ð°Ð¹Ð»Ñĭ
ĠÐ£ ÑģÑĤÐ°Ð½Ð¾Ð²ÐºÐ°
ĠÓ©Ñģ ÑĥÑĸ
Ð´ÑĢ Ð¾Ð¼
Ð¿ Ð»Ð°ÑĤ
ĠÑĤÐ°Ð½ÑĭÑģ ÑĤÑĭÑĢ
ĠÐ¿ÑĢÐµ Ð¿Ð°ÑĢ
ĠÐ°ÑĥÑĭÐ» Ñĭ
ĠÑģÑĸÐ» ÑĤÐµÐ¼
ĠÐĸ ÐµÐ»
c h
ÑĤÑĤÐ°ÑĢ ÒĵÐ°
Ð´ÑĢ Ð¾Ð»ÑĭÒĽ
ĠÒĽÐ¾Ð¹ ÑĭÐ»Ð°ÑĤÑĭÐ½
âĢĿ ,
Ð¸Ñı ÑĢ
ĠÐºÐµÐ·ÐµÒ£ Ñĸ
ĠÐĶ ÐµÐ¼
ĠÑĢ ÐµÐº
Ġ8 0
Ð¼Ñĥ Ð½
ĠÓ©ÑĤÐºÑĸÐ· ÑĸÐ»ÐµÑĤÑĸÐ½
Ð³ÐµÐ½ Ð´Ðµ
Ð°Ð¼ Ð´Ñĭ
Òļ Ð°Ð»Ð°
ĠÐ¶Ð°Ð¼ Ð±Ð°Ñģ
ĠÐĸ ÓĻÐ½Ðµ
ĠÐ» Ð¸Ð¼
ÐµÐ½ÑĤ Ð³ÐµÐ½
ĠÑĦÑĥÐ½ÐºÑĨÐ¸Ð¾Ð½ Ð°Ð»Ð´ÑĭÒĽ
ĠÐ°ÒĽ ÑĭÑĢ
ĠÐ½Ð¾ÑĢÐ¼ Ð°ÑĤÐ¸Ð²ÑĤÑĸÐº
ÐµÐ» ÐµÐ¿
ĠÐ±ÑİÐ´Ð¶ÐµÑĤ ÑĤÐµÐ½
ĠÐ¿Ð°ÑĤ Ð¾Ð»Ð¾Ð³Ð¸Ñı
Ð¸Ðº Ð»
Ġ3 6
Ġi Ñģ
ĠÐľ ÑĸÐ½Ðµ
Ð± Ð½
ĠÐµÐºÐµÐ½ Ñĸ
ĠÒĽÐ¾Ð¹ Ð½
Ð¼ Ð°ÑģÑĭ
ÐµÐ² Ð°
ĠÐľÒ±Ð½ Ð´Ð°
Ð»Ð°ÑĢ Ð´Ð°
ÑĤ Ò±ÑĢ
ÑģÑĭÐ½ ÑĭÐ¿
ĠÐ±Ð¾Ð» ÑĥÑĭÐ½Ð°
ĠÐĲÒĽ ÑĤÐ°Ñĥ
ĠÐºÐµÐ¹ Ð´Ðµ
ĠÐ´ÐµÐ¼ Ð°Ð»
ÑĢ Ð¾Ð½
c o
ĠÑĤÐ¾ ÒĵÑĭÐ·
ĠÒĽÐ°Ð½ Ð°ÒĵÐ°ÑĤ
ĠÐľÒ± Ñħ
ĠÓĻ Ð¶
ĠÓĺÑĢ Ð¸Ð½Ðµ
ĠÐºÑĸÑĪÐºÐµÐ½ ÑĤÐ°Ð¹
ÑĸÑģ ÑĤÑĸÒ£
ĠÐµÑģÐµÐ¿ ÑĤÑĸ
ĠÐ¶ÐµÑĢ Ñĸ
ĠÐ¾ÑĤÐ°Ð½ Ð´ÑĭÒĽ
Ðº Ó©ÑĢ
ĠÓĻ Ð±
ÐµÐ· Ð¾Ð²
ĠÐ°ÒĵÑĭÐ¼ Ð´Ð°ÒĵÑĭ
ĠÐĲÐ» Ð°ÑĪ
ĠÐ±Ð°Ñģ ÑĤÐ°Ð»ÒĵÐ°Ð½
ÐµÑĤÑĢÐ¾Ð¿ Ð°Ð²Ð»
ĠÐ± Ð°Ñĥ
ĠÒĽÐ°ÑģÐ¸ ÐµÑĤÑĤÑĸ
ĠÐºÐµÒ£ ÑĸÐ½ÐµÐ½
ĠÒĽÒ±Ð¿ Ð¸Ñı
ĠÐŀ Ð´Ð°Ð½
ĠÐº ÑĸÐ»
Ðĸ ÐµÐºÐµ
Ðľ Ð¸Ð½Ð¸ÑģÑĤÑĢ
Ð¥Ð°Ð»ÑĭÒĽ Ð°ÑĢÐ°Ð»ÑĭÒĽ
ĠÐ±Ð°Ñģ ÑĪÑĭÐ»ÑĭÒĽ
ÐĲÐ» ÑĤÑĭÐ½
Ð°ÑĤÑĭÐ½ ÑĭÐ½
ĠÑĤ ÐµÑģÑĤ
ĠÐ· Ð°ÑĤ
ĠÐ¶ÐµÑĤ Ð¿
ĠÐ¼Ò¯ ÑĪÐµ
ew s
ĠÒĽÒ±ÑĢÐ°Ð¼ ÑĭÐ½Ð´Ð°
ĠÐ¼ÓĻÑģÐµÐ» ÐµÐ»ÐµÑĢÐ´Ñĸ
ĠÐ¼ÓĻÐ½ Ñĸ
Ð°ÑĤÐ¸Ð² ÑĤÑĸ
Ġ9 0
ĠÐ±ÑĸÑĢ ÑĸÐ½
ĠÐºÓ©Ð» ÐµÒ£
ĠÐ±ÓĻÑģ ÐµÐº
ĠÑĪÐ°ÑĢ Ð°Ð»Ð°ÑĢÑĭ
Ðľ ÐµÐ½ÑĸÒ£
ĠÐ´ÐµÐ¿Ñĥ ÑĤÐ°ÑĤÑĭ
Ġtur aly
ĠÒĽÐ°Ð±ÑĭÑĢ Òĵ
ĠÐ¿ÑĢ Ð¾Ð³ÑĢ
ĠÐºÒ¯Ð½ Ð´Ðµ
ĠÐ´ÐµÐ³ÐµÐ½ ÑĸÐ¼ÑĸÐ·
ĠÐµÑģÐºÐµÑĢ ÑĤÑĥ
ĠÐ¼Ð°ÑĤÐµÑĢÐ¸Ð°Ð» Ð´ÑĭÒĽ
ĠÐĲÑģÑĤÐ°Ð½ Ð°Ð´Ð°
ĠÐ¶Ð°ÒĽÑģÐ°ÑĢ ÑĤÑĥ
ÑĭÐ¼ÑĭÐ· Ð´Ð°
ĠÐºÐµÐ¹ ÑĸÐ¿
ĠÐ¶ÓĻÑĢÐ´ÐµÐ¼ Ð´ÐµÑģ
ÒĽ Ð¾Ñģ
ĠÐŀ ÑģÑĭÐ½Ð´Ð°Ð¹
ÑĤÑĭÐ» ÑĭÒĵÑĭÐ½
ĠÓĻÐ´Ðµ Ð¿
ĠÐ½ÐµÐ³ÑĸÐ· ÑĸÐ½ÐµÐ½
ĠÐ»Ð¸ÑĨÐµÐ½ Ð·Ð¸ÑıÑģÑĭ
ĠÐºÐ¾ÑĢÐ¿Ñĥ ÑģÑĭÐ½ÑĭÒ£
ÒĽÐ°Ð¹ Ñģ
ĠÑĤÑĥ ÒĵÑĭÐ·
ĠÑĤÒ±ÑĢÒĵÑĭÐ½ Ð´Ð°ÑĢÑĭÐ½ÑĭÒ£
ĠÐµÐºÐµÐ½ Ð´ÑĸÐ³Ñĸ
ĠÐ¶Ð°Ð¿ Ð¿Ð°Ð¹
ou nd
Ð¸ÑĢ Ð¾Ð²
ĠÒļÐ°ÑĢ Ð°ÑĪÐ°
ÐµÑģ ÑĸÐ¼ÐµÐ½
ĠÐ¾ÑĢÐ½ ÑĭÐ½
ĠÐľÓĻÑģ ÐºÐµÑĥ
ĠÓĻÐº iÐ¼
ÐµÐ´Ð°Ð³Ð¾Ð³ Ð¸ÐºÐ°Ð»ÑĭÒĽ
ĠCom m
ĠÓ©ÑĤÐºÑĸÐ· ÑĸÐ»Ð³ÐµÐ½
ÑģÑĤÑĢÑĥ ÐºÑĨÐ¸Ñı
ĠÐµÐ¼ Ð´ÐµÐ»
ip edia
ĠÑģÒ±Ð» Ñĥ
ĠÐŀÑģÑĭ ÒĵÐ°Ð½
Ð±Ð°Ñģ ÑĤÒ±Ð·
ĠÐ±ÐµÑģ Ð¿Ð»Ð°ÑĤ
ĠÐ±Ð°Ñģ ÑĤÐ°Ð¹Ð´Ñĭ
Ð°ÑĢ Ð¸
ĠÐĲÑĢ Ð°Ð»
ĠÐ¶ÉĻ Ð½Ðµ
ĠÐ±ÑĸÐ»ÑĸÐºÑĤÑĸ Ð»ÑĸÐº
ĠÑģÓĻÑĥÑĸÑĢ Ð´ÐµÐ³Ñĸ
a g
ĠÑĪÐµÐº Ð°ÑĢ
ÐµÑģÑĤ ÐµÐ½
ĠÑĤÓĻÑĢ ÑĸÐ·Ð´Ñĸ
ĠÐ°Ð½ÑĭÒĽÑĤÐ°Ñĥ ÒĵÐ°
ik e
ĠÐ¶Ó©Ð½ iÐ½Ð´ÐµÐ³i
ÑĸÑĪ Ñĸ
iÐ» Ð³ÐµÐ½
Ð´Ð°Ð½ ÑĭÒ£
ĠÑģÐ°Ð¹ ÑĤÑĤÑĭ
Ð½ ÐµÐº
ĠÑĢÐµ Ð°Ðº
Ġ ÑĭÑĢ
Ðĳ Ð¸
Ðĸ ÐµÑĤ
ĠÐ¡ÑĸÐ· Ð´ÑĸÒ£
ĠÐ¼Ð°Ð·Ð¼Ò± Ð½Ñĭ
Ð¾ÑģÐº Ð¾Ð¿
ati ve
Ġ200 7
ĠÐ±Ó©Ð» Ñĥ
Ðº ÑĥÐ»
ĠÑĸÐ· Ð´ÐµÐ½
har e
Ð¾ Ñħ
o v
Ñĥ ÒĵÐ°Ð½
Ð°Ð½ ÑĭÐ¿
Ñĥ ÑĪÑĸÐ»ÐµÑĢ
ĠÑħ Ð¸ÑĢÑĥÑĢÐ³
ĠÑĤÐ°Ñģ ÑĤÐ°Ð¿
ĠÐ°Ð»Ð¼Ð°Ð¹ ÑĤÑĭÐ½
ĠÐ¶Ð¸Ð½ Ð°Ð»ÑĭÑģ
ÑĭÐ¼ ÑĪ
ĠÒ¯Ð¹ Ð´ÑĸÒ£
ĠÓ©Ð· ÑĸÒ£
Ð°Ñĥ ÑĪÑĭ
ĠÐ¶Ò¯Ð¹ Ðµ
Ð°ÑĢ Ð½
ÑĤÐ°Ð½Ð´ÑĭÑĢÑĥ Ð´Ñĭ
ĠÒļÑĭÑĢ ÒĵÑĭÐ·
Òĵ Ò±ÑĢ
Ð°Ð» ÒĽÑĭ
ĠÐļÐ¾Ð½ÑģÑĤÐ¸ÑĤÑĥ ÑĨÐ¸Ñı
Ð¶ Ð°Ñĥ
ÑĥÑĢ Ð°
ĠÐºÐµÑĪÐµÐ½ Ð´Ñĸ
ĠÐºÑĥ ÓĻÐ»
ÒĽ Ð°Ð»Ð°
S hare
ĠÑĤÐ°Ðº Ð¿Ð°Ðº
Ð³ Ð¸
ĠÐ½ÑĭÑģ Ð°Ð½Ñĭ
ĠÐ°Ñĥ Ð¼Ð°Òĵ
ĠÐºÐµÐ»ÑĸÑģ ÐµÑģÑĸÐ·
ĠÐ±Ó©Ð» ÑĸÐ¿
ĠÐ°ÑĥÑĢÑĥ Ð»Ð°ÑĢ
0 3
ĠÒĽÒ±Ð½Ð´Ñĭ Ð»ÑĭÒĽ
ĠÐ±ÐµÐ¹ Ð±ÑĸÑĤ
ÑģÑĤ ÐµÑĢÑĸ
Ó©Ð· ÐµÐ½
ĠÐŁÐ°Ð¹ ÒĵÐ°Ð¼Ð±Ð°ÑĢ
Ġ Z
ĠÑĪÐ°Ð¼ Ð°Ð¼ÐµÐ½
ĠÐ¾ÒĽ ÑĭÒĵÐ°Ð½
ĠÒ¯Ð¹ÑĢ ÐµÑĤ
ĠÐ¶Ð°Ñģ Ð°Ð¹
Ð· Ð°ÒĽ
ÑģÐµÐ½ Ð±Ñĸ
ĠÑħ Ð°Ð´
ĠÑĤÓ©Ð» ÐµÐ½
ĠÐ¼Ð¾Ð¹ ÑĭÐ½
ĠÓ©Ð· ÑĸÒ£ÑĸÐ·
ĠÐ¶Ò¯Ð¹ ÐµÐ»ÐµÑĢ
ĠÑĤÐ°Ð½ÑĭÑģ ÑĤÑĭÑĢÑĥ
Ð°ÑĪÐ° ÒĵÑĭ
ĠÐĳÒ¯Ð³ÑĸÐ½ Ð³Ñĸ
ĠÐ¶ÐµÑĤ ÑĸÑģ
ĠÐ¼Ò¯Ð´ Ð´
Ð°ÑĢÑĭ ÑĪ
ĠÐ¶Ð¸ ÑĭÑĢ
ĠÓĻÐ»ÐµÐ¼ Ð½ÑĸÒ£
ĠÐ±Ó©Ð»ÑĸÐ¼ ÑĸÐ½Ð´Ðµ
ĠÒĽÐ¾Ñı Ð´Ñĭ
ÐĲ Ð½
ÑĥÑĪ ÑĭÐ½ÑĭÒ£
ĠÐ±ÐµÐ¹ ÑĸÐ¼
ĠÑĤÑĸÑĢ ÑĪÑĸÐ»ÑĸÐº
ĠÐ±Ó©Ð» ÑĸÐ½ÐµÐ´Ñĸ
ĠÑĪÐ¸Ðº ÑĸÐ·
ÑĤÑĭÐ» ÑĭÐ¿
ĠÑģÐ¾Ð½ Ð´Ð°
Ð°Ð´Ñĭ ÑĢ
ĠÐ°Ð¹Ð½Ð°Ð» ÑĭÐ¿
ĠÐ¿ÑĢÐµÐ·Ð¸Ð´ÐµÐ½ ÑĤ
ĠÑĤÒ¯Ð· ÐµÑĤÑĥ
ĠÐ¼ Ð°Ð¼
Ð°Ð· Ð¸Ñı
ĠÐºÓ©ÑĪÑĸÑĢ ÑĸÐ¿
" .
3 2
ĠÑįÐ½ÐµÑĢÐ³ Ð¸Ñı
ĠÑģÓĻ ÑĤÑĤÑĸ
ÑĪÐ°Ð»ÑĭÒĽ ÑĤÑĭ
ĠÐ¸Ð½Ð²ÐµÑģÑĤÐ¸ ÑĨÐ¸Ñı
Ðĳ ÐĲ
Ġ #
ÒĽ Ð°Ð»ÑĭÒĽ
ĠÐ±ÐµÑģÐ¿Ð»Ð°ÑĤ Ð½Ð¾
ĠÐ±Ñĸ ÑĤÐºÐµÐ½
ĠÑģ ÐµÐ»
ĠÑĤÓĻÑĢÐ±Ð¸ ÐµÐ»ÐµÐ½Ñĥ
ĠÐļ ÑĸÑĤÐ°Ð¿
ÐºÑĸÐ½ ÑĸÑĪ
ĠÐ¶Ð°ÑĤ ÒĽÑĭÐ·
Ð´Ðµ Ð±Ð¸
ĠÒĽÑĭÐ·Ð¼ÐµÑĤ ÑĸÐ½Ð´ÐµÐ³Ñĸ
ĠÒĽÐ°Ð»ÑĭÐ¿ÑĤÐ°Ñģ ÒĽÐ°Ð½
ĠÐ¿ÑĢÐ¾ÑĦ Ð¸Ð»
ĠÐ¡ ÑĤÐ¾Ð¼Ð°ÑĤ
ĠÐļ ÐµÐ¹ÑĸÐ½
ĠÐºÒ¯ ÑĪÑĸ
ĠÑĥÐ½Ð¸Ð²ÐµÑĢÑģ Ð¸ÑĤÐµÑĤÑĸ
ÑĤÑĭÐ¼ Ð´Ñĭ
ĠÐ±Ð¾Ð» ÑģÐ°ÒĽ
ĠÑĢÐµÑĤ ÑĤÐµ
ĠÐ±ÑĸÐ»Ð´ÑĸÑĢ Ð´Ñĸ
ÑĭÐ¼ Ð½Ð°Ð½
ĠÐµÑĢ ÑĤÐµÒ£
Òĵ Ð°Ð¿
ĠÐ¢Ð°ÑĢ Ð¸Ñħ
ĠÐ°Ð»Ð´ÑĭÒ£ ÒĵÑĭ
ĠÑģÐ°ÒĽ ÑĤÐ°Ð¿
ĠÐ±Ò¯ Ð³ÑĸÐ½Ð´Ðµ
ĠÐĸÐ¾Òĵ Ð°ÑĢÒĵÑĭ
ÑĭÐ½ ÑĪÑĭ
ĠÒĽÐ¾Ð» ÑĭÐ½Ð°Ð½
ĠÑģÐ¸Ð½ Ð´ÑĢÐ¾Ð¼
ĠÑĪ Ñĥ
ĠÒĽÐ¾Ñģ ÑĭÐ»ÒĵÐ°Ð½
Ð¾Ò£ ÑĭÑĢ
A R
ĠÑģÐ¾ ÒĵÐ°Ð½
Ð°ÒĽ ÑĤÐ°Ð½
ÑģÑĤÐµÐ¼ ÐµÐ»ÑĸÐº
Ðľ Ð°Ò£ÒĵÑĭÑģÑĤÐ°Ñĥ
ĠÓ¨ Ð¼ÑĸÑĢ
ÐµÑĤ ÑĸÐ½Ðµ
ĠÑĪÒ± ÒĵÑĭÐ»
ĠÐ±ÑĸÐ» ÐµÑĤÑĸÐ½
Ðļ Ó©Ðº
ĠÑģ ÐºÐ°ÑĩÐ°ÑĤÑĮ
ĠÓĻÐ» ÑĸÐ¿Ð±Ð¸
ĠÑĤÓ©Ð¼ÐµÐ½ Ð´ÐµÑĤ
ÑĭÒĽ ÑĪÐ°
ĠÐ¶Ò¯Ð¹ ÐµÐ»Ñĸ
ĠÒ® Ð»ÐºÐµÐ½
ĠÐ¶ÐµÑĤÐºÑĸÐ· Ð´Ñĸ
ĠÑĤÐ¾ÒĽ ÑĤÐ°ÑĤ
ĠÐ¼Ð¸Ð»Ð» Ð¸
Ð· Ð°Ð»
ĠC re
ĠÐ¸Ð½ÑĦ ÐµÐºÑĨÐ¸Ñı
ĠÒĽÐ°ÑĤÐ°ÑĢ ÑĭÐ½Ð°
ĠÐ¶Ð°ÑĢ Ð½
ĠÐĳÒ± ÒĵÐ°Ð½
Ð½Ð¸ ÑĢ
ĠÐºÓ© Ð¼ÑĸÑĢ
ĠÐŃ ÐºÐ¾Ð½Ð¾Ð¼Ð¸ÐºÐ°
ĠÑĸÐ· Ð´ÐµÑĥ
ĠÑģÒ¯Ð¹ ÐµÐ½
ĠÐĸÐ¾Òĵ Ð°ÑĢÑĭ
ĠÐºÐµÐ´ÐµÑĢ Ð³Ñĸ
ĠÒĽÐ°Ð¼ÑĤÐ¸ Ð´Ñĭ
ĠÐ¾ Ð¿
Ð»ÑĭÒĽ ÑĤÐ°Ð¹
Ð»ÐµÑĢ Ð¼ÐµÐ½
ĠÐ¢Ò¯ÑĢÐº Ð¸Ñı
ĠÐ°Ñĥ ÒĽÑĭÐ¼Ð´Ñĭ
ÒļÑĭÐ·ÑĭÐ» Ð¾ÑĢÐ´Ð°
ĠÐ¢ ÐµÑĢ
ĠÒĽÐ¾ÑĢ ÑĭÐ½Ð°Ð½
ĠÒ±ÑģÑĤÐ°Ð· Ð´Ð°ÑĢ
ĠÐµÒ£Ð±Ðµ Ð³Ñĸ
ĠÒĽÐ°ÑĢ Ñĥ
ĠÒļÐ¾Ð» Ð´Ð°Ð½Ñĥ
ĠÐ¶Ò±Ð¼ÑĭÑģ ÑĤÐ°ÑĢÐ´Ñĭ
ĠÒļÐ¾ÒĵÐ°Ð¼ Ð´ÑĭÒĽ
ĠÑģÐ°ÑıÑģÐ°ÑĤÑĭ Ð¼ÐµÐ½
ĠÐ°ÑĤ ÑĤÐ°Ð½
ĠÑħÐ¸Ð¼ Ð¸Ñı
ri bu
ĠÐ¶Ò¯Ð» Ð´Ðµ
Ð± Ò¯ÑĢ
ĠÐ°Ð¹Ð½Ð°Ð» ÒĵÐ°Ð½
ĠÐ°ÑĤÒĽÐ°ÑĢ ÒĵÐ°Ð½
U R
ÐĿ ÐµÐ³ÑĸÐ·Ð³Ñĸ
ÐľÐ°ÑĤ ÐµÐ¼Ð°ÑĤÐ¸ÐºÐ°
ound ation
ĠÑģÐµÐ±ÐµÐ¿ ÑĤÑĸ
ĠÐĳ ÐĲÒļ
Ð°Ñģ Ð¿
Ð¿ Ñĸ
ĠComm ons
Ġ( Â«
ÒĽÐ°Ð¹ ÑĤÐ°
ĠÒĵÐ°Ð»ÑĭÐ¼ Ð´Ð°ÑĢ
ĠÐ±ÑĸÑĢÐ»ÐµÑģ ÑĸÐ¿
Ð¢ Ð°ÑĢ
ĠÐ°Ð¹ÒĽ ÑĭÐ½Ð´Ð°Ñĥ
ĠÐº ÓĻÐ¼ÐµÐ»ÐµÑĤÐºÐµ
ĠÐµÑģ ÐµÐ³Ðµ
ĠÐ±ÑĸÑĢÐ»ÐµÑģ ÑĤÑĸÐº
ĠÐ¾Ð¹ Ð»
Ð¾Ð¼ ÐµÑĤÑĢ
ĠÐ°Ðº ÑĤÐ¸Ð²
ĠÒ¯Ð¹ÑĢ ÐµÑĤÑĥ
ĠCre ative
ĠÐĸÐ°Ñģ ÑĤÐ°ÑĢ
ÒĽ Ð°ÒĽ
Ð´ Ð¾
ĠÑĤÐ°ÒĽ Ð¿Ð°ÒĽ
ĠÐ½ÓĻÑĢ Ñģ
Ð´ Ð¾Ð½
ĠÐ¶ÑĥÑĢÐ½Ð°Ð» Ð¸ÑģÑĤ
Ð¼ Ð°Ð´Ñĭ
ĠÐ±Ð¾Ð» Ð°ÑĪÐ°ÒĵÑĭ
ĠÐ°ÑĥÐ¼Ð°ÒĽ ÑĤÑĭÒĽ
ribu tion
ĠÐ±ÐµÑĢ ÑĸÐ»
19 8
ÐºÒ¯Ð¹ Ñĸ
ĠÑĢÐµ ÑĦÐ¾ÑĢÐ¼
ĠA tt
ĠÐºÐ¾Ð½ÐºÑĥÑĢÑģ ÑĤÑĭÒĽ
ĠIn c
ĠÐ°ÑģÑĤ ÑĭÐ½Ð´Ð°
ĠÐŀ ÑĤ
ĠÐ¶ÐµÑĤ ÑĸÐ¼
Ð½Ð¾ Ðµ
ĠAtt ribution
ÑĭÐ¼ ÑĭÐ½
ĠÐºÒ¯Ð½Ð´ÐµÐ» ÑĸÐºÑĤÑĸ
ĠÑĤÒ±ÑĢÒĵÑĭÐ½ Ð´Ð°ÑĢÑĭ
ĠÑħÐ°Ð±Ð°ÑĢ Ð»Ð°Ñģ
ĠÒĽÐ°ÑĥÐ» ÑĭÑģÑĭÐ½Ð°
Ð´Ð° ÑĤ
ÑĢÐ¾ Ó©Ð½ÐµÑĢ
Ð°Ñģ ÑĤÑĢ
ĠÐ¼Ð°ÑĢ ÐºÐ°ÑģÑĭ
ĠÐ¶Ò¯ÑĢÐ³ÑĸÐ·Ñĥ Ð³Ðµ
ĠÒĽÐ°Ð» Ð´ÑĭÒĽ
ww w
ÑĭÐ± Ñĭ
ĠÐ±Ð°Òĵ Ð°ÑģÑĭ
ĠÐ¡ Ð°Ð»
ĠÐ¸Ð¼ Ð°Ð¼
Ð¸Ñı Ð»Ñĭ
ĠÐ¼Ð°Ð³ Ð¸ÑģÑĤÑĢ
ĠÑĪÑĭÐ½ Ð°Ð¹Ñĭ
ĠÐºÐ»Ð¸Ð½ Ð¸ÐºÐ°Ð»ÑĭÒĽ
Al ike
Ð°Ð± ÑĭÐ½
Share Alike
ĠÑģÐ¾Ð· ÑĭÐ»Ð¼Ð°Ð»Ñĭ
ĠÐ±ÑĸÐ» ÑĥÐ³Ðµ
c om
ĠÑĪÓĻÐºÑĸÑĢ ÑĤ
ĠÓĺÑģ ÑĸÑĢÐµÑģÐµ
ĠÒĽ Ð¸Ð¼ÑĭÐ»
ĠÐ¼Ò¯Ð¼ÐºÑĸÐ½Ð´ÑĸÐº ÑĤÐµÑĢÑĸ
Ðŀ ÒĽ
Ġ J
ĠÐķ ÐºÑĸÐ½ÑĪÑĸ
ÐĲÒĽ Ð¼Ð¾Ð»Ð°
ĠÑĢÐµÐ² Ð¾Ð»Ñİ
Ð¿ Ð»ÐµÑĢ
ĠÑħÐ°Ð±Ð°ÑĢ Ð´Ð°ÑĢ
ĠÐ¶ Ð°ÑĤÑĭÐ¿
Ð¾Ð³ Ð¾
ĠÒĽÐ°Ð· Ð°
ĠÐ±Ð¾ Ñı
ĠÒĽÒ± Ñģ
ĠÐ°Ð»Ð´Ñĭ Ð¼
Ðº ÐµÒ£
ĠÐ¶Ð°ÑĢÐ¸Ñı Ð»Ð°ÒĵÐ°Ð½
ĠÐ² Ð¸Ð´ÐµÐ¾
Òļ Ò±
ĠÐ¼ÑĭÒ£ Ð½Ð°Ð½
ĠÒĽÑĭÑĪ ÒĽÑĭÐ»
ĠÒĽÒ±Ð¶Ð°ÑĤÑĤÐ°ÑĢ Ð´ÑĭÒ£
ĠÑģÐ°Ð½ Ð°ÑĤ
ĠÑģÐ°Ð½ Ð°ÑĤÑĤÐ°ÑĢÑĭÐ½Ð°
ĠÒ®ÐºÑĸÐ¼ÐµÑĤ ÑĸÐ½ÑĸÒ£
ÒĽÐ°ÑĢ Ð°
ĠÐ¿ÑĢÐ¸Ð½ ÑĨÐ¸Ð¿
ĠÐ´ Ò±
ĠÑĤÐ°Ð± Ð°
ĠÐ¶ÑĭÐ» Ñĥ
ÐµÐ³ ÑĸÐ½ÑĸÒ£
ĠÐºÐ°Ð¿ Ð¸ÑĤÐ°Ð»
ĠÐ°Ð½ÑĭÒĽ ÑĤÐ°Ð»ÒĵÐ°Ð½
ĠÓ© ÑĤÐµÑĥ
ĠÒĽÐ¾ ÑĪ
0 2
ÒĽÐ°Ð· Ð°Ð½
ĠÑģÑĥÐ±ÑģÐ¸Ð´ Ð¸Ñı
Ð±ÐµÐº Ð¾Ð²Ð°
ÑĤÒ¯ Ð»ÑĸÐº
ĠF oundation
Ð¼ ÐµÑģ
ĠÑħÐ°Ð±Ð°ÑĢÐ» Ð°ÒĵÐ°Ð½
ĠÑĸÑĢ Ð³
ĠÓĻÐ»ÐµÑĥÐ¼ÐµÑĤ ÑĤiÐº
ĠÐ±Ð°Ð» Ð°ÒĵÐ°
ĠÐºÓ©ÑĤÐµÑĢ ÑĸÐ¿
ĠÓ©Ð· ÑĸÐ¼
ĠÐ¿ Ð°Ð½
ĠÐ¼ÐµÐ½ ÐµÐ´Ð¶
ĠÒļÐ°Ð· Ð°Ð½
ĠÐ¶Ð°ÑĥÐ°Ð¿ÐºÐµÑĢ ÑĪÑĸÐ»ÑĸÐº
Ð¡Ð¾Ð½ Ð´Ð°Ð¹
ĠÐ¼Ð¸Ðº ÑĢÐ¾
ĠÐºÐµÑĢ ÐµÐ¼ÐµÑĤ
ĠÐ´ ÐµÑĤ
ĠÐ¸Ð¼Ð¿Ð»Ð°Ð½ ÑĤ
ĠÑĤÓĻÑĢÑĤÑĸÐ± ÑĸÐ½
ĠÒĽÑĭÐ·Ð¼ÐµÑĤÐºÐµÑĢÐ»ÐµÑĢ ÑĸÐ½ÑĸÒ£
ĠÐºÑĸ ÑĤÐ°Ð±
ĠÐ¢ ÓĻÐ¶
ÐĶ Ðĵ
ĠÐ¶Ð°ÑĤÒĽÐ°Ð½ ÑĭÐ½
ĠÐ½ Ò±ÑĢ
ĠÑĦ Ð¾ÑĤ
ĠÒĵ Ð°Ð»Ð°Ð¼
ĠÒĽÐ°Ð±ÑĭÐ» Ð´Ð°ÒĵÐ°Ð½
ĠÐ¾ÑĤÑĭÑĢ Ð´Ñĭ
Ð°Ñģ ÑĭÐ¿
ĠÐ°ÑĤÑĭÐ½ Ð°Ð½
ĠÐĳ ÐµÐ¹Ð½
ĠÐ°ÑĤ Ð°ÑĥÑĭ
ĠÐ°Ñĥ Ð»
ĠÑĪÑĭÒĵ Ð°ÑĤÑĭÐ½
t er
Ġ f
Ðļ Ó©
ĠÒĽÑĭÐ¼ Ð±Ð°ÑĤ
........ ........
ĠÐ¤ÑĢÐ°Ð½ ÑĨÐ¸Ñı
ĠÐĲÐ² ÑĤÐ¾ÑĢ
ÐµÐ½ÑĤ ÑĢ
ĠÐ»Ð¸ÑĨÐµÐ½ Ð·Ð¸Ñı
Ð°Ð¿ ÑĤÑĭ
ĠÐ°ÑĤ Ð°Ð»
ĠÑĤÐ°Ð»Ð°Ð¿ ÑĤÐ°ÑĢ
ĠÑģÒ± Ð¹
ĠÑĤÐ¾Ð» ÑĤÑĭÑĢ
Ð»Ð°Ð¹ Ð´
ĠÐºÐ¾Ð½ ÑĤ
ÓĻÐ» ÐµÑĥ
ÑģÐ°Ð¼Ð±Ð» ÐµÑı
ĠÒ¯Ð¹ ÑĸÐ½Ðµ
ĠÐ¶Ð¾Ð» ÑĭÐ½Ð´Ð°
ĠÐ¼Ð°ÒĽ ÑĤÐ°Ð½
ĠÒļÒ±Ð¿ Ð¸ÑıÐ»ÑĭÒĽ
Ð« Ò¢
ĠÒĽÒ± ÑĤÒĽÐ°ÑĢ
Ð¾ ÑĤÑĤÑĭÒĽ
Ð¸ ÐµÐ½ÑĤ
ÐµÐ¹ÑĤ Ð¾Ð¹
ĠÐ¶ÐµÑĤÐºÑĸÐ» ÑĸÐºÑĤÑĸ
ĠÒ±Ð¼ ÑĭÑĤ
ĠÓ©Ð· Ð´ÐµÑĢÑĸ
Ðľ ÐĶ
ĠÓĻÐ´ÐµÑĤ ÑĤÐµ
ĠÐ°Ð¹ÑĭÑĢ Ð¼Ð°
ĠÒĽÐ¾ÑģÐ¿ Ð°ÒĵÐ°Ð½Ð´Ð°
im edia
ĠWik ipedia
ĠÐºÐµÐ·ÐµÒ£ ÑĸÐ½Ð´Ðµ
ĠÓ©Ð½ ÐµÑĢÑĸ
ĠÐ¡ Ð°Ð½
Ð¢ Ò±ÑĢ
ĠÐ±ÑĸÐ» Ð¼ÐµÐ¹
Ð¿Ð»ÐµÑĢ Ð¾Ð³ÑĢÐ°ÑĦÐ¸Ñı
ĠÐ¾Ò£ ÑĤÒ¯ÑģÑĤÑĸÐº
ĠÐ° Ñħ
ĠWik imedia
ĠÐ¾ÒĽÑĭÑĤÑĥ ÒĵÐ°
ĠÒĽÐ°ÑĢ Ð°ÑģÑĤÑĭ
ĠÑĪÐ°ÑĢ Ñĥ
Ðĸ Ð°ÑĢ
ĠÑĤÒ¯ Ð»ÐµÐº
Ð£ÐĶ ÐĶÐĵ
ĠÐ¿ ÐµÑĢÑģ
Ð´ÑĸÐº ÑĤÑĸ
Ġ 000
ĠÐ¼ Ð°Ðº
ĠÐĳ ÐµÐ¹
ĠÒĽÐ¾Ð¹ Ð¼Ð°Ð¹
ĠÐ¶Ð¾Ð± Ð°Ð»Ð°ÑĢÑĭÐ½
ĠÑĩÐµÐ¼Ð¿Ð¸Ð¾Ð½ Ñĭ
Ðĸ ÑĭÐ»
ĠÐ¶Ò¯ÑĢ Ð³iÐ·
ĠÑĭÐ½ ÑĤÐ°Ð»
ĠÐºÐµÐ» ÑģÐµ
ĠÂ ·
ĠÐµÑĤÐ¿ ÐµÐ¹ÑĤÑĸÐ½
Ð¶ Ñĸ
Ð¶ÐµÐ» Ð³Ñĸ
ĠÐ¼ ÑĭÒĽÑĤÑĭ
ĠÑĤÒ±ÑĢ Ð°
Ó¨ÑĢ Ð»ÐµÑĥ
ĠÐ±ÑĸÐ» ÐµÐ´Ñĸ
ĠÐµÑĢ Ðº
ĠÐ´ Ð»Ñı
ĠÐķÑĥÑĢÐ¾Ð¿ Ð°
3 4
Ò±ÑĢ Ð°ÑĤ
ĠÓ©ÐºÑĸÐ» Ñĸ
Ð´ÑĭÒĽ ÑĤÑĭÒ£
ÐµÑĢ Ð»ÐµÑĢ
ĠÐ¶Ð¾Ð» Ð´Ð°Ñĥ
ĠÐ¶Ð¾Ð± Ð°Ð»Ð°ÑĢÐ´Ñĭ
ĠÐĲÐ¹ ÑĤ
ĠÑĭÒĽ ÑĤÐ¸
ĠÑĤÒ¯ÑĢ Ð»ÐµÑĢÑĸÐ½
ĠÐ¿Ð°ÑĢ Ð°ÒĽ
ÑģÑĭÐ½ Ð°Ð½
ĠÐ°Ñģ ÒĽÐ°Ð½
ĠÐ¼ÐµÐ¹ ÑĢÐ°Ð¼
ĠÐ¢ ÐµÐ¼ÑĸÑĢ
ĠÐµÑģÐºÐµÑĢ Ðµ
ĠÑĸÑĪ ÑĸÐ½ÐµÐ½
ÐĨ ÐĿ
ĠÑĤÑĸÐ» Ð´Ñĸ
ÑĤÑĭÐ» Ð´Ñĭ
ĠÐºÓ©Ð»ÐµÐ¼ ÑĸÐ½Ð´Ðµ
ĠÐ¶Ð°Ð·Ð±Ð° ÑĪÐ°
ĠÐ°Ð¹ ÑĭÐ½ÑĭÒ£
ĠÑĪ ÑĭÒ£
ĠÐ¶Ð°Ð· ÑĥÑĪÑĭ
ÑģÑĤ Ðµ
ĠÒ¯Ð¹ Ñĸ
Ð°Ð¿ Ð¾Ð½
ĠÐ±ÐµÑĢ Ð¼ÐµÐ¹Ð´Ñĸ
ĠÓĺ ÐºÑĸÐ¼
ĠÑĦ ÐµÑĢ
Ð°Ð»Ð°ÑĢ Ð¼ÐµÐ½
Ð¸Ð¼ Ð½
ĠÐĲ Ð¼ÐµÑĢ
ĠÐĳ Ð°ÒĽÑĭÑĤ
ĠÑģÓ©Ð· ÑĸÐ½
ĠÑģÐµÑĢ Ð²
ĠÐ´ÐµÐ³ÐµÐ½ Ð´Ðµ
Ò£ ÑĸÐ·
i d
âĢ ľ
ĠÐ°Ð¹ Ð»ÑĭÒĽ
ĠÐĳÐ°Ñģ ÒĽÐ°ÑĢ
ĠÐĶ ÓĻÐ»
ĠÒĽÐ¾ÑĢ ÑĤÑĭÐ½Ð´Ñĭ
ĠÒ±ÑģÑĭÐ½ Ð´Ñĭ
ĠÑģ Ð°ÑĤÑĭ
ĠÐºÓ©ÑĢÑģÐµÑĤÑĸÐ» ÐµÐ´Ñĸ
ĠÑģÐ¸Ð¿Ð°ÑĤ ÑĤÐ°Ð¼
ĠÑģ ÐµÐ¿
ĠÐ¼ÓĻÐ¶ Ð±Ò¯ÑĢ
ĠÒĽÑĭÐ· Ð´Ð°ÑĢ
ĠÒ±Ð¹ ÑĭÒĽ
ĠÑĤÐµÐ» Ðµ
ĠÐµÐ» ÐµÑĥ
7 0
ĠÐ¼ÓĻÑģÐ» Ð¸Ñħ
ÐµÐº ÐºÐµ
ĠÐ±Ð°Ð»Ð°Ð±Ð°ÒĽ ÑĪÐ°
ÑĢ Ð°Ð´
ĠÓ©Ð¼ÑĸÑĢ Ñĸ
Ð¸Ðº Ð°Ð½ÑĭÒ£
ĠÐ°Ð¹ÑĤÐ°ÑĢ Ð»ÑĭÒĽÑĤÐ°Ð¹
ĠÑĪ Ò¯
ĠÐºÓ©Ð± ÑĸÐ½ÐµÑģÐµ
ĠÐ½Ðµ Ð³iÐ·
ÑĤÐµÑĢ Ð´Ðµ
ĠÐļ ÑĢ
ĠÐºÐµÑĪ ÑĸÑĢ
ĠÐ¼Ð¸Ð»Ð»Ð¸ Ð°ÑĢÐ´
ĠÐŃ Ðº
ĠÐºÒ¯ ÑĤÑĸÐ¿
ÑĤÐµÑĢ ÑĸÐ¼ÐµÐ½
ĠÐ±ÑĸÑĢ Ð¶Ð¾Ð»
Ð¡ Ð«
ĠÐºÑĸÑĢ ÑĸÐ¿
ĠÐ±ÑĸÑĢÐ»ÐµÑģ ÐºÐµÐ½
Ð¿ÑĢ Ð°ÐºÑĤÐ¸ÐºÐ°Ð»ÑĭÒĽ
ĠÑĤÐ°Ð»Ð´Ð°Ñĥ Ð´ÑĭÒ£
ÑĸÐ¼Ð´ÐµÑĢ ÑĸÐ½
Ó©Ð· ÐµÐº
ÑĤÑĭÐ» Ð°Ð´Ñĭ
ÐŀÐ±Ð» ÑĭÑģÑĤÑĭÒĽ
I V
ĠÓĻÐ± Ð´ÐµÐ½
ĠÑĤÒ±ÑĢ ÒĵÑĭÑģ
ĠÐ¸Ð½ ÑĤÐµÑĢ
ĠÑĤ Ð¾Ð·
Ð°Ð± Ð°ÐµÐ²
ĠÐ¶Ð°Ñģ Ð°Ð»Ð°Ð´Ñĭ
Ð¿ ÐµÑĥ
ĠÑģÑĥ ÑģÑĭÐ½
ĠÐ¡ Ð¿Ð¾ÑĢÑĤ
ĠÐ±Ð°ÒĵÐ´Ð°ÑĢÐ»Ð°Ð¼ Ð°Ð»Ð°ÑĢÑĭ
ĠÒĽÐ¾Ð» ÑĭÐ½Ð°
ĠÐ¼Ñĥ Ð·ÐµÐ¹
ĠÑģÒ±Ñħ Ð±Ð°ÑĤ
ĠÐŀ ÑģÑĭÐ»Ð°Ð¹ÑĪÐ°
Ðĸ Ð°Ð½
ÑĤ Ð¾Ð½
ĠÐºÓ©ÑĢ Ð´Ñĸ
ĠÑģ Ð¾ÑģÑĭÐ½
ĠÐ±Ð°Òĵ Ð°Ð»Ñĭ
ĠÐ½ Ð¸ÐµÑĤ
ĠÐ¢ Ð°Ò£
ĠÐĶ Ð¾Ñģ
Ð¾Òĵ Ð°Ð¹
ĠÐ¼Ò±ÒĽ ÑĤÐ°Ð¶
ĠÒļÐ°Ð·Ð°ÒĽÑģÑĤÐ°Ð½ Ð´ÑĭÒĽ
ĠÐ¶Ð¸Ð½ Ð°Ð¿
ĠÐºÑĥÓĻ Ð»ÑĸÐº
ĠÒĽÒ±ÑĢÑĭÐ»ÑĭÐ¼ Ñĭ
ĠÑĦ ÐµÑģÑĤÐ¸Ð²
ĠÑģ Ð¸ÑĢÐµÐº
ĠÐ°ÑĢ Ð°Ð»ÑĭÒĵÑĭÐ½Ð´Ð°ÒĵÑĭ
ĠÐ¼Ò¯ÑĪ ÐµÐ»ÐµÑĢÑĸÐ½ÑĸÒ£
ĠÐ±ÑĸÑĤÑĸÑĢ Ð³ÐµÐ½
Ð°Ðº ÑĤÐ¾ÑĢ
ĠÓ©Ð½ÐµÑĢ ÐºÓĻÑģÑĸÐ¿ÑĤÑĸÐº
ĠÐ±Ñİ ÑĢÐ¾Ñģ
ÑĢÐ¸ ÑĤÐ°Ð½
ĠÒĽÐ°Òĵ Ð¸Ð´Ð°
ÓĻÐ»ÐµÑĥ Ð¼ÐµÑĤÑĤÑĸÐº
Ð² ÐµÑģÑĤÐ¸
ĠÐ¶Ð°ÑĢ Ð°ÑĤÑĭÐ»
ĠÐ¤ ÐµÐ´ÐµÑĢ
ĠÐ·ÐµÑĢ ÐµÐ½
Òļ ÑĭÐ·
ĠÐľ Ð¸Ð½Ð¸ÑģÑĤÑĢ
ĠÐ¶Ò¯ Ð³ÑĸÐ½
ĠÑĤÐ°Ð»Ð°Ð¿ ÑĤÐ°ÑĢÑĭÐ½Ð°
ÒļÐ°Ð¹ ÑĭÑĢ
ĠÐ¼ÐµÐ¹ ÑĸÑĢ
ĠÐķ Ð½
ĠÒĽÐ¾ Ð¶
Ð¼ Ð°Ð»Ð°ÑĢ
Ð· Ð°Ð½
ĠÐłÐµÑģÐ¿ÑĥÐ±Ð»Ð¸Ðº Ð°ÑģÑĭÐ½Ð´Ð°
Ð¸Ð½ Ð°Ð»
ĠÐ±Ð°ÑĢ ÒĵÐ°Ð½
Ġ200 8
ĠÓĻÐ´Ñĸ Ð»
ĠÒĽÒ±Ð¹ ÑĭÐ¿
ĠÓ©Ð» ÑĸÐ¼
l o
ĠÐµÐ»ÑĸÐ¼ÑĸÐ· Ð´Ðµ
ĠÑĪÐ°ÑĢ Ð°Ð»Ð°ÑĢÑĭÐ½
ĠÐ¼Ð°ÑĤÐµÐ¼Ð°ÑĤ Ð¸ÐºÐ°
Ðĳ Ð°Ð¹
Ð°ÒĽ Ð°Ð½
r u
ĠÐ³ ÐµÐº
Ò°Ð» ÑĤÑĤÑĭÒĽ
Ġ200 6
Ð± ÐµÐ¹Ð´Ñĸ
Ð°ÑĤ Ð¸ÐºÐ°
ÐŁ Ð°Ð²Ð»Ð¾Ð´Ð°ÑĢ
ĠÐ±Ð°Òĵ Ð°Ð¼
ÓĻÑģÑĤ Ò¯ÑĢ
ĠÐ´ ÑĸÑĢ
ĠÐ³Ð¸Ð¿ ÐµÑĢÑģ
ĠÐ±Ó©Ð» ÑĸÑģ
ĠÓĺ Ð´ÐµÐ¿
ĠÓ©Ð»ÑĪ ÐµÐ¼
ÑĭÐ¼ Ð´Ð°ÑĢ
ÑĤ Ð°Ò£ÑĭÐ·
ĠÐ¶Ð°Ð· Ð°Ð´Ñĭ
ĠÐ°ÑĥÑĢÑĥ Ñĭ
Ð¿ Ò±Ð»
ĠÐ±ÐµÑĢÑĥ Ð´Ñĸ
ĠÐµÑģ ÑĸÐ¼
Ð°Òĵ ÑĭÐ½Ð´Ð°
ĠÑĤÐµÑĢ ÐµÐ·
ĠÐºÓ©ÑĪ Ñĥ
ÑĤÐµÐ½ ÑĸÒ£
ĠÐ´ Ð°Ð¹ÑĭÐ½Ð´Ð°
ĠÐ¶ÑĭÐ» ÑĭÐ½Ð°
ĠÐ¶Ò±Ð¼ÑĭÑģ ÑĤÑĭ
Ðļ ÐµÒ£
ĠÐĲÐ½ÑĭÒĽ ÑĤÐ°Ð¼Ð°
ĠÐķÐºÑĸ Ð±Ð°ÑģÑĤÒ±Ð·
ĠÐ°Ð»Ð³ÐµÐ±ÑĢ Ðµ
ĠÐĳÐ¸ ÑĭÐ»
ĠÐº Ð²
ĠÐµÑĢÐµÐºÑĪÐµÐ»ÑĸÐº ÑĤÐµÑĢÑĸ
ĠÐ¢ÓĻÑĥÐµÐ» ÑģÑĸÐ·Ð´ÑĸÐº
ĠÐºÐµÑĤ ÐµÐ¹ÑĸÐº
ĠÑĤÒ± ÑĤ
ĠÓ¨ Ð»
Ð¾ÑĢ Ð´
ĠÐ¿ÑģÐ¸Ñħ Ð¾Ð»Ð¾Ð³Ð¸ÑıÐ»ÑĭÒĽ
ĠÐ¶ÐµÐ» ÑĸÐ»ÐµÑĢ
ÐºÑĢ Ð°Ð¸
ÑĤÐ° ÐµÐ²
ĠÑĤÐµÑħÐ½ Ð¸ÐºÐ°
ĠÐ¼ÐµÐ´ Ð¸
ĠÐºÑĸÑĢ ÐµÐ´Ñĸ
Ġ5 00
Ð¾Ð· Ð¸ÑĨÐ¸Ñı
ÑĸÐ»Ñĥ Ð´Ðµ
ĠÐ³Ð¸Ð¿ÐµÑĢÑģ ÑĸÐ»
ĠÑĤÒ¯ÑĢ ÑĸÐº
Ñģ ÑĤÑĸÐº
ĠÑĤÓĻÑĢÑĤÑĸÐ¿ Ð¿ÐµÐ½
Ðļ ÐµÐ·
ĠÑĤÐµÑĢÑĢ Ð¾ÑĢ
Ð¾Ð¼ Ð±
ÑĸÐ¼Ð´Ñĸ Ð»ÑĸÐº
ĠÐ´Ð°Ð¹ÑĭÐ½ Ð´Ð°Ð»
Ð°Ð»Ñĭ ÒĵÑĭÐ½
ĠÒĽÐ°ÑĤ ÐµÑĢÐ»Ñĸ
ĠÑħÐ¸Ð¼ Ð¸ÑıÐ»ÑĭÒĽ
Ġ ?
ĠÐ± Ò¯Ð¹ÑĢÐµÐº
ĠÑĤÒ± Ò£ÒĵÑĭÑĪ
Ðļ ÐµÐ»
ĠÐ¶Ð¾ÒĵÐ°ÑĢ ÑĭÐ»
6 0
ĠÑĤÓ©ÑĢ ÑĤÑĸÐ½ÑĪÑĸ
ÑĭÐ½ Ð½ÑĭÒ£
ĠÐ±ÑĸÑĢ Ð´Ðµ
ĠÒ³ ÓĻÐ¼
3 3
ĠÐ±Ð¾Ð»ÒĵÐ°Ð½ Ð´Ð°
ĠÐ±Ò¯ Ð»
ĠÐ¨ Ð°Ð»
ÓĻÑĢ ÑĸÐ¼
ĠÐ°ÑĢ ÑĭÐ·
ĠÐĲ ÑĥÑĢ
Ð°ÑĤÑĤÐ°ÑĢ ÑĭÐ½
ĠÐ¶Ð°Ñģ Ð°ÑĢ
ĠÐ¶Ð°Ð» ÒĵÐ°Ð½
ÑĭÐ» ÑĤÑĭÑĢ
ĠÑģÑĭÐ½ Ð´Ñĭ
ĠÐ°Ð½ÑĭÒĽ ÑĤÐ°Ð»Ð°Ð´Ñĭ
ÑģÑĭÐ· Ð´Ð°Ð½Ð´ÑĭÑĢÑĥ
ĠÐ°Ñģ Ð¿Ð°Ð½
ĠÐ¢ÓĻÑĥÐµÐ» ÑģÑĸÐ·
ĠÐ¶ Ð°Ð±ÑĭÐ»
ĠÒĽÐ¾Ñģ Ð°Ð»ÒĽÑĭ
Ð¶Ð°Ð½ Ð¾Ð²
ĠÑĤ ÐµÐ¿
ĠÑģ Ð¼
ĠÑģÒ±ÑĢÐ°ÒĽ ÑĤÐ°ÑĢÑĭ
ĠÐ¶Ð°ÑĢÐ¸Ñı Ð»Ð°Ñĥ
ĠÐºÐ¾Ð½ÐºÑĥÑĢÑģ ÑĭÐ½Ð°
ĠÐ¼ÐµÑĢ ÐµÐ¹ÑĤÐ¾Ð¹
ÒĽÐ°Ð½ Ñĭ
ÑĭÑĢÑĤ ÒĽÐ°
Ð°ÑĤÐµÐ³ Ð¾ÑĢ
ĠÐľ Ð°Ñħ
ĠÐŁ ÐµÑĤÑĢÐ¾Ð¿Ð°Ð²Ð»
ĠÐºÐµÑĤ ÐµÑĤÑĸÐ½
Ð¼Ð¸Ð½ Ð¸ÑģÑĤÑĢ
ĠÑģÐ°Ð»ÑĤÐ°Ð½ Ð°ÑĤÑĤÑĭ
ĠÑĤÒ±ÑĢ Ð´Ñĭ
ĠÒĽÒ±ÑĢ Ð°Ð»Ñĭ
Ð¸ÑĢ Ð°
ÑĤi Ò£
ĠÐµ Ð´ÑĸÐº
ĠÐ±ÑİÑĢÐ¾Ñģ ÑĭÐ½ÑĭÒ£
ĠÐºÐµÐ· ÐµÐºÑĤÑĸ
ĠÐ¾ÑĢÑĭÐ½Ð´Ð°Ð» ÑĭÑģÑĭ
Ġ ÑĭÑģ
ĠÐ¶Ð°ÒĵÐ´Ð°Ð¹ ÒĵÐ°
ÑĨÐ¸ ÐµÐ½ÑĤ
ĠÐ±Ð¾Ð¹ ÑĭÐ½Ð°
Ð¾Ð½ Ñĭ
Ñģ Ð°ÑıÑģÐ¸
ĠÐ¼ÑĭÑģ Ð°Ð»
ĠÒļÐ°Ð·Ð°ÒĽÑģÑĤÐ°Ð½ ÒĵÐ°
ĠÑĤÐ¸ Ð¿
ĠÐ¾Ð¹ÑĭÐ½ Ð´Ð°ÑĢ
ĠÐ´ Ò¯ÑĢ
ĠÓĻÐ´Ñĸ ÑģÑĸ
ÑĤÐµ Ð·
ĠÑĤÐ¾Ð± ÑĭÐ½ÑĭÒ£
ÑĤÑĸÐ» ÐµÑĥ
Ñĥ ÑĭÐ¼ÐµÐ½
ĠÐ°Ð· Ð°Ð¹
ĠÐ¶Ð°Ð½ Ð°ÑĢ
ĠÐ°Ð¹ÑĭÑĢ ÑĭÐ»ÒĵÐ°Ð½
Ðº iÐ½
Ġ19 4
ĠÐºÓ©Ðº ÑĤÐµÐ¼
ĠÓ©ÑĤÑĸÐ½ÑĸÑĪ ÑĤÐµÑĢÑĸÐ½
ĠÐ±Ó©Ð»Ñĸ Ð³ÑĸÐ½Ð´Ðµ
ĠÒĽÒ±Ð½ ÑĭÐ½
ÒĵÐ°Ð» Ð¸ÐµÐ²
ĠÐµ ÐºÑĸÐ½
ĠÒĽÐ°ÑģÐ¸ ÐµÑĤÑĸ
ĠÑĤÐ¾Ð»Ð¼Ð°ÒĵÐ°Ð½ Ð´Ð°ÑĢÐ´ÑĭÒ£
ĠÓĻ ÑĥÐ»
ÑĪÐ°ÑĢÑĥÐ° ÑĪÑĭÐ»ÑĭÒĽ
ĠÐ¶Ð°Ñģ ÑĥÑĪ
ĠÐŃ Ðļ
ĠÐĳ Ð°Ð»Ð°
ĠÐĳÒ± Ð´Ð°Ð½
Ð³ ÐµÐ¹
ĠÐļ ÐµÑĢ
ĠÐ¶ÑĸÐ±ÐµÑĢ Ñĥ
ÐľÒ± Ð½
ÐµÐ»ÐµÐ½ Ð³ÐµÐ½
ĠÐ±Ð» Ð¾Ð³
ÐµÑģÑĤ Ð¾ÑĢ
Ñģ ÑĸÐ½Ðµ
Ð¶ Ð°Ð»
ĠÐ°ÑĥÑĭÑĢ ÑģÑĭÐ½
ĠÑĦÐ¾ÑĢÑĥÐ¼ Ñĭ
ĠÓĻÒ£Ð³ÑĸÐ¼ ÐµÐ»ÐµÑģ
ĠÑģÐ°Ð» ÑĭÐ½
Ð°ÒĵÐ´Ð°ÑĢÐ»Ð°Ð¼ Ð°
ÑĭÐ½Ð´Ñĭ ÒĵÑĭ
ĠÑĤÑĭÐ½ ÑĭÑĪ
ĠÐĵ Ðµ
ĠÑģ ÓĻÐ½
ÐµÐº ÑĤÐµÐ½
ĠÑģÐ°Ð¿ Ð°ÑģÑĭ
ĠÐ±Ð¾Ð»Ð¶ Ð°Ð¼
Ð»Ð°ÑĢ Ð¼ÐµÐ½
Ġ4 5
ĠÐ¶Ð°ÒĵÐ´Ð°Ð¹ ÑĭÐ½
ĠÑĤ Ð¾Ð¼
ÑħÐ°Ð½ Ð¾Ð²
Ð¢ ÑĸÐ»
ĠÐ¶Ð°ÑĢ ÑĭÑģ
ĠÐºÓ©Ð»ÐµÐ¼ ÑĸÐ½
ĠÐŀÐ» Ð¸Ð¼Ð¿Ð¸Ð°Ð´Ð°
ĠÑĪÑĭ ÒĵÐ°
ĠÐ· Ð°ÑĥÑĭÑĤ
ÐĶ ÐµÐ½
ĠÐ¼ÑĸÐ½Ð´ ÐµÑĤÑĤÐµÑĢ
Ð¾Ð½ ÐµÐ½ÑĤ
ÐĿÐ°Ð·Ð°ÑĢÐ±Ð°ÐµÐ² ÑĤÑĭÒ£
ĠÐºÓ© Ð½Ðµ
ĠÐ°ÑĤ Ð°Ð»Ð°ÑĤÑĭÐ½
Ð± ÑĭÐ·
Ðł ÑĥÑħÐ°Ð½Ð¸
ĠÑĤÑĥÑĢ Ð½Ð¸ÑĢ
Ð¶Ð°ÑĢ ÑĤÑĭ
ĠÐ¶Ð¸Ð½Ð°ÒĽ ÑĤÐ°Ñĥ
ĠA ward
ĠÐºÐ¾Ð¼Ð¸ÑģÑģÐ¸Ñı Ð½ÑĭÒ£
ĠÐŀÒĽ ÑĥÑĪÑĭÐ»Ð°ÑĢ
ĠÐ¶ÑĭÐ½ ÑĭÑģÑĤÑĭÒĽ
Ðķ Ðľ
ĠÐ·ÐµÑĢÑĤ ÑħÐ°Ð½
ÑĸÑģ ÑĸÐ½Ð´Ðµ
ÑĤÑĭÒĽ ÑĤÑĭ
ÑĦ ÑĢ
ĠÓ©Ð» ÑĤÑĸÑĢ
ĠÐ½ Ð°ÒĵÑĭÐ·
ĠÐ¾ Ð¹ÑĭÐ¼
ĠÐºÓĻÑģÑĸÐ¿ ÐºÐµÑĢ
an d
ĠÐ°ÑģÐ¿ Ð°Ð¿
ĠÐºÐµÒ£ÐµÐ¹ ÑĤÑĥ
ĠÐ¼Ò¯ Ð¼
ĠÐµÑģ ÐºÑĸ
ÐķÒ£ Ð±ÐµÐº
ĠÐ± Ð¸ÑĢ
ĠÑĪÐ°ÒĽÑĭÑĢ ÑĭÐ¼
ĠÐ¾ÑĢÐ½ Ð°ÑĤÑĥ
Ġ U
ĠÑĥÐ½Ð¸Ð²ÐµÑĢÑģ Ð¸ÑĤ
ĠÐĳ ÑĸÐ»
ĠÒļÒ±ÑĢ Ð°Ð½
ĠÐ°Ð· Ð°Ð¹ÑĤÑĥ
ĠÐ¾ÑĤÑĭÑĢ Ð¼ÑĭÐ·
ĠÒĽÑĭÐ· Ñĭ
ĠÐ°Ð½ÑĭÒĽ ÑĤÐ°Ð»Ð´Ñĭ
ĠÑģ ÑĤÐ°
ĠÐ±ÑĸÑĢÐ¶Ð¾Ð» ÒĵÑĭ
ĠÐĲ Ð½Ð°
ĠÐº ÓĻÑģ
ĠÐ½ÐµÑģ Ð¸
ĠÑĤÑĸÑĢ Ñĸ
ĠÐ¶Ð°ÑĥÐ°Ð¿ÐºÐµÑĢ ÑĪÑĸÐ»ÑĸÐ³Ñĸ
ĠÑĤÐ¾Ð»ÑĭÒĽ ÑĤÐ°Ð¹
ĠÐĹÐ°Ò£ ÑĭÐ¼ÐµÐ½
ĠÐ¶Ð°ÑĢ Ð½Ð°Ð¼Ð°
ĠÐ±Ð°Ð· Ð°ÑģÑĭÐ½Ð´Ð°
ÑĭÒĽ ÑĤÐ°ÑĢ
a p
ĠÐ¾ ÑģÑĭÐ»Ð°Ð¹
ÐĲ Ð·
ĠÐ°Ò£ ÒĵÐ°ÑĢ
ĠÐĸ ÓĻÐ½
Ð¸Ð¿ ÐµÐ´
ĠÐºÒ¯ÑĪ ÑĤÑĸ
ĠÑģ Ð°ÑĢÑĭ
ĠÐ¶Ð¸Ð½ Ð°Ñĥ
ĠÑĤÐ°Ð¼Ð°ÒĽ ÑĤÐ°Ð½Ð´ÑĭÑĢÑĥÐ´Ñĭ
ĠÐ°ÒĽÐ¿Ð°ÑĢ Ð°ÑĤÑĤÐ°ÑĢ
ĠÐ±Ð¾Ð» Ð¼Ð°ÒĽ
ĠÐ¾ÐºÑĢÑĥ Ð³ÑĸÐ½ÑĸÒ£
ĠÐ¡ÑĤÐ¾Ð¼Ð°ÑĤ Ð¾Ð»Ð¾Ð³Ð¸Ñı
ĠÐ¾ Ð¼
ĠÒĽÒ±Ð¶Ð°ÑĤ ÑĤÐ°Ð¼
ĠÐ´ ÐµÑģÐµ
ĠÐµ Ð»Ñĸ
ÑĭÐ¼Ð´Ñĭ Ð»ÑĭÒĽ
ĠÐ³Ð¸Ð¿ÐµÑĢÑģÑĸÐ» ÑĤÐµÐ¼Ðµ
Ð°ÑĤ ÑĤÐ°
ÐµÐº ÐµÐ½
ĠÐ¼ÐµÐºÑĤÐµÐ¿ ÑĤÑĸÒ£
ĠÐ£ Ð½Ð¸Ð²ÐµÑĢÑģ
ĠÑĤÒ¯Ñģ Ñĥ
ĠÐ¼Ð°Ð¼Ð°Ð½ Ð´ÑĭÒĵÑĭ
ĠÐ°ÑĢÑħÐ¸Ð² ÑĤÐµÑĢ
Óĺ Ð»ÐµÑĥÐ¼ÐµÑĤÑĤÑĸÐº
Ð°Ð»Ð´ÑĭÒĽ Ð¾ÑĢÒĵÐ°Ð½
ĠÐĶ Ð¸
ĠÐ¶Ð¸Ð½ Ð°Ð»
ĠÐºÓĻÑģÑĸÐ¿ Ð¾ÑĢ
Ð± ÐµÑĥ
Ð°Ð¼ ÐµÑĢ
ĠÒĽÒ± Ð±ÑĭÑĢ
ĠÑĤÒ±ÑĢÒĵÑĭÐ½ Ð´Ð°ÑĢ
ÑĭÒ£ Ð´Ð°ÑĢ
ĠÐ³ ÑĢÐ°ÑĦ
ĠÐºÐµÐ»ÑĸÑģ ÑĸÐ¼Ñĸ
ĠÐºÒ¯Ð¼ ÑĸÑģ
ĠÐ¿Ð¾ÑĢÑĤ Ð°Ð»Ñĭ
ÑĤÑĭÐ» Ð°Ð¹
Ġ O
Ó©Ðº ÐµÐ¹
ĠÐ± Ð°ÑĤÑĭÑģ
ĠÐľÑĥ Ð·Ñĭ
ĠÑĤÐ¾Ð» ÑĭÒĵÑĭÐ¼ÐµÐ½
Ð°Ñģ ÒĽÐ°Ð½
ĠÑĤÐ¾ÒĽ ÑĤÐ°
ÑĸÑģÑĸÐ½ ÑĪÐµ
ĠÐ°ÑĥÑĭÐ» ÑĭÐ½Ð´Ð°
ĠÐ¾Ð· ÑĭÒĽ
ÑĭÐ» ÑĥÑĭÐ½Ð°
ÑģÑĤ Ð°ÑĢÑĭ
ĠÐ¨ ÑĭÐ½
ĠÐ¿Ð°ÑĢÑĤ Ð¸ÑıÑģÑĭ
ĠÐ¸Ð½ÑģÑĤÐ¸ÑĤÑĥ ÑĤÑĭ
ĠÐ¿ÑĢ Ð°ÐºÑĤ
Ð¿ Ð°ÒĵÐ°Ð½
ÐĲ Ð±Ð°Ð¹
ÓĻÑĢÐµÐº ÐµÑĤ
ĠÐŁ ÐµÑĢ
ĠÑģÓ©Ð¹ Ð»ÐµÑģ
6 7
ĠÒ±ÑĢ Ð¿
ÑģÑĤ iÐº
Ñģ Ð¾Ð½
ĠÒ±Ð» ÒĵÐ°Ð¹
ÒĽÐ°Ð½ ÑĭÒ£
ĠS t
ĠÑĤÐ°ÒĽÑĭÑĢÑĭÐ± ÑĭÐ½Ð´Ð°ÒĵÑĭ
ÑĭÑģÑĤÐ°Ð½ Ñĥ
ĠÑĦÐ¸Ð· Ð¸ÐºÐ°
ĠÑįÐºÐ¾Ð½Ð¾Ð¼Ð¸ÐºÐ° ÒĵÐ°
Ð¿ ÑĢÐ¾
Ġ3 4
Ðĸ Ð¾Òĵ
ĠÑĸÑģ ÑĸÐ½
ÐľÐµÐºÑĤÐµÐ¿ ÐºÐµ
ĠÐ°ÑĥÑĭÑģ ÑĤÑĭÑĢÑĥ
ĠÐ¶Ð°Ò» Ð°Ð½Ð´ÑĭÒĽ
ĠÓ©Ð¼ÑĸÑĢ Ð³Ðµ
ĠÐ¶ÐµÑĤÐµÐº ÑĪÑĸÑģÑĸ
ĠÓĺ Ð»ÐµÑĥÐ¼ÐµÑĤÑĤÑĸÐº
ĠÐ¢ Ð°Ñĥ
Ð« ÐĽ
ĠÑĢ Ð¾Ð¼
ĠÑĤÑĥ ÑĭÐ½Ð´Ð°ÒĵÐ°Ð½
Ðļ ÓĻÑģÑĸÐ¿
ĠÒĽÐ°Ð¼ ÑĤÑĭÐ»ÒĵÐ°Ð½
Ðľ Ò¯
Ġ Ð°Ò£ÑĭÐ·
ĠÐ¿Ð°Ð¹Ð´Ð°Ð»Ð°Ð½ Ð°
ĠÑģÑĤÑĥÐ´ÐµÐ½ÑĤ ÑĤÐµÑĢ
ĠÐ·Ð°Ò£ ÑģÑĭÐ·
Ð° Ð´Ð°Ð¼
Ð· ÐµÑĢÑĤÑĤÐµÑĥ
ĠÐĶÐµÐ½ Ðµ
ĠÐ°Ð¹ ÑĭÐ½Ð°
Ò° Ò°
ĠÐ½ÐµÐ³ÑĸÐ· Ð´ÐµÑĢÑĸ
ĠÐ°Ð¹ÑĢ ÑĭÒĽÑĪÐ°
Ġ ÑĥÑĢ
ĠÐºÐ°ÑĢÑĤ Ð°ÑģÑĭ
ĠÐ¼Ð°Ð¼Ð°Ð½Ð´Ð°Ð½ Ð´ÑĭÑĢÑĭÐ»ÒĵÐ°Ð½
ĠÐ°Òĵ Ð°Ð¼
ĠÐ³ÑĢÐ°Ð½ ÑĤÑĭÐ½
ĠÐ´ ÐµÐº
ĠÓĻÑĢÐµÐº ÐµÑĤÑĤÐµÑĢ
Ñİ ÑĢ
ĠÐºÓ©ÑĪ Ð±Ð°Ñģ
ĠÐ¸Ð½ÑģÑĤÐ¸ÑĤÑĥÑĤ ÑĭÐ½ÑĭÒ£
ĠÐ°ÒĽ ÑĭÐ»Ñĭ
ĠÐºÓ©ÑĤÐµÑĢ Ñĥ
ĠÐ°Ñĥ Ð¼Ð°ÒĵÑĭ
Ð¾Ð¿ ÐµÐ´
ĠÐµ ÑĤÑĸÐ»Ð³ÐµÐ½
Ð¼Ð°Ð½ ÑĭÒ£
ĠÒ±ÑģÑĭÐ½ ÒĵÐ°Ð½
ĠÐ¿ÓĻ ÑĤÐµÑĢ
Ð°ÑĢ Ð¸Ð¹
ÑĤ ÐµÐ¹Ð´Ñĸ
Ðļ Ó©ÑĢ
ĠÑĸÐ· Ð´ÐµÐ¿
Ñģ ÑĤÑĭÒĽ
Ðº iÐ·
ĠÐĺ ÑĢÐ°Ð½
Ð¸ ÐµÐ»Ñĸ
Ð°Ð½ Ð°Ð»Ð°ÑĢÒĵÐ°
ĠÐ±iÐ» iÐ¼
ĠÒĽÐ°ÑĢ ÑģÑĭÐ»
ĠÑģÐ¾Ð» Ð°Ð¹
ĠÑĤÐµÒ£ Ð³ÐµÐ½Ñĸ
ĠÐ¡Ó©Ð¹ ÑĤÑĸÐ¿
ĠÐ¶ÐµÒ£ÑĸÐ»Ð´ÐµÑĤ ÑĸÐ»Ð³ÐµÐ½
ĠÑĤÐ°Ð± ÑĭÑģÑĤÑĭ
ĠÐ·Ð°Ò£Ð½Ð°Ð¼ Ð°Ð»ÑĭÒĽ
Ð±Ð°ÐµÐ² ÑĤÑĭÒ£
ĠÑģÐ°ÑĥÐ°ÑĤ ÑĤÑĭÐ»ÑĭÒĵÑĭÐ½
ĠÐ±ÐµÑĢÑĥ ÑĪÑĸÐ»ÐµÑĢ
ĠÐ°Ð¿ Ð°ÑĢ
ĠÑĤÓĻÑĥÐµÐ» ÑģÑĸÐ·Ð´ÑĸÐº
ĠÐ¶ Ð°
ĠÐŁ Ð¾Ð»
ĠÑģ ÐµÐ³ÑĸÐ·
Ð´ÑĸÐº ÑĤÐµÐ½
ĠÒĽÐ°Ð¶ÐµÑĤÑĤÑĸ Ð»ÑĸÐº
ĠÑĤÐ¸ÑĸÐ¼Ð´Ñĸ Ð»ÑĸÐ³ÑĸÐ½
ÑĸÐ¼Ð´ÐµÑĢ Ð´Ñĸ
ĠÑĤÐ°ÑĢÐ¼Ð°ÒĽ ÑĪ
Ð» Ñĥ
ĠÐºÐµÑĥ Ð´Ðµ
ĠÑģ Ð¿Ð¾ÑĢÑĤÑĤÑĭÒĽ
ĠÑĤÐ°ÑĢ Ð°ÑĤ
Ð¸ ÒĵÐ°
ĠÐºÓ©ÑĢ ÐµÑĢÐ¼ÐµÐ½
Ð¼ ÐµÒ£
Ð»Ð°ÑĢ Ð´Ð°Ð½
ĠÑĤÐ°Ð± Ñĥ
ĠÐ¡ÑĭÑĢÑĤ ÒĽÑĭ
ĠÐ±Ð¾Ð»ÒĵÐ°Ð½ ÑĭÐ½
ĠÐ±Ð¸ÑĭÐ» ÒĵÑĭ
ĠÐ² Ð¸ÑĢÑĥ
ĠÒ® ÐºÑĸÐ¼
ĠÑĤÓĻ ÑĤÑĤÑĸ
Ðº ÐµÑģÑĸ
ĠÐ°Ð»Ð¼ Ð°ÒĵÐ°Ð½
ĠÑĤÐ°Ð¼ Ð°ÑĪÐ°
ĠÐ¡ Ò¯
ÑĪÐ°ÑĢ ÑĤ
ĠÐ´Ð¾Ð» Ð»Ð°ÑĢÒĵÐ°
ÑĨ Ð¸ÑĤ
ĠÐ±Ð°ÑģÑĤÐ°Ð¼ Ð°ÑģÑĭ
Ð½ Ò±Ñģ
ĠÒĽÐ°Ð» Ð°Ð»Ð°ÑĢ
ĠÑĤÓ© Ñģ
ĠÐ¼ÐµÐºÑĤÐµÐ¿ÑĤÐµÑĢ Ð´ÐµÐ³Ñĸ
ĠÑĤÒ¯ÑĢ ÐºÑĸ
ĠÐľÒ¯ Ð¼ÐºÑĸÐ½
3 8
iÐ»iÐº ÑĤi
ĠÐ°Ð»Ñĥ ÑĪÑĭÐ½ÑĭÒ£
Ò° Ðŀ
ĠÑĤÒ±Ð»Òĵ Ð°Ð»Ð°ÑĢÒĵÐ°
ÐµÑĤÑĸÐ½ ÐµÐ½
ĠÓĻÐºÐµÐ» ÐµÐ´Ñĸ
ĠÐ¿Ð¾ÑĪ ÑĤÐ°
ĠÑģÐ°Ð½ Ð´ÑĭÒĽ
ÑģÑĤÐ°Ð½ Ð½ÑĭÒ£
ĠÐ¼ÑĸÐ½Ð´ÐµÑĤ ÑĤÐµÐ¼
Ð³ÐµÑĢ Ð»ÐµÑĢ
Ð»Ð°Ñģ ÑĤ
ĠÐ¶Ð°Ñģ Ð°Ð¹ÑĤÑĭÐ½
ĠÐ°ÑĢ Ð°Ð±
ĠÐ¶Ò¯Ð¹ ÐµÑģÑĸÐ½Ð´Ðµ
3 7
Ð½ ÐµÑĥ
ĠÐ°ÑĤ ÑĤÐµÑģÑĤ
ĠÒļÐ°ÑĢ Ð°
ÒĽÐ°Ð· ÒĵÐ°Ð½
ÐµÐ½ Ð¸Ðµ
ĠÒ±ÑģÑĤ Ð°Ñĥ
ÑĸÐº ÐºÐµÐ½
ĠÐ¶Ò¯Ð· ÑĸÐ½Ð´Ðµ
ĠÐ±Ò±Ð· ÑĭÐ»Ñĥ
ĠÑģÓ©Ð· Ð´Ñĸ
ĠÒļÒ± Ð½Ð°Ð½
ĠÐ½ÑĭÑģÐ°Ð½ ÑĭÐ½Ð´Ð°
ĠÐ¼ÓĻÑģÐµÐ» ÐµÑģÑĸÐ½
ĠÐ¾ÑĤÐ±Ð°Ñģ ÑĭÐ»Ð°ÑĢ
ĠÐ¾ÑĢÑĭÐ½ ÒĵÐ°
ĠÐ¶Ð°Ð» Ð°ÒĽ
ĠÐ¼ ÑĭÐ½
Ð´Ð°Ð¹ ÑĭÐ¼
ĠÐ¼ÐµÑĢÐ· iÐ¼
ĠÐĳÒ¯ Ð³ÑĸÐ½Ð´Ðµ
ÒĽ Ð°Ð·Ð°ÒĽ
ĠÑĤ Ð°ÑĤÑĥ
Ñĥ ÑĭÐ½ÑĭÒ£
Ð¡ÐŁ Ðŀ
0 8
ĠÓ©ÑĤÐºÑĸÐ· ÐµÐ´Ñĸ
ĠÐ¶ÑĭÐ» Ð¶ÑĭÐ¼
ĠÐ¶Ð°Ñģ Ð°Ð»Ð°ÑĤÑĭÐ½
ĠÐ³ ÑĢÐ°Ð¼
ĠÒĽÐ°Ð¹ Ð´Ð°
ĠÐºÓ©ÑĢÑĸÐ½ ÑĸÑģ
ĠÓĻÑģ ÐµÑĢÑĸ
Ðŀ Ðł
Ð¸Ñģ Ñģ
ĠÐºÒ¯Ð½ Ð´Ñĸ
ĠÒĽÒ±Ð·ÑĭÑĢ ÐµÑĤÑĤÑĸ
Ðº Ó©Ð·
ĠÐĳÐ°Ñģ ÒĽÐ°
ÑĪÑĸÐ»Ñĸ Ð³ÑĸÐ½
ĠÒļ Ð°ÑĪ
ĠÐŀÒĽ Ñĥ
ĠÐ±ÑĸÑĢ ÑĸÐºÑĤÑĸÑĢ
Ð¼ Ð°Ð½Ñĭ
ĠÐ´ ÓĻÐ½
Ġ19 7
ĠÐĨ Ñģ
ĠÑĤÒ¯Ð¹ ÑĸÐ½
ĠÒĽÐ°ÑĤÑĭÑģ Ð°Ð´Ñĭ
ĠÐºÓ©ÑĢ Ñĥ
ĠÐ±ÐµÐ»Ð³ÑĸÐ» ÐµÑĥ
ĠÐ¼Ò±Ð½ Ð´Ð°
ĠÐºÑĢ ÐµÐ´Ð¸ÑĤ
ĠÐļÓ©Ðº ÑĪÐµÑĤÐ°Ñĥ
ĠÐ¼Ð°ÒĽ Ð°Ð»Ð°
ĠÐ°ÑĢÐ½ Ð°Ð¿
ĠÑģÐ° ÑħÐ½
Ð°Ð¹ Ð¼ÑĭÐ·
Ġ â
Ð³ Ò¯Ð»
ĠÑĪ ÑĸÑĢ
ĠÐĸÐ°Ò£Ð° Ó©Ð·ÐµÐ½
ĠÒĽÐ°ÑĢÒĽÑĭÐ½ Ð´Ñĭ
ĠÑĤÐ°ÒĽ Ð¿Ð°ÒĽÑĤÐ°ÑĢ
Ð°ÑĢ ÑĥÑģ
ĠÐ½ Ð¾
ĠÐ¾ Ð±
ĠÐ±Ð°ÒĵÑĭÑĤ ÑĤÐ°
ĠÑĪÐµÑĪ ÑĸÐ¼Ñĸ
ÑĭÒĽ ÒĽÐ°
ĠÐ¾ÑĢÐ³Ð°Ð½ Ð¸Ð·Ð¼
ÑĤÑĭ Ð·
Ð¸Ð» Ð¸
ĠÐ¼Ò¯Ð» Ð´ÐµÐ¼
Ð» Ð¾Ð²
ĠÑĤÒ±ÑĢÐ¼ ÑĭÑģ
ĠÐĸ ÐµÐºÐµ
ĠÑĢÐµÐ´Ð° Ðº
ÑĤÑĭÒ£ ÑĭÐ·
Ðĳ Ð°ÑĢÐ»ÑĭÒĽ
ĠÐ´ Ð°Ð½
ÐºÐµÑĢ Ð¸
ĠÑģÐ¾Ð» ÑĤÒ¯ÑģÑĤÑĸÐº
ĠÐ±ÐµÑĤ ÑĸÐ½Ðµ
ĠÐ¿ÑģÐ¸Ñħ Ð¾Ð»Ð¾Ð³Ð¸Ñı
ĠÐ¼ÑĸÐ½Ð´ ÐµÑĤÑĸ
ĠÑģÒ¯ÑĢ Ñĥ
ÐµÐ· ÒĽÐ°Ð·ÒĵÐ°Ð½
ĠÐ°ÑıÒĽ ÑĤÐ°Ð»ÒĵÐ°Ð½
ÑĤ Ð¾
ÑĤÑĸ Ð»Ñĸ
ĠÑĪÐµÐ± ÐµÑĢÐ»ÑĸÐº
ĠÐ¼ÐµÒ£Ð³ÐµÑĢÑĥ ÑĪÑĸÑģÑĸ
ĠÑĤÐµÑħÐ½Ð¾Ð»Ð¾Ð³Ð¸Ñı Ð»Ð°ÑĢÐ´Ñĭ
Ð°Ð»Ñĭ ÒĵÑĭÐ½Ð°
Ð³ Ð°Ð·
u n
ĠÐ¼ÓĻÐ»ÑĸÐ¼ Ð´ÐµÐ´Ñĸ
ĠÐ¶Ð°Ñģ ÑĤÐ°ÑĢÐ´ÑĭÒ£
ĠÐ±Ò±Ð» ÑĪÑĭÒĽ
ĠÐĸ Ð¸
Ð¾Ð¶ Ð°
ÑĥÐ¼Ð°Ð½ Ð¸ÑĤÐ°ÑĢÐ»ÑĭÒĽ
Ð±ÑĸÑĢ ÐµÐº
ÓĻ Ð»Ñĸ
ĠÐ´ ÐµÐ¹ÑĤÑĸÐ½
ÐĶ Ðķ
ÓĻ ÑĤ
ÐŁ Ð¾ÑĢ
ÒĽ Ò±Ð¼
Ð¸Ñĩ ÐµÑģÐº
ÓĻÐ¼ ÑĸÐ·
0 9
Ð°Ð» Ñĸ
ĠÒ±Ð¹ÑĭÐ¼ Ð´Ð°ÑĢÑĭÐ½ÑĭÒ£
3 6
ĠÐºÐµÐ· Ð´ÐµÐ³Ñĸ
Ð´ÐµÐ¹ ÑĤÑĸÐ½
ĠÐ¶ÐµÑĤÐµÐº ÑĪÑĸ
ĠÐºÑĸÑģ ÑĸÐ»ÐµÑĢ
ĠÐ±Ð°ÒĵÐ´Ð°ÑĢÐ»Ð°Ð¼ Ð°Ð»Ð°ÑĢÑĭÐ½
ĠÑĤÓ©Ð¼ÐµÐ½ Ð´ÐµÑĥ
ĠÐļÐµÐ¹ Ð±ÑĸÑĢ
Ð¾Ð¿ Ð¾Ð»
ĠÐ¼ÓĻÑģÐµÐ» ÐµÐ½Ñĸ
ĠÐ´Ð°Ð¼Ñĥ Ð´ÑĭÒ£
ĠÐºÓ©ÑĤÐµÑĢ Ð¼
ĠÑģÐ°Ð¹ÑĤ ÑĭÐ½Ð´Ð°
s s
Ġ3 7
ĠÑĤÒ¯ÑģÑĸÐ½ Ñĥ
ĠÑģ Ðº
ĠÓ©Ñģ ÐºÐµÐ½
ĠÒĽÐ°ÑĢ Ð°ÑĪ
Ð¼ Ð°ÑĢ
ĠÐºÐ¾Ð½ÑĨ ÐµÑĢÑĤ
ĠÐµÑĢÐµÐºÑĪÐµÐ»Ñĸ Ð³Ñĸ
ĠÐ¶Ð°ÑĢÑĤÑĭÐ¶ÑĭÐ»Ð´Ñĭ ÒĵÑĭ
ĠÑģÓĻ Ð±Ð¸
ĠÐ±ÐµÐ»Ð³Ñĸ ÑģÑĸ
ĠÐº Ð°ÑĤÐµÐ³Ð¾ÑĢ
ĠÐ´ÑĭÐ± ÑĭÑģ
Óĺ Ð¹
ĠÐµÐ» Ð´ÐµÑĢÐ´ÑĸÒ£
ĠÐ¿Ð°ÑĤ ÑĢÐ¸
ĠÐ½Ð°ÑģÐ¸ÑħÐ°ÑĤ ÑĤÐ°Ñĥ
ÐºÐµÑģ ÑĸÐ½ÑĸÒ£
Ġ e
ĠÒĽÐ¾Ð»Ð´Ð°Ð½ ÑĭÐ»Ð°ÑĤÑĭÐ½
ĠÐ¿Ð°ÑĤ Ð¾Ð»Ð¾Ð³Ð¸ÑıÐ»ÑĭÒĽ
ĠÐ´Ò¯ ÐºÐµÐ½
ĠÐ¶ ÑĸÐº
ĠÐ±ÐµÐ· ÑĸÐ½ÑĸÒ£
Ð³ ÑĸÐ½Ð´ÐµÐ³Ñĸ
Ð¼ ÑĭÑģ
ÑĤÑĸÒ£ ÑĸÐ·
Ð¿ ÐµÐ¹Ð´Ñĸ
ĠÐ½ Ð°Ð¼
Ðļ Ð¾Ð¼
ĠÐ½ÐµÐ³ÑĸÐ· ÑĸÐ½
ĠÑĤÓ© ÑĤÐµÐ½ÑĪÐµ
ĠÐ¾ ÑģÑĭÐ½
ĠÓĻÐ¹ Ð³ÑĸÐ»Ñĸ
Ð¶ Ð°Ð·
ĠÒĽÐ°Ð¹ÑĢÐ°ÑĤ ÐºÐµÑĢÑĸ
ĠÐ¨ ÐµÑĤ
Ð´ ÓĻÑģÑĤÒ¯ÑĢ
ĠÑĥÑĩÐ°ÑģÐº ÐµÐ»ÐµÑĢÑĸÐ½
ĠÐ¾Ð¹ Ð»Ð°Ð¿
âĢ¦ âĢ¦
ÑĤÐ°ÑĢ Ð¼Ð°Òĵ
ĠÒĽÑĥ Ð°ÑĤ
Ð³ ÑĸÐ¼
ĠÒ¯Ð¹ Ð»ÐµÑĢ
ĠÐ¾ÑĢÑĤ Ð°ÑģÑĭÐ½Ð´Ð°
Ñģ ÑĸÐ½ÑĸÒ£
ĠÐ°Ñħ Ñĥ
ĠÐ¶Ð°Òĵ ÑĭÐ½Ð´Ð°
ĠÑĤÓ©Ð¼ÐµÐ½ Ð´ÐµÐ³Ñĸ
ĠÒĽ Ð°ÑĤÑĭ
ÒĽÑĭ ÑĤÑĥ
ĠÐĸÐ¾Ð»Ð´Ð°Ñĥ Ñĭ
Ð°Ð¼ ÐµÑĤÑĢ
ĠÐ¿ ÑĢÐµÐ·ÐµÐ½ÑĤÐ°ÑĨÐ¸Ñı
Ð¼ Ð°ÒĵÑĭÐ½
ĠÑģ Ó©Ð½
ĠÒ¯Ð¹ ÑĸÑĢ
ĠÐºÐ¾Ð½Ñģ ÑĥÐ»ÑĮ
ĠÐļ Ð¡Ðł
Ð± Ð°ÑģÑĭÐ½
ĠÐ· Ð°ÑĤÑĤÐ°ÑĢÐ´Ñĭ
ĠÒ±ÑģÑĭÐ½ Ð°Ð¼ÑĭÐ·
ĠÐºÐ¾Ð´ ÐµÐº
ĠÑģÐ°Ð» ÑĥÒĵÐ°
ĠÐ¼ÓĻÐ¼ ÑĸÐ»
ĠÐ¼Ó©Ð»ÑĪÐµÑĢ Ð´Ðµ
ĠÐ¢ Ð°ÒĵÑĭ
ĠÐ´ÐµÐ¹ iÐ½
Ð¼ ÓĻÐ´ÐµÐ½Ð¸
ĠÑĤÐ¾Ð¿ ÒĽÐ°
ÑĤÐ°Ð¼ ÑĭÐ·
ĠÐ¶Ð¾Ð» ÒĵÐ°
ĠÑĪ Ðº
ĠÐµÑĢ Ñĸ
ÑĤ Ð°ÒĽ
Ð´Ð° ÒĵÑĭÐ½ÑĭÒ£
ĠÐºÐµÐ· ÐµÐ³ÑĸÐ½Ð´Ðµ
ĠÐ±Ð¾Ð»Ð¼ Ð°ÑĥÑĭ
ĠÐĲÑģ ÑģÐ°Ð¼Ð±Ð»ÐµÑı
ĠÐĸ ÓĻ
ĠÑĦÐ¸Ð· Ð¸ÐºÐ°Ð»ÑĭÒĽ
ĠÑĤÐ°ÑĢ ÑĤÒĽÐ°Ð½
ĠÐ¡ Ò±Ð»ÑĤÐ°Ð½
ĠÐ´ Ð¸Ð·
Ð¡ ÑĭÑĢ
ĠÐ±ÐµÐ»Ð³ÑĸÐ» ÐµÐ½
ĠÐµÑģ ÑĸÐº
ĠÐ°Ð» Ð°Ð¼ÑĭÐ·
ĠÐ°ÑĢ Ð°Ð´Ð°
ĠÑĤÒ¯ Ð³ÐµÐ»
ĠÐ¶Ð°Ñģ Ð°Ð»Ð´Ñĭ
ĠÒĽÒ± ÒĽÑĭÐ»Ñĭ
ĠÐµÐ»ÐµÑĥ Ð»Ñĸ
C O
ĠÑĸÑģÑĤ ÐµÐ³ÐµÐ½
ĠÑģÐ°Ð» Ð°Ð´Ñĭ
ĠÐ°ÑĪÑĭÐ» ÒĵÐ°Ð½
ÑĢ Ð°Ð·
Ġ ÑĭÒ£
ĠÐ°Ð³ÐµÐ½ÑĤ ÑĤÑĸÐ³ÑĸÐ½ÑĸÒ£
ÑĢ Ñĸ
ÑĤÐ¸ ÑħÐ°Ð½
ĠÐ¡ Ð¾Ò£ÒĵÑĭ
ĠÐ°Ð¹ÑĭÑĢ Ð±Ð°Ñģ
ĠÐ°ÐºÑĨÐ¸Ð¾Ð½ ÐµÑĢÐ»ÑĸÐº
ĠÑĤÓĻÑĢÐ±Ð¸ÐµÐ»ÐµÐ½Ñĥ ÑĪÑĸÐ»ÐµÑĢÐ´ÑĸÒ£
ĠÐ¶Ð°ÑģÓ©ÑģÐ¿ÑĸÑĢ ÑĸÐ¼Ð´ÐµÑĢ
ÒĽ Ð¾Ð¹
ÑĤÐ°ÑĢ Ð¼ÐµÐ½
ĠÐ°ÑĢÑĤÑĤÑĭÑĢ ÑĥÒĵÐ°
ĠÓ©Ð½ÑĸÐ¼Ð´ÐµÑĢ ÑĸÐ½
Ð±ÐµÑĢ Ð³ÐµÐ½
ĠÐ±Ð°ÑĢ ÑĪÐ°
ĠÐ±ÐµÐº i
ÒĽ ÑĭÐ¿
ĠÑĤ Ð°Ð·Ð°ÑĢ
ĠÐ°Ð¹ÑĤÑĥ ÒĵÐ°
ĠÒĽÐ¾Ð»Ð´Ð°Ð½ ÑĭÑģÑĤÐ°ÒĵÑĭ
ĠÐ±ÑĸÐ»ÑĸÐ¼ Ñĸ
ĠÐłÐµÑģÐµÐ¹ Ð´ÑĸÒ£
ÑĤÐµÒ£ Ðµ
Ðĸ Ð¾Ð»
ÑĨÐµÐ½ Ð°ÑĢÐ¸Ð¹
ÐķÑĢ ÐºÑĸÐ½
ĠÒ¯Ð½ ÐµÐ¼
ĠÐµÐ» ÑĸÐ½ÑĸÒ£
ĠÑĤÑĢ ÐµÐ½
ĠÐ°Ñģ ÒĽÑĭÐ½
Ñĥ Ñħ
ĠÓ©ÑĤ ÐºÑĸÑĢ
ĠÐ¢ Ð¾Ð»
ĠÑģ ÐµÑģÑģÐ¸Ñı
Ñģ ÑĭÒĽÑĤÑĭ
ĠÑĤ Ò±Ð¼
a v
ĠÐ¥ Ð°Ð±Ð°ÑĢ
ĠÐ±Ð°ÒĵÑĭÑĤ ÑĤÐ°ÒĵÑĭ
ĠÑģÐ¾ÑĤ ÒĽÐ°
ĠÐ°ÑĤ Ð°Ð½Ð´Ñĭ
ĠÐ±Ò± Ð´Ð°Ð½
ĠÓĻÐºÐµÐ» ÑĸÐ¿
ĠÑģ ÑĭÐ¿
ĠÑģÓĻÑĥ Ð»
ĠÑħÐ°Ð±Ð°ÑĢÐ»Ð°Ð¼ Ð°Ð»Ð°ÑĢ
ĠÑĢÐµÑģÐ¿ÑĥÐ±Ð»Ð¸Ðº Ð°
ĠÐľÒ± Ð½ÑĭÒ£
ĠÐºÑĸÑĢ ÑĸÑģÑĤÐµÑĢ
ĠÑĤÓ©Ð»ÐµÐ¼ Ð´Ñĸ
Ð´ ÓĻÑĢ
ÑĦ Ð¾ÑĢ
ĠÓ©Ð½ÐµÑĢ ÐºÓĻÑģÑĸÐ¿
Ð°ÑĨÐ¸Ñı ÑģÑĭÐ½ÑĭÒ£
Ð¾ ÑģÑĭ
ĠÐµÐ½ Ð³iÐ·
ĠÐ°ÑĤÒĽÐ°ÑĢ Ñĥ
Ðŀ Ò£
ĠÐ¶Ð¾ÑģÐ¿Ð°ÑĢ ÑĭÐ½Ð°
ĠÐ°Ð¹ Ð½
Ð°Ñħ ÑģÑĤÐ°Ð½
ĠÐ¾Ð¹Ð»Ð°Ð¹ Ð¼ÑĭÐ½
ĠÐ°Ð½ Ð³
Ò° Ð»Ñĭ
Ð¤ Ð°ÑĢ
ÑĤi Ð»ÐµÑĢ
ĠÐ¾ÒĽÑĥÑĪÑĭÐ»Ð°ÑĢ Ñĭ
Ġ3 00
ĠÒĽÐ°ÑĪ Ð°Ð½
ĠÐ°Ð¿Ð¿Ð°ÑĢÐ°ÑĤ ÑĭÐ½Ð°
ÐŁ Ð°ÑĢ
Ñģ Ð¾
ÐºÐµÑĢÐ»ÐµÑĢ Ð´ÑĸÒ£
ĠÐºÓ©ÑĢÑĸÐ½ ÑĸÑģÑĤÐµÑĢ
ĠÐ¡ Ð°Ñı
ĠÐ¶ÐµÑĤ ÐµÐ´Ñĸ
Ð°Òĵ ÑĭÐ½Ð°Ð½
ĠÓ¨ ÑĤÐºÐµÐ½
ĠÐµÑĢ ÑĸÐºÑĤÑĸ
Ð°Ð» Ð°Ð½ÑĭÒ£
Ð¸ Ð¾Ð»Ð¾Ð³Ð¸ÑıÐ»ÑĭÒĽ
ĠÐ¶ÐµÑĢ Ð»ÐµÑĢÐ´Ðµ
Ð±Ð°Ñģ Ð°ÑĢ
ĠÐºÐµÐ·Ð´ÐµÑģ ÐµÑĤÑĸÐ½
ĠÑĤÐ°ÑĢÐ¸Ñħ ÑĭÐ½
ĠÐ³Ð°Ð· ÐµÑĤÑĸÐ½ÑĸÒ£
ĠÐµÐ» Ð´Ðµ
ĠÐ¼Ð°Ð¼ Ð°Ð½Ñĭ
ĠÐĿ ÓĻÑĤÐ¸Ð¶
ĠÐ±Ð°Ð¹ÒĽÐ°Ñĥ ÑĭÐ½ÑĭÒ£
ĠÑĪ ÐµÐ³
Ð´ÐµÑĢ Ð´ÐµÐ½
Ð»Ð° Ò»
ĠÐ¿Ð°Ð¹ ÒĵÐ°Ð¼Ð±Ð°ÑĢ
ĠÑĤÓĻÑĥÐµÐ» Ð´Ñĸ
ĠÑĤÒ±Ð¶ÑĭÑĢÑĭÐ¼ Ð´Ð°Ð¼
Ð¾Ð² ÑĤÑĸÒ£
ĠÐ¢ Ð°Ð»Ð´ÑĭÒĽÐ¾ÑĢÒĵÐ°Ð½
ĠÐºÓ©ÑĢ ÑĪÑĸ
ĠÑģÐ°Ð» Ð°ÑģÑĭÐ½
Òļ Ð¾ÑĢ
ĠÑı Ð´ÑĢÐ¾Ð»ÑĭÒĽ
ĠÐ¶ÑĸÐ±ÐµÑĢ Ð´Ñĸ
ĠÐºÓ©Ð¼ÐµÐºÑĤÐµÑģ ÐµÐ´Ñĸ
Ð°ÑĢÑĥÑģ ÑĮ
ĠÐ°Ð¹ Ñĭ
ĠÐ¶Ð¸ÑĭÑĢ Ð¼Ð°
ĠÐ°Ð¹ÑĭÐ¿ Ð¿Ò±Ð»
ĠÐ° Ð´
ĠÑĤÐ¾Ð»ÑĭÒĽ ÑĤÑĭÑĢ
ĠÒļÒ±ÑĢ Ð¼ÐµÑĤÑĤÑĸ
ĠÐ¢ ÐµÑħÐ½
ĠÒ±Ð¹ÑĭÐ¼ Ñĭ
ĠÑĤÑĸÐ» ÑĸÐ½Ð´ÐµÐ³Ñĸ
ĠÐ±ÓĻÑģÐµÐº ÐµÐ»ÐµÑģ
ĠÐ¾ÑĢÑĭÐ½Ð´Ð°Ð» ÑĥÑĭ
ÒĽ Ò±ÒĽÑĭÒĽÑĤÑĭÒĽ
ĠÒĽÐ°Ð¹ Ð½
ÐµÐ¼ ÒĽÐ¾ÑĢÐ»ÑĭÒĽ
ĠÑĤÓ© Ò£ÑĸÑĢ
ĠÑģÐ¾Ò£ ÑĭÐ½Ð°
ĠÐ¼ÓĻÐ´ÐµÐ½Ð¸ ÐµÑĤÑĸ
ĠÒĽ ÑĭÑĤÐ°Ð¹
ĠÑĤÑĸÐ» ÑĸÐ½ÑĸÒ£
ĠÐ±ÐµÐ»Ð³Ñĸ ÑģÑĸÐ·
ĠÐ±ÓĻÑģ ÐµÐºÐµÐ³Ðµ
ĠÐ°ÑĢ Ð°Ð»ÑĭÒĽ
ĠÐ¶Ò¯Ðº ÑĤÑĸÐ»ÑĸÐº
ÐµÑģ i
ĠÐĲ Ð»ÐµÐº
ĠÒĽÐ¾ÒĵÐ°Ð¼ Ñĭ
Ð¶ ÐµÑĢ
ĠÐ» Ð°Ð¹
Ð¼ Ð¸ÑĤ
ÐµÐº ÑĤ
ĠÒļÒ±ÑĢ ÑĭÐ»ÑĭÑģ
ĠÒĵ Ð°ÑĢÑĭÑĪ
ĠÒĽÐ°Ð½ ÑĤ
ÐĳÒ¯Ð³ÑĸÐ½ Ð³Ñĸ
ĠÐ°Ð¹Ð½Ð°Ð» ÑĭÐ¼
Ð¸Ð¼ Ð¸Ñı
ĠÐ¼Ò±ÑĢ Ð°Òĵ
ĠÓ©ÑĤÐºÑĸÐ· ÑĸÐ¿
Ð»Ñı ÑĨÐ¸Ñı
ĠÓĻÐ·ÑĸÑĢ Ð»
e b
Ð¿ ÑĸÐ»
ĠÐ¶ÐµÑĢ ÑĸÐ½Ð´Ðµ
ĠÐ±Ð¾Ð» Ð´ÑĭÑĢ
ĠÐµÒ£ Ð±
ĠÒĽÑĭÐ¼ÑĭÐ· ÒĵÐ°
ĠÑĤÐ°Ð¿ ÑĤÑĭ
ĠÐ¶Ð°ÑĢ ÒĽÑĭÐ½
Ð± Ð°Ð»Ñĭ
ĠÐ¤ Ð¸Ð·
ÑĭÑģ ÒĽÐ°Ð½
ĠÐ¼iÐ½ Ð´ÐµÑĤ
. ).
ÑĤ ÐµÐ¹ÑĤÑĸÐ½
ĠÓĻÑĢ Ð¸Ð½Ðµ
ĠÑĤÒ±ÑĢÒĵÑĭÐ½ Ñĭ
in e
ĠÐ¶Ð¾Ð± Ð°ÑģÑĭÐ½ÑĭÒ£
ĠÐºÑĥÓĻÐ» Ð°Ð½
Ð» Ð°Ð²
Ñĥ Ð´ÐµÐ½
Ġi ÑĪ
ĠÐºÐ¾Ð¼ Ð¸ÑĤÐµÑĤ
ĠÐ±ÐµÐ¹Ð½ Ðµ
ĠÐ±Ó©Ð»Ñĸ Ð³ÑĸÐ½
ĠÐĲÐ»Ð¼Ð°ÑĤÑĭ Ð´Ð°
ĠÐºÐ¾Ð¼Ð¿Ð°Ð½ Ð¸ÑıÑģÑĭÐ½ÑĭÒ£
ĠÐ°ÒĽ Ð¸
ĠÐ°ÑıÒĽ ÑĤÐ°Ð»
ĠÐµÑĤÑĸÐ» ÐµÐ´Ñĸ
ĠÒĽÐ¾ÑĢ ÑĭÐ½ÑĭÒ£
ĠÐłÐµÑģÐ¿ÑĥÐ±Ð»Ð¸Ðº Ð°ÑģÑĭÐ½Ð´Ð°ÒĵÑĭ
ÑĤÐµÑĢ Ð´ÐµÐ½
ĠÒĽÐ¾Ñģ ÑĭÐ¼ÑĪ
ĠÐķÑĢ ÐµÐ¶
. Â»
ĠÐľ Ð°Ð»
ĠÐ½ÓĻÑĤÐ¸Ð¶ ÐµÐ»ÐµÑĢ
u l
Ð³Ñĸ Ð¿
ĠÑĤÒ±ÑĢ Ð°ÒĽ
ĠÐ°Ð± ÑĭÑĢ
ĠÑĦÐ°ÐºÑĤÑĸ ÑģÑĸ
ÑĪÑĸÐ» ÑĸÐºÑĤÑĸ
ĠÑĢ ÓĻÐ¼ÑĸÐ·
Ð°Ð¹Ð» Ð°Ñĥ
ĠÐ¾ÑĢÐ½ ÑĭÐ½Ð´Ð°
ĠÓ© ÑĪÑĸÑĢ
ÑĭÐ»Ð¼ ÑĭÑģÑĤÑĭÒĽ
ĠÐ± Ð°ÐºÑĤÐµÑĢ
ĠÐ¿Ð°Ð¹Ð´Ð°Ð»Ð°Ð½ ÑĭÐ»ÑĥÑĭ
ĠÐ¼ÓĻÑĢ ÑĤÐµ
ĠÒĽÐ°Ð±ÑĭÐ½ Ñĥ
ĠÐ±Ð¾Ð»Ð´Ñĭ Ð¼
ĠÒļÐ°Ñģ ÑĭÐ¼
ĠÐ°Ð·Ð°Ð¼ Ð°ÑĤÑĭ
ĠÐ± Ò¯ÑĢ
u t
ÐĲ Ò¢
ĠÑģÐ¾Ð½ Ñĭ
ĠÒĽÒ±ÒĽ ÑĭÒĵÑĭÐ½
ĠÐĳ Ð°ÑĥÑĭÑĢ
Ð´Ñĭ ÒĵÑĭÐ½Ð°Ð½
Ñĸ ÑĭÐ·
Ð°Ñģ Ñĥ
ĠÐ¨ ÑĭÒ£
ĠÐĸÐ°ÑĢÐ± Ð¸Ð¼Ð°
ĠÑĢÐµÐ²Ð¾Ð»Ñİ ÑĨÐ¸Ñı
Ġo f
ĠÐĲ ÑĤÐ°Ð»ÒĵÐ°Ð½
ĠÐŁ ÑĢÐ¾
ÑģÑĤÐ°ÑĢ Ð´Ñĭ
ĠÑģÐ°Ð¹ÑĭÐ½ ÒĵÑĭ
ĠÐ± ÐµÐ´ÐµÐ»
ĠÒĽÑĭÐ·Ð¼ÐµÑĤ ÑĪÑĸÐ»ÐµÑĢÑĸ
ĠÐĺÐ½ ÑĤÐµÑĢÐ½ÐµÑĤ
ĠÑĤÓĻÑĢ ÑĤi
Ð¾ Ð±Ð»
ĠÒĽÐ°ÑĢ Ð°ÒĵÐ°Ð½
ĠÐ¶Ò±Ð¼ÑĭÑģ ÑĭÐ½ÑĭÒ£
Ð¡ ÐµÐ½
ĠÐ±Ó©Ð»ÑĸÐ¼ ÑĸÐ½Ð´ÐµÐ³Ñĸ
ĠÐ¸Ð½Ð² ÐµÑģÑĤÐ¾ÑĢ
Ð°Ð» Ð¸ÐµÐ²
Ð¶ Ò±Ð¼
ĠÐ¾ÑĤÑĭÑĢ ÑĭÑģÑĭÐ½Ð´Ð°
ĠÑĤÐ¾Ð¿ ÑĭÑĢÐ°ÒĽ
Ð» Ð°Ð´
Ð±ÑĸÑĢ ÑĸÐ½Ðµ
ĠÐºÐµÒ£ÐµÐ¹ ÑĤÑĸÐ»Ð³ÐµÐ½
ĠÑĤÒ±ÑĢÒĵÑĭÑģ ÑĭÐ½Ð°Ð½
Ð¼ ÐµÐ´Ñĸ
ĠÑįÐº ÑģÑĤÑĢ
Ñĥ Ñĩ
ĠÐºÓ©ÑĢÑģÐµÑĤ Ðµ
ÐŀÐ±Ð» ÑĭÑģ
ÓĻÐ· ÑĸÐº
ĠÐ¾ Ð´Ð°ÒĽ
ĠÐ°Ð» ÑĭÐ½Ð´Ñĭ
ĠÐ¡ Ò¯Ð¹
Ð°ÑĤ Ð°Ð´Ñĭ
ĠÒĵÑĭÐ»ÑĭÐ¼ Ð´Ð°ÑĢÑĭÐ½ÑĭÒ£
ĠÑĤÐ¾ÒĽ ÑĤ
ĠÐĸÐµÐ» ÑĤÐ¾ÒĽÑģÐ°Ð½
ĠÐ±Ð°Ð» Ð°Ð¼ÐµÐ½
ÑĢ Ð¸Ð½
ĠÐ¼ÐµÐºÐµÐ¼ Ðµ
ĠÒļÑĭÑĢ ÐºÒ¯Ð¹ÐµÐº
ÑĪ iÐ»iÐº
ÒĽ Ð¾Ò£ÑĭÑĢ
ĠÐ¢ÓĻÐ¶ ÑĸÐº
ÑĢÐ¾Ó©Ð½ÐµÑĢ ÐºÓĻÑģÑĸÐ¿ÑĤÑĸÐº
ÐĲ ÑĤÐ°Ð¼
ĠÐĸÐµÑĢ Ð´ÑĸÒ£
Ð¸ ÐµÐ½
ÐĶ ÑĸÐ½
ĠÑģÐ°Ð±Ð°ÒĽ ÑĤÐ°ÑĢ
ĠÐĺÐ½ Ð²ÐµÑģÑĤÐ¸
Ð´ Ð°ÑģÑĭ
ĠÐºÐµÐ»ÑĸÑģ ÑģÓ©Ð·
Ð¾Ñģ ÑĭÐ½ÑĭÒ£
ÑĢ ÐµÑĤ
ÑĤÐ¸ Ð·
ĠÐºÐ¾Ð¼Ð¸ÑģÑģÐ¸Ñı ÑģÑĭ
ĠÐ¾ ÑĤÑĭÐ½
ĠÐ¼Ò¯Ð¼ ÐºiÐ½
ĠÐºÐ» Ð¸ÐµÐ½ÑĤ
ÑĦ Ð¸ÑĢ
ĠÓ©Ð½ÐµÑĢ Ðº
ĠÐºÓ© Ð±ÑĸÑĢÐµÐº
ĠÐ¸Ð¼ Ð¼ÑĥÐ½
Ð¸ÑĦ Ð¸Ð½Ð³
ĠÐ¶ÐµÑĤ Ñĥ
ÑĭÒĵ ÑĭÐ½Ð´Ð°ÒĵÑĭ
Ñģ Ð°ÑĢÑĭ
ĠÐĸÓĻÐ½ ÑĸÐ±ÐµÐº
ĠÑį Ð½Ð´
ĠÐµÐ½ Ð³ÐµÐ½
ĠÑģÐ°Ð½ ÑĭÐ½
ĠÐľÐ°ÑĤ ÐµÑĢÐ¸Ð°Ð»Ð´Ð°ÑĢÐ´Ñĭ
Óĺ Ð»
ĠÐľ Ð°Ð¹
ĠÐ±ÑĸÐ· Ð´Ñĸ
Ñģ ÑĸÑĢ
Ð°ÑĤ Ð°ÐµÐ²
Ð°Ð½ Ð°Ð»Ð°ÑĢ
ĠÐ¶Ð¸Ð½ Ð°Ð»ÒĵÐ°Ð½
ĠÐºÓ©ÑĤÐµÑĢ ÑĸÐ»ÐµÐ´Ñĸ
ĠÐ¸Ð½ÑģÐ¿ÐµÐºÑĨÐ¸Ñı ÑģÑĭ
ĠÐºÐµÐ»ÑĸÐ½ ÑĪÐµÐº
ĠÐ¶Ð°ÑģÐ°ÒĽ ÑĤÐ°Ð»ÒĵÐ°Ð½
201 3
ĠÒĽÑĭÐ·ÑĭÒĵ ÑĥÑĪÑĭÐ»ÑĭÒĽ
ĠÐºÐµÐ» Ñĥ
Òĵ Ð°Ð»Ñĭ
iÐ» ÐµÑĤ
ĠÐ¼ÓĻÑģÐµÐ» ÐµÐ»ÐµÑĢÑĸÐ½
________ ________
ĠÒļ Ð°Ð¿
ĠÐ·Ð°ÑĤÑĤÐ°ÑĢ Ð´ÑĭÒ£
Ġ )
Ð¨ ÑĭÒĵÑĭÑģ
V I
ĠÐ¿ ÑĭÑģ
ĠÑĤÒ¯ Ðº
Ðķ ÐĴ
ĠÒĽÐ°ÑĪ ÑĭÒĽÑĤÑĭÒĽ
ĠÑĪÐ°ÒĽÑĭÑĢ ÑĭÐ¿
ÑĪ Ð°Ð¼
Ò±ÒĽ ÑĭÒĽ
ĠÐŁÐ°ÑĢ Ð»Ð°Ð¼ÐµÐ½ÑĤÑĸ
ĠÒļÐ¾ÑĢ ÒĵÐ°Ð½
ĠÒĽÑĭÐ·Ð¼ÐµÑĤ ÐºÐµÑĢÑĸ
ÐµÐ´ Ð¸ÑĨÐ¸Ñı
ĠÑħ Ð¾Ð»
Ð± Ð¾ÑĢ
ĠÑĤÒ± Ð·
ĠÒĽÐ¾ÑĢÒĵÐ°Ð½ ÑĭÑģ
ĠÐ¨ ÑĭÒĵ
ĠÐ¼Ò¯Ð³ÐµÐ´ÐµÐº ÑĤÐµÑĢÐ³Ðµ
Ð°ÑĢ Ð´Ñĭ
ĠÐ´Ð¾Ðº ÑĤÐ¾ÑĢÑĭ
ĠÐ±Ð°ÑģÑĤÑĭ ÒĵÑĭ
Ð»ÑĸÐº ÐºÐµ
ĠÐ¼Ð°ÑĤÐµÑĢÐ¸Ð°Ð» Ð´Ð°ÑĢÑĭÐ½
Ò±Ð¼ ÑĭÑĢ
ĠÑĪÐ°ÑĢ ÑĪÑĭ
ĠÐľ Ð°Ð½
ĠÐ¢ ÓĻ
ĠÐ¼ÐµÐºÑĤÐµÐ¿ ÑĤÐµ
ĠÐ¼ Ð°ÑģÑģ
Ð¾Ð½ ÑĭÒ£
ĠÐ¶Ð°ÒĵÐ´Ð°Ð¹ Ð´Ñĭ
ÐµÐ» Ð¸
ĠÐ±ÑĸÐ» ÑĸÐ¿
ĠÑĢÒ±ÒĽ ÑģÐ°ÑĤÑĭ
ĠÐ± Ð¾Ð·
ÑĤÐµÑĢ ÐµÐº
ĠÓĻÑĥ Ðµ
ĠÐ¶Ð°Òĵ Ð°Ð»Ð°Ñĥ
ĠÐ¿Ð°Ð¹Ð´Ð°Ð»Ð°Ð½ ÑĭÐ¿
ĠÑģ Ð¸Ð¼
ĠÐ¸Ð½ Ð½Ð¾Ð²
Ð±Ð°Ð¹ Ð´ÑĭÒ£
ĠÐ¿Ð° ÑĨÐ¸ÐµÐ½ÑĤ
Ð¾Ñģ ÑĦÐµÑĢ
ÐµÐ¹ ÑĸÑĤ
ĠÐ¼Ò¯Ð¼ÐºÑĸÐ½ Ð´ÑĸÐ³ÑĸÐ½
ĠÑģÐ°ÒĽ ÑĤÐ°Ð»ÒĵÐ°Ð½
ĠÑģÑĭÐ½ Ð°ÒĽ
ĠÐ´ÐµÑģ ÐµÐ´Ñĸ
ĠÐ¾ÑĢ Ð°Ð»
ĠÐ°ÑĢÑĤ Ð°Ð´Ñĭ
ĠÑĤÐµÑĢÐ³Ðµ Ñĥ
ÐºÐµÑģ ÑĸÐ½
ĠÑĤ Ó©Ð½
ÐµÑĪ ÐµÐº
ÐĲ Ð£
ĠÐ´ Ð°ÒĵÐ´Ð°ÑĢ
ĠÑĢÐµÐ´Ð°ÐºÑĨÐ¸Ñı ÑģÑĭ
ĠÐľÓĻÐ¶ ÑĸÐ»
iÐ½ ÐµÐ½
ĠÐĲÑĢ Ð°Ð±
ĠÐ°Ð¹Ð¼Ð°ÒĽ ÑĤÑĭÒĽ
Ðº Ò¯Ð½
ĠÑģÐ°ÑĢÐ°Ð¿ ÑĤÐ°Ð¼Ð°
Ð± Ð¸Ð½
Ðĺ Ð¯
ĠÐ¼ ÑĭÑģÐ°Ð»Ñĭ
ĠÒĽÒ± Ð´Ð°Ð¹
ÑĤÐµÑĢ ÑĸÐ½Ð´Ðµ
ÑĸÑģÑĤ ÐµÑĢÑĸ
Ð±Ð°Ð± ÑĭÐ½ÑĭÒ£
ĠÐ±ÑĸÑĢ ÐµÐ³ÐµÐ¹
ĠÐ¼Ð°ÑĤÐµÑĢÐ¸Ð°Ð» Ð´Ñĭ
ĠÐ¶Ò¯ÑĢÐ³ÑĸÐ· ÑĸÐ»ÑĸÐ¿
ÑĭÐ» ÑĥÑĭÐ½
ĠÐ¶Ò¯ÑĢÐ³ÑĸÐ· ÐµÐ´Ñĸ
ĠÐ½ÓĻÑĤÐ¸Ð¶ Ðµ
ĠÐ¿ÑĢÐ¾ÑĨ ÐµÑģÑģ
Ð°ÑĤÑĭÐ½ Ñĭ
ĠÑģÐ°ÒĽÑĤÐ°Ñĥ ÒĵÐ°
3 9
ĠÐ¼ÐµÑĢ ÐµÐºÐµ
ĠÐ°Ð¹ Ð¼Ð°ÒĵÑĭ
ĠÑĪÐµÐº ÐºÐµÐ½
ÑĪÑĭÐ»Ð°ÑĢ ÑĭÐ½ÑĭÒ£
ĠÐ± Ð°ÑĤÑĭÐ¿
ÑĸÑģ Ð¿ÐµÐ½
ĠÐµÑģÐµÐ± ÑĸÐ½
ĠÐ¼ÑĸÐ½Ð´ ÐµÑĤÑĸÐ½
ĠÐ¶ÐµÑĤÐºÑĸÐ» ÑĸÐºÑģÑĸÐ·
i g
ĠÓ©Ð· Ð´ÑĸÐ³ÑĸÐ½ÐµÐ½
ĠÐ¼Ò±ÑĢ Ð°
ĠÒĽÒ±ÑĢÑĭÐ»ÑĭÐ¼ Ð´ÑĭÒĽ
ĠÒ° Ð¹ÑĭÐ¼
, -
Ġ201 9
ĠÑģ ÑĥÒĵÐ°
ĠÐ±Ð¾Ð» Ð¼Ð°Ð¹
ĠÐµÑĢÐµÐºÑĪ ÐµÐ»ÐµÐ½
ĠÐ°Ð²ÑĤÐ¾ÑĢ Ð»ÑĭÒĽ
ĠÓ©ÑĤÐºÑĸÐ· ÑĥÐ³Ðµ
ĠÐºÓ©ÑĤÐµÑĢÐ¼ ÐµÐ»ÐµÑĥ
ĠÑĸÑĪ ÑĸÐ½Ðµ
ĠÐ´ÐµÑĢÐµÐº ÑĤÐµÑĢÐ´Ñĸ
ĠÐļÐ¾ÑĢ ÐµÑı
ÑĤÐµÑĢ Ð°Ð¿
ĠÐļ ÑĸÑĪÑĸ
Ð°ÑĤ ÑĭÐ½Ð°
ĠÐ¼ÓĻÐ»ÑĸÐ¼ÐµÑĤÑĤÐµÑĢ Ð´Ñĸ
ÑĦ Ð°
ĠÑģÑĭÐ¹ Ð»ÑĭÒĽ
Ð°Ð¶Ð°Ð¹ ÑĭÐ¿
ĠÐºÒ¯Ð½ Ð½ÑĸÒ£
ĠÒ±ÑģÑĭÐ½ÑĭÑģ ÑĤÐ°ÑĢÐ´Ñĭ
ĠÐ¶ Ò±ÑĢ
ĠÑģ Ð°ÒĵÐ°Ð½
ÑĸÐ» Ð´ÑĸÑĢ
ÐµÑģ ÑĸÐ½ÐµÐ½
ÑĭÒ£ÑĭÐ· Ð´Ð°ÑĢ
ĠÐ¶Ð°ÑĢ ÑĤÑĭÐ»Ð°Ð¹
Òĵ Ð¾Ð»
ĠÐ¼Ò± Ð½Ñĭ
ĠÐ¿Ð°ÑĤ ÑĪÐ°
Ð± Ð°ÒĵÐ°Ð½
ĠÐ¶Ó©Ð½ ÐµÐ»
ĠÐ¼ÐµÑĤ Ð°Ð»
ÑĸÐ¼ Ð½ÐµÐ½
201 9
Ð°Ð¹ Ð¼ÑĭÐ½
Ñı Ð´
ĠÑį ÑģÑĤ
ĠÐ±ÑĸÐ» Ð´Ñĸ
ĠÐĶ Ð°Ð½
ĠÐ¼Ò±ÒĵÐ°Ð»ÑĸÐ¼Ð´ÐµÑĢ Ð´ÑĸÒ£
ĠÑĤÓĻÐ¶ÑĸÑĢÐ¸Ð± ÐµÑģÑĸ
ÑģÑĭÐ· Ð´ÑĭÒĽ
Ð´ÐµÑģ ÑĤÑĸÑĢÑĥ
ĠÒ¯ ÑģÑĤÑĸ
Ò¯Ð¹ ÑĸÑĢ
ĠÐ°ÑĢ ÑĤÑĭÐ¿
ĠÑģÐµÐ½ ÑĸÒ£
ĠÑĸÑģÑĤÐµÑĥ Ð³Ðµ
Ð¾ÑģÐºÐ¾Ð¿ Ð¸Ñı
ĠÐ¥ Ð°Ð½
ĠÐ¶Ð¾Ð± Ð°Ð½Ñĭ
ĠÐ¾ÑĢÑĭÐ½ Ð´Ð°ÑĢÑĭÐ½ÑĭÒ£
ĠÑĪÑĭÒĵÐ°ÑĢ Ð°Ð´Ñĭ
ĠÐ±ÑĸÐ»Ð´ÑĸÑĢ ÑĸÐ¿
ĠÑĸÑĪ ÐµÐº
ĠÐ·Ð°Ò£Ð½Ð°Ð¼ Ð°ÑģÑĭÐ½Ð°
o c
ĠÐ°Ð» ÑĥÑĭ
) :
ĠÐ°Ð³ ÑĢ
ĠÑĤÐµÐ»Ðµ Ð°ÑĢÐ½
ĠÐ°Ð¹ ÑĤÑĭÑģ
Ð¸Ð¼Ð¿Ð¸ Ð°Ð´
ĠÐµÑģÑĤÑĸ Ð³ÐµÐ½
ĠÐ¶ÐµÒ£ÑĸÐ» Ð´ÑĸÐº
W W
Ġ200 5
ĠÑĤÒ±ÑĢ ÑĥÒĵÐ°
ĠÐĸ ÐµÐ·ÒĽÐ°Ð·ÒĵÐ°Ð½
Ð½ ÐµÑĤ
ĠÐºÓ©Ð¼ÐµÐº ÑĤÑĸÒ£
Ð¡ Ð¢
ĠÑĤÐ°ÑĢ Ð°Ð»
Ð°Ñĥ Ð´Ð°
ÑĭÒĵ ÑĭÐ½Ð°Ð½
Ó¨Ð· ÑĸÐ½
ĠÐ¼ Ð¾ÑĢ
ĠÐ´ÐµÐ³ÐµÐ½ Ð´Ñĸ
ĠÑĤÐ°Ð¹ Ð¿
ĠÐµÑĢÐµÑģ ÐµÐºÑĤÐµÑĢ
s h
ĠÑģÑĥ ÑĭÒĽ
ĠÐĳ Ó©ÐºÐµÐ¹
ĠÐ³ ÐµÐ¼
Ġ %
ĠÑģ Ð¿
Ðĳ Ð¢
ĠÐºÑĸÑĤÐ°Ð¿ ÑħÐ°Ð½Ð°
ĠÐ¼Ð°ÑĤÐµÑĢÐ¸Ð°Ð» ÑĭÐ½
ĠÑĤÐ°ÑĢ Ð¸ÑĦ
Ð §
ĠI ÐĨ
ĠÑĤiÑĢ ÐºÐµÑĥ
ÑĤÐµÑĢ Ð»ÑĸÐº
ĠÑĭÐ½ÑĤÐ°Ð» Ð°Ð½Ð´ÑĭÑĢÑĥ
ĠÐ¢Ó© Ð¼ÐµÐ½
5 4
ÑĸÑĢ ÑĤ
Ðº Ñĥ
ĠÑĪ ÐµÑĢ
ĠÒĽÐ¾Ð» ÑĭÐ½Ð´Ð°
ĠÐ¼ ÑĸÐ½
Òļ Ð¾ÑģÑĤÐ°Ð½Ð°Ð¹
Ġ20 25
ĠÒ±Ð¼ Ñĭ
ĠÐĳÐ¸ Ð»ÑĸÐº
ĠÑĪÐµÑĪÑĸÐ¼ ÑĸÐ½
Ð¸Ð»ÑĮ Ð¼
Ð¾ÑĤ ÐµÐº
ĠÐ°Ð»ÒĽ Ð°Ð¿
ĠÒĽÐ¸ÑĭÐ½ Ð´ÑĭÒĽ
ĠÐºÐµÐ» ÐµÑĢ
Ñģ iÐ·
ÑĤÑĤÐ°ÑĢ ÑĭÐ½ÑĭÒ£
ĠÐºÐµ Ð´ÐµÐ½
ÐĸÐ¾Òĵ Ð°ÑĢÑĭ
ĠÒĽÐ°Ð·ÑĭÐ½ Ð°ÑģÑĭ
ĠÒļÐ°Ð· Ð°Ð»Ñĭ
ĠÂ ©
ĠÐºÐµÐ·ÐµÐº ÑĤÐµ
ÑĤÐ¸ Ð¿
ĠÒĽÒ±ÑĢ Ð°Ð¹ÑĤÑĭÐ½
ĠÒĽÒ±ÑĢ Ð¼ÐµÑĤÑĤÑĸ
Ð¸ÑĤ ÑĤÑĸÐº
ĠÑĤÒ± ÒĵÑĭÑĢ
ÒĽ Ð°Ð¹Ð´Ð°
ĠÐ¼ÐµÐºÐµÐ½ Ð¶Ð°Ð¹
ĠÒ±Ð¹ÑĭÐ¼Ð´Ð°ÑģÑĤÑĭÑĢÑĥ ÑĭÐ¼ÐµÐ½
ĠÐ´Ð¾Ð» Ð»Ð°ÑĢ
ĠÒĽÐ°Ð± ÑĸÐ»ÐµÑĤÑĸÐ½
ĠÐľÒ±ÑħÐ°Ð¼ Ð¼ÐµÐ´
ĠÐļÐ¾Ð´ ÐµÐºÑģ
ÐķÑĢÐºÑĸÐ½ ÒĽÐ°Ð»Ð°
Ò® ÑĪ
Ġ20 50
ĠÐ°Ð½ Ð°ÑģÑĭ
ĠÐ¶Ð°Ð±Ð´ÑĭÒĽ ÑĤÐ°ÑĢ
Ð°Ð»Ð°ÑĢ Ð´Ð°Ð½
ĠÒĽÐ°Ð¹ÑĤÐ° Ð´Ð°Ð½
ÑĪ Ð°ÑģÑĭ
ÑĸÐ³Ñĸ Ð¿
ĠÐ¾ÑĢ Ð°Ð¹Ð´Ð°
ĠÐ´Ð°Ð¼ ÑĭÐ¿
ĠÐ¼ÐµÑĢÐµÐº ÐµÐ»ÑĸÐº
Ð¶ÑĭÐ» Ð´ÑĭÒĽ
ĠÐļ Ò¯
ĠÐ¶Ò¯ÑĢ Ðµ
ĠÑĤÒ¯ÑĢ ÑĸÐ½
Ð»Ð°Ð½ Ñĥ
ĠÑĤÐ°Ñģ ÑĤÐ°Ñĥ
ĠÑĭÒ£ Òĵ
ĠÐ´Ð¾Ð¼ Ð±ÑĭÑĢ
Ð¼ Ð°ÒĽÑĤÑĭ
ĠÑĤÐµÑģ ÑĤÑĸÐ»ÐµÑĥ
ĠâĢ ¦
ĠÐ¼Ò±ÑĢ Ð°ÒĵÐ°ÑĤ
ÐµÐ¹ Ð¼ÐµÐ½
ĠÐ°Ð´Ð°Ð¼ Ð³ÐµÑĢÑĪÑĸÐ»ÑĸÐº
ĠÐ±Ð¾ÐºÑģ ÑĪÑĭ
ĠÐºÓ©Ð·ÒĽÐ°ÑĢ Ð°ÑģÑĭ
ĠÑĦÐ¸Ð»Ð¸Ð°Ð» ÑĭÐ½ÑĭÒ£
Ò¯Ñģ ÑĸÐ¿
ĠÐĲÐ» ÑĮ
ĠÒĽÐ°ÑĤÑĭÑģ ÑĥÑĪÑĭ
ĠÑģÑĥ Ð¼ÐµÐ½
ĠÐ¶Ò±Ð¼ÑĭÑģÑĤÐ°ÑĢ ÑĭÐ½ÑĭÒ£
Ð¶ ÑĭÐ½
ĠÐ¾ÑĢÑĭÐ½Ð´Ð° ÑĥÒĵÐ°
ÒĽ Ð°ÑĤÑĭÐ½
ĠÐ± Ð°ÑĤÑĭÐ»
ĠÑĪÑĭÒĵÐ°ÑĢ ÒĵÐ°Ð½
ĠÐ±Ó©Ð»ÑĸÐ½ ÑĸÐ¿
ÓĻÐ´Ñĸ ÑģÑĤÐµÐ¼ÐµÐ»ÑĸÐº
ÐĲÐ¹ ÑĤÐ°
Ñı ÑĤ
ÑĤÑĭ Ð¼ÑĭÐ·
ĠÒĵÑĭÐ»ÑĭÐ¼ Ð´Ð°ÑĢ
ĠÐ´ Ð°ÒĽÑĭÐ»
Ð¸ Ð°Ð½
ÑĭÑĢ Ð·
ĠÑģÑĤÐ°ÑĤÐ¸ÑģÑĤ Ð¸ÐºÐ°
201 2
ĠÒĽÐ¾ÑĢÒĵÐ°Ð» ÑĥÑĭÐ½
Ð³ Ñĥ
ĠÐĺ ÓĻ
ĠÐĳÐµÐ» Ð°ÑĢÑĥÑģÑĮ
ĠÐºÐµ Ð´ÐµÐ¹
ĠÐ½ÓĻÑĢ ÑģÐµÐ½
ĠÐºÓ©Ð± ÑĸÐ½Ðµ
ĠÐ¶Ð°Ò£Ð° Ð´Ð°Ð½
ĠÐ±Ð°ÑģÒĽÐ°ÑĢÐ¼ Ð°ÑģÑĭÐ¼ÐµÐ½
ĠÑĤÐ°ÑĢÑĤÑĥ ÒĵÐ°
ĠÐµÐ¼ ÑĤÐ¸ÑħÐ°Ð½
ĠÐ¶Ò¯Ð¹ ÐµÑģÑĸÐ½Ðµ
ÐºÑĸÐ¼ ÐµÐ½
Ð¾ Ð¸Ð´
Ð¾ÑĢ Ð²
ĠÐĳ Ð°Òĵ
ĠÑĤÐ°Ð±ÑĭÐ» ÒĵÐ°Ð½
ĠÐºÓ©ÑĢ Ð½
ĠÐºÐµÐ·Ð´ÐµÑģÑĥ ÑĸÐ½Ðµ
ĠÐ±Ò±ÑĢ ÑĭÑĪ
ĠÒĽ Ð°Ò£
ĠÐ¡Ð°Ð±Ð°ÒĽ ÑĤÑĭÒ£
ĠÑģÑĥ Ð±ÑĬÐµÐº
ĠÐ¶ÑĸÐ±ÐµÑĢ Ð³ÐµÐ½
Ñı Ð´Ñĭ
ĠÒĽÐ¾Ð» ÑĤÐ°Ò£
Ð¸Ðº Ð¸
ĠÐ» Ð°Ð³ÐµÑĢ
Ð´ Ð°ÑģÑĤÑĭÑĢÑĥ
ĠÒ¯Ð¹ ÑĸÐ½Ð´Ðµ
ĠÒ±Ð¹ÑĭÐ¼ Ð´Ð°ÑĢÑĭ
iÐ» ÐµÐ´i
ĠÐ´Ð°ÑĢ ÑĭÐ½Ð´Ñĭ
ĠÑĪÐ°Ð¹ ÒĽ
ĠÑĢÐµÑĦÐµÑĢ Ð°ÑĤ
ĠÐ¾ÒĽÑĥ Ð»ÑĭÒĽ
Ġ *
Ð°Ð· Ð¸ÑıÐ»ÑĭÒĽ
ĠÐ¼Ð°ÑĢ ÐºÐµÑĤÐ¸Ð½Ð³
ÑĤ Ð¾Ð»
Ġ ÑĸÐ½
ĠÐ¼Ò±ÑĢ Ð°Ð¶Ð°Ð¹
ÐµÑĢ Ð»ÐµÐ¿
Ð¿Ð»Ð°Ð½ ÑĤÐ°ÑĨÐ¸Ñı
Ðº Ó©
ĠÓĺÐ± ÑĸÐ»
ĠÐ´ Ð°Ð»Ð°
ĠÓĻÐ» ÑģÑĸÐ·
Ðķ ÐĽ
ĠÐ¶ÐµÑĤÐºÑĸÐ· Ð³ÐµÐ½
ĠÑģÑĤÐ°ÑĤÐ¸ÑģÑĤ Ð¸ÐºÐ°Ð»ÑĭÒĽ
ĠÑĢ Ð¸Ð·Ð°
ĠÓĻÐ´Ñĸ ÑģÑĤÐµÑĢÑĸ
ĠÒĽÐ°Ð½ ÑĪÐ°Ð»ÑĭÒĽÑĤÑĭ
ĠÐ¾Ð±Ð»ÑĭÑģ ÑĤÑĭÒ£
o t
ÑĤÐµÑĥ ÑĸÑĢ
ĠÑģÐµÐ· ÑĸÐ½
ĠÐ³ Ó©ÑĢ
ĠÓ©Ð¼ÑĸÑĢ Ð´ÑĸÒ£
ÑĤ ÐµÑģÐµ
Ð°ÑģÐ¿ Ð¸Ð¹
ĠÒ° ÑģÑĤÐ°Ð·
ĠÐ¼Ð°Ð¼Ð°Ð½ Ð´Ð°ÑĢÑĭ
ĠÐ¶Ð¾Ð» Ð´Ð°ÑĢÑĭÐ½
ĠÐ± Ð°Ð·Ð°ÑĢ
ÑĨ ÑĥÐ·
ĠÐĸ Ð°Ð¿Ð¾Ð½
ĠÐĲÐ·Ð°Ð¼ Ð°ÑĤÑĤÑĭÒĽ
ĠÑģÑĤÑĢÐ°ÑĤÐµÐ³ Ð¸ÑıÑģÑĭÐ½
ĠÐ±Ð¾Ð»Ð°ÑĤÑĭÐ½ ÑĭÐ½
ĠÑĤÐ°Ð¼ Ð°ÑĪ
ÒĽ ÑĭÐ½ÑĭÒ£
ĠÐ±Ò± Ð¹
Ð¸ÑĨ Ðµ
ĠÐ´ÐµÐ½ÑģÐ°Ñĥ Ð»ÑĭÒĵÑĭ
ĠÒ±Ð¼ ÑĤÑĭÐ»
ÐĸÐµÑĤ ÑĸÐ¼
Ð¶ ÐµÐ¹
ĠÐĺÐ¼ Ð¿Ð»Ð°Ð½ÑĤÐ°ÑĨÐ¸Ñı
ĠÐ±Ð°ÑĢ ÑĭÑģÑĭ
ĠÐ¢ Ò¯
ĠÒĽÐ°Ð¼ ÑģÑĭÐ·Ð´Ð°Ð½Ð´ÑĭÑĢÑĥ
ĠÑĤÐ¾Ð» ÒĽÑĭÐ½
ĠÑĦÑĥÐ½ÐºÑĨÐ¸Ñı Ð»Ð°ÑĢÐ´Ñĭ
ÑĭÐ» ÑĥÐ´Ð°
ĠÐ´Ð¾ ÑģÑĤÐ°ÑĢ
ĠÐ¶Ð°Ð» ÒĵÐ°
Ñĥ ÑģÑĤÐ°ÑĢ
ÐµÑĤÑĸÐ½ ÑĸÐ½
ĠÑģÑĤÐ°Ð½Ð´Ð°ÑĢ ÑĤÑĭÐ½
iÐ½ ÑĪi
Ð¡ ÐµÑĢ
Ðŀ Ð½ÑĭÒ£
ĠÐºÓ© ÑĪÐµ
ÒĽ Ð¾Ð½
ĠÑģÒ¯Ð¹ ÐµÐº
ĠÑĤÓ©ÑĢÐ°Òĵ Ð°ÑģÑĭÐ½ÑĭÒ£
ĠÐĳ Ò°Ò°
ĠÐ±Ð°Ñģ Ð¿Ð°Ð½
Ðĳ ÑĸÐ»
ÐµÑĪ ÐµÐ¼
ĠÐ¾ÒĽÑĭÑĤÑĥ Ð´ÑĭÒ£
ĠÐĳ Ò±ÑĢÑĭÐ½
ÑĨ Ð¸Ð½
iÐ½ i
t ar
ĠÑĪÐ°ÑĢ Ð°Ð»Ð°ÑĢÐ´Ñĭ
Ð°Ð½ Ð¸Ðµ
ÑĢ ÐµÐ½
ĠÒĽÐ¾Ð» ÑĭÐ¼ÐµÐ½
ĠÑĤÐ°Ð» Ð°Ð½
Ðĳ Ò¯
ĠÐºÐ¾Ð½ÐºÑĥÑĢÑģ ÒĽÐ°
ÑĪÑĭÐ½ Ñĭ
ĠÐ¡ Ð¾ÑĤ
ĠÐ°ÑĤÒĽÐ°ÑĢ Ð°Ð´Ñĭ
ÑĪ Ð°Ð½ÑĭÒ£
ĠÑĪÐ°ÑĢÑĥÐ° ÑĪÑĭÐ»ÑĭÒĵÑĭÐ½
Ð° Ñİ
Ðĸ Ò¯ÑĢ
ÐĨ ÑĪ
ĠÑĤÐ°Ð½ ÑĭÐ¼
ĠÓĻÐ½ ÑĪÑĸ
ĠÐ°ÑĤÐ°Ð» Ð¼ÑĭÑĪ
Ð¾Ð¿ ÐµÑĢ
Ð¸ ÐµÑĤÑĤÑĸ
ĠÒĽÐ¾Ð½ ÑĭÑģ
ĠÑĤÓ© ÑģÐµÐº
ÑĤÑĭÐ» ÑĭÒĵÑĭ
Ġ9 5
ÑĩÐµÐ½ ÐºÐ¾
4 8
ĠÐ¼ Ð¾Ð´
ĠÐºÐµÐ´ÐµÑĢ Ð³ÑĸÐ»ÐµÑĢ
Ð°ÑĢ ÑĭÐ½
Ð¡ Ð°Ð±Ð°ÒĽ
ĠÐ¸ Ð·
ĠÐµÑĪ ÒĽÐ°ÑĪÐ°Ð½
ÑĤÐ°Ð» ÑĮ
ÑĭÑĢ ÑĭÐ¿
Ð´ÐµÑĢ Ð¼ÐµÐ½
ĠÐ¶Ð¾ÒĵÐ°ÑĢÑĭ Ð´Ð°
ĠÐ¶Ò¯ÑĢÐ³ÑĸÐ· ÑĸÐ»Ð´Ñĸ
Ð´Ð°Ð½ ÒĵÐ°Ð½
ĠÐĲÐ» Ð»
ĠÒĽÒ±ÑĤÑĤÑĭÒĽ ÑĤÐ°Ñĥ
Ð¸ÑĨ ÐµÐ¹
ĠÒļ Ð°Ð»Ð°
ĠÒĽÐ¸ÑĭÐ½ Ð´ÑĭÒĽÑĤÐ°ÑĢ
ĠÒĽÐ°ÑģÐ¸ ÐµÑĤ
ÑĢÐ¾ Ð·
Ð¡ Ò°
Ð¾Ð² Ð°Ð½ÑĭÒ£
ĠÐ°Ð±ÑĭÑĢ Ð¾Ð¹
ĠÓ¨ Ð½
ĠÐ¶Ð°ÑĢ ÑĭÐ¼
Ð½ Ð°Ð¹Ñĭ
ÐºÐµÑĢÐ»ÐµÑĢ Ñĸ
ĠÐ°Òĵ Ð°Ð¹ÑĭÐ½
Ġ200 0
ĠÒĽ Ñĭ
Ð°Ð² Ðº
ĠÑĥÐ°ÒĽÑĭÑĤ ÑĭÐ½Ð´Ð°
ĠÒĽÐ°ÑĢÐ°ÑĪÐ° Ð´Ð°
ĠÐ¢Ó©ÑĢ Ð°Òĵ
ĠÐ°Ð» Ð¿
Ð°Ñģ Ð°Ð½
ĠÐ¡ ÓĻÑĥÑĸÑĢ
ĠÐ¿ÑĸÑģ ÑĸÑĢ
ĠÒļÑĭÐ· Ð¼ÐµÑĤ
ĠÐĲÐ± ÑĭÐ»Ð°Ð¹
ĠÐ±Ð°Òĵ Ð°Ð»
ĠÐ¿Ð°Ð» Ð°ÑĤ
ÒĵÒ±ÑĢ Ð»ÑĭÐ¼
ĠÐ¶Ð°Ñģ Ð°Ð¼
ĠÒĽÑĭÐ¼ÑĭÐ· Ñĭ
ĠÐ±Ò±Ð¹ÑĢ ÑĭÒĵÑĭÐ¼ÐµÐ½
ĠÐ¿Ð°ÑĢ ÑĭÐ·
Ð°Ð» ÑĤÑĥ
ĠÑĥÓĻÐºÑĸÐ» Ñĸ
ĠÐ±Ð°ÒĵÐ´Ð°ÑĢÐ»Ð°Ð¼ Ð°Ð»ÑĭÒĽ
ĠÑĪÑĸÐ»Ð´Ðµ Ð´ÐµÐ³Ñĸ
u b
ĠÐĵÐµÑĢÐ¼Ð°Ð½ Ð¸Ñı
st az
ĠÐ¶Ò¯Ð¹ ÐµÑģÑĸÐ½Ð´ÐµÐ³Ñĸ
ĠÐºÓ©ÑĢÑĸÐ½ ÑĸÑģÑĸ
ĠÐ¶Ð°Ð»Òĵ Ð°ÑģÑĤÑĭÑĢÑĥ
ÒļÐ°Ð·Ð°ÒĽÑģÑĤÐ°Ð½ Ð´Ð°
ĠÐ¶ ÓĻ
Ġ Ñľ
ĠÐ¾Ò£ ÑĤ
Ð°Ñı ÒĵÑĭ
ĠÐ¼Ò± Ð·
ÑĭÒ£ Ð°
ĠÑĭÒĽÑĤÐ¸ Ð¼Ð°Ð»
ĠÒĽÒ±ÑĢÐ°Ð¼ ÑĭÐ½ÑĭÒ£
ÐµÐ² ÑĢ
Ò» Ð°ÑĢ
1 00
ĠÑģ ÑĤÑĢ
ĠÐ¶Ð°Ð½ ÑĢ
ĠÐ±ÑĸÐ» ÐµÐ¼
ĠÑģÐ°Ð½Ð°ÑĤ ÑĤÐ°ÒĵÑĭ
ĠÒ±Ð¹ÑĭÐ¼Ð´Ð°ÑģÑĤÑĭÑĢ ÑĭÐ»Ð´Ñĭ
ÐĲÐ» ÑĤÐ°Ð¹
ĠÓĻÑģÐµÑĢ ÑĸÐ½
Ð´ÐµÐ±Ð¸ ÐµÑĤ
Ðł ÐµÑģÐµÐ¹
ĠÐ¸Ð½ ÑĤÐµÐ»
ĠÒĽÐ°ÑģÐ¸ ÐµÑĤÑĤÐµÑĢ
ĠÐº ÑĸÑģÑĸÐ½ÑĸÒ£
ÐµÑĪ ÐµÐ»ÑĸÐº
ĠÐ± Ð°ÒĵÐ°Ð½
ĠÐĲÒĽ Ð¿Ð°Ð½
ĠÑĤÐ°Ð± ÑĥÒĵÐ°
Ð³ÑĸÐ» ÑĸÐ³Ñĸ
Ð¤Ð°ÑĢ Ð°Ð±Ð¸
ĠÐľÐ°ÑĤ ÐµÐ¼Ð°ÑĤÐ¸ÐºÐ°
ĠÑĪ Ó©Ð»
Ġ199 3
ĠÐ°Ð½ÑĭÒĽ ÑĤÐ°Ð¹Ð´Ñĭ
ĠÓĺ Ð½
Â ²
ÑĭÐ» ÑĤÐ°Ð½
ĠÐ¾ÑĢ ÑĤÐ°Ð½Ñĭ
ĠÐºÐµÐ» Ð¼ÐµÐ¹Ð´Ñĸ
ĠÐºÓ©ÑĢÑĸÐ½ Ð´Ñĸ
ĠÓĻÐºÑĸÐ¼ Ð´ÑĸÐº
ĠÐ¶ Ð°ÑģÑĭ
ĠÐ¡ Ð°Ð¼
ĠÐºÐµÐ¹ iÐ½
ĠÒĽÒ±ÑĢÐ°Ð» Ð´Ð°ÑĢÑĭÐ½ÑĭÒ£
ĠÒĽÒ±ÑĢÐ°Ð» Ð´Ð°ÑĢÑĭÐ½
Ð» Ð¸Ñı
ĠÒļÐ°Ð¹ ÑĢÐ°ÑĤ
ĠÐ´ÐµÐ½ÑģÐ°Ñĥ Ð»ÑĭÒĵÑĭÐ½Ð°
ĠÐ¼ÐµÐ´ Ð°Ð»ÑĮ
ĠÐĹÐ°Ò£ ÑĭÐ½ÑĭÒ£
ĠÑĤÐ°Ð»Ð°Ð¿ ÑĤÐ°ÑĢÑĭÐ½
oo k
ĠÑįÐº ÑģÑĤÐµÑĢ
ĠÒ±Ð· Ð°ÒĽÑĤÑĭ
ĠÑģÓ©Ð· ÑģÑĸÐ·
ĠÐºÒ¯Ð½ Ð´ÐµÑĢÑĸÐ½ÑĸÒ£
Ð°Ð¹ÑĤ Ò±ÑĢ
Ð»Ð°Ð½ Ð´
ĠÒĽÐ°ÑĤÐ°ÑĢ ÑĭÐ½Ð´Ð°
ĠÒ±ÑģÑĭÐ½ ÑĭÐ»Ð°Ð´Ñĭ
i Ð¼ÐµÐ½
Ð² Ð°ÑĢ
ĠÒĽÑĭÐ·Ð¼ÐµÑĤÑĤÐµÑĢ ÑĸÐ½
Ð³ÐµÐ½ ÑĸÒ£
ĠÒĽÐ°ÑĢÐ°ÑģÑĤÑĭÑĢ ÑĭÐ»ÒĵÐ°Ð½
ĠÑĸÑĪ ÑĸÐ½
ÑĤ Ó©
ĠÐ°ÑĤÑĤÐµÑģÑĤ Ð°ÑĤÑĤÐ°Ñĥ
ĠÐ¶Ð°Ð½ÑĥÐ°ÑĢ Ð»Ð°ÑĢ
ĠÐ°Ð»Ð¼ Ð°Ð´Ñĭ
ÐĲÒĽ ÐºÓ©Ð»
ĠÐĲÐ» ÒĵÐ°ÑĪÒĽÑĭ
ĠÑį Ð½
ĠÐĸ ÐĨ
ĠÐ±ÐµÑĢ Ð¼ÐµÐ¹
ĠÑģÓ©Ð¹Ð» ÐµÐ³ÐµÐ½
Ð¶ Ð¸
ÑĭÐ»Ð¼ Ð°Ð¹Ð´Ñĭ
Ð¸Ðº ÑĤÐµÑĢ
ĠÐ¾Ð½ Ð´Ð°Ð¹
Ñ Ķ
Ñĸ Ð³ÑĸÐ½
ĠÐ¶ÑĸÐ±ÐµÑĢ ÑĸÐ¿
ĠÐ¸Ð¼ Ð¿ÐµÑĢ
ĠÑģÐ¸Ð¿Ð°ÑĤ ÑĤÐ°Ð»Ð°Ð´Ñĭ
Ð°Ñĥ Ð°Ð¿
Ð°Ð¹ Ð½
ã ģ
ĠÑĤÒ±ÑĢ Ñĥ
ĠÐ°Ð»Ñĥ Ð´ÑĭÒ£
ĠÐľ ÐµÐ¹
Ò±ÑĢ Ð°ÒĽ
p t
ÑģÐº Ð°Ñı
ĠÐºÓ©Ð»ÐµÐ¼ ÑĸÐ½ÑĸÒ£
ĠÐĸÐ°ÒĽ ÑģÑĭ
h t
ÑĤ ÑĤÑĭÒ£
Ñģ Ð¼
ĠW WW
ĠÐºÐµÒ£ ÑĸÑģÑĤÑĸÐº
i r
ĠÐ°ÑĤ Ð°Ð¹Ð´Ñĭ
ĠÐ°ÑĥÐ´Ð°ÑĢ ÑĭÐ¿
ĠÐ± Ð°Ð½
ĠÐ±Ð°ÒĵÑĭÑĤ ÑĭÐ½Ð´Ð°
ĠÑģÑĸÒ£ÑĸÑĢ Ð³ÐµÐ½
Ð³ÐµÑĢ Ð´ÑĸÒ£
ĠÐ°ÒĽÐ¿Ð°ÑĢÐ°ÑĤ ÑĤÑĭÒ£
Ð°Ð¹ÑĤÒ±ÑĢ ÑģÑĭÐ½
ÑĤÐ¾ÒĽÑģÐ°Ð½ ÑĭÐ½Ð´Ð°
ĠÐ»Ð°Ð¹ ÑĭÒĽÑĤÑĭ
ĠÐ¶Ò±Ð¼ÑĭÑģ ÑĤÐ°ÑĢÐ´ÑĭÒ£
ĠÐ¶Ð°ÑĢÐ¸ÑıÐ»Ð°Ð½ Ð´Ñĭ
Ð°Òĵ ÑĭÐ½ÑĭÒ£
ĠÒļÐ°ÑĢ Ð°ÑĤÐ°Ñĥ
ĠÑĪÐ¾ ÒĵÑĭÑĢ
ĠÐ·Ð¸ÑıÐ½ Ð´Ñĭ
Ð¿ ÐµÐ»Ñĸ
ĠÐ¶ÐµÑĢ Ð´Ñĸ
ĠÐ¼Ð¾Ð¹ Ð½
ĠÒĽÐ¾ÑĢ Òĵ
ĠÒ¯Ð»Ð³ÑĸÐ»ÐµÑĢÑĸ ÐľÐ°ÑĤÐµÐ¼Ð°ÑĤÐ¸ÐºÐ°
ĠÐ°ÑĤ Ð°ÒĽÑĤÑĭ
ĠÒĽÒ±ÑĢ Ð°ÑģÑĤÑĭÑĢ
ĠÑĪ Ó©
ĠÐµ Ð³ÑĸÐ½
Ðļ Ò¯Ð½
ĠÐ¿ÑĢÐ¾ÐºÑĥÑĢ Ð¾ÑĢ
ĠÑįÐºÑģÐ¿ ÐµÐ´Ð¸ÑĨÐ¸Ñı
ÐĳÐ°Ð» Ð°ÒĵÐ°
Ġ3 8
ĠÐ¼Ð°Ð¹ Ð´Ð°Ð½
ĠÓ©ÑĤÐºÑĸÐ· Ð³ÐµÐ½
p aÒĽ
ĠÑģ Ð°Ò£
ĠÐº Ð°Ð´
ÓĻÐ» ÐµÐ¼
Ð´ÐµÐ¼ Ðµ
ĠÐ°Ð²ÑĤÐ¾ÑĢ Ñĭ
ĠÐļÓ© ÑĪ
ĠÐ¶ Ò±Ð»
Ð±ÑĢ Ð°Ð·
Ġt aÒĽ
Ð¼ Ð°ÑģÑĭÐ½
Ð¿ Ð°Ð¹ÑĤÑĭÐ½
ĠtaÒĽ paÒĽ
ĠÐĳÐĲ Ò°Ðŀ
ĠÐ±Ð°ÑĢ Ð´Ñĭ
Ð°Ð¼Ð°Ð· Ð°Ð½
ĠÐľÒ±Ñħ ÑĤÐ°ÑĢ
iÐ» ÐµÑĤiÐ½
ĠÒĽÐ°ÑĢÐ°ÑĪÐ° Ð´Ð°ÒĵÑĭ
ĠÐĸÐ°ÑĢ Ð½Ð°Ð¼Ð°
Ð¸ ÒĵÐ°ÑĪ
ĠÐĸ Ð¾Ð±
ĠÑįÐºÑģÑĤÐµÑĢ Ð½Ð°ÑĤ
ĠÐ°ÑĤ ÑĭÐ½Ð°
ĠÒĽÐ°ÑĢ ÑĭÐ½
Ð´ ÑĥÐ»
ĠÐ» Ð°ÒĽ
ĠÐ±Ð¸ Ð¾Ð»Ð¾Ð³Ð¸Ñı
ĠÐ¾ÑģÑĭ Ð´Ð°Ð½
ĠÐºÑĸÑĢ Ð´Ñĸ
Ðĸ Ð°Ð·
ÑĤÐ°ÑĢ Ð´Ð°Ð½
ĠÐ±Ð°Ñģ Ñĥ
ĠÓ©Ð»ÐµÒ£ Ð´ÐµÑĢÑĸ
ÒĵÑĭÐ» Ñĭ
ĠÓĻÑĢ ÒĽÐ°Ð¹Ñģ
h y
ĠÒĽÑĭÐ·Ð¼ÐµÑĤ ÑĤÐµÑĢÑĸ
ÑĪÑĭÐ» ÑĭÒĵÑĭÐ½Ð°
Ġ200 4
ĠÐĲÐ¼ÐµÑĢ Ð¸ÐºÐ°
ĠÑģÓĻÑĤ ÑĤÐµ
Ð¿ ÐµÐ³ÐµÐ½
ĠÓĺÐ´Ñĸ Ð»ÐµÑĤ
Ð°ÒĵÐ° ÑĤÑĭ
ĠÐĺÐ½ ÑĦÐ¾ÑĢÐ¼
ĠÑĥÐ°ÒĽÑĭÑĤ ÒĽÐ°
ĠÑģÐµÑĢÑĸÐºÑĤÐµÑģ ÑĤÑĸÐº
ĠÐ¿ÓĻÐ½ ÑĸÐ½ÑĸÒ£
Ð¼Ð°ÑĤ Ð¸ÐºÐ°Ð»ÑĭÒĽ
ĠÓĻÐº ÐµÑģÑĸ
ÑĤ Ð°Ð»ÑĭÒĽ
ĠÑģ ÑĨÐµÐ½Ð°ÑĢÐ¸Ð¹
ĠÐ¶ÐµÒ£ ÑĸÐ¿
ĠÐ¿ Ð°Ñģ
ĠÑĪÐ°Ð¼ Ð°ÑģÑĭÐ½Ð´Ð°
ÒļÒ±ÑĢ Ð¼ÐµÑĤÑĤÑĸ
ÑĤÐ°Ð» Ð°ÑĤÑĭÐ½
ĠÓĻÑĢ Ð´Ð°Ð¹ÑĭÐ¼
ĠÐ°Ð» ÑĭÐ½ÑĭÐ¿
o w
ĠÐ±Ð°Ð» Ð°Ð»Ð°ÑĢÑĭ
ĠÑģÐ¾Ð¼ Ð°ÑģÑĭ
ĠÐĶÐµÐ¼ ÐµÐº
ĠÐ´ Ð¾Ð·
ÐµÑĪÐµ Ð³Ñĸ
Ð¼ Ð°ÑģÐ°
az aq
ĠÒĽÐ¾Ð½ Ð°ÒĽÑĤÐ°ÑĢ
ĠÐ¶Ð°ÑĤÒĽÐ°Ð½ Ð´Ð°
Ð³ÐµÐ» Ð´Ñĸ
Ð¸Ð½ Ð°Ð¼
ĠÐ°ÑĪ ÒĽÐ°Ð½
ĠÐ¼Ò¯Ð» Ð´Ðµ
ĠÑĪ Ð¾ÑĤ
ĠÐĸÐĨ Ó¨
ĠÐ¾ÑĢÐ½ ÑĭÐ½Ð°Ð½
ĠÐ¼Ð°ÑĥÑģÑĭÐ¼ ÑĭÐ½Ð´Ð°ÒĵÑĭ
ÑĭÐ¼ Ð´Ð°ÒĵÑĭ
ĠÐ°ÑĤ Ð°ÑĥÐ»Ñĭ
ĠÐºÓĻÑģÑĸÐ¿ÐºÐµÑĢÐ»ÑĸÐº ÑĤÑĸ
ĠÐ¶Ð¾Ð± Ð°Ð»Ð°Ñĥ
ĠÐ¼ÐµÐºÐµÐ½ Ð´ÐµÑĢÐ´Ðµ
Ð°ÑĢ ÒĵÐ°
ĠÐ¼Ó©Ð»ÑĪÐµÑĢ Ð»ÐµÐ¼
ĠÑĢÐ°Ñģ ÑĤÐ°Ð¹ÑĤÑĭÐ½
ĠÐ¶Ð¾Ð» Ð´Ð°Ð¼Ð°
ĠÒĽÒ±ÒĽÑĭÒĽÑĤÐ°ÑĢ ÑĭÐ½Ð°Ð½
ĠÒĽÑĭÐ·ÑĭÒĵ Ñĥ
ĠÐºÓ©ÑĢ ÐµÐ´Ñĸ
ĠÒ¯Ð·Ð´ÑĸÐº ÑģÑĸÐ·
ĠÐ¿ ÑĥÐ½
ÑĭÒĵÑĭ ÑĢÐ°ÒĽ
ĠÒĽÐ°ÑĢ ÑģÐ°Ò£
ÑģÐµÑĢ Ð²
ĠÒĽÐ¾Ð¹ ÑĭÐ»Ð´Ñĭ
ĠÐµÐºÐµÑĥ Ñĸ
ĠÐ±ÑĸÐ» Ð´ÑĸÑĢÑĥ
CO M
Ðĳ Ð°ÒĵÐ´Ð°ÑĢÐ»Ð°Ð¼Ð°
ĠÑĤÐ°ÑĢÐ¸Ñħ ÑĭÐ½Ð´Ð°
5 5
ĠÐ±Ð¾Ð¹ ÑĭÐ½Ð´Ð°ÒĵÑĭ
ĠÐ¶ÓĻÑĢÐ´ÐµÐ¼Ð´ÐµÑģ ÐµÑĤÑĸÐ½
ÑĤÑĸÐ½ Ð´Ñĸ
ĠÐ° ÑĪÐ°
ĠÐ¶Ð°Ð· Ð´Ñĭ
ĠÐ¶Ò¯ÑĢÐ³ÑĸÐ· ÑĸÐ¿
Ð· Ð³Ñĸ
ĠÐ¶ÑĸÐ±ÐµÑĢ ÐµÐ´Ñĸ
ĠÐ°ÑĪÑĭÐ» Ñĥ
Ð¶ÐµÐº ÐµÑĪÐµÐ»ÑĸÐº
ÑĦ Ð¸ÑĨ
Ñģ Ð°Ð»ÑĭÑģ
Ð°ÑĤ Ð°Ð»
ĠÐ¢ ÑĥÑĢ
ĠÑħÐ°Ð½ Ð½ÑĭÒ£
ĠÑĢ ÐµÐ¹ÑĤ
ĠÐ°ÑĥÑĭÐ» ÑĭÐ½ÑĭÒ£
ĠÑĢÐµÐ· ÐµÑĢÐ²
Ðŀ ÐĽ
ĠÐºÓ©ÑĢ ÑĥÐ³Ðµ
Ð¡ Ð¢ÐĲÐĿ
Ð¼ Ð±
ÒļÐ°ÑĢ Ð°ÒĵÐ°Ð½Ð´Ñĭ
ĠÐ°ÒĽÑĭÐ½ Ð½ÑĭÒ£
ÑģÑĤ i
ĠÐ¶Ð¾ÑģÐ¿Ð°ÑĢ Ð»Ð°Ð½ÒĵÐ°Ð½
ĠÒĽÒ±ÑĢ ÑĥÒĵÐ°
Â», -
ÐĿÒ±ÑĢ Ð»Ñĭ
ĠÐºÐ¾Ð¼Ð¼ÑĥÐ½Ð¸Ðº Ð°ÑĨÐ¸ÑıÐ»Ð°ÑĢ
Ð½ Ñĸ
ĠÐ³ Ð¸Ð´
ĠÐ´ÓĻÑĢ ÑĸÐ»ÑĸÐº
ĠÓ©Ð·Ð³Ðµ ÑĪÐµ
Óĺ Ñĥ
ÒļÐ°Ð·Ð°ÒĽÑģÑĤÐ°Ð½ Ð´ÑĭÒĽ
ĠÒ±Ð¹ÑĭÐ¼Ð´Ð°ÑģÑĤÑĭÑĢ ÑĭÐ»ÒĵÐ°Ð½
ĠÑĢÒ±ÒĽÑģÐ°ÑĤ ÑģÑĭÐ·
ÑĤ ÑĸÐ½Ð´Ðµ
Ġ l
ÑĤ Ð°ÑĤÑĭÐ½
ĠÐ¥ Ð¥
ĠÐ°Ð¹ Ð¼Ð°ÒĵÑĭÐ½Ð´Ð°
ĠÐĵ Ð¾Ð»
ĠÐļ Ð¾Ð»
ĠÑĤÒ¯ÑģÑĸÐ½ÑĸÐº ÑĤÐµÐ¼Ðµ
ĠÓ©ÐºÑĸÐ» Ð´ÐµÑĢÑĸÐ¼ÐµÐ½
ÐĳÑĸÑĢ ÑĸÐ½ÑĪÑĸ
ĠÓĺÐ± Ð´Ñĸ
ĠÐĳ Ð°ÑıÐ½
ĠÑĤÐ°Ð¿ÑģÑĭÑĢÐ¼ Ð°Ð»Ð°ÑĢ
Ð² ÐµÐ½
ĠÐ°Ð¹ Ð´Ð°
ĠÐ¥ Ð°Ð»
ĠÑĪ Ð¸
ĠÐ¶Ò± Ð¿
ĠÑģÐ°ÑĢÐ°Ð¿ ÑĤÐ°Ð¼
ĠÒļÑĭÑĢÒĵÑĭÐ· ÑģÑĤÐ°Ð½
ĠÐµ ÑĤÑĸ
ÑĤ ÑĤÑĸÒ£
ĠÐ¸ Ð³ÑĸÐ»ÑĸÐ³Ñĸ
ĠÒĽÒ±ÑĢ Ð±
Ñģ ÐµÒ£
Ð´Ðµ ÑĪÐµ
ĠÐĿÒ±ÑĢ Ð»Ð°Ð½
ĠÐºÓ©Ð¿ ÑĸÑĢ
ĠÐ±Ð¾Ð» ÑĥÑĭÐ½
ÐĶ ÐĨ
ĠÑĤÐ°Ð¿ÑģÑĭÑĢ Ð¼Ð°
ĠÐºÓĻÑģÑĸÐ¿Ð¾ÑĢÑĭÐ½ Ð½ÑĭÒ£
Ðľ Ð£
Ð°Ð¹Ð» Ð°Ð½ÑĭÑģ
ĠÐºÐ¾ÑĢ Ð¾Ð½
ĠÐºÐµÐ¼ ÑĸÐ½Ð´Ðµ
ĠÐ¾Ð¿ÐµÑĢ Ð°ÑĤÐ¾ÑĢ
ĠÐ¼ÐµÑĢÐ·ÑĸÐ¼ Ð³Ðµ
ĠÒĽÐ°Ð¹ÑĭÑĢ ÑĭÐ¿
ĠÓĻÐºÐµ Ð¿
ĠÒĽÐ°ÒĽ Ð¿
ĠÐ°Ð½ÑĭÒĽÑĤÐ°Ð¼ Ð°Ð»Ð°ÑĢ
ĠÑĪÐ¸ÐºÑĸÐ· Ð°ÑĤ
ĠÑĤÑĸÐ» ÐµÐ¹
ĠÑģÐ°Ñı ÑħÐ°ÑĤ
ĠÐºÓ© Ð½
ĠÑģÑĭÐ¹ Ð°ÒĽÑĭ
ÑĤÐ°Ð¼ ÑĭÐ½
ĠÐ·Ð°Ð¼Ð°Ð½ Ð´Ð°
ĠÑģ ÐµÑĢÑĸ
ÑĤÐ°Ñģ ÑĭÐ½Ð°
ĠÐ±ÐµÐºÑĸ ÑĤÐºÐµÐ½
ĠÑģÐ°ÑıÑģÐ°ÑĤ ÑĤÑĭ
ĠÐľÒ± Ð½Ñĭ
ĠÐ¾Ð±ÑĬÐµÐºÑĤÑĸ Ð»ÐµÑĢÑĸÐ½Ðµ
ĠÑĤÐµÐ¾ÑĢ Ð¸ÑıÐ»ÑĭÒĽ
ĠÑĪÑĭÒĵÐ°ÑĢ ÑĭÐ»ÒĵÐ°Ð½
ĠÑĤÑĸÐ· ÑĸÐ¼
Ġ Ð°ÑģÑĭ
ÒĽÐ¸Ð¼ÑĭÐ» Ð´Ð°
ĠÓĺÑĢ Ð±ÑĸÑĢ
ĠÑĪÐ°ÒĽ ÒĽÐ°Ð½
ĠÐ¡ Ó©Ð·
ĠÐķ ÑĪ
ĠÐºÐ¸Ð½ Ð¾
ÑģÐ°ÒĽ Ð°Ð»
ĠÐĨ I
ĠÒ±ÑģÑĤ Ð°ÒĵÐ°Ð½
ÒĽÐ°Ð½ Ð´Ñĭ
ĠÐ¾ÑģÑĭ ÒĵÐ°Ð½
Ġ199 2
ÒĵÑĭÐ» ÑĪÑĭÐ½
ĠÐ¿ÑĢ Ð°ÐºÑĤÐ¸ÐºÐ°Ð»ÑĭÒĽ
ĠÒĽÐ¾Ò£ ÑĭÑĢ
ĠÐ¼ Ð°Ð½
Ð¡Ð¾Ð» ÑĤÒ¯ÑģÑĤÑĸÐº
ÐĲ Ð²
ĠÐ°ÑĤ ÑģÐ°Ð»ÑĭÑģ
ĠÐľ Ð°Ð¼ÑĭÑĢ
ĠÑĤÐµÒ£Ð³Ðµ Ð´ÐµÐ½
ĠÓ©Ð½ÑĸÐ¼ Ð´ÐµÑĢÑĸ
ĠÐ¼Ò± Ð½ÑĭÒ£
ĠÑģÒ±ÑĢ Ð°Ñĥ
ĠÑģÑĤÑĥÐ´ÐµÐ½ÑĤ ÑĤÐµÑĢÑĸ
ĠÓĻÒ£Ð³ÑĸÐ¼ ÐµÐ»ÐµÑĢ
Ð°ÑĤ Ð¾Ð²
ĠÒĽÐ°Ð±ÑĭÐ» Ð´Ð°Ð¹Ð´Ñĭ
ĠÐľ Ð¾Ð½
ĠÐ±Ð°ÒĽÑĭÐ»Ð°Ñĥ Ð´Ñĭ
ĠÑĪÑĭÑĢ ÑĭÑĪÑĤÑĭ
ĠÐ½Ð¾Ð¼ Ð¸Ð½
ĠÑĤÒ¯ÑĢ Ð»ÐµÑĢ
ĠÐ°Ð¹Ð½Ð°Ð» Ð°Ð´Ñĭ
Ð¢ Ó©ÑĢ
ĠÒĵ Ò±Ð¼ÑĭÑĢ
ĠÓ©ÑĤÐºÑĸÐ· ÑĸÐ»ÐµÐ´Ñĸ
ĠÓ©Ñģ Ñĥ
ÒļÐ°Ð· ÐĲÒĽÐ¿Ð°ÑĢÐ°ÑĤ
ĠÐĸ ÑĭÐ»ÑĭÐ¾Ð¹
ĠÒĽÑĭÐ·Ð¼ÐµÑĤ ÑĸÐ½Ð´Ðµ
ĠÒĽÑĭÑģ ÑĭÐ¼
Ðľ Ðļ
ĠÐ°Ð»Ñĥ Ð°Ð½
ĠÐ¼ÑĥÐ·ÑĭÐº Ð°Ð»ÑĭÒĽ
Ġ www
ĠÐ¿ÑĢÐ¾ÑĨ ÐµÑģÑĸ
ĠÑģ Ð°ÑĤÑĭÐ»
ÑĭÐ»Ð¼ Ð°ÒĵÐ°Ð½
Ñĥ Ð±Ð°
Ò¯ ÐºÑĤ
o s
ĠÓĻÑĥ ÐµÐ»Ñĸ
Ðĺ Ðļ
ĠÐŁ Ð°ÑĤ
ĠÒĽÐ¾ÑĢÑĤÑĭÐ½Ð´Ñĭ ÑģÑĭÐ¼ÐµÐ½
ĠÐ¶Ò±Ð¼ÑĭÑģÑĤÐ°ÑĢ ÑĭÐ½Ð°
Ð°ÑģÑĤ ÑĢÐ¾
Ð¶ Ð°Ð±
Ġ3 2
ĠÑĤÓ© Ð±
ĠÑģÒ¯Ð¹ ÑĸÐºÑĤÑĸ
ĠÑĸÑģÑĤ ÐµÐ¹
ĠÐ¶ÐµÑĤ Ðµ
ĠÐ½ÐµÐ¼ ÐµÑĢ
ĠÓ©ÑĤ ÐºiÐ·
ĠÐ°ÑĥÐ´Ð°ÑĢ Ð¼Ð°
ĠÐ¼ÑĥÐ·Ñĭ ÐºÐ°
Ð´Ð°ÑĢ Ð¸Ñı
ĠÑģ ÑĥÑĭ
ĠÑĪ ÐµÐ³ÑĸÐ½Ð´Ðµ
ĠÑĤÓĻÑģÑĸÐ» ÑĸÐ¼ÐµÐ½
Ð°ÑĨÐ¸Ñı Ð»Ð°Ñĥ
Ñģ ÐµÐ»
ĠÐºÓ©Ð¼ÐµÐº ÑĤÐµÑģÐµ
ĠÐ¶ÑĭÐ»Ð¶ÑĭÐ¼ Ð°Ð¹ÑĤÑĭÐ½
20 50
ĠÐ°ÑĢÐ°Ð» Ð°Ð¿
Ġ3 9
ĠÐ·Ð°Ò£Ð½Ð°Ð¼ Ð°ÑģÑĭÐ½Ð´Ð°
ĠÐ±Ð°Ð¹ÒĽÐ°Ñĥ Ñĭ
Ð»ÑĭÒĵÑĭ Ð¼ÐµÐ½
ĠÐº ÐµÐ½ÑĤÑĸ
ĠÓ© ÑĤÑĸÐ»Ñĸ
ÑĥÑĢ Ð¾Ð¿
ĠÐºÓ©ÑĢ Ðµ
ĠÐ¢ ÐµÐ»
ĠÐ±ÐµÑĢ ÐµÐ¼ÑĸÐ·
Ð´i ÑĢÑĥ
Ðº ÐµÐ»Ñĸ
ĠÐ±Ð°Ð» Ð°Ð¼
ĠÐ¢ Ðĸ
ĠÑĪÐ°ÑĢÑĤ ÑĤÐ°ÑĢÑĭ
ĠÐºÐµÑĪ ÐµÐ½Ñĸ
ĠÐ±Ò±Ð¹ÑĢ ÑĭÒĵÑĭ
ĠÐ½ ÐµÑĪÐµ
ĠÐĲÒĽ ÑĭÑĢ
Ð°Ð± ÐµÐº
ĠÐ¶ÐµÑĢ Ð´ÑĸÒ£
ĠÑĤÑĸÐ» Ð´Ðµ
ĠÓĺÐ± Ñĥ
6 5
ĠÒ±Ð· ÑĭÐ½
ĠÑĤÒ¯ÑĢ ÑĸÐ½Ð´ÐµÐ³Ñĸ
ĠÐ´ Ñĥ
ĠÒļ Ð°Òĵ
Ð¢ Ð£
ĠÐ°ÑĥÑĭÐ» ÑĪÐ°ÑĢÑĥÐ°ÑĪÑĭÐ»ÑĭÒĽ
ÑĨ Ð¸Ð¹
ĠÑģÒ±ÑĢÐ°ÒĽÑĤÐ°ÑĢ ÒĵÐ°
n g
ĠÐ¶Ð°Ð· Ð°
ĠÐ±ÐµÑĢ ÐµÐ¼ÑĸÐ½
Ð± Ð°Ð±Ñĭ
ÑģÐ°Ð½ Ð¸ÑĤÐ°ÑĢÐ¸ÑıÐ»ÑĭÒĽ
ĠÓĻÐ»ÐµÐ¼ Ð³Ðµ
ĠÐ¶Ð°ÑĤ ÑģÐ°
!! !
ÐµÑĤ ÑĤÐµ
ĠÐ±Ò±Ð· ÑĭÐ»ÑĥÑĭ
ÐĲÐĹ ÐĲÒļ
Ñģ Ð¸Ð²ÑĤÑĸ
Ġ15 0
ĠÑģÐ°Ð± Ð°
ĠÐ¾ÒĽÐ¸ ÑĤÑĭÐ½
ĠÐ±ÑĸÑĢ ÑĸÐ½Ðµ
ĠÒĽÐ°Ð¹ Ð´Ð°Ð½
ĠÐ±ÑĸÐ· Ð´Ðµ
Ð¿ ÑĸÐ·
Ð¸Ñħ Ð°Ð½
ĠÐŀÑĢ ÑĭÐ½
Ð¶ Ò¯ÑĢ
ĠÒ¯Ð¼ÑĸÑĤ ÐºÐµÑĢ
ĠÐ¶Ð°Ð»Òĵ Ð°Ñģ
ÐĳÐ¸ ÑĭÐ»
Ð°Ð»Ð°ÑĢ ÑĭÐ¼ÐµÐ½
ĠÐ¢ Ð°Ð¼
ĠÒĽÒ±ÑĢÐ°Ð» Ð´Ð°ÑĢ
ĠÐ´Ð¾Ð¿ Ð¿Ð»ÐµÑĢÐ¾Ð³ÑĢÐ°ÑĦÐ¸Ñı
Ð°Ñĥ ÑĭÐ»
ĠÐł Ð°Ñħ
ĠÒĽÐ°ÑĥÑĸÐ¿ÑģÑĸÐ· Ð´ÑĸÐ³Ñĸ
ĠÓ©Ð½ÐµÑĢÐº ÓĻÑģÑĸ
ĠÐ°Ñģ ÒĽÐ°Ð·Ð°Ð½
Ð°Ð»ÑĮ Ð´ÑĭÒĽ
ĠÐĳÐ°Ð» ÒĽÐ°ÑĪ
ĠÐ¶Ð¾Ð» ÑĭÐ¼ÐµÐ½
ĠÓ¨ Ð½ÐµÑĢ
Ð´ Ð¸Ðº
ĠÒĽÑĭÐ· Ð¼ÐµÑĤÑĤÑĸÐº
ĠÐ½Ðµ ÒĵÒ±ÑĢÐ»ÑĭÐ¼
ĠÐ´Ð°Ð¼ Ñĭ
Ðŀ ÑĢÑĤ
ĠÐ¢ Ð°Ñģ
ĠÐ¿Ð°Ð¹ÑĭÐ· ÑĭÐ½
ĠÐ¶ÑĥÑĢÐ½Ð°Ð» Ð¸ÑģÑĤÐµÑĢ
ĠÐµÑģÑĤ Ðµ
ÐļÐ¾Ð½ ÐºÑĥÑĢÑģ
ĠÒļ Ð°Ð¶
Ð¸Ð°Ð» Ð´Ñĭ
Ð´Ð¸ Ð¾
ĠÐ¡ Ð°ÒĵÑĭÐ½
4 7
ĠÐ°ÑĥÐ´Ð°ÑĢ Ñĥ
ĠÐ¶ÑĭÑĢ Ð°Ñĥ
ĠÐ¢ Ð°ÒĽÑĭÑĢ
ĠÐ¼ÑĸÐ½Ð´ ÐµÑĤÑĤÐµÑĢÐ´Ñĸ
ĠÒ®ÑĪ ÑĸÐ½ÑĪÑĸ
ĠÐ¿ÑĢÐ¾ÑĦÐ¸Ð» Ð°ÐºÑĤ
ĠÑĤÑĸÐ» ÑĸÐ½Ðµ
ĠÐµÑĢ ÑĤÐµÐ³Ñĸ
ĠÑĤÒ¯ÑģÑĸÑĢ ÑĸÐ¿
ĠÓ©Ð¼ÑĸÑĢ ÑĸÐ½
Óĺ Ð»ÐµÐ¼
Ġ in
Ð»ÐµÐº ÑĤ
ĠÐ¶Ð°Ñģ ÑĭÐ»
ÑģÐµÑĤ ÑĸÐ»ÐµÑĤÑĸÐ½
Ð±ÑĸÑĢ ÑĸÐ¼ÐµÐ½
ĠÒļ Ð°Ð±
Ġ55 3
ÑĨ ÐµÐ¿
Ð¸Ðº Ð¸Ð¿ÐµÐ´
ĠÑģÐ°Ñĥ Ð°ÑĤÑĤÑĭ
ÑĢÐµÐº ÐµÑĤ
ĠÒĽ ÑĭÐ¿
ĠÐ¶Ð°ÒĽ ÑĭÐ½Ð´Ð°
ĠÐ½ÐµÐ³ÑĸÐ· Ð´Ðµ
ĠÒĽ Ð°ÒĽÑĤÑĭ
ĠÐ¸ Ð±Ð½
ĠÐľÐ°ÑĢ ÐºÐµÑĤÐ¸Ð½Ð³
ĠÐ¶ÓĻÑĢÐ´ÐµÐ¼ Ð°ÒĽÑĭ
ĠÐŀÑĢ ÑĭÑģ
ĠÐ·Ð°Ð¼Ð°Ð½ ÒĵÑĭ
ĠÐºÐµÐ·ÐµÐº ÐºÐµ
Ðķ ÐºÑĸÐ½ÑĪÑĸ
ĠÑĤÑĸÐ» ÑĸÐ½ÐµÐ½
ĠÓ©Ð¼ÑĸÑĢ Ð´Ðµ
Ð± ÐµÐ³ÐµÐ½
ĠÐ³Ð¸Ð¿ ÐµÑĢ
Ð±Ð°Ð» Ð°Ð»Ð°ÑĢÐ´Ñĭ
ÐĶ ÐĲÐł
ĠÑĪ ÑĭÐ±
ĠÐºÒ¯Ð¹ ÐµÑĥ
ĠÐ±ÐµÑĤ ÑĸÐ½Ð´Ðµ
Ð± ÑĸÐ·
Òĵ Ð°ÑĤ
Ò± Ð½
Ð°ÒĽ Ð°Ð»
ĠÐ¼Ò¯ Ð»ÑĸÐºÑĤÑĸ
A N
Ð°Ð³ ÐµÑĤ
ĠÐ°Ñĥ ÑĭÑĤ
a b
ĠÒĵÐ°ÑģÑĭÑĢ Ð»Ð°ÑĢ
ĠÐ´ Ð°Ð½Ð°
Ð¸Ñģ ÑģÐµÑĢ
ĠÒĽÐ°ÑĤÑĭÐ½Ð°Ñģ ÑĤÐ°ÑĢ
Ð¶ Ð°Òĵ
ĠÒļ Ð°Ò£ÑĤÐ°ÑĢ
ĠÒĽÒ±Ð¹ Ð´Ñĭ
ĠÐ¼Ó©Ð»ÑĪÐµÑĢ ÑĸÐ½
az ak
ÑĤ Ò¯ÑĢ
Ð± Ð°Ð¹Ð´Ñĭ
ĠÑĥÑĩÐ°ÑģÐº ÐµÐ»ÐµÑĢÑĸÐ½ÑĸÒ£
ĠÐ´ ÐµÑĢÑĤ
Ð´ÐµÑĢ ÑĸÐ½ÐµÐ½
ĠÒĴ Ð°Ð±
ĠÐ¶Ð°Òĵ ÑĭÐ½Ð°
ÐķÐ¢ Ð¢
ĠÐºÓ©Ð»ÐµÐ¼ Ð´Ñĸ
ĠÐľ Ð°ÑĥÑģÑĭÐ¼
II I
ĠÐł Ðµ
Ð· ÐµÑĢ
ĠÐ¼Ò±ÒĽ Ð¸ÑıÑĤ
ĠÐºÓ© Ò£
ĠÐ½ ÓĻÐ·ÑĸÐº
ĠÐ¶ÐµÐº Ð¿Ðµ
ĠÐ±ÐµÑĢ ÑĸÐº
Ġ200 3
) )
Ð°Ð» ÐµÑĢ
er s
ĠÐ¡Ò¯ ÑĤ
ÐĲ Ð½Ð°
ĠÐ¼Ð¾Ð½Ð¸ÑĤÐ¾ÑĢ Ð¸Ð½Ð³Ñĸ
ĠÒĽÐ°Ð±ÑĭÐ»Ð´Ð°Ñĥ ÒĵÐ°
ĠÑĢÐµÐ°Ðº ÑĨÐ¸Ñı
Ð¸ÑģÑĤ Ð¸ÐºÐ°Ð»ÑĭÒĽ
201 1
Ð´Ð°Ñģ ÑĤÐ°ÑĢ
ĠÐ±Ð°ÑģÑĤÑĭ ÑģÑĭ
ĠÐĳ Ð°ÑĤÑĭÑĢ
ĠÒĽÐ¾Ð»Ð´Ð°Ð½ Ð°
ĠÐ±Ò±Ð¹ ÑĭÑĢ
ĠÐ¿ Ð»Ð°Ð½
ĠÑħÐ°Ð´ Ð¸Ñģ
ĠÐºÒ¯ÑĪ ÑĸÐ½
ĠÒĽÐ°ÑĢÑģÐ°Ò£ ÑĭÐ½Ð´Ð°
ĠÐ£ ÐºÑĢÐ°Ð¸
ÐµÑĢ ÑĤÐµÒ£
ĠÐµ Ð¶ÐµÐ»Ð³Ñĸ
ĠÐ´Ð°Ð¼ Ð¸Ð´Ñĭ
Ð¾ÐºÑĢÐ°ÑĤ Ð¸ÑıÐ»ÑĭÒĽ
al l
ĠÒ¯Ð¹ Ð»ÐµÐ½
ÑĭÐ»Ð´Ñĭ ÑĢÑĥ
ÒĴ ÐĲ
ĠÐ¡ Ð¸ÑĢ
ĠÐ¿ÑĸÐºÑĸÑĢ Ñĸ
ĠÑģ Ð°ÒĵÑĭÐ½
ĠÐ½ Ò¯ÐºÑĤ
Ð´ÐµÑģ Ñĥ
ĠÐ°ÑĥÐ´Ð°Ð½ ÑĭÐ½Ð´Ð°ÒĵÑĭ
Ð¢ ÐµÑĢ
ĠÐ¶Ò¯ÑĢ Ñĥ
6 9
ĠÐ´ÐµÐ» ÑĸÐ½Ð³ÐµÐ½
Ð¾Ð³ÑĢÐ°ÑĦ Ð¸ÑıÑģÑĭ
Ð· Ð°Ð¹
ĠÑģÑĥÐ±ÑĬÐµÐºÑĤÑĸ Ð»ÐµÑĢÑĸÐ½ÑĸÒ£
ÑĸÐ» ÑĸÐ³Ñĸ
ĠÑģÐ°Ð½ ÑĭÐ½ÑĭÒ£
ÑĭÐ» ÑģÐ°
ÑĸÑģÑĤ ÐµÐ½
ÐµÐ³ ÑĸÐ¼
Ð½ Ð¾Ð¹
ÑĤÐ° Ðº
ĠÐ±Ò±Ð· ÑĭÐ»ÒĵÐ°Ð½
ĠÐ¼Ð°Ð·Ð¼Ò±Ð½ ÑĭÐ½Ð°
ÑĪ Ð°ÒĵÐ°Ð¹
Ð´ÐµÑĤ ÑĤÐµ
Ðķ ÐºÑĸ
ĠÐ¶Ð°ÒĽ ÒĽÐ°
ĠÑĪÐµÑĪ ÑĥÐ³Ðµ
ĠÐ¢ Ò¯Ñģ
ĠÐ°Ð¹ Ð´Ð°Ð½
ĠÐ¾ÑĢÑĭÐ½ Ð´Ð°ÑĢ
5 8
ĠÐ¾ÒĽÐ¸Òĵ Ð°Ð»Ð°ÑĢ
q u
ĠÐĺ Ð¼Ð°Ð½
ĠÑĢ Ð°Ð¹
ĠÐ¾ÑĢÑĭÐ½Ð´Ð°Ð» ÑĥÑĭÐ½
ĠÐ¶Ð°ÑĢ Ð½Ð°Ð¼
ĠÐ±Ò±Ð· Ñĥ
ĠÐºÐ¾Ð¼ Ð°Ð½Ð´Ð°
ĠÐ¼ÐµÐºÐµÐ¼ ÐµÐ»ÐµÑĢÑĸÐ½ÑĸÒ£
âĢ¦ ]
Q azaq
ĠÐľÓĻÐ¶ÑĸÐ» ÑĸÑģÑĸÐ½ÑĸÒ£
ĠÐ¶ Ð°ÒĽÑĤÑĭ
ÐµÑģÐµ Ð¿
Ð°ÑģÑģ Ð°Ð³ÐµÑĤ
ĠÐ¾Ð¿ÐµÑĢ Ð°ÑĨÐ¸ÑıÐ»Ð°ÑĢ
ĠÒĽÐ°ÑĢ Ð°Ð¹Ð´Ñĭ
ĠÐ°ÑĢÑħ Ðµ
ĠÐĿ ÐµÐ³ÑĸÐ·Ð³Ñĸ
ĠÑĤÓĻÑĥÐµÐº ÐµÐ»
ÑĪ Ñĥ
ĠÐļÐµÐ» ÐµÑģÑĸ
ĠÓ©Ð· ÑĸÐ½ÐµÐ½
Ð¸Ñı Ð½
ĠÐ¡ ÑĤÐ°ÑĤÐ¸ÑģÑĤ
Ð°Ð¼ Ð¼
Ð¾Ð½ ÑģÑĤÑĢÑĥÐºÑĨÐ¸Ñı
e c
Ð´i ÑĢ
ĠÒĵÐ°ÑģÑĭÑĢ Ð´Ð°
ĠÑĸÐ» ÐµÑģ
Ð»ÐµÐºÑĤÑĢÐ¾Ð½ Ð´Ñĭ
ĠÐ¶Ð°ÒĽ ÑģÑĭÐ»ÑĭÒĽ
ĠÑĤÐ°Ñģ ÑĤÐ°Ð´Ñĭ
ĠÑģÐ°Ð» ÑĭÐ¼
ĠÑģÑĥ Ð´
ĠÐ°ÑĤÒĽÐ°ÑĢ Ð´Ñĭ
ĠÐºÐµÐ»ÑĤÑĸÑĢ ÑĸÐ»Ð³ÐµÐ½
ĠÐ±Ð°ÒĽÑĭÑĤ ÑĤÑĭ
ĠÐłÐµÑģÐ¿ÑĥÐ±Ð»Ð¸Ðº Ð°
Ð¾Ð» Ð»Ð°
ĠÑĪ ÑĤÐ°ÑĤ
ĠÐ¶Ð°ÒĵÑĭÐ¼ ÑģÑĭÐ·
ĠÐ¢ Ð°Ð¹
ĠÐ² Ð¸ÑĨÐµ
ĠÐ°Ð½ ÑĤ
ĠÓĻÑĢ ÒĽÐ°ÑĪÐ°Ð½
Ġ &
ĠÐ±ÐµÑĢ ÑĸÐ»ÑĸÐ¿
Ñģ ÐµÒ£ÑĸÐ·
ĠÐ°ÑĢ ÑĤÑĥ
ĠÑĤÒ¯Ð½ Ð´Ðµ
ĠÐ¶Ò¯Ð¹ ÐºÐµ
ĠÒĽÐ°Ð±ÑĭÐ»Ð´Ð°Ð½ Ð´Ñĭ
Ðĵ ÐĨ
ĠÒ±Ð»ÑĤ ÑĤÑĭÒ£
ĠÐ¾ ÑĤÑĭÐ·
ĠÐ¶Ð¾Ð» Ð´Ð°
ÐĲ ÑģÑĤÐ°Ð½
ĠÐ°Ð» Ð°Ð¹Ð´Ð°
ÑĭÒĽ ÒĽÐ°Ð½
ĠÐµÑĤ ÐºÑĸÐ·
ĠÐļÐ¾Ð½ÑģÑĤÐ¸ÑĤÑĥ ÑĨÐ¸ÑıÐ»ÑĭÒĽ
ĠÐµÑĤÑĥ Ñĸ
ĠÐ± Ð°ÑĤ
ÑĭÒĽ ÑĤÐ°Ð½
ĠÐµÑĪÐºÑĸÐ¼ Ð³Ðµ
Ð´Ñĸ Ð³ÑĸÐ½Ð´Ðµ
ÐĳÐ°Ñģ ÑĤÐ°ÑĥÑĭÑĪ
ĠÐĿÓĻÑĤÐ¸Ð¶ ÐµÑģÑĸÐ½Ð´Ðµ
ÑĪÑĭ ÒĵÐ°
ĠÓĺ Ð·ÑĸÑĢ
ĠÐ¾ÒĽÑĥ ÑĪÑĭÐ½ÑĭÒ£
ĠÑĸÑĪ ÑĸÐ¿
ĠÑĸÑĪ ÐºÐµÐ½
âĢ Ļ
ĠÐ¼ÑĭÒ£ ÒĵÐ°
ÐŀÒ£ ÑĤÒ¯ÑģÑĤÑĸÐº
ĠN UR
ĠÒļ Ð¾Ð¹
ĠÐ°ÑĥÑĢÑĥ Ð»Ð°ÑĢÐ´ÑĭÒ£
ĠÑĤÐ°Ð½ ÑĭÐ¼Ð´ÑĭÒĽ
ĠÑģÐµÐ± ÐµÐ±
ĠÐ°Ð»Ñĥ Ð´Ð°
ĠÐ¶ÑĸÐ±ÐµÑĢ ÑĸÐ»Ð³ÐµÐ½
Ð»Ð°ÑĢ ÑĭÐ¼ÐµÐ½
ĠÐĶ Ð°Ð¼
ÑĤ ÑģÐµ
ĠÐ¾ÑĤÑĭÑĢ ÒĵÑĭÐ·
ĠÐ´ Ð°ÑģÑĤÐ°ÑĢ
ĠÐ±ÐµÐ· Ð´ÐµÑĢÑĸÐ½ÑĸÒ£
ÐĲÑĥÑĭÐ» Ð´ÑĭÒĽ
ĠÐĲÑģ ÒĽÐ°ÑĢ
ĠÐ±Ð°ÑģÑĭÐ¼ Ð´ÑĭÒĽ
ĠÑĤÓĻÑĢÐ±Ð¸ ÐµÑģÑĸ
ÒĽ ÑĭÑģÑĭ
Ð¾ÑĢÐ¼ Ð¾Ð½
e x
Ġ[ âĢ¦]
ĠÐµÑģÐµÐ¿ ÑĤÑĸÐº
ĠÑĢÓ©Ð» Ñĸ
ĠÓĻÐ·ÑĸÑĢ Ð»ÐµÐ½
Ð¨ ÑĭÐ¼ÐºÐµÐ½ÑĤ
ĠÑĪÑĭÒĵÐ°ÑĢ ÑĥÒĵÐ°
ÑĤ ÑĤÑĸÐº
ĠÐ°ÑĤ Ð¾Ð¼
ĠÐ°ÒĽÐ¿Ð°ÑĢ Ð°ÑĤÑĤÐ°ÑĢÐ´Ñĭ
ÒĽ Ð°Ð±
ÑĤ Ð°ÑģÑĭ
ĠÒĽÐ°Ð» Ð°ÑģÑĭÐ½Ð°
ĠÒĽÐ°Ò£ÑĤÐ°ÑĢ Ð´Ð°ÒĵÑĭ
ĠÐºÓ©Ð· Ð´ÐµÐ»
ĠÐ¸Ð½ Ð´ÐµÐº
ĠÓĻ ÐºÐµÑĤ
ĠÐ°ÑĥÐ´Ð°Ð½ Ð½ÑĭÒ£
ÐĹ Òļ
ÑĤÑĥ Ð°Ð»Ð´Ñĭ
ĠÐ¢ ÐĴ
ĠÓĻÐ»ÐµÑĥ ÐµÑĤÑĤÑĸ
ĠÑĤÐ¾ÑĢ ÑģÑĭÒĽÑĤÑĭ
ĠÐ±ÑĢ Ð¸ÑĦÐ¸Ð½Ð³
ĠÓ©ÐºÑĸÐ» Ð´ÐµÑĢÑĸÐ½ÑĸÒ£
ĠÐ¼Ð¾Ð´ÐµÐ» ÑĮ
ĠÐĶ Ðµ
ĠÐ»Ð°Ñĥ ÑĢÐµ
ĠÐ°ÑĢ Ð°ÒĽ
Ð´Ð°Ð» Ð°Ð´Ñĭ
ĠÐºÐµÑģ ÑĤÐµ
ĠÒĽÐ°Ð» ÑĤÐ°Ð½
ÐµÑĪ ÐµÐ»ÐµÐ½
ĠÐ¶Ð°Ð» ÑĸÑĭÐ·
ĠÐĲÒĽÑĤÓĻ ÑĤÐµÐ¼
ĠÐĲÒĽÑĤÓĻ ÑĤÐµÐ½ÑĸÒ£
ĠÐĲÒĽÑĤÐ°Ò£ÐºÐµÑĢ Ð´Ñĸ
ĠÐ´ Ð¸Ð°Ð»
Ð¶ ÐµÐºÐµ
Ð´Ð° ÒĵÐ°
ĠÐľÒ± ÒĵÐ°Ð»
ĠÐ´ÐµÑĢ ÐµÑĥ
Ðĸ Ð°Ð¼Ð±ÑĭÐ»
ĠÐºÐµÐ¼ ÑĪÑĸÐ»ÑĸÐº
ĠÒĽÐ°Ð±ÑĸÐ» ÐµÑĤÑĸ
ĠÐ¶ÐµÒ£ ÑĸÑģÐºÐµ
ĠÐĳ Ó©Ð»
ĠÒĽÐ¾Ñģ ÑĭÐ»Ð´Ñĭ
ĠÐ¼Ò± Ò£
ÑĸÐ½Ð´ ÐµÑĤÑĤÑĸ
ÐĿ ÐķÐ¡
Ð» ÐµÐ¹
ĠÑĤÐ°Ð» Ð°Ð±
ĠÒ±ÑģÑĭÐ½ ÑĭÐ»Ð°ÑĤÑĭÐ½
ĠÐ¶Ð°Ñģ ÑĤÐ°Ð½
ĠÒĽÐ¾Ð½ Ð´ÑĭÑĢ
ĠÐ¼ÓĻÐ´ÐµÐ½Ð¸ ÐµÑĤÑĸÐ½
Ġt he
ĠÐ±Ð°ÒĵÑĭÑĤ ÑĤÐ°ÑĢÑĭ
ĠÑģÓĻÐ» ÐµÐ¼Ñĸ
Ðº ÐµÐ·
ÑĤÒ¯ ÑģÑĤiÐº
ĠÐ¶ Ð°Ð½Ñĭ
ÑĤÐµ Ð³ÑĢ
ĠÐ¤ Ð¸Ð»
ĠÐ°ÐºÑĤÑĸ Ð»ÐµÑĢÑĸÐ½Ðµ
ĠÐºÐ°ÑĦÐµÐ´ÑĢ Ð°ÑģÑĭÐ½ÑĭÒ£
Ð° Ñĩ
ĠÐµÑĤÑĥ Ð´Ðµ
ĠÑĤÒ±ÑĢÒĵÑĭ Ð´Ð°
ĠÑĸÑĪ ÐµÐºÑĤÑĸÒ£
ĠÐ¢Ò±ÑĢ ÒĵÑĭÐ½
ÑĸÑĢ ÑĸÐ¿
ĠÑģÐ°Ð½ Ð°
ĠÐ¼ÐµÐºÐµÐ¼ ÐµÑģÑĸÐ½Ð´ÐµÐ³Ñĸ
ĠÐļ Ò¯ÑĢ
Ðĳ Ð°ÑĢ
Ð¼ ÐµÑģÐµ
ÑģÐ°Ð½ Ð´ÑĢ
ĠÐ¶Ò¯Ðº ÑĤÑĸ
ÑĤÐ°Ð½ Ð´ÑĭÑĢÑĭÐ»ÒĵÐ°Ð½
5 9
ĠÐ¢ Ð¾ÒĽ
ĠÓĺ Ð¼ÑĸÑĢ
Ð¸Ð½ Ð¸
ĠÐĲ Ð¿
ĠÐ¢ Ò¯Ð½
Ð« ÐĹ
Ñį Ðº
ĠÓĺÑĥ ÐµÐ·Ð¾Ð²
ĠÐ¶ÐµÑĢ Ð»ÐµÑĢ
ĠÐºÑĥÑĢ ÑģÑĤÐ°ÑĢ
ĠÒĽÒ± ÑĪ
ĠÒĽÒ±ÒĽ ÑĭÒĵÑĭÐ½Ð°
5 6
ĠÒĽÒ±Ð½Ð´Ñĭ Ð»ÑĭÒĽÑĤÐ°ÑĢ
ÒĽ ÑĭÑĤ
ÐĳÐ°Ð» Ð°Ð»Ð°ÑĢ
ĠÑĸÑģ ÑĤÑĸ
Ðº Ð°ÑĢ
Ġ4 8
ĠÐºÒ¯Ð½ ÓĻ
ÑĬ ÐµÐ·
ĠÑĤÐ¾Ð»ÑĭÒĽ ÑĤÑĭÑĢÑĭÐ¿
Ð¹ ÑĭÐ½
ĠÒ¯ÑĢÐ´Ñĸ Ñģ
ĠÒļ Ð¾Ð½
Ð»ÑĮ ÑĤÑĢ
ĠÐ¡ ÑĤÑĢÐ°ÑĤÐµÐ³
Ð· Ð¸Ð½
ÐµÑĥ Ð´Ðµ
ĠÐ°ÑĢ Ð°Ð¼
ĠÐ¸Ð½Ð¶ÐµÐ½ ÐµÑĢÐ»ÑĸÐº
Ð±Ð°Ð¹ Ð¶Ð°Ð½
Æ ı
ĠÒĽÑĥ Ð°Ð½
or t
ĠÑģÐ°ÑĤ Ð°ÑĤÑĭÐ½
ĠÐ¼Ð¾Ð½ Ð¾Ð¿Ð¾Ð»
Ñģ Ð¾ÑĢ
ĠÒĽ Ð°ÒĵÑĭ
ĠÑģ Ð°Ð·
g ov
Ð» ÐµÑģÐµ
ÐµÑģÑĤ ÑĢ
ĠÑħÐ°Ð» ÒĽÑĭÐ½
Ð´Ð° ÒĽÑĤÑĭ
ĠÑĢÐµÐº Ð¾Ð½ÑģÑĤÑĢÑĥÐºÑĨÐ¸Ñı
Ðŀ ÒĽÑĥ
ĠÐľ Ð¸
Ð´ÐµÑģ ÑĸÐ½Ðµ
ÑģÑĤ ÐµÐ½
ÑĢÐµÑģ ÑĥÑĢ
ĠÑĦ Ð°Ð¹Ð»
Ò± Ñı
ĠÐĲÐ» ÑĤÐ°Ð¹
ĠÐºÓ©Ð· ÑĸÐ½
Ñħ Ð¾Ð·
ĠÐ±Ò¯Ð³ÑĸÐ½ Ð³Ðµ
Ñİ Ð´Ð¶
Ðĸ Ð°ÒĽ
ĠÑĤÓĻÑĢÐ±Ð¸ ÐµÑĪ
ĠÐ°ÑĤÒĽÐ°ÑĢ Ð°ÑĤÑĭÐ½
ĠÐºÓ©Ð¿ ÑĪÑĸÐ»ÑĸÐ³Ñĸ
ĠÑĪ ÐµÐ»
ĠÐ¾Ð±Ð»ÑĭÑģ ÑĭÐ½Ð´Ð°ÒĵÑĭ
ĠÐºÒ¯Ð· ÐµÑĤ
ĠÑĢ ÐµÐ½
ĠÐ¿Ð°Ð¹Ð´Ð°Ð»Ð°Ð½ ÒĵÐ°Ð½
ÑĸÐ½ Ð´ÑĸÐº
ĠÑģÓ©Ð· Ð´ÐµÑĢÐ´Ñĸ
ĠÐĿ Ðµ
ĠÐ°ÑĤ Ð°Ð¼
ĠÐļÐ¾ÑĢ Ð¾Ð»ÑĮ
ĠÑĤÒ± Ð½
ĠÐºÐ¾Ð¼Ð¿ Ð¾Ð½ÐµÐ½ÑĤ
Ġ w
ĠÑĤ ÐµÑĤ
ĠÐºÓ©ÑĪ ÑĸÐ¿
ĠÐ¼ Ð°Òĵ
Ð³Ñĸ ÑģÑĸ
Ð»Ð°ÑĢ ÑĭÐ½Ð´Ð°ÒĵÑĭ
ĠÐµÑĪ ÑĤÐµÒ£Ðµ
ĠÐ¾Ð¹ Ð»Ð°Ð½
ÑĤÐµÐ» ÑĸÐ¿
Ð¾ Ð´Ð°ÒĽ
ÑĤÑĭÑĢ ÒĵÐ°Ð½
ĠÐºÒ¯Ð¼ ÓĻÐ½
Ð² Ð¾Ð»
ĠÐºÒ¯ ÑĤÑĸÐ¼
Ð¸Ð± ÑĢ
ÑĸÐ» Ðµ
ĠÐºÐ°Ð´ Ð°ÑģÑĤÑĢ
ĠÐ¼ÐµÐ½ ÐµÐ½
Òļ ÐļÐŀ
ĠÑĢÐµÑģ ÐµÐ¹
ÑĥÐ´ Ð½ÑĭÐ¹
ĠÐ´ÐµÐ» ÐµÐ³
ĠÐ¶ Ð°Ð´
Ð¾ Ðµ
Ðº Ò¯Ð»
Ð±Ð°Ð¿ ÒĽÐ°
Ð± Ò±ÑĢ
Ð´Ð°ÑĢ Ð°
ĠÑĤÐ°ÑĢ Ð°ÒĵÐ°Ð½
ĠÐ» Ð°Ð¹ÑĭÒĽ
ĠÐ¾ÑĤÑĭÑĢ ÑĭÑģÑĭÐ½Ð°
ĠÑģÐ°Ñı ÑģÐ°ÑĤÑĭÐ½
ĠÑģÑĸÒ£ Ð³ÐµÐ½
ĠÐºÐµÑĢÐµÐº ÑĤÑĸÐ³ÑĸÐ½
ĠÐ¼ÐµÐ½ ÑĪÑĸ
Ñģ Ð¾ÒĽ
ĠÐ¼ÐµÐ½ÑĪÑĸÐº ÐºÐµ
Ġ199 8
ÐºÑĢ ÐµÐ´Ð¸ÑĤ
Ð¸ÑĦ Ð¸Ðº
Ð¸Ð³ Ð¸ÐµÐ½
Ð´ÑĸÒ£ ÑĸÐ·
Ðŀ Ðĳ
ĠÐºÑĸÑĢ Ð³ÐµÐ½
ĠÐ±Ð°ÑĢ Ð»ÑĭÒĵÑĭÐ½
ÑĤÒ± ÑĤÐ°Ñģ
ĠÒĽÐ°Ð»ÑĭÐ¿ÑĤÐ°ÑģÑĤÑĭÑĢ ÑĥÒĵÐ°
ĠÑĢ ÐµÐ¿
Ð¾ ÒĵÐ°Ð½
ĠÐ¶Ð°ÒĽ ÑģÑĭÐ»
Ð¨ Ð°Ð»
Ġ64 7
e k
ĠÐ±Ð°Ñģ ÑĤÐ°Ð½
ĠÐµÑģÐµÐ¿ ÑĤÐµÐ»ÐµÐ´Ñĸ
ÑĤÐ°ÑĢ Ð¼Ð°ÒĽ
ĠÐľ Ò±ÑĢÐ°ÑĤ
ĠÒĽÐ°Ð±ÑĭÐ»Ð´Ð°Ñĥ Ð´Ñĭ
ĠÐĶÒ¯Ð½Ð¸ ÐµÐ¶Ò¯Ð·ÑĸÐ»ÑĸÐº
ĠÐĳÐ°ÑĥÑĭÑĢ Ð¶Ð°Ð½
ĠÐµÑģ ÑĸÐ¼Ñĸ
Ġ64 2
Ð³ ÐµÐ¼ÐµÐ½
ÑĤÐ¿ ÐµÑģÐµ
Ð² Ð¸Ð´ÐµÐ¾
Ð¶ Ó©Ð½
A ward
ĠÐ¶Ð°Ð· ÒĵÑĭ
ĠÑĢ Ð°Ð·
ĠÐ´Ð¾Ðº ÑĤÐ¾ÑĢ
ĠÐ¡ ÑĥÑĢ
ĠÑģÐ°Ð» Ð°Ñĥ
Ð±Ð¾Ð» Ð°ÑĤ
Ġ- >
Ð¼Ð°ÒĽ ÑĤÑĭÒĽ
ĠÑħ Ð°Ð½Ð´Ñĭ
ĠÐ°ÑĥÑĢÑĥ Ð»Ð°ÑĢÑĭ
ÑĸÒ£ Ðµ
ĠÐ· ÓĻÑĢ
Ð¶ Ð°Ò£
ĠÒĽÐ°ÑĢ Ð°Ò£ÑĭÐ·
ĠÐ±Ð°Ñģ Ð°
Ò¯Ð» ÐµÐ¹Ð¼ÐµÐ½
ĠX X
ĠÒ¯Ð· ÑĸÐ½Ð´Ñĸ
ĠÐ°Ð¼ ÐµÑĢ
ĠÐ´ÐµÐ¼ ÐµÑĥ
ĠÑĪÐ¾ ÑĪ
ÒĽÒ±Ð» Ð¾Ð²
Ð¸Ð´ ÐµÐ¼
Ð¾ÑĢ Ð°Ð¼
ĠÐ±Ð¾Ð»Ð¼ Ð°Ñģ
ĠÐĹÐ°Ò£ Ñĭ
ĠÒ± ÑģÐ°ÒĽ
ĠÐķ Ð¼
ĠÐ½Ð°ÑĥÑĢÑĭÐ· Ð´Ð°ÒĵÑĭ
ĠÐºÓ©Ð· Ð´ÐµÐ½
ĠÓĻÑģ ÐµÐ¼
ĠÐ°ÑĪ ÑĤÑĭ
ĠÒĽÐ¾Ð·ÒĵÐ°Ð» ÑĭÑģ
Ñħ Ð¸ÑĤ
ĠÐ¶ÐµÑĢ ÑĸÐ½
Ò® Ð·Ð´ÑĸÐº
ÑĤÐ¸ Ð¼
ĠÐ¼ Ð¾Ð±Ð¸Ð»ÑĮ
ĠÐµÐ» Ð´ÐµÑĢÑĸ
ĠÑģÐ°Ð½ Ð¸ÑĤÐ°ÑĢÐ»ÑĭÒĽ
ĠÐ¶Ð°Ñģ Ð°Ð½Ð´Ñĭ
ĠÑģÐ°ÒĽ ÑĤÐ°Ð»Ð°Ð´Ñĭ
ĠÐ°ÐºÐ°Ð´ÐµÐ¼ Ð¸ÑıÐ»ÑĭÒĽ
ĠÐ±Ó©Ð»ÑĸÐ¼ÑĪ ÐµÑģÑĸÐ½ÑĸÒ£
ĠÐŀ Ð»Ð°ÑĢÐ´Ñĭ
ĠÑģÓ©Ð· Ð´ÑĸÒ£
ĠÑĤÐµÑĢÑĢÐ¾ÑĢ Ð¸Ð·Ð¼
ĠÒĽÐ°Ð¹ ÑĤÑĭÐ¿
ĠÒ° ÐĳÐ¢
Ñī Ñĭ
ÐĿÐķÐ¡ ÐļÐŀ
ĠÑĪÐ°ÑĢÑĥÐ° ÑĪÑĭÐ»ÑĭÒĵÑĭÐ½ÑĭÒ£
ĠÐ°Ð·Ð°Ð¼ Ð°ÑĤÑĤÑĭ
ĠÒĽÒ±ÑĢ ÒĵÐ°ÒĽ
ĠÐ¶Ð¸ÑĭÐ½ ÑĤÑĭÒĽ
Ðĸ ÐĹÒļ
Ð±Ð°Ð¹ Ò±Ð»Ñĭ
ĠÐ²Ð°Ð»Ñİ ÑĤÐ°
ĠÐº ÑĭÐ·
Ð¸Ñı Ð´Ð°Ð½
ĠÐ¸ ÑĸÑģÑĸ
ĠÑĤÓĻÑĥ Ð»ÑĸÐº
ĠÐ¶Ð°Ð½ ÑĭÐ½Ð°Ð½
ĠÐ±ÑĸÐ»Ð´ÑĸÑĢ Ð³ÐµÐ½
ĠÒĽÐ¾ÒĵÐ°Ð¼ Ð´Ð°ÑģÑĤÑĭÒĽ
ÐĳÐ¾Ð»Ð°ÑĪÐ°ÒĽ ÒĽÐ°
ÐµÐ» ÐµÐ´Ñĸ
ĠÐ¶Ð°Ñģ ÑĭÐ½Ð°
Ð¾ ÑĤÐ°
ĠÑħÐ°ÑĤ ÑĤÐ°Ð¼Ð°
ĠÒĽÐ°Ð» Ð°ÑĤÑĭÐ½
ĠÑģÐ°Ð» ÒĽÑĭÐ½
Ð¼ÐµÑĤ ÑĢ
ÑĨ Ð¸ÐºÐ»
ĠÒĽÐ°Ð¹ÑĭÑĢ ÑĭÐ¼Ð´ÑĭÐ»ÑĭÒĽ
ĠÒĽÐ°Ð½Ð°ÒĵÐ°ÑĤ ÑĤÐ°Ð½
ĠÒĽÐ°ÒĵÐ¸Ð´ Ð°Ð»Ð°ÑĢÑĭ
ĠÒĽÐ°Ð¼ÑĤÐ¸ ÑĤÑĭÐ½
ĠÐ±Ð¾Ð»Ð°ÑĪÐ°ÒĽ ÑĤÐ°
ĠÑĤ ÓĻÐ¼
ĠÐ´ÓĻÑĢÐµÐ¶ ÐµÑģÑĸÐ½
ĠÐ±ÑĸÐ»ÑĸÐ¼ Ð½ÑĸÒ£
ĠÐ°ÒĽ Ñĭ
ĠÐļÐ¡Ðł Ðŀ
ÐµÑĢ Ð°Ð»
ĠÐ°ÑĢ Ð·Ð°Ð½
ĠÐ¶ÑĭÐ» Ð´ÑĭÒĵÑĭ
ĠÐľ Ð°Òĵ
ÐµÐº ÑĥÐ»
ÐĲ Ñĥ
ĠÐµÐ³ ÐµÐ¼ÐµÐ½
ĠÒĽÒ±ÑĢÑĭÐ»ÑĭÑģ ÑĭÐ½
ĠÐ¡Ð°ÑĢÑĭ Ð°ÒĵÐ°ÑĪ
ĠÐ²ÐµÐ´Ð¾Ð¼ÑģÑĤÐ² Ð¾
ĠÒļ ÑĭÐ»Ð¼ÑĭÑģÑĤÑĭÒĽ
ĠÒĽÒ±ÑĢ Ð±Ð°Ð½
Ð¾ ÒĽÐ°Ð½
Ð± ÐµÐ¹ÑĤÑĸÐ½
Ñģ Ò¯Ð¹
ĠÐ±Ð¾Ð»Ð°ÑĪÐ°ÒĽ ÒĽÐ°
Ġ Ð°ÒĵÑĭÐ½
ÑįÐ½ ÑĤÐµÑĢ
ĠÐºÑĸÑĢ ÐµÑĤÑĸÐ½
ĠÐ¢ Ð¾Ð¿
ĠÐ¼Ð°ÑĢÐ°Ð¿Ð°ÑĤ ÑĤÐ°Ð»Ð´Ñĭ
ĠÐĳ Ò¯Ð¹ÑĢÐµÐº
Ð´ÑĭÑĢ Ð´Ñĭ
ĠÒ±ÑĪ ÑĭÐ¿
ĠÐ¿Ð¾Ñį Ð·Ð¸Ñı
ÐĶ Ð¾Ñģ
ĠÐŀÑģÑĭ Ð´Ð°Ð½
ĠÐĲÐ±Ð°Ð¹ Ð´ÑĭÒ£
Ò±Ð» ÑĤÑĤÑĭÒĽ
ĠÐ´Ð¾Ñģ ÑĤÑĭÒĽ
Ð¶ Ð°ÒĽ
ĠÐ°ÑĢ Ð°
ÑĪ ÑĸÐ½
ĠÑĦ Ð¸ÑĤ
ĠÐĺ ÑĤÐ°Ð»
ĠÒĽÑĭÑĢÐºÒ¯Ð¹ÐµÐº ÑĤÐµ
Ð¾Ð» Ð¸ÑĤ
ĠÐºÒ¯ÑĪÐµÐ¹ ÑĤÑĥ
ĠÑģ ÑĸÑĢ
ÑĸÐ¿ ÑģÑĸÐ·Ð´ÑĸÐº
ĠÐ°Ð¹ ÑĭÐ½Ð°Ð½
ĠÐĲÑĢ ÒĽÐ°Ð»ÑĭÒĽ
Ð¿ Ð¾ÑĤÐµÐº
Ð»Ð°Ð½ Ð´Ñĭ
ÑĤÐ¾ÒĽÑģÐ°Ð½ ÑĭÐ½Ð°
ĠÑģÐ¸Ð¿ Ð°ÑĤÑĭ
Ð°Ð½ ÑĭÑģÑĭ
ĠÐ°Ð¹ ÒĵÐ°
ĠÐ¼ÐµÐºÐµÐ¼ ÐµÐ½ÑĸÒ£
ĠÐ¶Ò¯ÑĢÐ³ÐµÐ½ Ð´Ðµ
Ð¾Ð³ Ð¾ÑĢ
Ð¸Ð¼ Ð¸ÑıÐ»ÑĭÒĽ
ĠÐļ Ðķ
ĠÐĲ ÑĤÐ°Ð¿
ĠÓĻÐ»ÐµÐ¼ Ð´Ðµ
Ð± ÑĸÐ»
Ðĳ Ð°ÑĤÑĭÑģ
ĠÑĨÐ¸ÑĦÑĢ Ð»ÑĭÒĽ
ÑĤÑĭÑĢ Ð°Ð´Ñĭ
ĠÐ¼ÓĻÑģÐ»Ð¸ÑħÐ°ÑĤ ÑĭÐ½ÑĭÒ£
ĠÐ¾ Ñı
ĠÑĪ Ðµ
ÑĭÑĢÑĤ ÒĽÐ°Ð½ÑĭÒ£
ÑĪ ÑĸÐºÑĤÑĸ
ÐµÐºÑĤÐ¾ÑĢ Ñĭ
ĠÒĽÐ°Ð¹ÑĤÐ°Ð» Ð°Ð½
ĠÐ± ÑĢÐµÐºÐµÑĤ
ĠÒĽÐ¾Ñģ ÑĭÐ»ÑĭÐ¿
ĠÑĤÐ°Ð¼ÑĭÐ· Ð´Ð°ÒĵÑĭ
ĠÐºÐµÑĢ ÑĸÑģÑĸÐ½ÑĪÐµ
ĠÐµÐ»ÑĸÐ¼ÑĸÐ· Ð´ÐµÐ³Ñĸ
ÑĤÐ° ÑĨÐ¸ÑıÐ»ÑĭÒĽ
ĠÐ¾ÑĤÑĭÑĢÒĵÐ°Ð½ ÑĭÐ½
ĠÒ±Ð¹ ÒĽÑĭ
Ġ20 01
ĠÑĪÐ°ÑĢ ÑĤÑĤÑĭ
ĠÒļÑĥ Ð°Ð½ÑĭÑĪ
ĠÐĸÐŀ Ðŀ
ĠÐ°ÑĥÐ´ Ð¸ÑĤ
ĠÑĤÐ°ÑĢ Ð°Ð»ÒĵÐ°Ð½
ÑĢÐ°Ð½ ÑĨÑĥÐ·
ĠÑĢ Ð°ÑħÐ¼ÐµÑĤ
ĠÑĤÒ±ÑĢ ÒĵÑĭÐ·
ĠÐł ÐµÑģ
ĠÑģÐ°Ð» Ð°ÑģÑĭÐ½Ð°
Ð« Ðł
ÑĢÐ¾Ð¼ ÑĤÐ°Ñĥ
ĠÐ°Ð»Ð¼Ð°Ñģ Ñĥ
ĠÒĴ Ð°Ð»ÑĭÐ¼
ĠÐ¾Ð½ ÑĭÐ¼ÐµÐ½
ĠÐ¼ÐµÐ¼ Ð¾ÑĢ
ĠÐ¼Ð°ÒĽÐ°Ð» Ð°Ð½Ñĭ
ĠÐ¶ÐµÑĤ ÑĸÐ»Ð´ÑĸÑĢ
ĠÐ¶Ð°Ð»Ð¿Ñĭ ÒĵÐ°
ĠÐ³ÐµÐº ÑĤÐ°ÑĢ
Ñĥ ÐµÐ½
ÑĭÐ¼ ÑĭÑĢ
ĠÑģÑĥÑĢ ÐµÑĤÑĤÐµÑĢ
ĠÒĽÑĭÐ·Ð¼ÐµÑĤÑĪÑĸÐ»ÐµÑĢ ÑĸÐ½ÑĸÒ£
ĠÑĪ ÐµÐ½
ĠÒĴ ÑĭÐ»ÑĭÐ¼Ð¸
ÑĪ Ð°ÒĽÑĤÑĭ
ĠÑĦÐ¾ÑĤ Ð¾Ñģ
ÐµÑģ ÑĤÐµ
ĠÐľ Ò±ÒĽ
ĠÐ· ÑĥÐ±Ð°
ĠÐ±Ð°ÒĵÑĭ ÑĤÑĤÐ°ÑĢ
ĠÐĸ Ò±
ĠÐ¶Ð°Ð» Ð°Ò£
ĠÑĪÐ°ÒĽÑĭÑĢ Ð°Ð´Ñĭ
ÓĻÐ¶ÑĸÑĢ Ð¸Ð±
Ð°ÒĽÐ°Ð» Ð¿Ð°ÒĽ
ĠÑģ ÑĤÑĥÐ´ÐµÐ½
ĠÐºÐ¾ÑĢÐ¾Ð½ ÐºÐ¸
ĠÐĲ Ñħ
ĠÑģÑĥ Ð°ÑĢ
ĠÐ±Ð°ÒĵÐ´Ð°ÑĢÐ»Ð°Ð¼ Ð°ÑģÑĭÐ½Ð°
Ð³ÑĸÐ½ Ñĸ
ĠÐ¶Ò¯ÑĢÐ³ÑĸÐ· Ð³ÐµÐ½
Ð°Ð³ Ð½Ð¾ÑģÑĤ
Ð´ÓĻÑĢ Ð¼ÐµÐº
Ð°ÑģÑĤÑĢÐ¾ ÑįÐ½ÑĤÐµÑĢ
ĠÑĪ Ð°Ñĥ
ĠÑĪÑĭÒĵÐ°ÑĢ Ð´Ñĭ
ĠÑģÐ°Ð¹ÑĤ ÑĭÐ½Ð°
ĠÐ°Ñĥ ÐºÑĨÐ¸Ð¾Ð½
ÑĪ ÑĭÑģÑĭÐ½ÑĭÒ£
Ð¾Ð»Ð¾Ð³Ð¸Ñı Ð´Ð°ÒĵÑĭ
ĠÐºÐ¾Ð¼Ð¿Ð°Ð½Ð¸Ñı Ð»Ð°ÑĢ
iÐ»ÐµÑĤ ÑĤi
ĠÑĤÐ¾ÒĽÑĤ Ð°ÑĤÑĥ
ĠÐ´ÐµÐ¹ Ð¼ÑĸÐ½
ĠÐ´ÐµÑģ ÐµÐº
ĠÒ±ÑģÑĭÐ½ Ð°ÑĤÑĭÐ½
Ð¢Ò±ÑĢ ÒĵÑĭÐ½
ĠÐ¸ Ð³Ñĸ
ĠÐ°Ð»Ð¼ Ð°ÑģÑĤÑĭÑĢ
ĠÐ°Òĵ Ð°ÑĢÑĤÑĥ
ĠÐºÓ©ÑĤÐµÑĢ Ð³ÐµÐ½
ĠÐ¾ÑĢÑĭÐ½ Ð´Ð°ÑĢÑĭÐ½
ÑĤÑĸÐ» ÐµÐ´Ñĸ
ĠÐ°Ð³ÐµÐ½ÑĤ ÑĤÑĸÐº
ĠÐ¾ÑĢ Ð°Ð·Ð°
ĠÐ¤ Ð°ÑĢ
ĠÐµÐ¼ ÑħÐ°Ð½
Ð¾ Ð´Ð°
ĠÐ·ÐµÑĢ Ð´ÐµÐ»
ĠÐ¶Ò±ÒĽ Ð¿Ð°Ð»Ñĭ
Ñģ Ð¸Ð¼
ĠÐ·Ð°Ò£ Ð½ÑĭÒ£
ĠÑĤÐµÑĢ ÑĸÐ½ÑĸÒ£
ÑĸÑģ ÑĸÐ¼
ĠÓĻÐ¹ÐµÐ» Ð´ÑĸÒ£
Ð°Ðº ÑĤÐ¸Ð²ÑĤÑĸ
ĠÐ±ÑĸÐ»ÑĸÐ¼ Ð´ÐµÑĢÑĸÐ½
ĠÓ©Ðº Ð¿Ðµ
Ñģ ÑģÐµ
ĠÐ± ÓĻÐ¹
ÑħÐ°Ð¼ ÐµÐ´
ĠÑģÐ¾Òĵ ÑĭÑģÑĭ
ĠÐ¶Ð°ÑĢ Ð°Ð¼
ÐµÐ² ÑĩÐµÐ½ÐºÐ¾
ĠÐŀÑĢ Ð°Ð·
ĠÐºÓ©ÑĢ Ð´ÑĸÐ¼
ĠÐ¾ÑĢÑĭÐ½ Ð´Ð°ÑĢÑĭÐ½Ð´Ð°
ĠÑģÐµÐº Ñģ
Ġ7 5
Ð¾Ð» Ð°ÑĢ
ĠÐ¢ Ð°Ð¼ÑĭÐ·
ĠÐ£ Ð¸ÐºÐ¸Ð¿ÐµÐ´
ĠÐ¶Ð°ÑĢÐ¸Ñı Ð»Ð°Ð¹Ð´Ñĭ
Ð°ÑĤ ÑĥÒĵÐ°
ĠÐ¾ Ð±ÑĢÐ°Ð·
Ðŀ ÑĤÐ°Ð½
ÑĤÐ°Ð¹ Ð¼ÑĭÐ·
ĠÐ¼Ð°ÑĥÑģÑĭÐ¼ Ð´Ð°
ĠÒĽÐ°Ð· ÑĭÐ½Ð°
ĠÐ¡Ð°Ñĥ Ð´Ð°
ĠÐ® ÐĿÐķÐ¡ÐļÐŀ
ĠÑĤÑĸÐ·Ð± ÐµÑģÑĸ
ĠÓ©Ð· Ð´ÐµÑĢ
ĠÐ´ÐµÐ½ ÐµÑģÑĸ
ĠÐĳ Ð¾Ñģ
ĠÐ¶Ð°ÒĵÐ´Ð°Ð¹ ÑĭÐ½Ð´Ð°ÒĵÑĭ
Ñ ķ
ĠÐ¶Ò¯ÑĢ ÐµÐ³Ñĸ
ÑĢ Ð¸ÑĤ
ĠÑģ Ð»Ð°Ð¹Ð´
ĠÐºÓ©ÑĢ Ð¼Ðµ
ĠÒĽÒ±ÑĢÑĭÐ» ÑĤÐ°Ð¹
ĠÐ¾ÑĤÐ±Ð°Ñģ ÑĭÐ»ÑĭÒĽ
ĠÐ±Ð¾Ð» Ð¼Ð°Ð¹ÑĤÑĭÐ½
ÐŁ ÐµÐ´Ð°Ð³Ð¾Ð³Ð¸ÐºÐ°Ð»ÑĭÒĽ
ĠÐ±ÑĸÐ»ÑĸÐ¼ ÑĸÐ½
ĠÑĤÒ±ÑĢÐ¼ ÑĭÑģÑĤÑĭÒĽ
9 0
ĠÑĤÐ°Ò£ Ð´Ð°Ð¿
Ð°ÑĤÑĥÑĢ Ð°
ĠÒĽÐ¾Ð·ÒĵÐ°Ð» ÑĭÑģÑĭ
Ġ on
ĠÐ¼ÓĻÑģÐ»Ð¸Ñħ Ð°ÑĤÑĤÑĭÒ£
ĠÒĽÑĭÑĢ ÑĭÒĽ
ĠÐ±ÓĻÑģÐµÐºÐµÐ»ÐµÑģ ÑĤÑĸÐº
ĠÒĽÑĥ ÑĭÑģÑĭ
ĠÐľ Ð°Ðº
i z
ĠÐ¼Ð°ÑĥÑģÑĭÐ¼ Ð´Ð°ÒĵÑĭ
ĠÐºÐ¸ ÐµÐ»Ñĸ
Ð¸ Ð±Ð°
ĠÐ±ÑİÐ´Ð¶ ÐµÑĤÐºÐµ
ĠÐ°ÑħÑĥ Ð°Ð»
ĠÑĪÐµÑĪ iÐ¼
Òļ Ð¾ÒĵÐ°Ð¼
ÐµÑģÑĸÐ½ ÑĪÑĸ
Ð¾ÑĢ Ð³Ð°Ð½
ĠÐ°Ð¹ÑĤ Ð°ÑĤÑĭÐ½
ĠÐ´ÓĻÑĢÑĸÐ³ÐµÑĢ Ð»ÐµÑĢ
ÐŁ Ðĺ
ĠÒĽÐ°ÑĥÑĭÐ¼ Ð´Ð°Ñģ
y m
Ġ4 00
ĠÑĭÒĽ ÑĭÐ»
ĠÐ¶Ð°Ñĥ ÑĭÐ¿
ĠÐĹ ÐµÑĢ
ĠÑģÑĥÐ´ ÑĮÑı
ÒĽ Ð¸
ĠÑĤ ÓĻÐ»ÑĸÐ¼
ÑĤÐ°ÑĢ ÑĭÐ¼ÐµÐ½
ĠÑĤÑĥÑĢ Ð¸ÑģÑĤÑĸÐº
ÑĤÐ°Ñĥ Ñĭ
ĠÐ¿Ð°Ð½ Ð¾ÑĢÐ°Ð¼
ĠÐ¶Ð°ÒĵÐ´Ð°Ð¹ Ð»Ð°ÑĢÐ´Ñĭ
20 25
ĠÐ¶Ð°ÑģÑĭÑĢ ÑĭÐ½
ĠÑĤÒ±Ð»ÒĵÐ° ÒĵÐ°
ĠÑĤÐ°Ð¼Ð°ÒĽ ÑĤÐ°Ð½
ĠÐ¼ÑĸÐ½Ð´ ÐµÑĤÑĤÐµÑĢÑĸÐ½
Ð°Ð¹ ÑģÑĭÐ·
ĠÐ°Ð½Ð³ Ð¸Ð¼
ĠÐľ ÑĭÑģ
ĠÐ°Ð¹Ð½Ð°Ð»ÑĭÑģ Ð°ÑĤÑĭÐ½
ĠÐ±ÐµÐ»Ð³iÐ» ÐµÐ½Ð³ÐµÐ½
ĠÒĽÐ¾ÒĵÐ°Ð¼ Ð´Ð°
ĠÐ°Ð» ÑĮ
ĠÑģÑĥ Ð´ÑĭÒ£
ĠÐ°Ð²ÑĤÐ¾Ð± ÑĥÑģ
ÐľÒ¯ Ð³ÐµÐ´ÐµÐº
ĠÐ¼Ð°ÒĽÐ°Ð» Ð°Ð½ÑĭÒ£
ĠÐ±Ð¾ÑĢ ÑĭÑĪ
ĠÐľÐ°ÒĽ Ð°ÑĤ
ĠÐ¼Ð°ÑĤÐµÑĢÐ¸Ð°Ð» Ð´Ð°ÑĢÑĭ
ÑĪÐ°ÑĢ Ð°Ð»Ð°ÑĢÐ´Ñĭ
ĠÑĭÒ£Òĵ Ð°Ð¹Ð»Ñĭ
ÒĽÑĭÐ½ Ñĭ
ĠÐ¾ÑĤÑĭÑĢ Ð°ÑĤÑĭÐ½
ĠÒĽÐ°Ð¼ÒĽÐ¾ÑĢ ÑĪÑĭÐ»ÑĭÒĽ
ĠÑĦ Ð¸ÑĢ
ĠÒ°Ð» ÑĤ
? âĢĶ
Ð³ÐµÐ±ÑĢ Ð°
Ð´Ð°Ð½ ÑĭÐ¿
Ð°Ð¿ Ð°Ð½
ÐµÐ¶ ÑĸÑĢ
ĠÐºÒ¯ÑĪ ÑĸÐ½Ðµ
ï »
ĠÑį Ð¼
ĠÐľÑĥÐ·Ñĭ ÐºÐ°
ĠÐ¢ ÐľÐĶ
ĠÑĪÑĭÒĵÐ°ÑĢ Ð°ÑĤÑĭÐ½
ĠÑįÐºÑģÑĤÑĢ ÐµÐ¼
ÑĢ Ð°Ðº
ÑĪÑĭÐ» Ð´ÑĭÒĽ
4 4
ĠÑĪÐµÐº ÑģÑĸÐ·
ĠÐ°Ð´Ð°Ð¼ Ð·Ð°ÑĤ
Ñħ Ð°Ð»ÑĭÒĽ
ĠÒĽÒ±ÑĢÑĭÐ» ÒĵÑĭÐ»Ð°ÑĢ
ĠÑģÓ©Ð· Ð´ÑĸÐº
ĠÑģÑĥÐ±ÑģÐ¸Ð´Ð¸Ñı Ð»Ð°Ñĥ
ĠÐĿ ÐµÐ³Ðµ
ĠÐºÐµÐ·Ð´ÐµÑģ ÑĸÐ¿
o b
ĠÐĳ Ð°ÒĵÐ´Ð°ÑĢÐ»Ð°Ð¼
Ð¸ Ð¸
ĠÑĤÒ¯Ñģ ÑĥÐ³Ðµ
Ð¼Ñĥ Ð½Ð¸Ðº
Ġ z
ĠÐ¶Ð¾Ð» Ð´ÑĭÒ£
ĠÐ¡Ð°Ñı ÑģÐ°ÑĤ
Ð»Ñĸ Ð³ÑĸÐ¼ÐµÐ½
ĠÐ£ ÓĻÐ»
ĠÑģ Ð°Ð´Ð°
ĠÑģÑĸÐ· Ð´ÐµÑĢÐ³Ðµ
ĠÐ°Ð·Ð°Ð¼ Ð°ÑĤÑĤÐ°ÑĢÒĵÐ°
ĠÒ±Ð¹ÑĭÐ¼ Ð½ÑĭÒ£
ĠÐ¢Ð°Òĵ Ð°Ð»Ð°
Ð¸Ð½ Ð´Ñĸ
ĠÐ¾ÑĢÐ³Ð°Ð½ ÒĵÐ°
ĠÓĻ ÐºÐµÐ¼
ÐŁÐ¾ÑĢ ÑĤÐ°Ð»
ĠÐŀÐ¼ Ð°ÑĢ
ĠÐ¿ÐµÑĢÑģ Ð¿ÐµÐº
Ð± Ð°Ð·
ĠÒĽÐ°ÑĢ Ð°ÑģÑĤÑĭÑĢÑĥ
ĠÐ°Ð¹ Ð´ÑĭÒ£
ÑĤÑĸÐ½Ð´Ðµ Ð¿
ĠÐ¾ÑĢ Ð³
Ð°Ð³ ÐµÑĢÑĸ
Ð¼Ð°Ð½ Ð¾Ð²
ĠÐºÐ°ÑĤÐµÐ³Ð¾ÑĢ Ð¸Ñı
ĠÐ¼ÓĻÐ½ ÑĸÐ½Ð´Ðµ
Â °
Ð°Ð¼ ÒĽÐ¾ÑĢ
ĠÑįÐºÐ¾Ð½Ð¾Ð¼Ð¸Ðº Ð°Ð½ÑĭÒ£
ĠÒĽÑĭÐ· Ð´ÑĭÒ£
ĠÓ©Ð· Ð´ÐµÑĢÑĸÐ½Ðµ
ĠÓĺÐ± ÑĸÑĪ
ĠÑĢÓĻÑģ ÑĸÐ¼
ĠÐ¼Ð°ÒĽÑģÐ°ÑĤ ÑĤÑĭ
ĠÒĽÐ°ÑĤÑĭÑģ Ð°ÑĤÑĭÐ½
ĠÑĤÐ°ÒĵÐ°Ð¹ÑĭÐ½Ð´Ð°Ð» Ð´Ñĭ
ĠÑģ Ò±Ð»ÑĤÐ°Ð½
ĠÒĽÑĥ Ð°ÑĤÑĤÑĭ
ÐĶÐµÐ½ ÑģÐ°ÑĥÐ»ÑĭÒĽ
ĠÑĢÐ¾Ð¼ Ð°Ð½
% ,
ÐĲ Ð±
ĠÐ¾ ÑıÐ½
ĠÐ¶Ð°ÑĤ ÑĤÑĭÒĽ
ĠÐ°ÑĥÑĭÑĢÑģÑĭÐ½ Ñĥ
ĠÐ¶Ò¯ÑĢÐ³ÑĸÐ· ÑĸÐ»ÑĥÐ´Ðµ
ĠÐļ Ð°ÑģÐ¿Ð¸Ð¹
ĠÑģÐ°Ð¹ ÑĭÑģ
ĠÐ°Ð½ÑĭÒĽÑĤÐ°Ð¼ Ð°Ð»Ð°ÑĢÑĭÐ½
ĠÐ½Ð¾ ÑĤÐ°ÑĢ
ĠÑģÓ©Ð½ Ð´ÑĸÑĢÑĥ
Ð¾Ð· Ð°
Ð»ÐµÑĢ Ð³
7 8
ÐŁ ÑĢÐµÐ·Ð¸Ð´ÐµÐ½
ĠÐ³ ÑĥÐ¼Ð°Ð½Ð¸ÑĤÐ°ÑĢÐ»ÑĭÒĽ
ĠÐ°Ð» Ð°ÑĢ
Ð°Ñĥ ÑĭÐ½Ð°
ĠÐ¼ÐµÑĢÐ·ÑĸÐ¼ Ð´Ðµ
ĠÐ¾ÒĽÑĥÑĪÑĭÐ»Ð°ÑĢ ÒĵÐ°
ĠÓĻÐ»ÐµÐ¼ Ñĸ
ĠÐºÐ¾Ð½ÑĤ ÐµÐ½ÑĤ
ĠÑģÐ°Ð±Ð°ÒĽ ÑĤÐ°Ñģ
ĠÐ±ÐµÑĢÐ¼ ÐµÑĥ
ĠÑħÐ°Ð±Ð°ÑĢ Ð»Ð°Ñĥ
ĠÑĪÑĭÒĵÐ°ÑĢÐ¼ Ð°Ð»Ð°ÑĢ
Ð°Ð¼Ð±ÐµÑĤ Ð¾Ð²
ĠÑĤ Ð¾Ñģ
ÑĤ Ó©Ð±Ðµ
Ð°Ð»ÑĭÒĵÑĭ Ð¼ÐµÐ½
Ð°ÑĤ ÑĤÐ°Ð»ÒĵÐ°Ð½
ĠÐ°Ð» Ð°ÒĽÐ°Ð½
ĠÐ°Ñı ÒĵÑĭ
ĠÑĤÒ¯ÑĢ ÑĸÐ½Ðµ
ĠÑĤÓ©Ð»ÐµÐ¼ Ð´ÐµÑĢ
ÒĽ Ð°Ð»Ñĭ
ÑĭÐ± ÑĢÐ¸ÑĤÐ°Ð½
ĠÒ »
ĠÐºÐµÑĤ Ðµ
Ðļ Ð°Ð·
ĠÐµÐ» Ð´ÐµÑĢÑĸÐ½ÑĸÒ£
ĠÐ±Ð¸ ÐµÐ½ÑĸÒ£
ÑĤ Ð°ÑģÑĤÑĭÑĢ
ĠÑĤÐ°Ñģ ÑĤÐ°ÒĵÐ°Ð½
ĠÐ±Ð¾Ð» Ð°ÑĪ
ĠÓĻÑģÐµÑĢ ÑĸÐ½ÐµÐ½
Â ¬
Ð´ÑĸÐ¼ Ð³Ñĸ
ĠÐĳÐµÐ¹Ð½ ÐµÑĥ
ĠÐĲÐ»ÐµÐº ÑģÐ°Ð½Ð´ÑĢ
ĠÓ©ÑģÑĸÐ¼Ð´ÑĸÐº ÑĤÐµÑĢ
ĠÒĽÐ°Ð½ ÑĪÐ°Ð¼Ð°
ĠÐ¡ ÑĭÐ½
Ð³ Ð¾ÑĢ
ÐºÐµÐ½ Ñĸ
ĠÐºÓ©ÑĢÐ¼ ÐµÑģÑĸ
ÑĥÐ» Ñı
ĠÐ¡ ÐµÐ¹
ĠÐ´Ð¸ Ð°Ð±
Ð¸Ð¼ Ð¸ÑĢ
ÑĮ ÑĪ
ĠÐŁ Òļ
ĠÒĽ Ð¸Ð¼
ĠÒ±Ð· ÑĭÐ½Ð´ÑĭÒĵÑĭ
ÑĤ ÐµÑĤÑĸÐ½
ÑĤÑĸÑĢ ÑĸÐ¿
ĠÑĦ ÐµÐ´ÐµÑĢ
ĠÐ°Ð½ÑĭÒĽ ÑĤÐ°Ð¿
ÑĤÑĸ Ñģ
ĠÒĽÐ°ÑĥÐ» ÑĭÑģÑĭÐ¼ÐµÐ½
ĠÒĽÐ¾Ð» Ð°
o d
ÑĤÑĭ ÒĵÑĭÐ½ÑĭÒ£
ÒĽÐ° ÒĵÐ°Ð½
Ð´Ñĭ ÒĵÑĭÐ½ÑĭÒ£
ÑĦ Ð¾ÑĤÐ¾
ĠÐŀÐ±Ð» ÑĭÑģÑĤÑĭÒĽ
ĠÐ¸Ð½ ÑĤÐµÐ³ÑĢ
g e
Ð»Ð°ÑĢ ÑĭÒ£ÑĭÐ·ÒĵÐ°
ĠÐŀÐ¹ ÑĭÐ½
ĠÓ©Ð½ÑĸÐ¼ Ð½ÑĸÒ£
ĠÒĽÒ±ÑĢÑĭÐ»ÑĭÑģ ÑĭÐ½Ð°
ĠÐ°ÑĢ Ñĭ
ÐĳÒ± Ð´Ð°Ð½
Ð°Ò£ ÒĵÑĭ
ĠÐ´Ð°ÒĵÐ´Ñĭ Ð»Ð°ÑĢÑĭÐ½
S A
ĠÐ¸Ð½ÑĦ Ð¾ÑĢÐ¼
ĠÐ¶Ð¸ÑĭÐ½ ÑĤÑĭÒĵÑĭ
Ñĩ Ð¸Ð½
ĠÓ©ÐºÑĸÐ» ÐµÑĤÑĤÑĸÐº
ĠÑĤÐ°ÑĥÐ°ÑĢ Ð»Ð°ÑĢ
200 6
ĠÒĽÐ¾ÑĢ ÑĭÐ½
ĠÐĿ Ð°Ñĥ
Ð´i Ð³iÐ½
ĠÐ»Ð°ÑĥÐ°Ð·ÑĭÐ¼ Ð´Ð°ÑĢÒĵÐ°
ĠÐ¡ Ð°Ð±
ĠÐ¢ Ð°Ð¿
Ñģ ÑĸÐ»
ÒļÐ°Ð· ÑĸÑĢ
ĠÑĤ Ð°ÑĤ
ĠÐ·Ð°Ò£Ð´Ñĭ Ð»ÑĭÒĽ
ĠÒĽÒ±ÑĢÐ°Ð¼ ÑĭÐ½Ð´Ð°ÒĵÑĭ
ĠÑģÑĭÐ¹ Ð»ÑĭÒĽÑĤÐ°ÑĢ
ĠÑĸÑģ ÐºÐµÑĢÐ»ÑĸÐº
ĠÐ´Ð°Ð¼Ñĥ ÑĭÐ½
5 2
ĠÐ¾ÒĽ ÑĪÐ°Ñĥ
Ð± iÑĢ
ĠÑį ÑĦÐ¸ÑĢ
ÐĲ Ñģ
Ðĵ Ð°Ð·
ĠÐµÑģÑĤ Ñĥ
ĠÑĪÐ°Ñĥ ÑĭÐ¿
Ð¡ Ð°ÑĢ
Ð±ÐµÑĢ Ð³
ĠÒļÐ°ÑĢ ÑĥÐ»Ñĭ
ï» ¿
ĠÒĽÐ°ÑĢÐ¶ÑĭÐ» Ð°Ð½
4 1
ĠÐĸÐµÑĤ ÑĸÑģ
p p
ÑĤÐ°ÑĢ Ð¼Ð°ÒĵÑĭÐ½Ð´Ð°
ĠÐ´ÐµÒ£Ð³ÐµÐ¹ ÑĸÐ½Ð´Ðµ
ĠÑģÒ¯Ð¹ ÑĸÑģÐ¿ÐµÐ½
Òļ Ðļ
ĠÓ©Ð¼ÑĸÑĢ ÑĸÐ½ÑĸÒ£
ĠÐ¶Ð°Ñģ Ð°Ð»ÑĭÐ¿
ĠÑĤÐ°Ð¿ÑģÑĭÑĢ Ñĥ
ĠÐ¢ ÑĸÐ·
Ð² ÐµÑĢ
ĠÒĽÑĭÐ·Ð¼ÐµÑĤ ÑĤi
ĠÐºÐµÑĪ Ðµ
ĠÐ½Ó©Ð¼ÑĸÑĢ Ñĸ
ĠÐĴ Ð»Ð°Ð´
ĠÐ±Ð¾Ð»Ð´ÑĭÑĢ Ð¼Ð°Ñĥ
ĠÐ¶ÐµÑĤÑĸÑģ Ð¿ÐµÑĥ
ĠÐ° ÑĤÑĭÐ¿
ĠÐ¾ÒĽÑĥ ÑĪÑĭÑģÑĭ
4 9
ĠÑħÐ°Ð±Ð°ÑĢÐ»Ð°Ð¼ Ð°Ð½Ñĭ
ĠÐ¼ÐµÐ·Ð³ÑĸÐ» Ð´Ðµ
ĠÐºÒ¯ ÑĤÑĥ
ĠÐ°ÑĥÑĭÐ» Ð´ÑĭÒ£
ĠÒĽÒ±ÑĢ ÑĤ
ÑĭÐ» ÑĥÒĵÐ°
ĠÐ¢ ÑĥÒĵÐ°Ð½
ĠÑĤÑĸÑĢÐºÐµÐ» Ñĥ
ĠÐ±Ð°ÑĢ Ñĥ
ĠÐ°ÑĥÐ´ Ð¸ÑĤÐ¾ÑĢ
ĠÒĽÐ°ÑĤÑĭ ÑģÑĭ
ĠÐºÐµÒ£ Ñģ
ĠÒĽÐ¾Ð» ÑĭÐ½
ÐµÐ» ÐµÐ¹Ð´Ñĸ
Ð¸Ñı ÑģÑĭÐ½Ð´Ð°
ĠÐł ÑĥÐ´Ð½ÑĭÐ¹
ĠÐ°Ñģ ÑĭÒĽ
ĠS p
Ð°Òĵ ÑĭÐ»
ĠÑĤÐ¾ÒĵÑĭÐ· ÑĭÐ½ÑĪÑĭ
Ð¾ Ñı
ĠÐ¿Ð°ÑĢÑĤ Ð¸ÑıÑģÑĭÐ½ÑĭÒ£
ĠÐºÓ©Ð±ÐµÐ¹ ÑĤÑĥ
ĠÐļ ÐµÑĪ
Ð¸Ñı Ð·
Ò° Ðł
ĠÐ¡ ÑĤÑĥÐ´ÐµÐ½ÑĤ
ĠÐ°Ð·Ð°Ð¼Ð°ÑĤÑĤÐ°ÑĢ Ñĭ
ĠÐºÓ©ÑĢÑĸÐ½ ÑĸÐ¿
ĠÐĺ Ð·
ĠÐ±Ð°Ð· Ð°Ð»ÑĭÒĽ
ĠÒĽ ÑĭÐ»ÑĭÐ¿
ĠÐ¾ÑĤÑĭÑĢ ÑĭÑģÑĭÐ½ÑĭÒ£
ĠÐµÑĢÑĸ ÑĤÑĸÐ½Ð´Ñĸ
ÑĤ ÓĻÑĢÐ±Ð¸Ðµ
Ð¸Ð½ Ð´Ðµ
Ð¾ÑĢÐ² ÐµÐ³
ĠÐ¾ ÑģÑĭÐ»Ð°Ð¹ÑĪÐ°
ĠÐ»Ð°Ð³ÐµÑĢ ÑĮ
ĠÐľ Ð¾Ð»
ĠÐ³ Ð¸Ð¼Ð½
ĠÒĽÐ¾ÑĢ ÑĭÐ½Ð°
ÐŃ Ð»ÐµÐºÑĤÑĢÐ¾Ð½Ð´ÑĭÒĽ
c ri
ĠÒĴ ÑĭÐ»ÑĭÐ¼
ĠÐ±ÑĸÐ» Ðµ
ĠÓĻÐ¹ ÐµÐ»Ñĸ
ĠÐ°Ð´Ð°Ð¼ Ð·
ĠÑĤÒ±ÑĢÒĵÑĭÐ½ Ð´Ð°ÑĢÑĭÐ½
ĠÐĿÐ°Ð·Ð°ÑĢÐ±Ð°ÐµÐ² ÒĽÐ°
ÑĥÑĪÑĭÐ»Ð°ÑĢ ÒĵÐ°
ĠÒĽÑĭÑĢ ÒĵÑĭÐ·
ĠÐŃÐļ Ð¡ÐŁÐŀ
Ð°Ñı ÑĤ
ÑĸÐºÑĤÑĸ ÑĢÑĥ
ĠÑĪ Ð°
ĠÑģÐµÐ½ Ñĸ
ĠÐĸÐ°Ò£ Ð°ÒĽ
ĠÒĽÐ¾Ð»Ð´Ð°Ð½ ÒĵÐ°Ð½
ĠÒĽÐ°ÑĤÑĭÑģÑĥÑĪÑĭÐ»Ð°ÑĢ Ð´ÑĭÒ£
ÑĸÑģÑĤ Ðµ
ĠÐĸ ÑĸÐ±ÐµÐº
ĠÒĽÐ¾Ð»Ð´Ð°Ñĥ ÑĭÐ¼ÐµÐ½
Ð°Ð»ÑĮ Ð´Ñĸ
ÐºÑĸÐ½ÑĸÑĪ ÐºÐµ
ĠÐ·ÐµÑĢÑĤÑħÐ°Ð½ Ð°Ð»ÑĭÒĽ
Ġ =
ĠÐ°ÑĤ Ð°ÑģÑĭ
Ð°ÑĦ Ð¾Ð½
ĠÒĽÐ°Ð» Ð°Ð»Ð°ÑĢÐ´ÑĭÒ£
Ðº Ð°Ð½
ĠÒĽÐ°Ð» Ð´ÑĭÐ¼
ĠÐĳÐ°Ñģ ÑĤÐ°ÑĥÑĭÑĪ
ĠÐĲÐ» ÑĭÐ¿
Ð· ÑĭÐ½
200 8
ĠÓ©Ñģ ÐµÐ´Ñĸ
ÑĸÐ» Ð¼ÐµÐ³ÐµÐ½
Ð°Ð¹ ÑĭÑĢ
Ð¢ ÓĻÑĥÐµÐ»
ĠÐ¶ÐµÑĢ ÑĸÐ½Ðµ
ĠÐ±ÑĸÑĢ Ð»ÐµÑģÐµ
ĠÒ® Ð½Ð´Ñĸ
ĠÑĤÐ°Ð¿ÑģÑĭÑĢ Ð´Ñĭ
ĠÐ¶Ò±Ð¼ÑĭÑģ ÑĤÑĭÒ£
ĠÐ¥ ÑĢÐ¾Ð¼ÑĤÐ°Ñĥ
ĠÐ»Ð°ÑĥÐ°Ð·ÑĭÐ¼ Ð´Ð°ÑĢÐ´Ð°
ĠÑĢÒ±ÒĽ ÑģÐ°ÑĤÑĭÐ½
ĠÐ¶Ð°Ñģ ÑĤÐ°ÑĢÐ´Ñĭ
ĠÐķ Ð²
ÑĭÑģ ÑĭÐ·
Ð¾Ð¹ Ð½Ñĭ
ÐĳÒ¯ Ð³ÑĸÐ½Ð´Ðµ
ĠÐ¼ Ð³
ĠÓ¨Ð» ÐµÒ£
ĠÐºÓ©ÑĢÑģÐµÑĤ ÑĸÒ£ÑĸÐ·
ÑĪÑĸÐ»ÐµÑĢ Ð³Ðµ
ÑĭÒ£ Ð½Ð°Ð½
Ð±ÐµÑĢ ÐºÑĥÐ»
ĠÐµÑĪ Ð±ÑĸÑĢ
Ġ9 9
ĠÑĤÐ°Ð½ ÑĭÐ»ÒĵÐ°Ð½
Ð´ÑĸÑĢ ÑĸÐ»Ð³ÐµÐ½
ĠÒĽÐ¾Ð» Ð´ÑĭÒ£
ĠÐ±Ð°Ð» Ð»
ĠÐ¾Ð¹ Ñĭ
ÐĲÐł ÐĲÐ¢
ÐĶÑĸÐ½ Ð¸
ĠÒĽÐ°Ð±ÑĭÐ» Ð´Ð°Ð¿
ĠÑĥ Ð»ÑĮÑĤÑĢ
ĠÐºÐµ ÑĪÑĸ
ÒļÐ°Ð·Ð°ÒĽ ÑĪÐ°
ĠÐ±Ð°ÑıÐ½ Ð´Ð°Ð¼Ð°
ĠÐ°Ð»ÑĭÐ½ Ð°ÑĤÑĭÐ½
ÐŀÑĢÑĤ Ð°Ð»ÑĭÒĽ
ĠÑģÐ¸ ÑĭÑĢ
ĠÐ» Ð¸
ÐµÑĢ Ð°Ð½
ÑģÐ°ÑĢ Ð¸Ð½
Òĵ ÑĭÐ½Ð´Ð°ÒĵÑĭ
ĠÐ¶Ð°ÑģÐ°Ñĥ Ð´Ñĭ
ĠiÑĪ iÐ½Ð´Ðµ
ĠÐ±Ð°Ñģ ÒĽÐ°Ð½
ĠÓ©Ð½ÐµÑĢ ÑĸÐ½
ĠÐ¢Ó© ÑĤÐµÐ½ÑĪÐµ
ĠÐ¶ÐµÑĢ Ð´ÐµÐ³Ñĸ
ĠÐ±Ó©Ð»ÑĸÐ½ Ð´Ñĸ
ĠÐºÓ©ÑĢÐ½ ÐµÐºÑĤÑĸ
ĠÐ°ÑĤÒĽÐ°ÑĢ ÑĭÐ¿
Ð¾Ð² Ð½Ð°
ĠÐºÒ¯ÑĢ ÑĤ
ĠÐ±Ð°ÑıÐ½ Ð´Ð°Ð¼
Ð°ÒĽ ÑĤÑĭÒ£
ĠÐ±Ð°Ð¹ÒĽÐ°Ñĥ ÒĵÐ°
ĠÑģÐ¸Ð¼ Ð²Ð¾Ð»
ĠÐ¶Ò±Ð¼ÑĭÑģ ÐºÐµÑĢÑĸ
ĠÒĽÐ¾Ò£ ÑĭÑĢÐ°Ñĥ
ĠÐ±ÐµÐºi ÑĤÑĥ
ĠÑĪ Ð¾ÒĽ
ĠÐ¶Ð°Ñģ ÑĭÐ½Ð´Ð°
Ò® Ð¹
ĠÑģÒ¯ ÑĤÑĸ
ĠÐ¼Ð°Ð¼Ð°Ð½ Ð´Ð°ÑĢÒĵÐ°
ĠÐ¿ÑģÐ¸Ñħ Ð¸ÐºÐ°Ð»ÑĭÒĽ
ĠÐºÐµÑĪ ÑĸÐºÑĤÑĸÑĢ
ĠÐ°ÑĢ Ñĥ
ĠÐ¶Ð°ÑĤÑĭÑĢ Ð¼ÑĭÐ·
ĠÐ¶Ò¯ÑĢÐ³ÐµÐ½ ÑĸÐ½
ĠÒ±Ñı Ð»Ñĭ
Ð°Ð´Ñĭ ÒĽ
ĠÐ¾ÑĢÐ³ Ð°Ð½Ñĭ
ÑĤ ÑĸÐ½ÑĸÒ£
Ðº Ð¾Ð³
ĠÑĨ Ð¸ÑĢ
ĠÒĽÒ±ÑĢ ÑĭÐ¿
ĠÐ²ÐµÐ´Ð¾Ð¼ÑģÑĤÐ² Ð¾Ð»ÑĭÒĽ
ÑĢÐ¸ ÑĤÐµÑĢ
Ð´Ð°Ð» Ð´Ñĭ
ĠÑģÐ°ÒĽ ÑĤÐ°ÒĵÐ°Ð½
ÐĲÒĽÑĤ ÓĻ
ĠÐĸÐ°ÑĢÐ± Ð¸Ð¼
ĠÐ¶Ò±ÑĢÑĤ ÑĪÑĭÐ»ÑĭÒĽ
ĠÒĽ Ð¸Ð½
ĠÐ³ Ð¾ÑĢÐ¼Ð¾Ð½
ĠÐ°ÑĪÑĭÐ» ÑĭÐ¿
ĠÒĽÐ¾Ñģ ÑĥÒĵÐ°
ĠÐ°Ð» ÑĭÐ½Ð°Ð´Ñĭ
ĠÐļ Ò¯Ð»
ĠÐ¾ÑĢÑĭÐ½ Ð´Ð°ÑĢÑĭÐ½Ð°
ĠÐĲ ÒĵÑĭÐ»ÑĪÑĭÐ½
Ð°ÑĤÑĭÐ½ Ð°Ð½
ÐľÓĻ Ò£Ð³ÑĸÐ»ÑĸÐº
ĠÑģÑĤÑĥÐ´ÐµÐ½ÑĤ ÑĤÐµÑĢÑĸÐ½ÑĸÒ£
Ð¿ ÐµÑģ
ĠÐ¿Ð°ÑĢ Ð°Ð¼ÐµÑĤÑĢ
ĠÐ¼Ð°Ð¼ÑĭÑĢ Ð´Ð°ÒĵÑĭ
ĠÐ¼ Ð¼
ĠÒ±ÑĢÐ¿Ð°ÒĽ ÒĽÐ°
ĠÐ°Ñĥ ÒĽÑĭÐ¼
ĠÐ¸ Ñģ
ĠÐºÐµÐ· Ð´ÐµÑĢÑĸ
ĠÐ¡ ÓĻÑĥÐ»ÐµÑĤ
Ð°Ð¹ Ð´ÑĭÒ£
ĠÐ°Ð² Ð¸
ĠÐºÓĻÑģÑĸÐ¿Ð¾ÑĢÑĭÐ½ Ð´Ð°ÑĢ
ĠÒĽ Ð¸Ñģ
ĠÐ¾Ð» Ð¸Ð¼Ð¿Ð¸Ð°Ð´
ĠÐºÐ¾Ð½Ñģ ÑĥÐ»
ÑĢ Ð°Ð¸
Ð°ÑĤ ÑĤÐ°Ð½Ð´ÑĭÑĢÑĥ
ĠÒĽÐ°ÑĢ Ð°ÑĥÒĵÐ°
ĠÐºÓ©Ðº ÐµÐ¹
ÐµÐ» iÐº
ĠÐ±ÐµÐ¹ÑĸÐ¼ Ð´ÐµÐ»
Ð¢Ó©ÑĢ ÑĤÑĸÐ½ÑĪÑĸ
ĠÐ´ÐµÒ£Ð³ÐµÐ¹ ÑĸÐ½Ðµ
ĠÐµÑĢÐµÐ¶ ÐµÐ»ÐµÑĢ
ĠÐ½Ò±Ñģ ÒĽÐ°ÑģÑĭ
Ð» Ð°Ð¹ÑĤÑĭÐ½
ĠÑģÐµÐ±ÐµÐ¿ ÑĤÐµÑĢÑĸ
ĠÑģÐ°Ð» ÑĭÐ½Ð´Ñĭ
ĠÐļÓ©Ð¿ ÑĤÐµÐ³ÐµÐ½
ĠÐ¶Ð°ÑĢÐ°ÒĽ Ð°ÑĤ
Ð¡ Ð¾Ò£ÒĵÑĭ
Ð¾Ð² Ð¸Ñĩ
Ð¸Ð² ÑĤÑĸÐº
ÐŃ Ðļ
ĠÐĳÐ¸ Ð¾Ð»Ð¾Ð³Ð¸Ñı
Ð¼Ð¸Ð½Ð¸ÑģÑĤÑĢ Ñĸ
ĠÑĤ iÐ»
ĠÐµÑĢ Ð»ÑĸÐº
ĠÐ¶ ÑĸÐ³Ñĸ
ĠÓ©ÑĤÐºÑĸÐ·Ñĥ Ð´Ñĸ
Ðķ Ð½Ð´Ñĸ
ĠÓ©Ð¼ÑĸÑĢ Ð»ÑĸÐº
ĠÐ¸Ð³ÐµÑĢ ÑĸÐ»ÑĥÑĸ
Ñģ Ð°Ð¿
ĠÒĵ Ò±Ð»
Ð± ÑĸÐ»ÑĸÐ¼
ĠÐ¿Ð°Ð¹Ð´Ð°Ð»Ð°Ð½ ÑĭÐ»Ð°ÑĤÑĭÐ½
ĠÓĻÐ»Ð´Ðµ ÒĽÐ°Ð¹Ð´Ð°
ĠÐ¶Ð°Ñģ ÑĤÐ°ÑĢÒĵÐ°
ĠÐŁ Ð¾
ÐĲ ÐĻ
ĠÒļ Ð¾Ð¶
ĠÐ±Ð°ÑģÑĪ ÑĭÑģÑĭÐ½Ð°
ĠÐ¶ÐµÑĤÐºÑĸÐ· ÑĸÐ¿
ĠÐ±Ð°Ñģ ÑĭÐ½ÑĭÒ£
ĠÓĻ Ð¼ÑĸÑĢ
ÑĥÑĪÑĭ ÒĵÐ°
ĠÐ¼Ò±ÑĢÐ°Òĵ Ð°ÑĤÑĤÐ°ÑĢ
Ð¾Ð¿ Ð°ÑĤ
Ð°Òĵ Ð°Ð»Ð¸
Ð°Ñĥ ÑĭÐ·
ĠÑĤ ÐµÐ±
Ġ4 7
ĠÒĽÐ¾ÑĢÒĵÐ°Ð½ ÑĪÑĭÐ»ÑĭÒĽ
ĠÐ±Ð°ÑģÒĽÐ°ÑĢÑĥ Ð´ÑĭÒ£
ĠÓĻÐ´ÑĸÑģÑĤÐµÑĢ ÑĸÐ½
ĠÐ¼iÐ½Ð´ÐµÑĤ ÑĤi
ÐºÑĸ ÑĤ
ÐµÐ± Ð°ÐµÐ²
ĠÑį Ð¼Ð¾
ĠÐĵ ÐµÐ½
ĠÐ±Ð°Ñģ ÑĤÐ°Ð¼Ð°
Ġ3 3
ĠÐĺÐ½Ð²ÐµÑģÑĤÐ¸ ÑĨÐ¸ÑıÐ»Ð°ÑĢ
ĠÐľ Ð¸ÑıÐ»Ñĭ
ĠÐºÐ¾Ð¼Ð°Ð½Ð´ Ð°ÑģÑĭ
ĠÑĤÒ¯Ð¿ Ð½Ò±Ñģ
ĠÐ¶Ð¾Ð± Ð°Ð»Ð°ÑĢÑĭ
ĠÐŀ Ð»Ð°ÑĢÒĵÐ°
ĠÒļÐ°Ð¹ ÑĤÐ°
ĠÑģÐ°Ð½ Ð°ÑĤÑĭ
ĠÐ¼ÐµÐ¼Ð»ÐµÐºÐµÑĤÑĤÐµÑĢ Ð´ÑĸÒ£
ĠÑĦÐ¸Ð»Ð¾ÑģÐ¾ÑĦ Ð¸ÑıÐ»ÑĭÒĽ
ĠÐ±ÑĸÑĢ ÑĪÐ°Ð¼Ð°
Ð¸Ð½ Ð¾
ÒĽÑĭÐ· Ð¼ÐµÑĤ
ĠÐ°ÑĤ Ð°Ð½ÒĵÐ°Ð½
ĠÐ°ÒĽ Ð°Ñĥ
ĠÐ±ÐµÐ» Ð´ÐµÑĥ
ĠÒĽÐ¾Ð¹ ÑĭÐ»Ð°Ð´Ñĭ
ĠÑĤÒ¯ ÑĤÑĸÐ½
ĠÒ¯Ð»Ð³ÐµÑĢ Ð³ÐµÐ½
ĠÒļÐ°Ð¿ ÑĪÐ°ÒĵÐ°Ð¹
ĠÐºÐµÑĤ ÑģÐµ
ĠÒĽÐ¸Ñı Ð»
ĠÐ¶ÐµÐº ÐµÑĪÐµÐ»ÐµÐ½
ĠÒĽÐ°Ð» ÑģÐ°
ĠÐºÑĸÑĢ Ñĥ
ĠÐ¼Ð°ÒĽÑģ Ð°ÑĤÑĤÐ°ÑĢÑĭ
ĠÑĤÐµÑĢÐ°Ð¿ Ð¸Ñı
ÉĻ ÑĢ
ÐĲ Ð³
ĠÐ¶Ð°Ð½ Ð´Ð°ÑĢ
ĠÓĻÑĥ ÐµÐ¶
Ð¾Ð¹ ÑĭÐ·
ĠÓ©ÐºÑĸÐ» ÐµÑĤÑĤÑĸ
ĠÐ¶Ð°ÑĢÐ°ÑĤÑĭÐ» ÑĭÑģÑĤÐ°Ð½Ñĥ
ĠÒ±Ð·Ð°ÒĽÑĤÑĭ ÒĵÑĭ
ĠÐ±ÑĸÑĢ ÐµÑĥÑĸ
ĠÐ¶Ð¾Ð» ÑĭÐ½Ð´Ð°ÒĵÑĭ
ĠÒ±ÑģÑĤÐ°Ð½ ÑĭÐ¼
ĠÑģÒ±Ð»Ñĥ Ð»ÑĭÒĽ
Ð°Ð»ÐµÑĢ ÐµÑı
ĠÑĤÒ± ÑģÐ°Ñĥ
ĠÒĽÐ°Ð¶ ÐµÑĤÑĸ
ÑĤÑĸÑĢ ÑĸÐº
ĠÑģÐ¾ ÒĵÐ°Ð´Ñĭ
ĠÐ¿Ð°Ð¹Ð´Ð°Ð»Ð°Ð½ Ð°Ð´Ñĭ
Ð¾ Ñĥ
ĠÐµÑĢÐµÑģ ÐµÐº
ĠÐ³Ó©ÑĢ Ñĸ
ĠÐ°Ð»Ð°ÑģÑĭÐ· Ð´Ð°ÑĢ
ĠÐ¶ÓĻÑĢ Ð¼ÐµÒ£
ĠÐ± ÐµÑĤÑĤÐµÑĢ
Ġ0 5
ÐĽ ÐķÐļ
ĠÐļÐµÐ¹ Ð´Ðµ
Ð¼ ÐµÐ¼Ð»ÐµÐºÐµÑĤÑĤÑĸÐº
ĠÓ©Ð¼ÑĸÑĢ ÑĸÐ½Ðµ
Ð°ÒĽÑĭ ÑĤÑĭ
Ó¨ ÑĤÐºÐµÐ½
ĠÑĤÓ©Ò£ÑĸÑĢ ÐµÐ³ÑĸÐ½Ð´Ðµ
ĠÑĤ ÑĸÑģ
ĠÒĽÐ°Ð» Ñĥ
ĠÐ°Ð¹ÑĤÑĭÐ» Ð°Ð´Ñĭ
ĠÐ¾ÑĢÑĤ Ð°Ð»ÑĭÒĵÑĭÐ½Ð°
Ð´Ð¸ ÐµÐ²
ÒĵÑĭÐ½ Ñĭ
ĠÐ±Ð°Ð¿ ÑĤÑĭÒ£
ĠÐĿ Ð°ÑĢ
ĠÐ¾ÑĢÐ½ Ð°ÑĤÑĭÐ»
ÐµÐ¼ ÐµÐ»
ĠÐ¶ Ð¶
ĠÐ¿ÐµÑĢ Ð·
ÑĭÑĢ Ð·Ð°
ĠÐĲ ÑĪÑĭÒĽ
ĠÐ¡ÑĤÐ°ÑĤÐ¸ÑģÑĤ Ð¸ÐºÐ°
Ð±ÐµÑĢÐºÑĥÐ» ÐµÐ·
ĠÑĢÐµÑģÐµÐ¹ Ð»ÑĸÐº
ĠÐļÐµÒ£ ÐµÑģÑĸÐ½ÑĸÒ£
ĠÐĶ Ð°ÑĢ
ĠÑģÐ°Ð» Ð¼Ð°ÒĵÑĭ
Ð¢Ò¯ÑĢ ÐºÑĸÑģÑĤÐ°Ð½
Ġ4 9
ÐµÐ³ÐµÐ¹ Ð»Ñĸ
ĠÒ¯ÑģÑĤÐµÐ¼ Ð´ÑĸÐ³Ñĸ
ĠÐ±ÑĸÑĢ ÑĤÒ±ÑĤÐ°Ñģ
ĠÐº Ð³
Ð°ÑĤ Ð¾Ð¼
ĠÐ±ÑĸÑĢ ÑĤÑĸÐ½Ð´ÐµÐ¿
ĠÑĪ Ð°Ò»
Ð¸Ñģ ÑĮ
Ð¸ Ð¶
ĠÐĲÐ» Ð´Ñĭ
ĠÑĤÐ°Ð» Ð°Ð±Ñĭ
ĠÐ´ÓĻÑĢÐµÐ¶ ÐµÐ´Ðµ
Ð¼ iÑĢ
ĠÐºÐµÐ·ÐµÒ£ Ð³Ðµ
Ðº ÑĸÑģÑĸ
Ðľ ÐµÐ´Ð¸ÑĨÐ¸Ð½Ð°Ð»ÑĭÒĽ
ÑĤÐ°Ð» Ð¼ÑĭÑĪ
Ðµ ÑĨ
ĠÐ¿ÑĢÐ¾ÑĨ ÐµÐ½ÑĤ
ĠÐ°Ð²ÑĤÐ¾Ð± ÑĥÑģÑĤÐ°ÑĢ
ð Ł
ĠÐºÐµÑĤ ÑĸÐ¿ÑĤÑĸ
ĠÐĲÐ»Ð» Ð°ÒĵÐ°
ĠÑĥÐ½Ð¸Ð²ÐµÑĢÑģÐ¸ÑĤÐµÑĤ ÑĸÐ½Ð´Ðµ
ĠÐĶ Ð°Ñĥ
ĠÐºÓ©ÑĢ ÐµÑĤÑĸÐ½
Ð´ÐµÐ½ Ñĸ
ĠÐµÑģ ÑĸÐ¼Ð´Ñĸ
ĠÐĲÑĥÐ´Ð°Ð½ Ð´ÑĭÒĽ
Ġ v
ĠÑĪÐµÑĪÑĸÐ¼ ÑĸÐ¼ÐµÐ½
Ð°Ð½Ð´ ÑĥÐ¼
ĠÐ¶Ð°Ð½ ÑĭÐ½Ð´Ð°
ĠÓ© ÐºÑĸÐ¼
ĠÐ¼ÓĻ Ò£Ð³ÑĸÐ»ÑĸÐº
ĠÒĽÑĭÐ·Ð¼ÐµÑĤÐºÐµÑĢÐ»ÐµÑĢ ÑĸÐ¼ÐµÐ½
ĠÐºÐµÒ£ÐµÑģ ÑĤÐµÑĢ
ÒĽÐ°Ð½ ÑĪÐ°
ĠÐ±ÑĸÐ»ÑĸÐºÑĤÑĸ Ð»ÑĸÐºÑĤÑĸ
Ð¸Ñħ Ð°Ð½Ð¾Ð²
ĠÐ¸ ÐµÐ»ÑĸÐº
ĠÐ±Ò±Ð¹ÑĭÐ¼ Ð´Ð°ÑĢ
ĠÐĹÐ°Ò£ Ð½ÑĭÒ£
ĠÐ°Ñģ ÑĤÑĭÒĽ
ĠÐ»Ð°ÑĥÐ°Ð·ÑĭÐ¼ Ð´Ð°ÑĢÑĭÐ½Ð°
Ð¼ Ð¾ÑģÑĦÐµÑĢ
ĠÐĳ ÐµÑģ
ĠÐ±Ð°ÑĢ Ð°ÑĤÑĭÐ½
Ġ5 6
ĠÐł Ð°Ð¼Ð°Ð·Ð°Ð½
ĠÐºÓ©Ò£ÑĸÐ» ÑĸÐ½
ĠÐ³ Ð°
ĠÐ±ÑĸÑĢ Ð»ÑĸÐ³Ñĸ
ĠÐºÓ©Ð»ÐµÐ¼ ÑĸÐ½Ð´ÐµÐ³Ñĸ
ĠÐºÓ©ÑĢÑĸÐ½ ÐµÑĤÑĸÐ½
Ò£ Ð³Ñĸ
ĠÐ¶ÐµÐ» ÑĸÑģÑĸ
Ð°Ò£ Ð´Ñĭ
ĠÐ±ÐµÑĢÑĥ Ñĸ
Ð´Ñĸ Ð³
ĠÑģÓ©Ð· Ð±ÐµÐ½
ĠÑģÓ©Ð¹ Ð»ÐµÐ¿
ĠÑĤÑĢ Ð°ÐºÑĤÐ¾ÑĢ
ĠÐĲÑģÑĤÐ°Ð½ Ð°Ð½ÑĭÒ£
Ð»ÐµÑĤ Ðº
ĠÐºÓ©ÑĤÐµÑĢ ÑĸÐ»ÑĸÑģ
ĠÐºÐ¾Ð½ÑĨ ÐµÐ½ÑĤÑĢ
Ðĳ Ð¸Ð·Ð½ÐµÑģ
ÐŀÐ±Ð» ÑĭÑģÑĤÑĭÒ£
ĠÑģÓĻÐ» ÐµÐ¼
Ð² Ð¾Ðº
Ð³ÑĸÐ½ ÐµÐ½
ĠÑĦ Ð¾ÑĤÐ¾
Ð¾Ò£ ÒĵÐ¾Ð»
ĠÐ¸Ðµ Ð³ÐµÑĢÑĸ
ĠÐ±Ð¾ÑģÑĤÐ°Ð½ Ð´ÑĭÒĵÑĭÐ½Ð°Ð½
ĠÑĤÐ°Ð¼ ÑĪÑĭ
Ð°Ð» Ð°ÒĽ
ĠÐ°ÑıÒĽ ÑĤÐ°Ð»Ð´Ñĭ
Ð°Ð»Ð°ÑĢ ÑĭÐ¼ÑĭÐ·
ĠÐ¡ÓĻ ÑĤ
Ð´Ñĸ Ð»
ĠÐºÐµÐ» ÑĥÑĸ
ĠÒĽÐ°Ð± Ð°ÑĤ
i ÑģÑĤi
ĠÐ´ Ð°ÑĢÐ°
ĠÐ°ÑĢ Ð°ÑģÑĭÐ½Ð°Ð½
ĠÐľÐ°ÒĽÐ°Ð» Ð°Ð»Ð°ÑĢÐ´Ñĭ
Ð¾Ð»Ð¾Ð³Ð¸Ñı ÑģÑĭ
ÑĤ ÑĥÑĢ
ĠÐ°ÒĽÐ¿Ð°ÑĢÐ°ÑĤ ÑĤÐ°Ð½Ð´ÑĭÑĢÑĥ
ĠÐ½Ð°ÑĢ ÑĭÒĵÑĭÐ½
ÑĭÑģ ÑĭÐ½Ð°Ð½
ĠÑĤÑĸÐ½ Ð´ÐµÑĢÑĸÐ½ÑĸÒ£
ĠÐºÐ¾Ð½ ÑģÑĤÐ¸ÑĤÑĥ
ĠÐķÐ½ Ð´ÐµÑĪÐµ
Ð» Ð°Ð·
ĠÐ½ ÓĻ
ĠÐ¨ÑĭÒ£ ÒĵÑĭÑģ
ĠÐ°Ð½ÑĭÒĽ ÑĤÐ°Ð»
ĠÐ¶Ò¯ÑĢ Ð´Ñĸ
ĠÓ©Ð¼ÑĸÑĢ Ð´ÐµÐ½
ÑĤÒ¯Ñģ ÑĤÑĸ
ÒĵÑĭÐ» ÑĭÒĽÑĤÑĭ
ÑĨ ÐµÐ²
ĠÐ°ÑĢÑĤÑĭÒĽ ÑĪÑĭÐ»ÑĭÒĽ
ĠÐ±Ð°ÒĵÐ´Ð°ÑĢÐ»Ð°Ð¼ Ð°Ð½ÑĭÒ£
Ð³ iÐ»iÐºÑĤi
ĠÐ¶Ð°ÑĢÐ¸Ñı Ð»Ð°Ð´Ñĭ
ĠÐ¨ Ð¸ÐµÐ»Ñĸ
ĠÐ¾ÒĽÑĥÑĪÑĭÐ»Ð°ÑĢ ÑĭÐ½ÑĭÒ£
Ð¿ Ð°Ñģ
ĠÒĽÐ°ÑĤÑĭÑģ ÑĥÑĭ
Ð±Ð°Òĵ Ð°Ð»Ð°Ñĥ
ĠÑĤÐµÑĤ ÑĸÐº
ĠÒĽÐ°Ð± Ð°ÑĤÑĤÑĭ
ĠÐºÑĸÑĢ Ð³ÑĸÐ·
Ð¢ Ð°ÒĵÑĭ
ĠÒĽÐ°ÑģÐ¸ ÐµÑĤÑĤÐµÑĢÑĸ
ÐľÒ± ÒĵÐ°Ð»
ĠÒ¯ÐºÑĸÐ¼ ÐµÑĤÑĤÑĸÐº
ÐĲÐł Ð«
Ð¼ÑĭÐ· ÒĵÐ°
ĠÐ» Ð¸Ð·
ĠÒĽÑĭÐ·Ð¼ÐµÑĤ ÑĪÑĸÐ»ÐµÑĢÐ´ÑĸÒ£
ĠÐ¶Ð¸Ð½Ð°ÒĽÑĤÐ°Ñĥ ÑĪÑĭ
e g
Ð± ÑĥÑĢÐ³
ĠÐ¿ÑģÐ¸Ñħ Ð¾Ð»Ð¾Ð³
ÑĭÑģ ÑĭÐ¿
ĠÐ¡ ÑĤÐµÐ¿
ĠÐĲÒĽ ÑģÐ°Ð¹
ĠÑģÓĻÐ¹ Ðº
ĠÐ¶ÐµÑĤÐºÑĸÐ· ÑĥÐ³Ðµ
ĠÒĽÐ°ÑĢÐ°Ð¶ Ð°ÑĤÑĭ
ĠÐµÑĢÐµÐ¶ ÐµÐ»ÐµÑĢÑĸ
ÑĪÑĭÐ»Ð°ÑĢ Ð´Ñĭ
ÐŁ ÐĲÐłÐĲÐ¢
ĠÐ¿Ð» Ð°ÑĤ
ĠÑģÐ¸Ð¿Ð°ÑĤ ÑĤÐ°ÒĵÑĭ
Ðº Ð¾Ð»Ð¾Ð³Ð¸ÑıÐ»ÑĭÒĽ
d er
ÑĢ Ñĭ
Òļ ÑĭÑĢ
cri pt
ĠÐº Ð°Ð»
Ð»Ñĸ Ð³ÑĸÐ½Ð´Ðµ
ĠÐ±Ò±Ð¹ÑĢ ÑĭÒĽ
ÑĭÐ½ Ð´Ð°Ð¹
ÑĨÐ¸ Ð¸
Ð¢ÐĲ Ðł
Ð¸ÑĤ ÐµÑĤÑĤÑĸÒ£
ĠÐº Ð°Ð¼ÐµÑĢ
Ð¡ Ð°Ð¼
ĠÐºÓ©ÑĢÑģÐµÑĤÐºÑĸÑĪ Ñĸ
ĠÐ¶ Ð°Ð¹Ð»
ĠÐ¡ Ò¯Ð»ÐµÐ¹Ð¼ÐµÐ½
ĠÐ´ÓĻ Ð¹
ĠÐ¶ÐµÑĤÐºÑĸÐ· Ðµ
ĠÑĪÐ¾Ð» ÑĥÐ»Ð°ÑĢ
ĠÐºÐ¾Ð´ÐµÐº ÑģÑĸ
ÑĭÑģ ÑĤÐ°ÑĢÑĭ
ĠÐļ ÐµÑĥÐ´Ðµ
ĠÒĵÐ¸Ð¼Ð°ÑĢ Ð°ÑĤÑĤÐ°ÑĢ
ĠÑĪÐ°ÑĢÑĥÐ°ÑĪÑĭÐ»ÑĭÒĽ ÑĤÑĭÒ£
ĠÐ±ÐµÐ» Ð´ÑĸÐº
Ð«ÐĿ Ð«Ò¢
ĠÐ¶ ÓĻÐ½
ĠÓĺ Ð»Ñĸ
ĠÐ°Ð´Ð°Ð¼Ð´Ð°ÑĢ Ð¼ÐµÐ½
Ð¾Ð½ Ð½ÑĭÒ£
ĠÒ¯ Ð³Ñĸ
Ð» Ò±Ð¼
ĠÐļ Ò¯ÑĪ
ĠÐ¼Ð°ÒĽÑģÐ°ÑĤ ÒĽÐ°
ĠÐ´ÐµÐ¿ÑĥÑĤ Ð°ÑĤÑĤÐ°ÑĢÑĭ
ĠÐºÐ¾Ð½ÑĦÐµÑĢÐµÐ½ÑĨÐ¸Ñı ÑģÑĭ
Ð¿ Ð°Ð´Ñĭ
ĠJ av
ĠÓ©Ð·ÑĸÒ£ÑĸÐ· Ð´ÑĸÒ£
ĠÑĪÐµÑĪÑĸÐ¼ ÑĸÐ½Ðµ
ĠÐ±Ñĥ Ñħ
ĠÓ©Ð· Ð´ÐµÑĢÑĸÐ½
iÐ½i ÑĪ
Ð¸Ðº Ð°Ð½Ñĭ
ĠÒĽÑĭÐ·Ð¼ÐµÑĤÑĤÐµÑĢ ÑĸÐ½ÑĸÒ£
ĠÐ¾Ð» Ð¸Ð¼Ð¿Ð¸Ð°Ð´Ð°
ĠÐ°ÑĥÑĭÐ· ÑĪÐ°
ÑģÑĤ ÑĮ
Ð¿ÐµÑĢ Ð¸
ÑĪ ÑĸÑģÑĸÐ½ÑĸÒ£
ÑĸÐº Ñĸ
Ð½Ñĭ Ñħ
ĠÐ°Ð³ ÑĢÐ¾Ó©Ð½ÐµÑĢÐºÓĻÑģÑĸÐ¿ÑĤÑĸÐº
ĠÑģÑĥ Ð´Ñĭ
Ð´ÐµÑģ ÑĸÐ½
ĠÐ´Ðµ ÑĥÐ³Ðµ
ĠÑĤÑĥ ÑĭÐ¿
ĠÐ±Ð°Ð» Ð°ÑģÑĭÐ½ÑĭÒ£
ĠÑģÐ¾ÒĽ ÒĽÐ°Ð½
ĠÑģÓ©Ð· Ð´ÐµÑĢÑĸ
ÐµÐº ÑĪÑĸ
Ġ199 9
Ò£Ð³ ÑĸÑĢ
ĠÑĤÐ¾Ð» ÑĭÐ¿
ĠÐ±ÐµÐ¹Ð½ ÐµÑģÑĸ
ĠÐ¶Ð°Ð»ÒĵÐ°ÑģÑĤÑĭÑĢ ÑĭÐ¿
ĠÐ¶Ð°Ð» Ð¿
ĠÐĲÐ·Ð°Ð¼ Ð°ÑĤÑĤÐ°ÑĢ
ĠÐ½ÓĻÑĢÑģÐµÐ½ Ñĸ
Ð´ÑĸÑĢ ÑĸÐ¿
ĠÐķÑĢ Ð»Ð°Ð½
Ð½ Ð¾Ð³Ð¾ÑĢ
ĠÐ¾ ÑģÑĭÐ½Ð´Ð°
ĠÐĸ ÑĥÑĢÐ½Ð°Ð»
ĠÐ»Ð°ÑĥÑĢÐµ Ð°ÑĤÑĭ
ĠÑĤÐ¸ iÑģ
ĠÐĺÐ½ Ð´ÐµÑĢ
ĠÒ¯Ð¹ Ð»ÐµÑĢÑĸ
ĠÐ±ÑĸÑĤÑĸÑĢ ÑĸÐ¿
ĠÐºÓ©Ð»ÐµÒ£ ÐºÐµ
ÒĵÐ° Ñİ
ĠÐ¶Ò¯ÑĢÐ³ÑĸÐ· Ð´Ñĸ
ĠÑĤÒ±ÑĢÒĵÑĭÐ½ Ð´Ð°ÑĢÐ´ÑĭÒ£
ÑĤÑĭÐ» Ð°ÑĤÑĭÐ½
ĠÑģÑĤÑĥÐ´ÐµÐ½ ÑĤÑĸ
ĠÐ ¹
Ð± Ó©Ð»
Ð¿Ð¾ÑĢ ÑĤÑĭ
ĠÑħÐ¸ÑĢÑĥÑĢÐ³ Ð¸ÑıÐ»ÑĭÒĽ
ĠÐŀÐ±Ð» ÑĭÑģ
Ð¢Ð°ÑĢ Ð¸Ñħ
ĠÓĻÐºÑĸÐ¼ Ð´ÐµÑĢÑĸ
ĠÐºÓ© Ð±Ñĸ
ĠÑģÐ°Ð¿ Ð°ÑĢÑĭ
ĠÑĤÓĻÐ¶ÑĸÑĢÐ¸Ð± ÐµÑģÑĸÐ½
ĠÐ¼ Ð°ÒĵÑĭÐ½Ð°
ĠÒ¯Ð»Ð³Ñĸ ÑģÑĸ
ĠÐ°ÑĥÐ¼Ð°Òĵ ÑĭÐ½Ð´Ð°ÒĵÑĭ
ĠÐºÐ°Ð´Ð°ÑģÑĤÑĢ Ð»ÑĭÒĽ
ĠÐ¾ÑĢÐ³Ð°Ð½ Ð´Ð°ÑĢÑĭÐ½Ð°
Ð» Ð¸Ð¼
ĠÐ¼ÓĻÐ¶ ÑĸÐ»ÑĸÑģ
Ð·Ð°Ð¹ ÑĭÐ¿ÑĤÑĭ
Ð¶ ÑĭÑĢ
ĠÐºÐ°Ð½Ð´Ð¸Ð´Ð° ÑĤÑĤÐ°ÑĢÐ´Ñĭ
ĠÓ©Ñģ ÑĤÑĸ
Ð½ Ð°ÑĢ
ĠÐ±Ð°Ð¹Ð»Ð°Ð½ÑĭÑģ ÑĤÐ°
ĠÓ©Ð½ÑĸÐ¼Ð´Ñĸ Ð»ÑĸÐ³Ñĸ
Ð¸ Ñŀ
ĠÐµÐ» ÐµÑģÑĤ
ĠÐµ Ð³Ñĸ
ÑĤÐ¸Ð· Ð¼
ĠÑģ ÑĭÐ»
ÐĴ ÑģÐµ
ĠÑĢÐ°Ð´Ð¸ Ð¾
ĠÐľ Ð°Ð¼
i st
ĠÐľ ÐµÐ´Ð¸ÑĨÐ¸Ð½Ð°Ð»ÑĭÒĽ
ĠÑĤÒ¯ÑģÑĸÐ½ ÑĸÐºÑĤÑĸ
ĠÐ¾ÑĢÑĭÐ½ Ð´ÑĭÒĽ
ĠÐĳ Ð°Ð½
ĠÐ°Ðº ÑĤÐµÑĢ
ĠÐ±Ð°Ð» Ð°ÑģÑĭÐ½
ĠÐĳ ÑĢ
ĠÒ±Ñı Ð»
Ðļ ÐµÐ¹
ĠÑĪÐ°Ò£ ÑĭÑĢÐ°ÒĽ
ĠÑĪÐ¾ Ñĥ
ÐļÐµÒ£ Ó©Ð·ÐµÐº
Ð¸Ðº Ð°ÑģÑĭÐ½ÑĭÒ£
Ð¶Ð°Ñģ ÑĭÐ»
ĠÐ¼ÐµÐºÑĤÐµÐ± ÑĸÐ½Ð´Ðµ
ĠÐ±Ò±Ð· ÑĭÐ»ÑĭÑģ
Ð¸Ðº Ð°ÑģÑĭÐ½
ĠÐ¨ ÑĸÐ»
ĠÓĻ Ð´
Ð´Ð°Ð¼ ÑĭÐ·
ĠÒĽÒ±ÒĽ ÑĭÒĵÑĭÐ½Ð´Ð°
Ð¶ Ðµ
ĠÑĤÐµÑħÐ½Ð¾Ð»Ð¾Ð³Ð¸Ñı ÑģÑĭ
ĠÑĤÑĸÐ» Ð´ÑĸÐº
ÐµÑĤÐµÑĢÐ¸Ð½Ð°ÑĢ Ð¸Ñı
ĠÐ¸Ð½Ð¶ÐµÐ½ ÐµÑĢ
Ð¨ Ð°ÑĢ
200 9
4 6
ĠÐºÒ¯Ð¹ Ñĸ
ĠÐºÐµÐ» Ð¼ÐµÐ¹ÑĤÑĸÐ½
ĠÐĿ ÐµÐ³ÑĸÐ·
ĠÒĽÒ±ÑĢ Ð°ÑģÑĤÑĭÑĢÑĥ
ĠÐ¶Ð°Ð» Ð°ÒĽÑĭ
ÑĪ Ð¸
ĠÐĺ Ñģ
ĠÐ±Ð°ÑĢ Ð»Ð°Ñĥ
ĠÐºÓ©ÑĤÐµÑĢ Ð´Ñĸ
ĠÑģÑĭÑĢ ÑĭÐ½
ĠÒĽÐ°ÒĵÑĭ Ð¿
ÑĪ ÑĭÒĵ
ĠÑĤÐ°ÑĢ ÑĤÑĤÑĭ
ĠÐ°ÑĥÑĭÑģÑĤÑĭÑĢ ÑĥÒĵÐ°
ÒĵÐ°Ð½ Ð½Ð°Ð½
ĠÐµÐ» Ð´ÐµÐ³Ñĸ
ĠÐ¾Ò£ Ð°Ð»ÑĤÑĥ
ĠÑģÒ¯ÑĢ Ð³ÐµÐ½
ĠÐľ Ðµ
Ð´Ð°Ð¹ Ñĭ
ĠÐºÒ¯Ð½ ÑĸÐ½
ĠÐ±ÐµÑĤ ÑĸÐ½Ð´ÐµÐ³Ñĸ
ĠÒĽÐ°Ñĥ Ð¿Ñĸ
ĠÐ±ÐµÐ¹Ð½ ÐµÐ»ÐµÑĥ
âĢ ¢
ĠÐ±ÑĸÐ» ÐµÐ¼ÑĸÐ·
ĠÑģÑĤÐ°Ð½Ð´Ð°ÑĢ ÑĤÑĤÐ°ÑĢÒĵÐ°
ĠÐµÒ£Ð±ÐµÐº ÐºÐµ
ĠÑĢÐµÐ´Ð°Ðº ÑĤÐ¾ÑĢ
ĠÐ¶Ð°Ð¼Ð±Ð°Ñģ ÑĤÑĭÒ£
ĠÑģÐ°Ð½ Ð°Ð»Ð°ÑĤÑĭÐ½
ĠÐµÑģ ÑĸÑĢÑĤ
ĠÑĤÐ°Ð½ ÑĭÐ¿
ÐĸÐ°Ñģ ÑĤÐ°ÑĢ
ĠÐºÐ¾ Ð¾Ð¿ÐµÑĢ
Ðŀ ÑĤ
ĠÑĤÐ¾Ð¿ ÑĤÐ°Ð¼
ÑĤ Ð°Ð±Ñĭ
ĠÒļÐ°Ð·Ð°ÒĽ ÑĤÑĭÒ£
ĠÑĪÐµÐº Ð°ÑĢÐ°
ĠÐ°Ñı ÑģÑĭÐ½Ð´Ð°ÒĵÑĭ
ÑĤÐµÑĢÐ°Ð¿ Ð¸Ñı
ĠÐ°ÒĽ ÑģÐ°ÒĽÐ°Ð»
ĠÐ¶Ð¾Ð± Ð°Ð½ÑĭÒ£
ĠÒĽÐ°Ð» Ð°ÒĵÐ°Ð½
ĠÒĽÐ°Ð·Ð°ÒĽ ÑĤÐ°ÑĢ
ĠÑĤÒ¯Ð± ÐµÐ³ÐµÐ¹Ð»Ñĸ
ÐµÑĤ ÑĸÐ¿
ÑģÑĤ Ð°ÑĦ
ĠÑĪ ÐµÐ¶ÑĸÑĢ
ĠÐ±ÑĸÑĢ ÑĸÐ½Ð´Ðµ
ĠÐ°Ð¹ ÑĤÑĭ
ĠÐ¼Ð°ÒĽ Ò±Ð»
ĠÐ´ ÑĢ
ĠÐ¼ÐµÑĢÐµÐº ÐµÑģÑĸ
Ð°Ð´Ñĭ Ð±
ÑĢ Ð¸ÑģÑĤ
ĠÑĥ Ð°ÒĽÑĤÑĭ
ĠÐ±Ð°Òĵ Ð°Ð»Ð°Ð½
ĠÑĪÐ°ÒĽÑĭÑĢ Ð´Ñĭ
ĠÑĩ ÐµÐ»
ĠÐºÓ©ÑĢÐºÐµÐ¼ Ð´ÑĸÐº
ĠÐ¼ ÑĥÐ»ÑĮ
Ðĸ Ð¸
Ð² Ð°Ð½
ĠÑĤÐ°ÑĥÐ°ÑĢ Ð»Ð°ÑĢÐ´Ñĭ
ĠÐ¾ÑĢÑĤÐ°Ð»ÑĭÒĽ ÑĤÐ°ÑĢ
ĠÐ±Ð¾Ð» Ð°Ð¼ÑĭÐ·
ĠÐ½ÓĻÑĤÐ¸Ð¶ ÐµÐ»ÐµÑĢÑĸÐ½
ÑĭÐ» ÑģÑĭÐ½
ĠÒĽÒ±Ð¶Ð°ÑĤÑĤÐ°ÑĢ ÑĭÐ½
ÐķÐ¢Ð¢ ÐĨÐļ
ĠÓ©ÑĤ ÐµÐ¼
ĠÑĤ ÑĥÐ°
Ð¿ ÐµÐ¹ÑĤÑĸÐ½
ÑĭÐ± ÐµÐº
Ð°ÑĨÐ¸Ñı Ð½ÑĭÒ£
ĠÒ± Ð¿Ð°Ð¹
ĠÑĤÐ¸ÑĸÐ¼Ð´Ñĸ Ð»ÑĸÐ³Ñĸ
a S
ĠÐ°ÑĥÑĭÐ» ÒĵÐ°
Ð¸ÑĤ ÑĢ
ĠÐ¶Ò¯Ð¹ ÐµÐ½ÑĸÒ£
ÐĲÐ» Ð³ÐµÐ±ÑĢÐ°
ĠÒĽ Ð¾Ð¼
ĠÑģÐ°ÑĢ Ð°Ð¹
Ðĳ ÐµÐ»
ĠÐ±Ð¸ÑĢ Ð¶
ĠÐºÐµÐ» Ñĸ
ĠÐĲÐ»Ð»Ð°Ò» ÑĤÑĭÒ£
Ðľ Ð°ÑĢ
Ð¾Ð· Ñĭ
Ġ4 6
ĠÐ¸ ÐµÐ»ÐµÑĢÑĸ
ĠÐ°ÑĥÑĢÑĥ Ð´Ñĭ
Ð² ÐµÑĤ
ĠÐ±Ð°Ñģ ÑĭÒ£ÑĭÐ·
ĠÐł ÑĥÑģ
ĠÐ¶Ð°Ð½ Ð°Ð¼Ð°
ĠÒ¯Ð» Ð³ÑĸÐ»ÐµÑĢ
ĠÐł ÐµÐ½ÑĤÐ³ÐµÐ½
ĠÑĤÐ¾Ð» ÑĤÑĭÑĢÑĥ
ĠÐ¶Ò±ÑĢÑĤ ÑĤÑĭÒ£
ĠÑģÑĤÐ°Ð½ ÑĨÐ¸Ñı
Â» -
ĠÓĻ ÐºÐµÑģÑĸÐ½ÑĸÒ£
ĠÐ°Ð½Ð°Ð» Ð¸Ð·
ĠÐ¿ÑĢÐ¾ÑĦÐ¸Ð»Ð°ÐºÑĤ Ð¸ÐºÐ°ÑģÑĭ
ĠÐ°Ð¹ÑĤÑĭÐ» Ð´Ñĭ
Ñį Ð¿
ÑĤ Ð¾Ðº
ĠÓĺÐ» Ð³Ñĸ
ĠÐĸÐµÑĢ Ð³ÑĸÐ»ÑĸÐºÑĤÑĸ
ĠÒĽÐ¾Ð»Ð´Ð°Ð½ Ð°Ð´Ñĭ
ĠÐ¼Ð¸ Ð´ÑĭÒ£
ÐµÑĤ ÑĤÐµÐ½
ĠÐ°Ñģ Ð°Ð´Ñĭ
ĠÐĳÐ°ÒĽÑĭÑĤ Ð¶Ð°Ð½
ĠÐ¤ Ð¾ÑĤ
Ð³ Ó©Ð·
ĠÐ°ÒĽÐ¸ ÒĽÐ°ÑĤ
ĠÐ¼Ð°Òĵ Ð»Ò±Ð¼
ĠÐ£Ð¸ÐºÐ¸Ð¿ÐµÐ´ Ð¸ÑıÒĵÐ°
ĠÑĤÑĥ Ð´ÑĭÑĢÐ°Ð´Ñĭ
iÐº ÑĤi
ĠÐ¶Ð°ÒĵÑĭÐ¼ Ð´Ñĭ
ĠÒĽÐ¾Ð¹Ð½ Ð°ÑĥÑĭÐ½
ĠÑĤÓ©Ð»ÐµÐ½ ÐµÑĤÑĸÐ½
ĠÑĦ Ð¸Ð½Ð°Ð»
ĠÐ¶Ð¾ÑģÐ¿Ð°ÑĢ Ð»Ð°Ð½
ĠÐ°ÑģÑĭÑĢ ÑĭÐ»Ð°ÑĤÑĭÐ½
ÑĸÐ»Ñĥ ÑĸÐ½Ðµ
ĠÒĽÐ¾ÑĢ Ð¶ÑĭÐ½
ĠÒ±ÑĢ ÑĭÐ¿
ĠÑģ Ð¾Ð²
ĠÑĦ Ð¾Ð½
Ð¾ÐºÑĢÐ°ÑĤ Ð¸Ñı
i Ð³i
Ð»ÑĭÒĽ Ð¿ÐµÐ½
ĠÒĽÐ°ÑĤ Ðµ
Ð¸Ð´ Ð¶
ÑĤ ÒĽÐ°
ÐºÐµÑĢ Ð´ÑĸÒ£
Ð±Ð¸ Ð·
ĠÒĵ Ð¸Ð±Ð°
Ð¿ ÑĭÐ·
ÐķÐľ ÐĽÐķÐļ
ĠÐ±ÑĸÐ» Ð´ÑĸÐ¼
ĠÑĤÒ¯ÑģÑĸÐ½ ÑĸÐ¿
ĠÐ¢ Ñĥ
ĠÐĿ Ð¾ÑĢÐ²ÐµÐ³
ĠÐµÐ½ ÐµÐ´Ñĸ
ĠÐºÐ°Ð½ Ð°Ð»
ĠÐł ÑĭÑģ
Ðļ Ð¢
Ð´ÑĸÐº ÐºÐµ
ĠÐ¶Ò± Ð±Ð°Ð¹
ĠÐ¿Ð°Ð¹Ð´ Ð°ÑģÑĭ
ĠÐ´Ð¸Ð¿Ð»Ð¾Ð¼ Ð°ÑĤ
ĠÐ¢Ò± Ò£ÒĵÑĭÑĪ
Ð¿ ÑģÐ¸Ñħ
ĠÑģÓ©Ð· ÑĸÐ½Ð´Ðµ
ĠÐ¶Ð°Ò£Ð°Ð»ÑĭÒĽ ÑĤÐ°ÑĢÑĭ
ĠÐµÑĢ Ð»ÐµÑĢ
Ð°ÑıÒĽ ÑĤÑĭÒ£
ĠÐµ Ð´
ÑĤÐµÑĢ ÑĸÐ½ÐµÐ½
ĠÑģÐ°Ð½ Ð°Ð»Ñĭ
Ð¿Ð°Ð½ Ð¸Ñı
ĠÐ´ÐµÑĤ ÐµÐ¹
ĠÐŀÐ» Ð°Ð¹
ĠÐ¼Ð°ÒĽÑģÐ°ÑĤ ÑĤÐ°ÒĵÑĭ
ĠÐŁÐ°Ð¹ÒĵÐ°Ð¼Ð±Ð°ÑĢ ÑĭÐ¼ÑĭÐ·
ĠÐ¢ ÐµÒ£ÑĸÐ·
4 2
ĠÑĢ ÐµÐ½ÑĤÐ³ÐµÐ½
ĠÐŁ ÓĻÐ½
ĠÐ¿ÐµÑĢÑģÐ¿ÐµÐº ÑĤÐ¸Ð²
ĠÑģÐ°Ð» Ð°Ð´Ð°
Ġ0 9
ĠÓ©Ð»ÑĪ ÐµÑĥ
ĠÓĻÐºÑĸÐ¼ ÑĪÑĸÐ»ÑĸÐ³ÑĸÐ½ÑĸÒ£
ÑĭÑģ Ñĥ
ĠÑĢÑĥ Ñģ
ĠÐ´ÓĻÑĢÐµÐ¶ ÐµÑģÑĸ
Ð±ÑĸÑĢ Ñĸ
ĠÐ¶ÐµÑĢ Ð»ÐµÑģ
ĠÐ¸Ð´ÐµÑı ÑģÑĭ
ĠÒĽÐ°Ð¼ ÒĽÐ¾ÑĢÐ»ÑĭÒĽ
ĠÓ¨ Ò£ÑĸÑĢ
ĠÐ°Ð» Ð´ÑĭÒĽ
Ñĭ Ñŀ
Ð¿ Ð°Ð·Ñĭ
ĠÐ°Ð¹ Ð»Ð°ÑĢÑĭÐ½Ð´Ð°
ĠÐ¾ÑĤ Ð±Ð°ÑģÑĭÐ½ÑĭÒ£
ĠÐµÑĢÐµÐ¶ ÐµÐ»ÐµÑĢÑĸÐ½
ĠÑĪ Ð°Ñħ
Ð¶Ð°Òĵ Ð°ÑĢ
A M
ĠÐ± ÑĭÐ»ÑĤÑĭÑĢ
ĠÐ¼Ð°Ð¼Ð°Ð½ Ð´Ð°ÑĢÐ´ÑĭÒ£
Ð¿ ÑĸÐºÑĸÑĢ
ĠÑį ÑģÑģÐµ
ĠÐºÐ¾Ð¼Ð¿ÑĮÑİÑĤÐµÑĢ Ð»ÑĸÐº
ĠÐ±Ð°ÑģÐ¿ Ð°
ĠÐŀ ÑĤÑĭÑĢ
ĠÐ±Ð°ÑģÒĽÐ°ÑĢ ÑĥÒĵÐ°
ĠÐ¨Ð°Ð» ÒĽÐ°ÑĢ
ĠÒļÒ±Ð» ÑģÐ°ÑĢÑĭ
ĠÑĤÐ°Ð½ÑĭÑģ ÑĤÑĭ
ĠÐ±Ð°Ñģ ÑĤÐ°Ð»ÑĭÐ¿
ÐĨ Ðł
ĠÐ¿Ð¾ Ñĩ
ĠÑĢÐµÑĦÐµÑĢ Ð°ÑĤÑĤÐ°ÑĢ
ĠÒ®ÐºÑĸÐ¼ ÐµÑĤÑĸ
ĠÐ°Ð¹ÑĤ ÑģÐ°ÒĽ
ĠÐ¨ÐµÑĤ ÐµÐ»
ĠÐ¼Ð°ÒĽÑģÐ°ÑĤ ÑĤÐ°
ĠÐ¾Ð¹Ð½ Ð°Ð¿
Ð½ Ð´Ð°Ð¹
ĠÒĽÐ¾ÑĢÒĵÐ°Ñĥ ÒĵÐ°
ÓĺÑĥ ÐµÐ·Ð¾Ð²
ĠÐ¿ Ð¾Ð¹ÑĭÐ·
ĠÐ¨Ð°ÑĢ Ð´Ð°ÑĢÐ°
ĠÒļÐ°Ñĥ ÑĸÐ¿ÑģÑĸÐ·Ð´ÑĸÐº
ĠÐ±ÐµÐ¹Ð±ÑĸÑĤ ÑĪÑĸÐ»ÑĸÐº
ĠÐķ ÑģÐµÐ½
ĠÐºÓĻ Ð´ÑĸÐ¼Ð³Ñĸ
ÒĽÐ¾Ñģ ÑĭÐ¼ÑĪÐ°
ĠÐ¾ÑĤÑĭÑĢ Ñĥ
ÐĶ Ò¯Ð½Ð¸
ĠÑĤÑĥ ÑĭÐ½Ð´Ð°
ĠÒĽÐ°ÑĤÐ°ÑĢ ÑĭÐ½Ð°Ð½
ÐļÓĻÑģÑĸÐ¿ ÐºÐµÑĢÐ»ÑĸÐº
ĠÐ¨ Ð°Ð¹
ĠÐ¼ÐµÒ£Ð³ÐµÑĢ Ð³ÐµÐ½
Ð°Ð» Ð°Ð¹ÑĤÑĭÐ½
ĠÐĳ Ð¾Ð½
ĠÒĽÐ°ÑĥÐ» ÑĭÑģÑĭ
ĠÐ¿Ð°ÑĢÐ°ÒĽ ÑĪ
ĠÐ¶ÑĭÐ» Ð¶
ĠÐ´ÐµÐ¿ ÑĤÑĸ
ĠÐ¶Ð°Ñģ ÑĤÐ°
ĠÐļÐ¾Ð½ ÐºÑĥÑĢÑģ
ĠÑĢ Ð¾Ð»
ĠÐ±Ó©Ð»ÑĸÐ¼ Ð´ÐµÑĢÑĸÐ½ÑĸÒ£
Ð¢ ÑĥÒĵÐ°Ð½
ĠÓ© ÑĪ
ĠÒ¯Ð¹ Ð´Ñĸ
ĠÐĲÐ¹ Ð½Ð°Ð»
ĠÒĽÑĭÑģÒĽÐ° ÑĪÐ°
ÐĲÐ» Ð»Ð°
ĠÑĭÐ´ÑĭÑģ ÑĤÑĭ
ĠÒ¯ÐºÑĸÐ¼ ÐµÑĤÑĸ
Ð» Ð¾Ð³
Ð´Ð° ÑĤÑĭÐ¿
ĠÐ°ÑĪ ÑĥÒĵÐ°
ĠÑģÑĤÐ° ÑĨÐ¸Ð¾Ð½
ĠÑĤÒ¯ Ð»
Ð¸ÐµÐ² Ð°
ĠÐ± Ò¯Ð¹ÑĸÑĢ
ĠÐ±ÑĥÑħ Ð³Ð°Ð»
Ñģ Ñı
Ġ1 20
ĠÒ¯ÑģÑĤ ÑĸÐ½ÐµÐ½
Ð¿ Ð¾Ð½
ĠÐĳ ÑĥÑĭÐ½
ĠÐ±ÐµÑĢ ÑģÑĸÐ½
ĠÐºÓ© Ð¼Ðµ
ĠÐ¼ÓĻÐ¼ÑĸÐ» ÐµÐ»ÐµÑĢÐ´Ñĸ
Òļ Ð°Ð½
ÑģÐ°Ñĥ Ð¸
Ð¸ÑĤ Ð¸ÐºÐ°Ð»ÑĭÒĽ
ĠÑĪÐ°Ð¼ Ð°ÑģÑĭ
ĠÒĽÐ¾Ð»Ð´Ð°Ð½ ÑĭÐ¿
ĠÐ¶Ð¾Ð» Ð´Ð°Ð½
ĠÒĽÐ°Ð·Ð°Ð½ Ð´Ð°ÒĵÑĭ
ÐµÑĢ Ð»ÐµÑĢÑĸ
ĠÑĤÓ©ÑĢÐ°Òĵ Ð°Ð»ÑĭÒĵÑĭÐ¼ÐµÐ½
ĠÐ¿Ð°Ð¹Ð´Ð°Ð»Ð°Ð½ ÑĭÐ»Ð°Ð´Ñĭ
ĠÐºÑĥÑĢÑģ ÑĤÑĭÒĽ
ĠÐ¤Ð¸Ð· Ð¸ÐºÐ°
ĠÒĽÐ°ÑĢ Ð°Ñģ
ĠÒĽÐ¾ÑĢ ÑĭÒĽ
ĠÑĭÐ» ÒĵÐ°Ð»
ĠÓĻÐºÐµÐ» ÑĥÑĸ
ĠÐĶ ÓĻÑĢÑĸ
ĠÒĽÐ°ÑĤ ÐµÐ»ÑĸÐº
ĠÐ´ÐµÐ³ÐµÐ½ Ð´ÐµÐ¹
ĠÐ³Ðµ Ð¾Ð³ÑĢÐ°ÑĦÐ¸ÑıÑģÑĭ
ĠÐ¼ÑĭÐ½ Ð°Ñĥ
ÑĤÐ°Ð¿ ÒĽÑĭ
ĠÐºÓ©Ð»ÐµÐ¼ Ð´Ðµ
ĠÐ°Ð± Ð·Ð°Ð»
ÐºÐµ ÑĪ
ĠÐ½Ð°ÑĢ Ð°Ð·
ĠÒĽÐ°ÑĢ Ð°ÒĽ
ĠÓĺÑĢ Ñĸ
ĠÑģÒ±ÑĢ Ð°Ð´Ñĭ
ĠÐ¿ÐµÐ´Ð°Ð³Ð¾Ð³ Ð¸ÐºÐ°
ĠÐ¶Ð°Ò£Ð°ÑĢ ÑĤÑĭÐ»ÒĵÐ°Ð½
ĠÐĸÐµÒ£ ÑĸÑģ
ÑĭÐ¼ Ð´Ð°Ñĥ
ĠÐºÐµÐ¼ ÐµÐ»ÐµÑĢÐ´ÑĸÒ£
ĠÐ±Ð¸ Ð¾Ð»Ð¾Ð³Ð¸ÑıÐ»ÑĭÒĽ
ĠÐĲÐ¹ ÑĤÐ°
Ð¢ ÐµÑħÐ½
ĠÑĸÑģ ÑĸÐ½Ðµ
ĠÒĽÒ±Ð¼ Ð°ÑĢ
ĠÐ¼Ò¯ÑĪ ÐµÐ»ÐµÑĢ
ĠÐ¾Ð±ÑĬÐµÐºÑĤÑĸ Ð»ÐµÑĢ
ÐĨ Ò¢
ĠÑĢÓĻÑģ ÑĸÐ¼ÑĸÐ½Ðµ
Ð¾Ð² ÐºÐ¸Ð½
Ð°Ð» Ñĥ
ĠÐ°ÒĽ ÑĭÐ»Ð´Ñĭ
Òļ Ò±Ð»
ĠÐµÑĤÑĥ Ð´Ñĸ
ĠÐľÐ°Ñħ Ð°Ð¼Ð±ÐµÑĤ
Ð´ ÐµÑģÑĸ
ĠÒĽÐ°Ð·ÑĭÐ½ Ð°Ð»ÑĭÒĽ
ĠÐ±Ð°Òĵ Ð°ÑģÑĭÐ½
ĠÐ² ÐµÐ»
ĠÐ°ÑĢ ÑĤÐµÑĢ
ĠÐºÑĸÑĤÐ°Ð¿ ÑĤÐ°ÑĢ
9 9
ĠÒĽÒ± Ñİ
ĠÐ¶Ð¾ÑģÐ¿Ð°ÑĢ Ð»Ð°ÑĢÑĭ
ĠÑĤÐ°ÑĢ Ð°ÑĤÑĭÐ»
ĠÐ± ÐµÑĤÑĸ
ĠÐ±Ð°Ð¹Ð» Ð°Ð½ÑĭÑģÑĭ
Ð½ Ð¸ÑĤ
ĠÑĤÐ°Ð¿ÑģÑĭÑĢ Ð°Ð¼ÑĭÐ½
Ó Ĭ
ÑĤ Ð¾ÒĵÐ°Ð¹
ĠÐľ Ð°Ð¼Ð°Ð½
Ġ ÑĸÐ»ÑĸÐ¼
ĠÐ¿ Ð»Ð°ÑģÑĤ
ÑĥÑĢ Ð°Ð±Ð°Ð¹
Ó¨ Ð¼ÑĸÑĢ
ÑĥÐ½ Ð´
7 5
ĠÒĽÐ°ÑĢ Ð°Ð¼Ð°
Ð± Ð°Ð»Ð°
ĠÒĽÐ¾Ð» Ñĭ
ĠÐ¶Ð¾ÒĽ ÒĽÐ°
ĠÐ¼Ð°ÒĽÑģ Ð°ÑĤÑĤÐ°ÑĢ
Ðĳ Ðĺ
ĠÑĥÐ°ÒĽÑĭ ÑĤÑĭÐ½
ĠÑĦÐ°ÐºÑĤÐ¾ÑĢ Ð»Ð°ÑĢ
ĠÐ¸Ð½ÑĤÐµÐ» Ð»ÐµÐº
ÑĤÐµÒ£ Ð³Ðµ
ĠÐºÑĸÑĤÐ°Ð¿ ÑĤÐ°ÑĢÐ´Ñĭ
ĠÓĻÐ¹ÐµÐ»Ð´ÐµÑĢ Ð´ÑĸÒ£
ĠÐ¶ Ó©
ĠÒ±ÑģÑĭÐ½ ÑĭÐ¿
ĠÒĽÐ°ÑĢ ÑģÑĭÐ»ÑĭÒĽ
ÒĴ ÑĭÐ»ÑĭÐ¼Ð¸
Ð¿ÐµÐ½ ÑĸÒ£
ĠÐ¿ÑĢÐ¾ÑĨ ÐµÐ´
Ð¾Ð»ÑĮ Ðº
Ð°Ð± ÑĢ
ĠÐĸÐµÑĤ ÑĸÑģÑĥ
ÐµÐ½ Ðµ
Ð´Ñĸ Ð³ÑĸÐ¼ÐµÐ½
ĠÑĤÐ°Ò£ Ð´Ð°ÒĵÐ°Ð½
ĠÐ¡ ÑĥÑĢÐµÑĤ
ĠÐ¶ ÑĥÑĢ
Ð¹ ÑĭÒĽ
ĠÒĽÐ°Ð»ÑĭÐ¿ÑĤÐ°Ñģ ÑĥÑĭ
ĠÐ½ ÐµÐº
Ġ4 3
ĠÐ²ÐµÐ´Ð¾Ð¼ÑģÑĤÐ²Ð¾ Ð°ÑĢÐ°Ð»ÑĭÒĽ
ĠÐºÓ©ÑĢ Ð¼ÐµÐ³ÐµÐ½
ĠÑĸÑģ ÑĸÐ½ÑĸÒ£
ĠÑģÐ¸Ð½Ð´ÑĢÐ¾Ð¼ Ñĭ
ĠÐºÐ¾Ð½ÑģÑĥÐ»ÑĮ ÑĤÐ°ÑĨÐ¸Ñı
ÑĸÒ£ Ð´ÐµÑĢ
ĠÒĽÐ°ÑĢ Ð°Ð¹ÑĤÑĭÐ½
ĠÐ¸ Ð¿Ð¾ÑĤÐµÐº
ĠÐļ Ñĥ
ĠÑĢÐ°Ñģ ÑģÐº
ĠÒĽÐ°Ð±ÑĭÐ»Ð´Ð°Ð½ Ð°Ð´Ñĭ
ĠÐľ ÐķÐľÐĽÐķÐļ
Ð»Ð°Ð½ Ð°
ĠÐ¶Ò¯ÑĢÐ³ÑĸÐ· ÑĸÐ»ÐµÑĤÑĸÐ½
Ñı Ð·
ĠÐ±Ð¾Ð»Ð¼ Ð°ÑģÑĭÐ½
ĠÐŀÒĽ ÑĥÑĪÑĭÐ»Ð°ÑĢÐ´ÑĭÒ£
Ġ g
ĠÑĤÓĻÑģÑĸÐ» Ð´ÐµÑĢÑĸ
ĠÐ°ÐºÐ°Ð´ÐµÐ¼ Ð¸ÑıÑģÑĭÐ½ÑĭÒ£
ĠÑĤÐ¾Ð¿ ÑĭÑĢ
ĠÐ¡Ð¾ ÒĵÐ°Ð½
ĠÑĤÐ¾Ð½ Ð½
ĠÐ´ÐµÐ´Ñĸ Ð¼
ĠÑĤÐ°Ð»ÒĽÑĭÐ» Ð°Ð½Ð´Ñĭ
ĠÐĸÐ¾Ð»Ð´Ð°Ñĥ ÑĭÐ½ÑĭÒ£
ÐŁ ÑĢ
Ð¼ Ð°Ð´
ĠÐ¡ÑĸÐ· Ð³Ðµ
ĠÑĤÐµÐ»ÐµÑĦÐ¾Ð½ Ñĭ
ÐµÐ½ Ð´
ĠÒ¯Ð» Ð³ÑĸÐ»ÑĸÐº
ĠÓ©Ð·Ð³ÐµÑĢ ÑĸÐ¿
ÑĤÐ°Ñģ ÑĭÐ¿
ĠÐ´Ð¸ÑĢÐµÐºÑĤÐ¾ÑĢ ÑĭÐ½ÑĭÒ£
ĠÐ¿Ð¾Ð» Ð¸Ð³
Ð¾ÑĢ ÑĥÐ¼
ĠÑĪ Ð°ÑĤ
ĠÑĪÐµÑĪ ÑĸÐ¿
ĠÑģÐ°Ð» ÑĭÐ½ÑĭÐ¿
ĠÑģÐ°Ð»Ð° Ð´Ð°ÒĵÑĭ
ĠÒļ ÑĭÑģ
ÑĸÒ£ÑĸÐ· Ð´Ðµ
ĠÑĤÐ°Òĵ ÑĭÐ»ÑĭÐ¼
ĠÐ¢ÐµÐº ÑģÐµÑĢ
Ð¿ ÑĸÐ½Ðµ
ÒĵÐ°Ð¹ Ð´Ð°ÒĵÑĭ
ĠÑģÐ¿Ð¾ÑĢÑĤ ÑĪÑĭ
ĠÐ½Ð°Ð·Ð°ÑĢ ÑĭÐ½Ð°
ĠÐ¢Ò¯ÑĢ ÑĸÐº
ĠÐ°ÑĤ Ð°Ð»ÑĭÐ¿
ĠÐĳÒ¯Ð¹ÑĢÐµÐº ÑĤÑĸÒ£
ĠÐ£ Ð°ÒĽÑĭÑĤ
ĠÐºÒ¯Ð½ Ð´ÐµÑĢ
ĠÐķÐ» Ð±Ð°Ñģ
ĠÐĹÐ°Ò£ ÑĭÐ½Ð°
ĠÐ¶ÑĭÐ» Ð°Ð¿
ĠÐµÐ»Ð´ÐµÑĢ Ð´Ðµ
Ð² Ð°
ĠÑĤÐ°Ð»Ð°Ð¿ ÑĤÐ°ÑĢÑĭ
ÐºÐµÑĢÐ»ÐµÑĢ Ð´Ñĸ
. "
ĠÑģ Ò¯Ð»
ÑģÐº Ð¸Ðµ
Ð¾Ð· Ð¸ÑĤÐ¾ÑĢ
Ġ200 2
ĠÐºÓĻÑģ iÐ¿
ĠÐĳÐ¾Ð» Ð°ÑĪÐ°ÒĽ
ĠÐĸ Ò¯ÑģÑĸÐ¿
ĠÐ°ÑĢÐ½ Ð°ÒĵÐ°Ð½
ĠÒĽÐ°ÑĥÑĸÐ¿ÑģÑĸÐ· Ð´ÑĸÐ³ÑĸÐ½
ĠÐĶ ÐµÑĢ
ĠÐµÐ» ÑĸÐ½Ðµ
ĠÒļÐ°Ð· Ò°
Ðĳ Ðĳ
ĠÐ°Ð´Ð°Ð¼ Ð½Ð°Ð½
ĠÓ©ÑĤÑĸÐ½ ÑĸÐ¼
ĠÐ¡ Ð°ÒĽ
ĠÐ¢ Ð°ÑĪ
ĠÐ±Ð°ÑģÒĽÐ°ÑĢ ÑĥÑĪÑĭ
ĠÐ¼Ò¯ÑĪ ÐµÐ»ÐµÑĢÑĸÐ½
Ð¾Ð» Ð¿Ð°Ð½
ĠÓĻÑĢ ÐºÑĸÐ¼
ĠÑģÐ°Ñĥ Ð¼Ð°Ð»
Ð½ ÐµÐ²
ĠÐºÓ©Ðº Ó©Ð½
ĠÐº ÑĢÐ¸ÑĤÐµÑĢ
ĠÒĽÐ°Ð» ÑĥÑĭ
ĠÑĤÐ°Ð± Ð°Ð´Ñĭ
ar i
ĠÑģÐ¾ ÑĩÐ¸Ð½
ÒļÐ°Ð¹ÑĭÑĢ Ð±ÐµÐºÐ¾Ð²Ð°
ÐµÑĤ Ð°Ð½
ĠÑĢ Ð°Ð¹Ñĭ
ĠÐ½Ð¾ÑĢÐ¼ Ð°ÑĤÐ¸Ð²
ÑĪ ÑĸÐ¼
ĠÒĽÑĥ ÑĭÑĢ
ĠÓ©Ð· Ð³
ĠÐºÓ©Ð· Ð´ÐµÑĢÑĸ
ĠÑĤÐ°Ò£ ÐµÑĢÑĤÐµÒ£
ĠÐ°ÑĥÑĢÑĥÑħÐ°Ð½ Ð°ÒĵÐ°
Ð¼ÐµÐ½ ÑĸÒ£
ĠÓĺÐ¹ ÐµÐ»
ĠÐ°Ñĥ Ð´Ð°ÑĢÐ´Ñĭ
ĠÓ©Ð½ÐµÑĢ Ð¿Ð°Ð·
ĠÐµÑĢÐµÐºÑĪÐµÐ»ÑĸÐº ÑĤÐµÑĢÑĸÐ½
Ġ199 7
Ð¡ Ð°Ð»
ĠÒ±ÑĪÑĭÑĢ Ð°ÒĵÐ°Ð½
ĠÐ¶Ð¾Ñİ ÒĵÐ°
ĠÑĥÐ°ÒĽÑĤÑĭ Ð»Ñĭ
ĠÓ©Ñģ ÑĤÑĸÐ¿
ĠÐ¼Ð°ÒĽÐ°Ð» Ð°Ð»Ð°ÑĢ
Ñħ ÐµÐ¼
ĠÐ±ÑĸÑĢ ÑĸÐºÑĤÑĸÑĢÑĥ
ĠÒ¯Ð» ÐµÑģÑĸÐ½
ĠÑģÑĭÐ¹ Ð»ÑĭÒĵÑĭÐ½ÑĭÒ£
Ð°ÑĤÐ¾ÑĢ Ð»Ð°ÑĢ
ĠÐ±Ð¸Ð·Ð½ÐµÑģ ÑĤÑĸÒ£
ĠÐ¼Ò¯Ð´ Ð´ÐµÐ»Ñĸ
ĠÐĿ Ð¸Ðº
ĠÐ°ÒĽÑĭÐ½ Ð´Ð°ÑĢ
ÒĵÐ°Ð»Ð¸ Ò±Ð»Ñĭ
ĠÐºÓ©ÑĢÑģÐµÑĤÐºÑĸÑĪ ÑĤÐµÑĢÑĸ
ĠÐĴÐ»Ð°Ð´ Ð¸Ð¼Ð¸ÑĢ
ĠÑĤÑĸÐ» Ð´ÑĸÒ£
ĠÓĻÐ´ÐµÐ±Ð¸ ÐµÑĤÑĸÐ½ÑĸÒ£
ĠÐ±ÑĢ Ð¾Ð½
ĠÐ»Ð¾Ð³ Ð¸ÐºÐ°Ð»ÑĭÒĽ
ĠÑģÐµÑĢ Ð¿ÑĸÐ½
ĠÒĽÐ¾Ð¹ ÑĭÐ»ÑĭÐ¼
ĠÐĳÒ¯ ÐºÑĸÐ»
ĠÓ¨ ÑĢ
ĠÑĤÐ°Òĵ Ð°Ð¹ÑĭÐ½Ð´Ð°
ĠÐŀÐ¼ ÑĭÑĢÑĤÒĽÐ°
ĠÐ¾Ð½ Ð´Ð°ÒĵÑĭ
ĠÓĻÑĢÐµÐº ÐµÑĤÑĸ
ÑĤ Ð¾Ð¿
ĠÑģ Ð¿ÐµÐº
ÐµÐ» Ð³ÐµÐ½
ÑĸÐºÑĤÑĸ Ð³Ñĸ
ĠÒļ Ò±ÒĽÑĭÒĽ
ÐµÐ¼ÒĽÐ¾ÑĢÐ»ÑĭÒĽ Ð¿ÐµÐ½
ÑĦ Ð¸Ð»
ĠÑĤÒ¯ÑģÑĸÑĢ Ð³ÐµÐ½
ĠÓ©Ñģ ÑĸÐ¼
ĠÐ¶Ð¾Ð» Ð´Ð°ÑĢÑĭÐ½ÑĭÒ£
ĠÒ¯Ð¹ ÑĸÐ½ÑĸÒ£
ĠÐºÐµÐ»ÑĤÑĸÑĢ Ð³ÐµÐ½
ĠÐ¼Ò¯Ð»ÑĸÐº Ð¿ÐµÐ½
ĠÐ´Ð¸Ð°Ð» Ð¾Ð³
ÑĭÐ» Ð¼Ð°Ð¹ÑĤÑĭÐ½
ĠÐ±Ð°ÑģÑĪÑĭÐ»Ð°ÑĢ ÑĭÐ½Ð°
ĠÑģÑĭÑĢÑĤ ÑĭÐ½Ð´Ð°ÒĵÑĭ
ĠÑħÐ°Ð»ÒĽ ÑĭÐ¼ÑĭÐ·Ð´ÑĭÒ£
ĠÐºÐµÐ¹ÑĸÐ½ Ð½ÐµÐ½
ĠÐ¿ ÓĻÐ»
ĠÑĤÐ°ÑģÑĭÐ¼Ð°Ð»Ð´Ð°Ñĥ Ð´Ñĭ
ĠÐľ Óĺ
ĠÐ¼ÓĻÑģÐµÐ» ÐµÐ³Ðµ
ÐµÑĤ ÑĸÐ½Ð´Ðµ
ĠÐ¡ ÑĥÐ½
ĠÐĳÑĸÑĢ ÑĸÐºÐºÐµÐ½
ĠÐ¾ÑĢÐ½Ð°Ð»Ð°Ñģ Ñĥ
ĠÒĽÒ±Ð» ÑĭÐ½
ĠÐľÐµÐ¼Ð»ÐµÐºÐµÑĤ ÑĤiÐº
ĠÐ°Ð¹Ð½Ð°Ð» ÑĭÐ¼Ñĭ
Â» )
ĠÐĳ Ó©
ÑĤ ÒĽÑĭÑĪ
ĠÑĸÑģÑĤ ÐµÐ¼
Ð¸Ð´ Ð´ÐµÑĢ
ar t
ĠÑĢÐµÐ´Ð°ÐºÑĨÐ¸Ñı Ð´Ð°
4 3
ĠÐ¶Ò±Ð¼ÑĭÑģ ÑģÑĭÐ·
ÐĿ Ðķ
ĠÐ¥ ÒļÐļÐŀ
Ð± Ð°Ð»Ð°ÑĢ
ĠÑĪÐ°ÒĽÑĭÑĢ Ñĥ
ĠÐ¶ÐµÒ£ÑĸÐ¼Ð¿Ð°Ð· Ð´Ð°ÑĢÑĭ
ĠÐ±ÑĸÐ» ÐµÐ¼ÑĸÐ½
ĠÑĤÐµÐ¼ÑĸÑĢ Ð¶Ð¾Ð»
ĠÐ°Ð¹ Ð»Ð°ÑĢÑĭÐ½Ð´Ð°ÒĵÑĭ
ĠÐ½ Ð°ÒĽ
Ð°ÑĤ Ð¸ÐºÐ°Ð»ÑĭÒĽ
ĠÐ¶Ò¯Ð¹ ÑĢ
Ð¾Ð¹ ÑĭÐ½
ĠÐĸÐ¾Ð»Ð´Ð°Ñĥ ÑĭÐ½Ð´Ð°
ÐµÐ´Ð¸ Ð°ÑĤÑĢ
ÑĪ ÑĸÑģÑĸÐ½Ðµ
ĠÐĲ ÑģÐ°Ð½
ÐĲ ÑĤÐ°Ð»ÒĵÐ°Ð½
ĠÐ±Ð¾Ð»ÑĭÐ¿ ÑĤÑĭ
ĠÐ¸Ð´ÐµÑı Ð»Ð°ÑĢ
ĠÐ¿ÑĢÐµ Ð¿Ð°ÑĢÐ°ÑĤ
Ð½ Ð¾Ð³Ð¾
ĠÐ¶Ð°Ñģ ÑĤÑĭÒĽ
ĠÒĽÐ°ÑĢÐ°Ð¶ Ð°ÑĤÑĤÑĭ
ĠÐ¼Ð°ÑĪ Ð¸Ð½Ð°
ĠÐ¶ÐµÒ£ÑĸÐ¼ Ð¿Ð°Ð·Ñĭ
ÑĤÐµÑĥ Ð³Ðµ
Ð½Ð¾Ð³Ð¾ÑĢ ÑģÐº
ÑĸÐ¼Ð´Ñĸ Ð»ÑĸÐºÑĤÑĸÒ£
Ð¸ÑĤ ÑĤÑĸÒ£
ĠÐ»Ð°ÑĥÐ°Ð·ÑĭÐ¼ ÒĵÐ°
ĠÑģÐµÐ·ÑĸÐ¼ ÑĤÐ°Ð»
ÑĪ Ð°Ð¹ÑĭÐ¼
ĠÐ¾ÒĽÑĭÑĤÑĥ ÑĪÑĭ
ĠÒĽÐ°Ð»Ð´ÑĭÑĢ ÑĭÐ¿
ĠÐ½Ð°ÑĥÒĽÐ°Ñģ ÑĤÑĭÒ£
ĠÑĪÐ°Ð¿ ÒĽÐ°Ð½
Ð¸ ÑĤÑĭÐ½
ĠÐ±ÐµÑĢ iÐ»Ð³ÐµÐ½
ĠÐ³ Ð¸Ð³Ð¸ÐµÐ½
ĠÒļ Ð°Ð±ÑĭÐ»
ĠÐĽ ÐµÐ½
Ð´ ÐµÐ»ÐµÑĢ
Ð¸Ð°Ð» Ð´ÑĭÒĽ
ĠÒĽÑĭÐ· Ð´Ñĭ
ÐĽ Ð«
ĠÓ©ÑģÑĸÑĢ Ñĥ
ĠÒļ ÐĲÐĹÐĲÒļ
ĠÐ¡ Ó©ÑĢ
Ðľ ÓĻÑģ
ĠÑĤÐ°Ð»Ð°Ð¿ ÑĤÐ°ÑĢÒĵÐ°
ĠÑģÒ±ÑĢ Ð°ÒĵÐ°Ð½
ĠÑĤÐ°Ð±ÑĭÐ» Ð´Ñĭ
ĠÐ´Ò¯Ð½Ð¸ ÐµÐ¶Ò¯Ð·ÑĸÐ»ÑĸÐº
or d
ĠÐĲÑı Ð³Ó©Ð·
ĠÐ¿ÑĭÑģ ÑĭÒĽ
ÑĪ Ð°Ð½
ĠÓ©ÑĤ iÐ½iÑĪ
ĠÐ°ÑĥÐ´Ð°Ð½ Ð°ÑĢÐ°Ð»ÑĭÒĽ
ĠÐļÐ¾Ð¼ Ð¸ÑģÑģÐ¸Ñı
ĠÐº ÓĻÑĢ
ĠÐ¾ Ñİ
ÑĭÑģÑĤÐ°ÑĢ ÑĭÐ½ÑĭÒ£
ĠÐ°Ð»Ð³ÐµÐ±ÑĢ Ð°
ĠÐ°Ð¹ÑĭÑĢÐ¼Ð° ÑĪÑĭÐ»ÑĭÒĽ
ĠÑģ ÑĭÒ£
ĠÒĽÐ°Ð¶ÐµÑĤÑĤÑĸ Ð»ÑĸÐ³Ñĸ
ĠÐ¶Ò¯ÑĢÐ³ÑĸÐ·Ñĥ ÑĪÑĸ
ĠÐ±ÐµÑĢ ÑĸÒ£ÑĸÐ·
ĠÐ±Ð¾ÑģÑĤÐ°Ð½ Ð´ÑĭÒĽ
Ð¶ Ð°Ð¹ÑĭÐ½
ĠÐ±Ð°ÒĵÐ´Ð°ÑĢÐ»Ð°Ð¼Ð°Ð»Ð°ÑĢ ÑĭÐ½ÑĭÒ£
Ðļ ÑĸÑĤÐ°Ð¿
ĠÐ±Ð°ÒĵÐ´Ð°ÑĢÐ»Ð°Ð¼ Ð°Ð»Ð°ÑĢÐ´Ñĭ
ĠÐĳÐ°Ñģ ÑĤÑĭ
ĠÐºÓ©ÑĤÐµÑĢ ÑĸÐ»Ð³ÐµÐ½
ĠÐĳÐ¾Ð» Ð°ÑĤ
ĠÐĿ Ð¾Ð²
ĠÒĽÐ¾Ð»ÑĤÐ°Ò£ Ð±Ð°
ĠÐ¼Ò±ÑĢ ÑĭÐ½
ĠÐľ ÑĭÐ½Ð°
Ð¼ÑĭÐ· Ð´Ð°
ĠÒĽÑĭÐ· ÑĭÒĵÑĭ
ÐĲÒļ Ð¨
Ð· ÑĭÐ¼
ĠÑĤÒ¯ÑĢ Ð³Ðµ
ĠÑĤÐµÑĢÑĢ Ð¸ÑĤÐ¾ÑĢ
ĠÐ¶Ò¯ÑĢÐ³iÐ· Ñĥ
ĠÐ» Ð¸Ð³
ĠÐºÐ¾Ð½ ÑĦ
ĠÒĽÐ°Ð»Ð´ÑĭÑĢ ÒĵÐ°Ð½
ĠÐ·Ð¾ÑĢ Ð»ÑĭÒĽ
ĠÐ¿ Ð°Ðº
Ä ±
ĠÐ¼Ð¾Ð» ÐµÐºÑĥÐ»
ĠÑĤÐ°Ð½Ñĭ ÑĤÑĭÐ¿
ÑĸÐ¼Ð´ÐµÑĢ Ð´ÑĸÒ£
Ð¸ÑģÑĤ Ð¸ÐºÐ°
ĠÐĸÒ±Ð¼ Ð°Ð½
ĠÐĸÐ°Ò£ Ð°Ð»ÑĭÒĽÑĤÐ°ÑĢ
ĠÐ°Ð± Ñģ
ĠÐ±Ñĸ ÑĤÑĸÑĢÑĥ
ĠÐ±Ó©Ð»ÑĸÐ¼ ÑĸÐ½Ðµ
ĠÐ´Ð°ÑıÑĢ Ð»ÑĭÒĵÑĭ
ĠÐŀ ÑģÑĭÐ½ÑĭÒ£
ĠÑģÐ°Ð» Ð°Ð»Ð°ÑĢ
ĠÐµÑģ ÑĤÑĸÐ¿
Ñĸ ÑĤÑĸ
Ð°Òĵ Ð°Ð·
ÑĭÐ± Ð°ÐµÐ²
ĠÓĻÐ¹ ÑĤÐµÑĥÑĸÑĢ
ÓĻÐº ÓĻÑĢÑĸÐ¼
ĠÑģÒ±Ð¹ ÑĭÒĽÑĤÑĭÒĽ
ÐµÐ»ÐµÑĢ Ð´Ðµ
ĠÒĽÐ°ÑģÐ¸ ÐµÑĤÑĤÐµÑĢÑĸÐ½
ĠÑģÐ¾Òĵ ÑĭÑģÑĭÐ½ÑĭÒ£
Ð»ÐµÐºÑĤ ÑĢÐ¾
Ð¢ Ó©
ĠÐ±Ó©Ð» Ð¼Ðµ
ĠÓ©Ð½Ð´ÑĸÑĢ ÑĸÑģÑĸ
7 2
... Â»
ĠÐ¶ÐµÐ»ÑĤÐ¾ÒĽÑģÐ°Ð½ Ð´Ð°
ĠÑĤÐ°Ð· Ð°Ð»Ð°Ñĥ
ĠÐ°ÑĪÐ° Ð´Ñĭ
ĠÐ½Ð¾ÑĢÐ¼ Ð°Ð»Ð°ÑĢÑĭÐ½
ĠÒĽÐ°Ð» Ð°Ñĥ
Ðº ÑĸÐ½ÑĸÒ£
ĠÐ¿ÓĻÐ½ Ð´ÐµÑĢ
ĠÑĪÑĭ Ð³
ĠÒĽÐ°Ð» Ð°Ð´Ð°
ĠÐ¾ÑĤÑĭÑĢ ÑģÐ°Ò£ÑĭÐ·
ĠÒ±ÑģÑĤÐ°Ð½ ÑĭÒ£
Ð´Ð°Ð½ Ð°
ÑĭÐ» ÑĭÒĵÑĭ
Ð»ÐµÐ½ Ð´ÑĸÑĢÑĥ
ĠÑĨ Ð¸ÐºÐ»
ĠÐĿÐ¾ÑĢÐ²ÐµÐ³ Ð¸Ñı
ĠÑĪÑĭ Ð´Ð°Ð¼
Ð´ Ð°ÑģÑĤÑĭÑĢ
ĠÑĦ ÑĢÐ°Ð½ÑĨÑĥÐ·
ĠÑĤÒ¯Ñģ Ðµ
ĠÑĤÓ© Ð³ÑĸÐ»
ĠÐºÐ¾Ð´ÐµÐºÑģ ÑĸÐ½ÑĸÒ£
ĠÒĽÑĭÐ¼ÑĭÐ· ÑĭÐ½
ĠÐºÑĸÑĢ ÑĸÑģÑĤÑĸ
ĠÑĤÐ¾Ð¿ ÑĤÑĭÒ£
ĠÑĤÐ°Ð»Ð°Ð± ÑĭÐ½Ð°
ĠÐºÒ¯ ÑĤÐºÐµÐ½
Ð± ÑĸÐ½
ĠÒĽÐ¾ÒĵÐ°Ð¼ Ð´Ð°ÒĵÑĭ
ĠÐ½ÐµÐ¼ ÑĸÑģ
ĠÒĽÐ°ÑĢ ÒĵÐ°Ð¼
ÑĸÑĢ Ñĸ
Ð¸Ð·Ð¼ Ð½ÑĸÒ£
ĠÐ±ÐµÑģ ÑĸÐº
ĠÑģÒ±ÑĢÐ°ÒĽ ÒĽÐ°
ĠÑĪÐ°Ð¹ ÒĽÐ°Ñģ
ĠÐ¡ Ð°Ð¿Ð°ÑĢ
ĠÐ°Ð·Ð°Ð¼ Ð°ÑĤÑĤÑĭÒ£
ĠÐ´Ð¸ ÐµÑĤ
ĠÐĲÑĤ Ð±Ð°ÑģÐ°ÑĢ
ĠÐ¶ÐµÐº ÐµÑĪÐµ
ĠÓĺÐ´Ñĸ Ð»
Ð¼ Ð°ÑģÑĭÐ½ÑĭÒ£
ĠÐ·Ð¸Ñı ÑĤ
ĠÐĲÑĥ ÒĵÐ°Ð½
aS cript
l ine
ĠÐĲ ÑĤÐ°Ð¼
Ġ8 5
ĠÐ¶Ò±Ð¼ÑĭÑģ ÑĤÐ°Ð½
ĠÒ°Ð» ÑĭÐ±ÑĢÐ¸ÑĤÐ°Ð½
ĠÐ¶Ð°ÑģÐ°Ð» ÑĥÑĭ
ĠÓĺ Ð´ÐµÑĤÑĤÐµ
Ð¿ÐµÐ½ Ð´Ñĸ
ĠÐ¾ÒĽÑĥÑĪÑĭÐ»Ð°ÑĢ Ð´Ñĭ
ĠÑĥÓĻ Ðº
ĠÐļ ÑĥÑĢ
6 8
ĠÐ¶Ð¾Ð» ÑĭÐ½Ð°
ÐĳÑĸÑĢ Ð°ÒĽ
ĠÐ±ÑĸÐ» Ð¼ÐµÐ¹Ð´Ñĸ
ÑĢ Ð°Ð¿
ĠÐ±Ð¾Ð»Ð¼ Ð°Ð´Ñĭ
ĠÑĪ Ð¸Ð¿
ĠÐ°Ð»Ñĥ ÑĪÑĭÐ»Ð°ÑĢÐ´ÑĭÒ£
ĠSt an
7 1
Ð¾Ð· Ð´Ñĭ
ĠÐµÒ£Ð±ÐµÐº ÑĤÐµÑĢÑĸ
ĠÐ¼ÐµÐ´ Ð°Ð»Ñĸ
Ð´ Ð¸ÑıÑģÑĭÐ½ÑĭÒ£
ĠÐ¶Ñĸ Ð³ÐµÑĢ
Ð´ÐµÑĤ Ñĥ
Óĺ Ð±
ĠÐ¶ÑĭÐ»Ð´ÑĭÒĽ ÒĽÐ°
ĠÐºÒ¯Ð¹ ÑĸÐ½Ð´Ðµ
Ð± Ñĭ
ĠÐ¼Ð°ÒĽÐ°Ð» Ð°ÑģÑĭ
ĠÐµÐºÑĸÐ½ ÑĪÑĸÑģÑĸ
ĠÐ±Ð¸ ÐµÐ»ÐµÑĢÐ´Ñĸ
ĠÐ¡ Ð°Ð»ÑĭÒĽ
ĠÐµÐºÐµÐ½ ÑĸÐ½Ðµ
ĠÑĤÑĸÑĢ ÐºÐµÑģ
ĠÐ±Ð¾Ð» ÑĤÐ°Ð½
ĠÐ¼ÓĻÑĢÑĤÐµÐ± ÐµÑģÑĸÐ½
ĠÐ¼Ð°ÒĵÑĭÐ½ Ð°ÑģÑĭ
ĠÐ¡Ð¾Ð» Ð°ÑĢÐ´ÑĭÒ£
ĠÐ°ÒĽÑĪ Ð°Ð½Ñĭ
Ð°Ð¹ ÑĭÐ¿
ÐĹ Ð°Ð¼Ð°Ð½
ĠÑĸÐ» Ð³ÐµÑĢ
ĠÐŀÐ¼ ÑĭÑĢÑĤÒĽÐ°Ð½ÑĭÒ£
ĠJav aScript
ĠÐºÐ¾Ð½ ÑģÐµÑĢÐ²
u c
Ñģ ÑĥÐ»
ĠÓ©ÑĤ ÐºÐµÑĢ
ÑĭÑģÑĤÐ°ÑĢ ÒĵÐ°
ĠÒĽÐ¾Ñİ ÒĵÐ°
ĠÐ°Ð»Ð°Ò£ ÑĭÐ½Ð´Ð°
o g
ĠÓĻÑĥ ÐµÐ½
ĠÐ¶Ò±Ð¼ ÑĭÐ»Ð´ÑĭÑĢÑĥ
ĠÐĳÐ°ÑĢ Ð»ÑĭÒĵÑĭ
ĠÐľ Ð°ÒĵÐ°Ð½
ÑĪÑĸÐ» ÐµÑģ
Ð½ ÐµÐ¼
ĠÑĤÐ°ÑĢ ÑĤÐ°Ð´Ñĭ
ĠÐ¿ÑĢ Ð¾Ð²
ÑĢÐ°Ð½ Ñģ
ĠÑħ Ð°ÒĽ
Ġ kz
m ent
ĠÐ¶ÑĭÐ» Ð´Ñĭ
ĠÐºÐ¾Ð¼Ð¿Ð°Ð½ Ð¸ÑıÐ½ÑĭÒ£
d ar
ÑĪÑĸÐ»Ñĸ Ð³ÑĸÐ¼ÐµÐ½
Ð±ÐµÑĤ Ð¾Ð²
ĠÑĤÓ©Ð· Ð±ÐµÑĥ
ĠÐ¼ÓĻÐ´ÐµÐ½Ð¸ ÐµÑĤÑĤÑĸ
ĠÓ©Ð·ÐµÐ½ ÑĸÐ½ÑĸÒ£
ĠÐ°ÑģÑĤÐ°Ð½ Ð°ÑģÑĭ
ĠÑįÐ½ÐµÑĢÐ³ ÐµÑĤÐ¸ÐºÐ°
ĠÑĪÐµÑĪ ÐµÐ½
ĠÐµÑģÑĤ ÐµÐ»ÑĸÐº
ÐµÑĢ Ð´ÑĸÒ£
Ð°ÑĤ Ð¾Ð½
ÑĭÑĢ Ð´Ð°
ĠÐ·ÐµÑĢÑĤ ÑĤÐµÐ¿
ĠÒĽ Ð¾ÒĽ
ĠÒ® Ð·Ð´ÑĸÐº
Ð°Ð± Ð¾Ð»
Ðĸ Ð°Ð»
ĠÐ¶Ð°Ð½ ÐºÒ¯Ð¹
Ð°Ò£ Ð´Ð°ÑĢ
ĠÑĤÑĸÐ· ÑĸÐ»ÑĸÐ¼
ĠÐºÐ¾ÑĢÐ¿Ð¾ÑĢÐ°ÑĨÐ¸Ñı ÑģÑĭ
ÑĢÐ°Ð¼ Ð¿
ĠÐ±Ð°ÒĵÑĭÑĤ ÑĭÐ½Ð´Ð°ÒĵÑĭ
ĠÓĻÑĢ ÐµÒ£
ÐµÐ³ÑĸÐ½ ÐµÐ½
ĠÑģÐ°Ð» ÑĤÑĭÐ½
ĠÐºÐ¸ ÑĸÐ·
ĠÐ¾ ÑĤÐ°Ñĥ
ÐĲÐ» Ð°ÑĪ
ĠÑģÑĤÑĥÐ´ÐµÐ½ÑĤ ÑĤÐµÑĢÐ´ÑĸÒ£
Òļ ÑĭÑĤÐ°Ð¹
ÐµÐ¼ Ð¸Ð½Ð°ÑĢ
Ð¸ÑĤ ÑĮ
ĠÑĤÒ± ÑģÑĤÐ°
Òĵ Ò±Ð»
Ð¿ Ð¸
ĠÑħÐ°Ð»ÑĭÒĽ ÑĤÑĭÒĽ
ĠÑĤÑĥ ÑĭÐ»ÒĵÐ°Ð½
ĠÐ¾ ÑģÑĭÐ½ÑĭÒ£
ĠÐł Ð¸Ð´Ð´ÐµÑĢ
ĠÐºÑĸÑĪÐºÐµÐ½ Ðµ
ĠÒĽÐ°Ð·Ð°Ð½ Ð´Ð°
ĠÐµÑĢÐµÐºÑĪÐµÐ»ÐµÐ½ ÐµÐ´Ñĸ
ĠÐ¶ÐµÑĢ Ð³iÐ»iÐºÑĤi
ĠÐ¨ Ð°Ð¼
ĠÐ¶Ð¾Ð» Ð´Ñĭ
ĠÐĸÐ¾Ð»Ð´Ð°Ñĥ ÑĭÐ½
ĠÐ¼Ò¯Ð¼ÐºÑĸÐ½Ð´ÑĸÐº ÑĤÐµÑĢÑĸÐ½
ÑģÑĤÐ² Ð¾
ĠÐ¿ÑĸÑĪ ÑĸÐ½
ĠÑĤÐ°Ð»Ð°Ð¿ ÑĤÐ°ÑĢÐ´Ñĭ
ĠÓ©Ð½ÑĸÐ¼Ð´ÐµÑĢ ÑĸÐ½ÑĸÒ£
ĠÐ¾ Ñģ
ĠÑģÐ°Ð»ÑĭÑģÑĤÑĭÑĢ Ð¼Ð°Ð»Ñĭ
ĠÐ³ Ð¾Ð»
ĠÑĤÑĥÑĭÐ½ Ð´Ð°Ð¹ÑĤÑĭÐ½
ĠÐ¿ÐµÑĢÑģ Ð¾Ð½
ĠÑĪ ÐµÐ»ÐµÐº
ĠÐºÐµÒ£ÐµÑģ ÑĤÑĸÒ£
Ð¾Ð»ÑĮÐº Ð»Ð¾ÑĢ
ĠÐĳ ÓĻÐ¹
ĠÐ¶ÑĭÐ» ÒĽÑĭÐ½ÑĭÒ£
ĠÐ¶ÑĸÐ³ÑĸÑĤ ÑĤÑĸÒ£
ĠÐ°ÑĢÑĤÑĤÑĭÑĢ Ð°Ð´Ñĭ
ĠÐ¼ÓĻÐ½ ÑĸÐ½
ĠÑĤÑĸÐ» Ð³Ðµ
ĠÑģÐ°ÑıÑģÐ°ÑĤ ÑĭÐ½ÑĭÒ£
ĠÑĪÐ°ÒĽÒĽÐ°Ð½ Ð´Ð°ÒĵÑĭ
Ð±Ð¸Ð· Ð½ÐµÑģ
ĠÐ¢ Ð°Ð±
ĠÑģÐ°ÒĽ ÑĤÐ°Ð¹
ĠÑģÓ©Ð· ÑĸÐ½Ðµ
ĠÐ¶Ð°Ð± ÑĭÒĽ
Ð°ÑĢ Ð»Ñĭ
ÐľÐ°ÒĽ ÑģÐ°ÑĤÑĭ
ĠÐºÓ©ÑĪÑĸÑĢÐ¼ ÐµÑģÑĸ
ÒĽÐ¸Ð¼ÑĭÐ» Ð´ÑĭÒ£
Ð¶ ÑĸÑĢ
ĠÐ¶Ò¯ÑĢ Ð¼ÑĸÐ½
ĠÐ¸Ð½Ð²ÐµÑģÑĤÐ¸ ÑĨÐ¸ÑıÐ»Ð°ÑĢ
ĠÑĤÓ©Ð¼ÐµÐ½Ð´ÐµÑĥ Ñĸ
ĠÑĩÐµÐ» Ñİ
Ð¼ Ð¾Ð¹Ð½Ñĭ
ĠÐĲÐº Ð°Ð´ÐµÐ¼
ĠÐ¶ÑĸÐ³ÑĸÑĤ ÑĤÐµÑĢ
ÑĤÐ°ÑĢÐ¼Ð°Òĵ ÑĭÐ½ÑĭÒ£
ĠÐľ Ðļ
ĠÐ² Ð°Ð³
ĠÑģÑĭÑĢÑĤ ÑĤÐ°Ð¹
Ð« Ð¡
ĠÐĲÒļ ÐŁÐĲÐłÐĲÐ¢
ĠÐ±ÑĢÐµÐºÐµÑĤ Ð¾Ð²
ĠÑĩÐµÐ»Ñİ ÑģÑĤÑĮ
ĠÑģÒ¯ÑĢ ÑĸÐ¿
ĠÑĪÐ¾Ð» Ñĥ
ĠÒĽÐ¾Ñģ ÑĭÐ»Ð°Ð´Ñĭ
ĠÐ±Ð¸Ð·Ð½ÐµÑģ ÑĤÑĸ
Ð¾Ð± ÑĭÐ»
ĠÐ½ ÐµÐ¹
Ðľ Ðĸ
ĠÒ±Ð· Ð°ÑĢ
ĠÐ·Ð°Ð» ÑĭÐ½Ð´Ð°
ĠÐ´ÐµÐº Ð»Ð°ÑĢ
ĠÐ¸Ð³ÐµÑĢ Ñĥ
Ñĸ Ð±ÑĸÑĢ
ĠÐĳÑĥÑĭÐ½ Ð½ÑĭÒ£
ĠÐ¶ÑĭÐ» ÑĭÐ½Ð´Ð°
ĠÒĽÐ°ÑĪ ÑĭÐ¿
ĠÐ¢ÓĻÐ¶ÑĸÐº ÑģÑĤÐ°Ð½Ð½ÑĭÒ£
ĠÑģ Ó©ÑĢ
ĠÐľ ÐµÐ¼
Ð´ Ð¸Ñı
ĠÐļ Ð°Ð½
ĠÓ©ÑĤÐºÑĸÐ· ÑĸÐ»ÑĸÐ¿
Ð°Ð»ÑĮ Ð½Ð°Ñı
ĠÐ½ Ð°Ð¹
ĠÑĢÒ±ÒĽÑģÐ°ÑĤÑĭÐ½ ÑģÑĭÐ·
ĠÐ°ÑĥÑĭÑĢ ÑĭÐ¿
Ð¡ÑĸÐ· Ð´ÑĸÒ£
ĠÐĲÒĽÐ¿Ð°ÑĢÐ°ÑĤ ÑĤÑĭÒĽ
Ð¡ Ðķ
ĠÐºÐµÐ»ÑĸÑģÑĸÐ¼ Ð³Ðµ
ĠÐķÑģ ÐµÐ¿
Ð³ÐµÑĢ ÑĸÐ¼
ĠÐ¶ÑĭÐ»Ð´Ð°ÑĢ Ð´Ð°ÒĵÑĭ
ĠÐ¾ ÑĤÐ°ÑĢ
ĠÒĽÐ°Ð» Ð´ÑĭÑĢÑĥ
ĠÐ¿ Ñĥ
Ð´Ñĭ Ð»ÑĭÒĽ
Ðĸ Ð°ÑĥÐ°Ð¿
Ð¨ ÐµÑĤ
ĠÐ±ÐµÐ»Ð³ÑĸÐ»ÐµÐ½ ÐµÐ´Ñĸ
ÑĤ ÓĻÑģÑĸÐ»
ĠÒĽÒ±ÑĢ ÒĵÐ°Ð½
ĠÐ¶Ð¸Ð½ Ð°ÒĵÐ°Ð½
ĠÐ´Ò± ÒĵÐ°
ĠÐĲ ÑģÑĭÐ»
ĠÐŁ ÑģÐ¸Ñħ
Ġ16 0
ÐµÑģ ÑĤÐµÑĢ
ĠÐľ ÐµÐº
Ð¡ Ð¾
Ð´ÐµÐ½ ÑĸÒ£
ĠÓ©Ð· Ð±ÐµÐº
ĠÑĤÐ°Ð¼ÑĭÑĢ Ð»Ð°ÑĢÑĭÐ½ÑĭÒ£
Ð°Ñģ ÑĤÑĭÒĽ
azak h
ÑĸÒ£ÑĸÐ· Ð´ÑĸÒ£
Ð¾Ð³ÐµÐ½ Ð´ÑĸÐº
ĠÑģ Ð°ÒĵÐ°ÑĤÑĭ
Ð°Ð· Ð²
ĠÐĳÐ°Ð¹ ÒĽÐ°Ñĥ
ĠÐ¶ÑĭÐ» Ð´Ð°ÑĢÑĭÐ½Ð´Ð°
ĠÐºÐ¾Ð½ ÑģÑĤÑĢÑĥÐºÑĨÐ¸Ñı
ĠÑĤÐ°Ð½ÑĭÑģ Ñĥ
ĠÐ¿ÑĢÐµÐ¿Ð°ÑĢ Ð°ÑĤÑĤÐ°ÑĢÐ´Ñĭ
Ð¾Ð· Ð¸ÑĤ
ĠÐ¾Ð±ÑĬÐµÐºÑĤÑĸ Ð»ÐµÑĢÑĸÐ½ÑĸÒ£
ĠÐµÑĢÐº ÐµÐº
ĠÐ² Ð¸Ð´Ðµ
Ð¿ Ð°Ñĥ
Ð´Ð°Ð½ Ñĭ
iÐ¼ Ð´i
ĠÐ±Ð°Ð»Ð°Ð±Ð°ÒĽ ÑĪ
ĠÑĤÐ°Ò£ ÒĵÐ°Ð»
Ð¸Ð» Ð°
le Ò£
ĠÐĳÐ°Ð¹ ÒĽÐ¾Ò£ÑĭÑĢ
ĠÑĦÐ¸Ð»Ð¾ÑģÐ¾ÑĦ Ð¸Ñı
ĠÐļÐ¾Ð´ ÐµÐº
ÐºÐ¾Ð³ Ð¾Ð»ÑĮ
ĠÓ© leÒ£
ĠÐ¶ÐµÑĤÑĸÑģÑĤÑĸÐº ÑĤÐµÑĢÑĸ
ĠÑĢÓ©Ð» ÑĸÐ½
ĠÑĤ iÐ·
ĠÑĸÑĪ Ñĸ
ĠÐ±ÑİÐ´Ð¶ ÐµÑĤÑĤÑĸÒ£
ĠÑģ ÑĬÐµÐ·
Ð°Òĵ Ð°Ð»Ñĭ
Ġ4 2
ĠÓ©ÑĤÑĥ Ñĸ
ĠÐ¶Ð°ÑĢ ÑĭÐ»ÑĭÑģ
ĠÒĽÐ¾ÒĵÐ°Ð¼ ÒĵÐ°
ĠÓĻÑĢÐµÐºÐµÑĤ ÑĤÐµÑģ
ĠÐ¾Ð»Ð°ÑĢ Ð¼ÐµÐ½
ĠÐºÓĻÑģÑĸÐ¿Ð¾ÑĢ Ð½Ñĭ
ĠÐºÐµÑĤ ÑĥÑĸ
ĠÑģ Ò±Ð¼
ĠÐ¾ÑĢÐ½ Ð°ÑĤÑĭÐ»ÒĵÐ°Ð½
ĠÐ¿ÑĸÐºÑĸÑĢ Ð»ÐµÑĢ
ĠÑĪÑĥ Ð¼Ð°ÒĽ
ĠÐºÐµÐ» ÐµÑĪÐµÐº
ĠÐ°ÑģÑĭÑĢ ÑĭÐ»ÑĥÑĭ
Ġt ak
Ð°Ð¼ Ð¸
ĠÐ¶Ð°ÒĵÐ´Ð°Ð¹ Ð»Ð°ÑĢÐ´ÑĭÒ£
ĠÐĶÐµÐ½ Ð¸Ñģ
198 3
ĠÐ¨ÑĸÐ» Ð´Ðµ
Ð½ Ð´Ð°
ĠÐĲÐ· Ð°ÑĤÑĤÑĭÒĽ
ÑĢ Ð¾ÑĢ
ĠÐ°ÑĢ ÒĽÐ°Ñĥ
ÑĸÐ» Ð¼ÐµÐ¹Ð´Ñĸ
ĠÐł Ð°Ñģ
ĠÐ¼ÑĭÒ£ Ð´Ð°ÒĵÐ°Ð½
ĠÐ¶Ð°ÑĤÑĤÑĭÒĽ ÑĤÑĭÑĢÑĥ
ĠÐ³ ÑĢÐµÐº
ĠÐ¾ÑĢÑĭÐ½Ð±Ð°ÑģÐ°ÑĢ ÑĭÐ½ÑĭÒ£
ĠÐ¼Ð°ÒĽÑĤÐ°Ð½ ÑĭÑĪ
ĠÐºÓ©ÑĢÑĸÐ½ Ð³ÐµÐ½
Ð¼ ÐµÐ³Ðµ
ĠÒĽ ÑĭÐ»ÑĭÒĽ
ĠÐĳ Ð¾ÑĢ
ĠÒ± ÒĵÑĭÐ½
ĠÐ¶ÑĸÐ±ÐµÑĢ ÑĸÐ»ÐµÐ´Ñĸ
ÑĥÐ» Ð°ÑĤÐ¾ÑĢ
ĠÐ¿ÑĥÐ½ ÐºÑĤ
ĠÐº Ð°Ð»ÑĮ
ĠÐ¾ÑĢ Ð°Ð¼Ð°Ð»
ĠÑĤÐ°Ò£ ÒĵÑĭ
ĠÐ¡ÑĤÐµÐ¿ Ð½Ð¾Ð³Ð¾ÑĢÑģÐº
ĠÒļ Ð¸ÒĵÐ°ÑĪ
Ð¾Ñģ Ð°Ð½
ĠÓĻÐ»ÐµÑĥ ÐµÑĤÑĸÐ½
Ð¼ ÓĻ
ĠÐ°Ð¹Ð¼Ð°ÒĽ ÑĤÐ°
ĠÐ±Ð¾Ð» ÑģÐ°Ò£ÑĭÐ·
ĠÐºÓ©ÑĢÑģÐµÑĤ iÐ»ÐµÑĤiÐ½
ĠÐ¶Ð°ÑĤ Ð°ÒĽ
Ġ100 0
Òļ Ð¾Ð»
ĠÐ´ÐµÑĢ Ð»ÑĸÐº
ÒĽ ÑĭÐ½Ð´Ð°
ÒĽÒ± Ð»ÑĭÒĽ
ĠÐ¼ÐµÐ¼Ð»ÐµÐº ÐµÑĤÑĤÑĸ
ĠÑĥÐ»ÑĮÑĤÑĢ Ð°Ð´ÑĭÐ±
6 2
ĠÑĸÑĪ ÑĤÐµÐ¹
ĠÐĲ Ð£ÐĶ
ĠÑĤÐ¾Ð¿ ÑĤÐ°ÒĵÑĭ
Ð¡Ð°Ð±Ð°ÒĽ ÑĤÑĭÒ£
ĠÐ¡Ð°ÒĵÑĭÐ½ ÑĤÐ°ÐµÐ²
ĠÐ°Ð» Ð»ÐµÑĢÐ³
ĠÑĤÐ°ÒĽÑĭÑĢÑĭÐ± ÑĭÐ½Ð°
ĠÑģÐ°Ð½ ÑĭÐ½Ð°
Ð¾ÑĢ ÑĤÐ°Ð½
ĠÑģÐ°Ð± ÑĭÑĢ
ĠÐ¼ÓĻÑĤÑĸÐ½ Ð´Ñĸ
ĠÐ¢ ÑĭÐ½
ĠÓĻÐºÐµÐ» Ð´Ñĸ
ĠÑģÑĸÐ»ÑĤÐµÐ¼ ÐµÐ³Ðµ
ĠÒĽÑĥ ÑĭÐ¿
ÐĿ ÓĻÑĤÐ¸Ð¶
ĠÑĪ Ñĸ
ĠÐ¼Ò±ÒĵÐ°Ð»ÑĸÐ¼Ð´ÐµÑĢ ÑĸÐ½Ðµ
ĠÓĺÐ¹ ÑĤÐ¿ÐµÑģÐµ
ÑĥÐ» Ð°ÑĤ
ĠÐºÐµÑģÑĤ ÐµÑģÑĸÐ½Ðµ
ĠÐ°ÑĢ ÒĵÑĭ
Ð¸ ÑĪ
ĠÐ±Ð°Ð»Ð°Ð»Ð°ÑĢ Ð³Ð°
ĠÓĻÐ´Ñĸ Ð»ÐµÑĤ
ĠÐº ÑĥÐ±
ÑĪÑĸÐ»ÐµÑĢ ÑĸÐ½ÑĸÒ£
ĠÑĪÐ°ÑĢ Ð°ÒĵÐ°
ĠÐ¶Ð¾Ð± Ð°Ð»ÑĭÒĽ
ĠÐ°ÑĪÑĭÐ» Ð°Ð´Ñĭ
ĠB aq
ÐµÐ´Ð¸ÑĨÐ¸Ð½ Ð°
ĠÐ¶Ð°ÒĽÑģÐ°ÑĢ ÑĤÑĥÒĵÐ°
ĠÐ¿Ð°ÑĤÑĢÐ¸ Ð¾ÑĤÑĤÑĭÒĽ
Ġ Y
ĠÒĽÐ°Ð¹ ÑĢÐ°Ð½
ĠÒ±Ð¹ÑĭÐ¼Ð´Ð°ÑģÑĤÑĭÑĢ Ð°Ð´Ñĭ
c e
ĠÐ°Ð´Ð°Ð¼ Ñĭ
ĠÐ¸Ð½ Ð´Ð¸Ðº
ĠÐ¶Ð°ÒĽ ÑĤÐ°
ĠÐ½ÐµÐ³ÑĸÐ· Ð´ÐµÐ»
ĠÐ¶Ð°Ð½ Ð´Ð°ÑĢÒĵÐ°
ĠÐ°ÑĥÐ» Ð°ÒĽ
ĠÐºÐµÑĪ ÐºÐµ
ĠÑĭÐ´ÑĭÑģ ÒĽÐ°
ĠÐºÒ¯ Ð´ÑĸÐº
ĠÐ¶Ò¯ÑĢÐ³ÑĸÐ·Ñĥ Ð´Ñĸ
ĠÓ©ÑĢ Ð±Ñĸ
ĠÐ¶Ð°ÒĽ ÑĤÐ°Ð½
ÐµÑĤ ÑĸÐ½Ð´ÐµÐ¹
Ð¼ Ð°ÑĥÑģÑĭÐ¼
ĠÒĽÐ¸ÑĭÐ½ ÑĪÑĭÐ»ÑĭÒĽ
ĠÐ¿Ð¾Ð» Ð¸ÑĨÐµÐ¹
ĠÐ±Ð¾Ð»ÒĵÐ°Ð½ ÑĭÐ¼ÐµÐ½
Ð¸Ð½ ÑģÐº
Ġ6 5
ĠÐ¼ÐµÑĢÐµÐº ÐµÑģÑĸÐ½Ðµ
ra m
ĠÐºÓ©Ð· ÑĸÐ½Ðµ
ĠÐķÑĥÑĢ Ð°Ð·Ð¸Ñı
ĠÐ¸ÐµÐ»ÐµÐ½ Ð´Ñĸ
ĠÑĤÐ°Ð± Ð°Ð½
Ð°ÒĽÑĭÐ» Ð°Ñĥ
ĠÐºÑĥÓĻÐ»ÑĸÐº ÑĤÐµÑĢ
ÐµÑģ ÐµÐº
ĠÐ¼Ð°Ò£ Ð´Ð°Ð¹
ĠÐ°ÑģÑĤ ÑĭÐ½Ð°
ĠÐĸÑĭÐ» ÒĽÑĭ
Ð´ÑĭÑĢ Ð°
ĠÐµÑģÐµÐ¿ ÑĤÐµÐ»
ĠÒ±Ð¶ÑĭÐ¼ Ñĭ
ÐĲ ÑĤÐ°
ĠÑĤÒ± ÒĽÑĭÐ¼Ð´Ñĭ
ÑĦ Ð¸Ð»ÑĮÐ¼
Ð¼Ð°Ð» Ð°Ñģ
ÐĶ Ð¡Ò°
ĠÓ©Ð» Ð³ÐµÐ½
Ð°ÑĤ Ð°Ñģ
ĠÐ·Ð°Ò£ ÒĵÐ°
â Ĩ
ÑĭÐ» Ð¼Ð°Ð¹
Ò± Ð¹ÑĭÐ¼
ĠÑĤÐ°Ð»Ð°Ð½ ÑĤÑĤÑĭ
ĠÒĽÑĭÐ·ÑĭÒĵÑĥ ÑĪÑĭÐ»ÑĭÒĵÑĭÐ½
ÑĤÐ°Ñģ Ð°
ĠÐ±ÐµÑĤ ÑĸÐ¼ÐµÐ½
ĠÐµÐ´ ÓĻÑĥÑĸÑĢ
Ð½ Ð°ÒĽ
p ak
Ġ ÑĸÐ»ÑĸÐ¿
ĠÐ¼ ÓĻÐ»
ĠÓĻ Ò£Ð³
ĠÐ¨ Ð²
ĠÐĲÑĢ Ð¼Ð°Ð½
n ews
ĠÐĸÐ°Ð½ Ñģ
Ð ®
Ġ12 6
ĠÑģÐ°Ð»ÑĭÒĽ ÑĤÑĭÒĽ
Ð¶Ð°ÑĢÑĤÑĭ Ð¶ÑĭÐ»Ð´Ñĭ
ĠÒĽÐ°Ð¹ÑĤÐ°Ð» Ð°Ñĥ
ĠÐ¼Ð¾Ð¹ ÑĭÐ½Ð´Ð°
A Q
ĠÐ¼ Ð¸Ð»
Ð¾Ð½ Ð´Ð¾Ð½
ĠÐ±Ó©Ð» iÐ¼
ĠÐ½Ð°ÑĢ ÑĭÒĽÑĤÑĭÒĽ
Ðĺ Ð¢
ÑĸÑģ ÑĸÐ¼ÐµÐ½
ĠÐ¾Ð±Ð»ÑĭÑģ ÑĭÐ½Ð°
ĠÐ±ÐµÑĤÑĸÐ½ ÑĪÐµ
ĠÐ°Ð» Ð°Ð¼ÑĭÐ½
ĠÐŁ ÑĥÑĤ
Ð¼Ð°ÒĽ ÑĪÑĭ
ĠÐ¶Ò¯Ðº ÑĤÐµÐ¼
ĠÐ¾ÑĤÑĭÑĢ Ð°
ĠÐ°Ð¹Ð¼Ð°Òĵ ÑĭÐ½Ð°
ĠÒĽÐ°Ð±ÑĸÐ» ÐµÑĤÑĤÐµÑĢÑĸÐ½
Ġ and
201 0
ĠÑĤÓ©Ð¼ÐµÐ½ Ð´Ðµ
ĠÑģÐ¾Ð· ÑĭÐ»ÒĵÐ°Ð½
ÑĢÐ°Ð¸ Ð»ÑĮ
ĠÑĤÑĥ Ð±ÐµÑĢÐºÑĥÐ»ÐµÐ·
ĠÐ½ÓĻÑĢ ÐµÑģÑĤ
Ð± Ð°ÑģÑĭÐ½Ð´Ð°
ĠÑģÓ©Ð·Ð´ÐµÑĢ Ð¼ÐµÐ½
Ñģ ÑĤÑĭÒ£
ĠÒ± ÑĤÑĭÐ¼Ð´Ñĭ
ÒĵÐ°Ð½ ÑĭÐ½
Ð¾Ðº ÑĢÐ¸Ð½
ĠÑģÐ°ÒĽÑĤÐ°Ñĥ Ð´Ñĭ
ÑĮ ÐµÐ²
ĠÒĽÐ°Ð»ÑĭÐ¿ÑĤÐ°Ñģ Ð°Ð´Ñĭ
ĠÑĤÐµÒ£ ÐµÑģ
ÐµÐ¼ Ð¸Ñı
Ð°Ð½ Ð¸
ĠÐļÐ°Ð· Ð°ÑħÑģÑĤÐ°Ð½
ĠÐĵÐµÑĢÐ¼Ð°Ð½ Ð¸ÑıÐ´Ð°ÒĵÑĭ
ak on
ĠÐ¶Ð°ÒĵÐ´Ð°Ð¹ Ð»Ð°ÑĢÑĭ
Ð¸Ð½ ÐµÐº
Ð¸ Ð°ÑĤ
Ð¼ÑĭÐ· Ð´Ñĭ
ĠÑĪÑĭÒĵÐ°ÑĢÐ¼Ð° ÑĪÑĭÐ»ÑĭÒĵÑĭ
ĠÐ¥ Ð°ÑĤ
. [
ĠÑĤÐ¸ iÑģÑĤi
ĠÒ±ÑĢ Ð°Ð½
Ð´ÐµÐ¹ ÑģÐ¾ÒĽ
ĠÐ´ÐµÐ¹ Ð¼ÑĸÐ·
ĠÐ¼Ð°Ð¼Ð°Ð½ Ð´Ð°ÑĢÐ´Ñĭ
ĠÐ°ÑģÑĭÑĢÑĥ Ð´ÑĭÒ£
ÐľÐ°ÒĽ Ð°ÑĪ
ĠÑģ Ð¾Ð¹
ÐµÐ± Ð°Ð¿
ĠÓ©ÑĪÑĸÑĢ ÑĸÐ»Ð³ÐµÐ½
ĠÒĽÐ°Ò£ÑĤÐ°ÑĢ Ð´Ð°
ĠÐ¶Ð°ÑĤÒĽÐ°Ð½ Ñĭ
ĠÐºÐ¸Ð½ Ð¾ÑģÑĭÐ½ÑĭÒ£
ĠÑĢ Ð°Ð´
Ñ ĳ
ĠÐ½Ò±ÑģÒĽ Ð°ÑģÑĭÐ½
ÐĸÒ±Ð¼ÑĭÑģ ÐºÐµÑĢ
ĠÐ¸Ð½Ð½Ð¾Ð² Ð°ÑĨÐ¸ÑıÐ»Ð°ÑĢ
ĠÑģ Ó©
ĠÐ¶Ð°Ò£ Ð±ÑĭÑĢ
ĠÒĽÑĥ Ð°ÑĤÑĭ
ÑĥÑĢ ÐµÐ½
ĠÐ¶Ð¾Ð» Ð´Ð°Ñģ
ĠÐ´ÓĻÑĢ ÑĸÐ¿
ĠÐ· Ð°ÑĥÑĭ
Ð¸Ð» Ð¾ÑĤÑĤÑĭÒĽ
ĠÐļÓ© Ð±
ĠÑĪÐµÐ± ÐµÑĢÑĸ
ĠÐ±ÑĸÐ»Ð¼ÐµÐ¹ Ð¼ÑĸÐ½
ÑĭÒ£ ÒĵÑĭÐ·
ĠÐ³ ÐµÑĢ
ĠÐ¡ Óĺ
ĠÐ¸ ÐºÐµÐ¼
ĠÐºÐµÑĢ Ð½
ÑĢÑĥ Ð¿
ĠÐµÐ¼ÐµÑģ Ð¿ÑĸÐ½
Ġ Æı
ÒĽ Ð°ÑģÑĭÐ½
ĠÐºÐµÐ»ÑĤÑĸÑĢ ÐµÐ´Ñĸ
ĠÐ°Ðº ÑĨÐ¸ÑıÐ»Ð°ÑĢ
ÒĵÑĭÐ¼ Ð´Ð°ÒĵÑĭ
ĠÑĤ ÓĻÐ¶
ÐĶ Ð«Òļ
ĠÐ±ÑĸÐ»ÑĸÐ¼ Ð¼ÐµÐ½
ĠÐ´Ò¯Ð½Ð¸ ÐµÐ½Ñĸ
ĠÐµÑĤÐºÑĸÐ· ÑĸÐ¿
Ġtak pak
ĠÑģÐ°Ð»Ð°Ñĥ Ð°ÑĤÑĤÑĭ
ÑĦ Ð¾Ð½
ĠÐ¿ÐµÑĢ Ð¸
ĠÑĤÐ°Ð½ÑĭÑģ ÑĭÐ¿
ĠÐ¿ÑĸÐºÑĸÑĢ ÑĸÐ½
es s
ÐĨ Ð·
ĠÐ°ÑĢÑĤ ÑĤÑĭÑĢÑĭÐ¿
ĠÐ¾Ð¹ Ð»Ð°Ð½ÑĭÐ¿
ĠÐ½ÓĻÑĤÐ¸Ð¶ ÐµÑģÑĸÐ½
ĠÐ±Ð» Ð¾Ðº
ĠÑģÐ°Ð» Ð°Ð¼ÑĭÐ·
ĠÑģ Ò¯Ð½
ÐŁ ÑĢÐ¾
ĠÐĲÑĥÑĢ ÑĥÐ´ÑĭÒ£
ÐľÐ¸Ð½Ð¸ÑģÑĤÑĢ Ñĸ
ĠÐ°Ð¹ÒĽÑĭÐ½ Ð´Ð°Ð»ÒĵÐ°Ð½
ĠÑĤÐ°ÒĽ ÑĤÐ°Ð¹
ĠÑĤÑĥÑĭÐ½ Ð´Ð°Ð¹Ð´Ñĭ
ĠÒĽÒ± Ð´ÑĸÑĢ
Ġ5 7
ĠÐ´ÓĻ ÑĢÑĥ
ĠÐºÓ©ÑĢÑģÐµÑĤÑĸÐ» Ð´Ñĸ
ĠÓ©Ð· ÑĸÐ¼ÑĸÐ·
ĠÐ¾ÑĤÑĭÑĢ Ð¼ÑĭÐ½
ĠÓ©Ð· ÑĸÐ¼ÑĸÐ·Ð´ÑĸÒ£
Ð°Ð¼Ð± Ñĭ
ĠÑĦÐ¸Ð» Ð¾Ð»Ð¾Ð³Ð¸Ñı
ĠÐ´Ð¸Ð¿Ð»Ð¾Ð¼ Ð´ÑĭÒĽ
ÑĤÑĸ Ð³ÑĸÐ½Ðµ
ĠÐ» ÐµÐ¹
ĠÑĤÐ°ÒĵÐ´ÑĭÑĢ Ñĭ
ÐµÐ´Ñĸ Ð¼
Ð± Ð°ÑĤÑĭ
ĠÒĽÐ¾Ð» Ð´Ñĭ
ĠÒĽÐ°ÒĽÑĤÑĭ ÒĵÑĭÑģ
ÓĻÑĥ Ð»
ĠÐ±Ò¯Ð» Ð´ÑĸÑĢ
ĠÐ¿ Ð¾Ð·Ð¸ÑĨÐ¸Ñı
Ð¢ Ð°Ñĥ
ÑĤÑĭÐ» ÑĥÑĭ
ĠÑģÐ¿Ð¾ÑĢÑĤ ÑĪÑĭÐ»Ð°ÑĢ
ÑĤÐ¸Ð² ÑĤÑĸÐº
Ð¸Ðº Ð°Ñı
Ð¼ÑĭÐ· Ð´ÑĭÒ£
ĠÓ©Ð½ÐµÑĢ ÑĸÐ½ÑĸÒ£
ĠÐĵÐ¾Ð» Ð¾Ð²ÐºÐ¸Ð½
ĠÐ¾Ð¹ÑĭÐ½ Ñĭ
ĠÑĢÐµÑģÑĥÑĢÑģÑĤÐ°ÑĢ ÑĭÐ½
ĠÐĲÑĥÑĢ Ñĥ
ĠÑĪÑĭÐ³ Ð°ÑĢÐ¼Ð°
ĠÐļ Ó©Ð½
ÑĭÒ£ÒĵÑĭÐ· ÑĭÐ»
ĠÐ¾ Ð´Ð°ÒĵÑĭÐ½ÑĭÒ£
ÐĨ ÐĽ
Ð°ÑĨÐ¸Ñı Ð½Ñĭ
ĠÑĤ Ð¾Ðº
ĠÐľ Ð¸ÑĢ
ĠÑģÐ°Ð» ÑĭÑģ
ĠÐĸÐ°ÑĢ ÐºÐµÐ½ÑĤ
ĠÑĤÑĸÑĢÐºÐµÐ» Ð´Ñĸ
Ð¢ Ð°Ð±Ð¸Òĵ
ĠÑĤÒ¯Ñģ Ñĸ
ĠÓ©Ð· ÐµÐ½Ñĸ
ĠÒĽÐ¾Ð· ÒĵÐ°Ñĥ
ĠÐ°ÐºÑĤÑĸ Ð»ÐµÑĢ
ĠÐ°ÑĤ Ð°ÒĵÑĭ
ĠÓĻÐºiÐ¼ ÑĪiÐ»iÐº
Ð¸ÑĤ Ð¼
Ð°Ð´Ð¸ Ð¾
ĠÐ·Ð°Ò£Ð½Ð°Ð¼ Ð°ÑģÑĭÐ½ÑĭÒ£
ĠÐ¿ÑĢÐ°ÐºÑĤ Ð¸ÐºÐ°
ĠÒĽÐ¾ÒĵÐ°Ð¼ ÑĭÐ½ÑĭÒ£
ĠÐ¿ÑĢÐµÐ¿Ð°ÑĢ Ð°ÑĤÑĤÐ°ÑĢ
ĠÒĽÒ±Ð» Ð´ÑĭÑĢ
ĠÐ±Ò¯ Ðº
ĠÑĤÒ±ÑĤ ÒĽÑĭÐ½
Ð¿Ð°ÑĢÑĤÐ°Ð¼ ÐµÐ½ÑĤ
8 9
ĠÐ¶Ð¾ÑģÐ¿Ð°ÑĢ Ð»Ð°Ð¿
Ðľ Ð°ÑģÑģÐ°Ð³ÐµÑĤ
ĠÒĽÐ¾Ð» Ð¼Ð°
ÐľÐµÐ¼Ð»ÐµÐºÐµÑĤ ÑĤiÐº
ĠÐŃ Ð½Ð´
Ñħ Ð¾
ÑĤÐµÑĢ Ð´i
ĠÐºÓĻÑģÑĸÐ¿Ð¾ÑĢÑĭÐ½ Ð´Ð°ÑĢÐ´ÑĭÒ£
Ð¿ Ð¸ÑĢ
ĠÒ±ÑĢÐ¿Ð°ÒĽ ÑĤÑĭÒ£
ĠÑģÐ°Ð» Ð°Ð»ÑĭÒĽ
ĠÑĤÐµÒ£ Ð´ÐµÑĥ
ĠÐ±ÑĸÐ» ÑĥÑĸ
Ñį ÑĢ
ĠÐ¥ Ð¸Ð¼Ð¸Ñı
ĠÐ¢Ðĸ ÐĶ
Ð¢ ÑĢ
B AR
ĠÑģÒ±ÑĢ Ð°Ð¹Ð´Ñĭ
i e
ĠÐ°Ð» ÑģÐ°
Ð¾Ð³ Ð°Ð»ÐµÑĢÐµÑı
Ð¡Ð¾Ð» ÑĤÒ¯ÑģÑĤiÐº
ĠÓĺ Ð´ÐµÐ±Ð¸ÐµÑĤ
ĠÑĤÐ°ÒĽ ÑĤÐ°
ÑĸÐº ÑĤÐµÑĢ
ĠÐ´ÐµÐ¹iÐ½ Ð³i
ĠÐ¶ Ð°ÑıÑĥ
ĠÐ¼ÐµÐ´Ð¸ Ð°
ĠÒĽÐ¾Ñģ ÑĤÑĭ
ĠÐ¿Ð°ÑĢ Ð»Ð°Ð¼ÐµÐ½ÑĤ
ĠÐĲÐ´Ð°Ð¼ Ð½ÑĭÒ£
Ð¼ Ð°ÑĥÑĭ
ĠÑĤÓĻÑģÑĸÐ» Ñĸ
ĠÐ±Ð¾Ð» ÑĮÑĪ
ĠÑĤÒ¯ÑĢ Ð»ÐµÑĢÑĸÐ½ÑĸÒ£
ĠÑĤÐ¾Ð¿ ÑĤÐ°ÑĢ
Ð¼Ð°Ð½ Ð´Ð°ÑĢ
ÓĻÑĢÐµÐº ÐµÑĤÑĤÐµÑĢ
ĠÑį Ð²
Ð´ Ð°Ð±
ĠÐ¶Ð°Ð» ÒĵÐ°Ñĥ
ĠÐ¼ÐµÐºÐµÐ½ Ð´ÐµÑĢÐ³Ðµ
Ð¸ÐµÐ² ÑĤÑĸÒ£
ĠÐĸÐµÑĤÑĸÑģ Ð°Ð¹
ĠÓĻÐ» ÑģÑĸÑĢ
ĠÓ©Ð·ÑĸÒ£ Ðµ
ĠÐ¼ÐµÐ¼Ð¾ÑĢ Ð°Ð½Ð´ÑĥÐ¼
Ð´Ð°Ñĥ ÒĵÐ°
ĠÒĽÒ±Ð¹ ÒĵÐ°Ð½
ĠÑĤÐµÑĢ Ð±ÐµÑĤ
ĠÒļ Ð¾
ĠÐºÐµÐ·ÐµÒ£ ÑĸÐ½Ðµ
ĠÒĽÑĭÑĢÐºÒ¯Ð¹ÐµÐº ÑĤÐµÐ³Ñĸ
Ġ Ð°Ð¼Ð±
Ð¡ Ò±ÑĢÐ°ÒĽ
ĠÐºÑĸÑģÑĸ Ð³Ðµ
ÒļÒ±ÑĢ ÑĭÐ»ÑĭÑģ
Ðĳ ÐµÑĢ
ĠÐºÓ©ÑĢÑģÐµÑĤÑĥ Ð´ÑĸÒ£
ĠÐ´Ð¸Ð°Ð³Ð½Ð¾ÑģÑĤ Ð¸Ðº
ĠÐ°Ñı Ð½
ĠÐĶÐ¸ Ð°Ð³Ð½Ð¾ÑģÑĤ
Ð´ÐµÐ½ Ð³ÐµÐ½
ĠÐ¶Ð¸ Ò»
ĠÐ»Ð¸Ð¼ Ð¸ÑĤ
ĠÐ±Ó©Ð»Ñĸ Ð³ÑĸÐ½ÑĸÒ£
Ð¡ ÐµÐ¼ÐµÐ¹
ĠÑĤÒ± ÑģÑĭÐ½Ð´Ð°
ĠÑģÐ°Ð¿ Ð°ÑģÑĭÐ½Ð°
Ð¸Ð¼ Ð°ÑĪ
ĠÐ¾Ð±ÑĬÐµÐº ÑĤÐ¸Ð²ÑĤÑĸ
Ð¾ ÑĨÐ¸ÑĤ
ĠÐ¿ÑĢÐ¾ÑĨ ÐµÑģÑĸÐ½
ĠÐ´Ð¾Ð¼Ð±ÑĭÑĢ Ð°
ĠÐ¢ Ðµ
ÑĤÑĸÐ½ ÑĸÑĪ
Ð¾Ð· Ð¸
ĠÐ°Ñģ ÑĤÑĭÐ½Ð°Ð½
ĠÐ±Ó©Ð» ÑĸÑģÑĤÑĸ
ĠÐ¸Ð½ÑĦÐ¾ÑĢÐ¼ Ð°ÑĤÐ¸ÐºÐ°
ĠÐµÐ» ÑĪÑĸÑģÑĸ
ĠÐ¶Ð¾ÑģÐ¿Ð°ÑĢ Ð»Ð°Ð½ÑĭÐ¿
ĠÑĤÒ±ÑĤÑĭÐ½ Ñĥ
h ttp
ĠÐ¼Ð°Ð¼Ð°Ð½ Ð´ÑĭÒĽÑĤÐ°ÑĢ
ĠÐµÑģÐºÐµÑĢÑĤÑĥ Ð»ÐµÑĢÐ´Ñĸ
I N
ÐµÐ½ Ð°
Ð¿Ðµ ÑĨ
ĠÒ¯Ð»Ð³Ñĸ Ð´ÐµÐ³Ñĸ
ĠÒĽÐ¾ÑĢ ÒĽÑĭÐ½
ĠÑģÐ°Ð¿ Ð°
ÐµÒ£ Ð´Ñĸ
ÑĤÑĤÐ°ÑĢ ÑĭÐ½Ð°
ĠÐĸÒ¯ÑĢ ÐµÐºÑĤÑĸÒ£
Ð°Ð» Ð°ÒĵÐ°Ð½
ĠÐ¡ Ð¡Ðł
ĠÑĤÐ°ÑĢ ÑĤÑĭÐ»ÒĵÐ°Ð½
ĠÐ³ Ð¸Ð»ÑĮ
ĠÐ¼ÐµÑĢ Ð¸ÑĤ
ĠÐºÐ¾Ð½ÑģÑĥÐ» Ð´ÑĭÒĵÑĭ
ĠÒĽÐ°Ð±ÑĭÐ» Ð´Ð°Ð¹ÑĤÑĭÐ½
ĠÑĪÑĭÐ½ Ñĭ
ĠÐĳ ÐµÑĤ
ĠÐ´ÐµÒ£Ð³ÐµÐ¹ Ð³Ðµ
ĠÒĽÐ°ÑĥÑĭÐ¼ Ð´Ð°ÑģÑĤÑĭÒĽ
ÐºÐµÒ£ ÐµÑģ
Ð¢ ÓĻÑĢÐ±Ð¸Ðµ
ĠÐºÐµÑĤÐºÐµÐ½ ÑĸÐ½
ĠÐ¼ÐµÐºÐµÐ¼ ÐµÐ»ÐµÑĢÐ´ÑĸÒ£
ĠA d
ĠÐ½ÓĻÑĤÐ¸Ð¶ÐµÐ»ÐµÑĢ i
ĠÐ¾Ð»Ð°ÑĢ Ð´Ð°Ð½
ÒĽÑĭÐ· ÑĭÐ½ÑĭÒ£
ĠÑĤÑĭÒĵÑĭÐ· Ð´ÑĭÒĵÑĭ
ĠÐº Ð¸Ð»
ĠÐł Ð°Ð±
ĠÐ¾Ð¹ Ð´Ñĭ
ĠÐ°ÑĤ Ð¼Ð¾ÑģÑĦÐµÑĢ
ĠÐ±Ð¾Ð»Ñĥ ÑĭÐ¼ÐµÐ½
il im
ĠÒĽÐ¾Ð» Ð±Ð°Ñģ
ĠÑĤÐ°ÑĢ ÑĤÐ°
ĠÐĳ Ð°ÒĽ
ĠÐ¾ÑĢÐ³Ð°Ð½ Ð´Ð°ÑĢÒĵÐ°
Ð°Ð» Ð°Ñģ
ĠÓĻÐ´ÐµÑĤ ÑĤÐµÐ³Ñĸ
ĠÐ°ÑģÑĤ ÑĭÐ½Ð´Ð°ÒĵÑĭ
Ð³ Ð¸Ñı
ĠÑĢ ÐµÐ¹
ĠÐ°Ñģ ÒĽÐ°ÒĽ
ĠÒĵ Ð°Ð¶
ĠÒĽÐ°Ð¶ÐµÑĤÑĤÑĸ Ð³ÑĸÐ½
Ðŀ ÐĴ
ĠÐŃ ÐºÐ¾Ð½Ð¾Ð¼Ð¸ÐºÐ°Ð»ÑĭÒĽ
ĠÐ½Ð°Ð·Ð°ÑĢ Ð»Ð°ÑĢÑĭÒ£ÑĭÐ·ÒĵÐ°
ĠÐ¢ Ó©Ð·
ĠÑģ ÐºÑĢ
ĠÒĽÒ±ÑĢ Ð°Ð»ÒĵÐ°Ð½
Ð¸ ÑĤÐ°Ð¼
ĠÐ°Ð»Ð°Ò£ Ñĭ
Ð½ iÒ£
Ð¿ Ð°ÑĤ
ĠÒĽÐ¾Ñģ ÑĭÒ£ÑĭÐ·
an t
Ġ8 7
ÐµÑĢÐ°Ð½ ÑĤÑĤÑĭÒĽ
i le
ĠÐ¶Ò± ÑĤ
ĠÐ¿ Ð¾Ð´
Ð¿ÑĢ Ð°Ð²
en g
ÑĤÐ°Ð½ ÑĥÑĪÑĭ
ĠÐ¶Ð°Ð½ Ò±Ñı
Ð¼Ò± ÑħÐ°Ð¼ÐµÐ´
ĠÑĤÐµÐ¾ÑĢ Ð¸ÑıÑģÑĭ
Ð¼ ÐµÑĥ
ĠÐĹ ÐµÑĢÑĤÑĤÐµÑĥ
ĠÐ¢ Ò±Ð»
ĠÒļ Ð°Ð»Ð°Ð¹
Òļ Ð°Ð¼ÒĽÐ¾ÑĢ
Ð¢ÐĲÐĿ ÐĲ
ÑĤÐ¸ Ð»
Ñİ Ñĸ
ĠÐ¶Ò±Ð¼ÑĭÑģÑĤÐ°ÑĢ ÒĵÐ°
ÐµÐ¼ÐµÐ½ ÑĪÑĸÐº
ĠÐ°ÑĢÐ½Ð°Ð» ÑĭÐ¿
ĠÐĸ ÐĲÒ¢
ĠÐļÐ¾Ð´ÐµÐºÑģ ÑĤÑĸÒ£
ĠÐ´ÓĻÑĢ ÑĸÑģ
or g
ĠÑģÐ°Ð¿Ð°ÑĢ Ð¼ÐµÐ½
ĠÐ¢ÐµÑħÐ½ Ð¸ÐºÐ°Ð»ÑĭÒĽ
ĠÐ°ÑģÑĤÐ°Ð½ Ð°Ð½ÑĭÒ£
Ð¼ Ð°ÒĵÐ°
ĠÐºÐµÐ» ÑĤi
ĠÐºÐ» Ð¸Ð¼
Òĵ Ð¸
ĠÐ¾ÒĽÐ¸ Ð´Ñĭ
ĠÐĲÐ¼Ð°Ð½ Ð³ÐµÐ»Ð´Ñĸ
ĠÒļ Ð°Ð»Ð°Ð»ÑĭÒĽ
ĠÑĤÐµÐ» ÐµÐ´Ð¸
ĠÑĤÐ°Ð¿ÑģÑĭÑĢ ÒĵÐ°Ð½
ĠÒĽÑĥÐ°Ð½ÑĭÑĪ ÑĤÑĭ
ĠÐ±Ó© Ð³
Ġt o
ÐµÐ» Ð´Ñĸ
S T
ĠÒ° Ð¶ÑĭÐ¼
ÑĤÐ°Ð½ Ð´Ð°ÑĢ
ĠÐºÐµÐ»ÑĸÑģÑĸÐ¼ ÑĪÐ°ÑĢÑĤ
ĠÑĢÐµÑģÐ¿ÑĥÐ±Ð»Ð¸Ðº Ð°Ð½ÑĭÒ£
re ss
ĠÐĸ Ð¾ÒĽ
ĠÑģÐ¾Ð» Ð°ÑĢÐ´ÑĭÒ£
ĠÐºÓ©ÑĤÐµÑĢ ÑĸÐ»
ĠÐ¡ ÓĻÑĢ
ĠÐ±ÐµÑĢ Ð¼ÐµÐ¹ÑĤÑĸÐ½
Ð½ ÑĭÐ¼
ĠÐ¶Ð°Ð»Ð°Ò£ Ð°ÑĪ
ĠÑĦ Ð°ÑĢ
ĠÐ´ÐµÑĢ Ð¼Ð°ÑĤ
Ġ ÑĭÒ£ÒĵÐ°Ð¹
Ð´ÑĭÒ£ ÑĭÐ·
a u
ĠÐºÓ©Ð· ÑĸÐ¼
ÐĲÐ¡ Ð¢ÐĲÐĿÐĲ
ĠÐºÐµÐ»Ð´Ñĸ Ð¼
ÑĩÐµÐ½ Ð¸Ñı
ĠÐĲÐ» Ð´Ð°ÒĵÑĭ
ĠÒĽÐ°ÑĢ ÑĤÐ°Ð¹
ĠÑģÓĻÐ¹Ðº ÐµÑģÑĤÐµÐ½
ĠÐ±Ó©Ð»ÑĸÐ½ ÐµÑĤÑĸÐ½
ĠÑĢÓĻÑģ ÑĸÐ¼Ñĸ
Ð¿ ÑĸÑĪ
ĠÑħÐ°ÑĤÑĤÐ°Ð¼ Ð°ÑģÑĭ
ÐºÐµ Ð³Ðµ
ÐĨ Ñģ
Ð¾Ò£ ÒĵÐ°ÑĢ
ĠÑĤÐµÐ»ÐµÑĦÐ¾Ð½ Ð´Ð°ÑĢÑĭ
ĠÐ³ÑĢÐ°Ð½ ÑĤ
ĠÐ´ÓĻÐ¼ Ñĸ
6 6
ĠÑģÐ°ÑĢÐ°Ð¿ ÑĪÑĭÐ»Ð°ÑĢ
Ðĳ Ð°ÑģÑĤÑĭ
ĠÐĲ ÑĦÑĢ
ĠÑģÑĸÐ· Ð´ÐµÑĢ
ĠÐ¿ÑĢÐ¾ÑĨ ÐµÑģÑĸÐ½Ð´Ðµ
ĠÑģÐ°Ñĥ ÑģÐ°ÒĽ
. ),
ĠÐ°Ð²ÑĤÐ¾Ð¼ Ð°ÑĤÑĤÑĭ
ĠÐ¸Ð½ ÑĤÐµÑĢÐ½
ĠÐµÐ½ ÑĸÐ¿
ĠÐĵ Ð°Ð·
Ð¡ Ð°Ð¹
ĠÐºÒ¯ Ð´ÑĸÐºÑĤÑĸ
Ð¶ÐµÑĤ ÐºÐµÐ½
ĠÑĨÐ¸ÑĦÑĢ Ð»Ð°Ð½Ð´ÑĭÑĢÑĥ
ĠÐºÓĻÑģ i
ÑĨÐ¸ÐºÐ» Ð¾Ð¿ÐµÐ´
ĠÐĶ Ò¯Ð¹
in d
ĠÒļÐ°Òĵ Ð¸Ð´
ĠÓ©Ð·Ð³ÐµÑĢ ÑĥÑĸ
ĠÐ·Ð¸ÑıÑĤ ÐºÐµÑĢÐ»ÑĸÐº
ĠÐ¢ Ò¯Ð¹
ĠÐĶ Ñĥ
ĠÐľÐ°Òĵ Ð¶Ð°Ð½
ĠÐ¾Ð» Ð°Ð¹
ĠÑģÐ¾ÑĤ ÑĤÑĭÒ£
ĠÐ´ÓĻÑĢÐµÐ¶ ÐµÐ»Ñĸ
ĠÐļÒ¯Ð½ Ñĸ
ĠÐºÐµÐ· iÐ½Ð´Ðµ
ĠÐľÐķÐľÐĽÐķÐļ ÐķÐ¢Ð¢ÐĨÐļ
ĠÑģÐ¾Ò£ ÑĭÐ½Ð°Ð½
Ð¸Ðº Ð¾
ĠÐµÑĢÐµÐ¶ ÐµÑģÑĸ
ĠÐľÐ°ÑĢ Ð°ÑĤ
ĠÐ± Ð°ÑĤÐ°
Ð³ iÐ½iÒ£
ĠÐ±ÓĻÑĢ ÑĸÐ½Ðµ
ĠÐĸ Ð°Ð¹
ĠÒ» ÓĻÐ¼
ã ĥ
ÑĸÑģ ÑĤÑĸÐ³Ñĸ
ĠÐ¿Ð°ÑĢ Ð°
ĠÑĤÒ¯Ð½ Ð³Ñĸ
Ðĸ Ðŀ
ĠÒ±Ð¹ÑĭÐ¼Ð´Ð°ÑģÑĤÑĭÑĢÑĥ ÑĪÑĭÐ»ÑĭÒĽ
Òļ Ð¾Ñģ
ĠÐ½ Ò¯Ðº
ÑĤÑĭÐ» ÑĭÒĵÑĭÐ½Ð°
ĠÐ¾ÒĽÑĭÑĤÑĥ ÑĪÑĭÑģÑĭ
Ð¸Ð½ Ð°ÑĢÑĭ
Ġ199 1
ĠÑĦÐ¾ÑĢÐ¼ ÑĥÐ»
ĠÐ±Ð¾Ð» Ð´ÑĭÒĽ
ĠÓĻÐ½ Ð´ÐµÑĢ
ÑĭÑĢ Ð°
ĠÑĤÐ¾ÒĽÑģÐ°Ð½ Ð´Ð°
ĠÐºÐµÑĪ ÐºÑĸ
ĠÑĤÑĢÐ°Ð½Ñģ ÑĦ
ĠÐ±Ð°ÑģÒĽÐ°ÑĢ ÒĵÐ°Ð½
ĠÑĪ ÓĻÑĢ
ĠÐ¾ÑĢÐ³Ð°Ð½ Ð¸ÐºÐ°Ð»ÑĭÒĽ
ĠÓ¨ ÑĤÐµ
ĠÐ« Ð»
ĠÐºÐµÐ»ÑĤÑĸÑĢÑĥ Ð³Ðµ
Ġ u
ĠÐ´ Ð¸Ð½Ð°Ð¼
Ð°Ð± Ð¾ÑĢ
ĠÐķÑĥÑĢ Ð°Ð·Ð¸ÑıÐ»ÑĭÒĽ
ĠÐ¾Ð»ÐµÐ½ Ð´ÐµÑĢ
Ġ <
ĠÓ© ÑĤÑĸÑĢÑĸÐº
Ð» ÐµÐ³ÐµÐ½
Ñĥ ÑĭÐ·
ĠÐ°Ð¹ÑĤÒĽÐ°Ð½ Ð´Ð°Ð¹
ÑĤÐµÑĢ Ð´iÒ£
ĠÐ¾ÑĢÐ³Ð°Ð½ ÑĭÐ½ÑĭÒ£
ĠÒ±ÑģÑĤ Ð°ÑĥÒĵÐ°
ĠÓĻÐ·ÑĸÑĢ Ð»ÐµÐ½Ð³ÐµÐ½
Ð½ Ð±ÐµÑĢÐ³
ĠÐ°ÑĥÑĭÑĢ Ð°ÑĤÑĭÐ½
Â» ;
ĠÐ¼ÓĻÑĢÑĤÐµÐ± ÐµÑģÑĸ
ĠÐ¿Ð»Ð°ÑĤ ÑĦÐ¾ÑĢÐ¼
Ð±Ð°Ð¹ ÑĤÑĭÐ½
ĠÐ°Ð¿ ÑĤ
sh a
ĠÑģÐ°ÑıÑģÐ°ÑĤ ÑĤÐ°
Ġ6 00
ĠÐ°ÑĥÐ´Ð°ÑĢ ÒĵÐ°Ð½
ĠÑģÐ°ÒĽÑĤÐ°Ð» ÑĥÑĭÐ½Ð°
ĠÐ¶Ð°Ð· ÑĥÑĪÑĭÐ»Ð°ÑĢ
ÐŀÑĢ Ð°Ð»
ĠÐ£ÐºÑĢÐ°Ð¸ Ð½Ð°
ĠÐ¤ Ð¾ÑĢÑĤ
Ð° Ñŀ
ĠÐ¡ Ð°Ð¿
ĠÐ°ÑĥÐ´Ð°Ð½ ÑĭÐ½Ð°
ĠÑĤÒ¯ÑģÑĸÑĢ Ñĥ
ĠÐ¾ÑģÑĭÐ½ Ð°Ñĥ
Ð¼ ÐµÐ»
ĠÐ½ ÐµÑģÑĸ
ĠÐµÐ¼ Ð´ÑĸÐº
ĠÐµ Ð´ÑĸÒ£
ÐµÐ² ÑĤÑĸÒ£
ÑĭÐ¼ÑĭÐ· Ð´Ð°Ð½
ĠÐļÐ¾Ð¼ Ð¿
Ð°Ð´Ð°Ð¼ Ð³ÐµÑĢÑĪÑĸÐ»ÑĸÐº
ĠÐ±Ð¸Ð» ÐµÑĥ
ĠÑĤÐ¸Ð³ÑĸÐ· ÐµÐ´Ñĸ
ĠÐ°Ð¿ÑĤÐ° Ð´Ð°
ĠÒĽÐ°Ð½ Ð°ÑĤ
ĠÐºÑĸ ÑĤÐ°Ð±Ñĭ
ĠÑĤÐ°Ð¼ÑĭÐ· Ð´Ð°
ĠÑĤÓĻÑĢÑĤi Ð¿
Ð°Ðº Ó©Ð»
ĠÑĸÐ· Ð³Ñĸ
ĠÓĻÐ´ÑĸÑģÑĤÐµÐ¼ ÐµÑģÑĸ
ĠÐºÓ© ÑĪÑĸ
ĠÓĻÐ· ÑĸÐ»
ĠÑĤÓĻÑĢÑĤi Ð±
ĠÐ±Ð¸ Ð´Ð°Ð¹
ĠÐĲÐ¹ Ð´ÑĭÒ£
ĠÑĸÐ»Ð³ÐµÑĢ ÑĸÐ»
ÑĤÐ°Ð¼ ÑĭÑĢ
ĠA l
ÑİÑĢ Ð½Ð±ÐµÑĢÐ³
ÐºÐµÐ¼ ÐµÐ»ÐµÑĢ
Ð¼ Ò¯
ĠÐ°ÑĢ Ð¼
ĠÐ³Ðµ Ð¾Ð³ÑĢÐ°ÑĦÐ¸Ñı
ĠÑģÐµÑĢÐ² Ð¸Ñģ
ĠÐ¾ÑĢ Ð°Ð¿
ĠÐ¶Ò¯ÑĢÐµÐº ÑĤÑĸÒ£
Ð´ÑĸÐº ÑĤÑĸÒ£
ÑĤÑĸÐ» ÑĸÐ¿
Ð°Ð· ÑĸÑĢ
ÑĭÐ¼ Ð¼ÐµÐ½
ÐĶ Ð°Ð¼
Ġ5 8
ĠÐ±Ð°ÑĢ ÑĭÐ½
ĠÒĽÐ°Ð¼ ÑĤÑĭ
ĠÒĽÒ±ÑĢÐ°Ð¼ Ð°ÑģÑĭ
ĠÐµÑģÐµÐ¿ ÑĤÐµÑĢ
ĠÐºÐµÐ»ÑĸÑģ Ñĥ
Ð¼ Ð¸ÑĢÐ°
Ð°Ðº Ð¾Ð²
Ð¸Ð» Ñĭ
ĠÒĵÐ°Ð»Ð°Ð¼ ÑĤÐ¾ÑĢ
ĠÒĽÒ±ÑĢ Ð¼Ð°Ð»Ð°Ñģ
ĠÐĿ ÑİÑĢÐ½Ð±ÐµÑĢÐ³
ĠÐ°ÒĽÐ¿Ð°Ð½ Ð´Ð°ÒĵÑĭ
n i
ĠÒĽÐ°ÑĢ Ð°Ð´Ñĭ
ĠÐ°Ð´Ð°Ð¼ Ð´Ð°ÑĢÑĭÐ½ÑĭÒ£
ĠÑĤÐ¸ÑĸÑģ ÑĸÐ½ÑĪÐµ
ĠÐ°Ð¼Ð± ÑĥÐ»Ð°ÑĤÐ¾ÑĢ
Ð´Ð°ÑĢ Ð´Ð°ÒĵÑĭ
ĠÑĦÐ°ÐºÑĥÐ»ÑĮÑĤ ÐµÑĤÑĸÐ½
ÑĭÐ» ÑĭÑģÑĭ
ĠÑĤÐ¾ÒĽ ÑĤÐ°Ð»Ð´Ñĭ
ĠÐºÒ¯Ð½ Ð´ÑĸÐº
ĠÓĺÐ» Ð´Ðµ
ĠÐ¼ÓĻÑģÐµÐ»ÐµÐ»ÐµÑĢ Ð³Ðµ
ĠÐºÒ¯Ð» ÑĸÐ¿
ĠÐ¶ÑĭÐ½ ÑĭÑģ
ĠÒĽÒ±Ð» ÑĪÑĭÐ»ÑĭÒĽ
Ð¼Ð± ÐµÐ±Ð°Ð¿
ĠÐ¼Ð¾Ð» Ð´Ð°
ĠÓĺÐ»ÐµÐ¼ Ð´Ðµ
ÑĤ Ð½
ÐŁ ÐµÐ´Ð°Ð³Ð¾Ð³
ĠÑĪ ÑĭÐ¼
ĠÒĽÒ±ÑĤÒĽÐ°ÑĢ Ñĥ
ĠÒļ Ð°Ð½Ð´Ñĭ
Ð¨ ÐµÐ²ÑĩÐµÐ½ÐºÐ¾
ÐµÐ¹ ÑĸÐ¿
ÐµÐ¹ Ñħ
Ðº ÑĸÐ½Ðµ
ĠÐ¢ ÓĻÑĢÐ±Ð¸Ðµ
Ò±ÑĢ ÑĭÒĽ
ĠÐĲÐ½ Ð³
Ð°Ð½ Ð¸Ñı
ĠÐ¾Ð±Ð»ÑĭÑģ ÑĤÐ°
ĠÐ¶Ð°Ð· ÑĭÐ»Ð°Ð´Ñĭ
ĠÐ¥Ð°Ð±Ð°ÑĢ Ð»Ð°Ð½Ð´ÑĭÑĢÑĥ
ÑĪ ÑĭÐ¿
ĠÒĽÐ°ÑĢ Ð°ÒĵÑĭÐ¼
ĠÐ°Ð¹ÑĤÑĥ Ð»Ñĭ
ÑĤ ÓĻÐ¶ÑĸÑĢÐ¸Ð±
ĠÑĤÓ©Ð· ÑĸÐ¼Ð´Ñĸ
ÐµÐºÑģ Ð¸ÐºÐ°Ð»ÑĭÒĽ
ĠÐ¶ÐµÐ¼ ÑĸÑģ
ĠÑģÑĭÑĢÑĤ ÑĤÐ°Ð½
ĠÐ¶Ð°Ð¿ ÑĭÑĢ
ri g
ĠÐľÓĻÐ¶ ÑĸÐ»ÑĸÑģ
ĠÑĪÒ¯ ÐºÑĸÑĢ
Ð¶ Ñĥ
Ð½ Ð°Ð¿
Ò£ ÐºÐµÑĢ
ÐµÑĥ Ð½
ĠÐļÐ¾ÑĢÐ¾Ð»ÑĮ Ð´ÑĸÐ³ÑĸÐ½Ð´Ðµ
ÐµÐº Ð¾Ð¼
ĠÒĽÐ°Ò£ÑĤÐ°ÑĢ ÑĭÐ½Ð°Ð½
ĠÐĳÐµÐ»Ð°ÑĢÑĥÑģÑĮ ÑĤÐ°
Ð¾ Ð´Ðµ
Ò® Ð»ÐºÐµÐ½
ĠÐ¿Ð» Ð°Ð·
ĠÑĭ Ð´ÑĭÑĢ
Ð¸ Ð´ÑĸÒ£
ĠÐ°Ð½ Ð°Ð¼
ĠÒļÐ¾ÑĢÒĵÐ°Ð½ ÑĤÓ©Ð±Ðµ
ĠÐ±Ð°Ñģ ÑĤÑĭÒĽ
Ð¡ Ðļ
ĠÓ¨Ð· ÑĸÐ½
ĠÑģÓ©Ð· Ð³Ðµ
ÐµÑĢÐ°Ð½ÑĤÑĤÑĭÒĽ ÑĤÑĭÒ£
ĠÒļ Ð°ÑĤÑĭÑģ
Ðº Ð»
ĠÐ´Ð°Ñĥ ÑģÑĭ
ĠÐºÐµÐ· Ð´ÐµÐ½
ĠÐ¾Ð¹ Ð»Ð°ÒĵÐ°Ð½
ĠÐ±ÐµÐ»ÑģÐµÐ½ Ðµ
ĠÐºÐµÑĪÐµÐ½ ÑĸÐ½
Ðµ Ð´ÐµÐ³Ñĸ
ĠÐ³Ð¸Ð»ÑĮ Ð´Ð¸ÑıÑģÑĭÐ½ÑĭÒ£
ĠÐ±ÐµÑĢ ÑĸÐ¿ÑĤÑĸ
Ð´ÐµÑĥ Ð³Ðµ
ĠÒĽÐ°Ð» Ð°ÑģÑĭÐ½Ð°Ð½
ĠÐ³Ðµ Ð¾Ð³ÑĢÐ°ÑĦÐ¸ÑıÐ»ÑĭÒĽ
ÐŁÐĺ ÐķÐĴ
Ð¶Ñĸ Ð³ÐµÑĢ
ĠÐ¢Ó©Ð· ÑĸÐ¼Ð´ÑĸÐ»ÑĸÐºÑĤÑĸÒ£
Ġ5 1
ĠÑģ ÑĭÐ±
ĠÐµÑĢ Ð½ÐµÑĥ
ĠÑĤÐ°Ò£ Ð´Ð°Ð¹
ĠÐĳ Ð°Ð¹ÑĤÒ±ÑĢÑģÑĭÐ½
ĠÐ°Ð¹ÑĭÑĢÐ¼Ð° ÑĪÑĭÐ»ÑĭÒĵÑĭ
ĠÐĸÒ±Ð¼Ð°Ð½ ÒĵÐ°Ð»Ð¸Ò±Ð»Ñĭ
ĠÐµÐ¼Ð´ÐµÑĥ Ð³Ðµ
ÑĤÐ¾Ð» ÐµÑĢÐ°Ð½ÑĤÑĤÑĭÒĽÑĤÑĭÒ£
ĠÐ¡Óĺ ÐŁÐĺÐķÐĴ
ÑĭÐ¼ ÑģÑĭÐ·
Ðŀ Ð¹
ĠÐ¨ Ð¾ÒĽÐ°Ð½
ĠÐµÐ½Ð³ÑĸÐ· ÑĥÐ³Ðµ
ĠÐ¢Ð°ÑĪ ÐºÐµÐ½ÑĤ
ÑĭÒ£ÑĭÐ· Ð´ÑĭÒ£
ÐŁ Ð°Ð¹
ĠÑĪÑĭÐ½ Ð´ÑĭÒĽ
ÑĸÐ» ÑĸÐ¼Ñĸ
ĠÑģÐ°Ð¹ÑĤ ÑĤÐ°
ĠÑĪÑĭÒĵÑĭÐ½ Ð´Ð°ÑĢÐ´Ñĭ
e p
ĠÐº Ð»ÐµÑĤÐº
ÑĤÐµ Ð³
ĠÐ´ÐµÐ¿Ð°ÑĢÑĤÐ°Ð¼ÐµÐ½ÑĤ ÑĸÐ½Ð´Ðµ
ĠÐ°ÒĵÐ°Ð¼ Ð½ÑĭÒ£
ÑĸÐ½ Ð±ÐµÐ¹Ð´Ñĸ
ĠÐ°Ð½ Ð°Ð½ÑĭÒ£
ĠÐĺÐ½ÑĦÐ¾ÑĢÐ¼ Ð°ÑĤÐ¸ÐºÐ°
ĠÑĤÒ¯Ñģ ÑĸÐ½Ðµ
ĠÒĽÐ°Ð¹ ÑĪÑĭ
ĠÑĥÓĻÐº iÐ»ÐµÑĤÑĤi
Ð°Ð» Ð¸Ñı
Ġ5 2
ĠÑģÒ¯Ð¹ ÐµÐ¼ÐµÐ»
ĠÑģÐ¾ÑĩÐ¸Ð½ ÐµÐ½Ð¸Ðµ
ĠÐ¶Ò¯ÑĢÐ³ÑĸÐ·Ñĥ Ð´Ðµ
ĠÐ½ÓĻÑĤÐ¸Ð¶ ÐµÐ»Ñĸ
Ñı ÒĽ
ĠÐ°Ð¹ÒĽÑĭÐ½ Ð´Ð°Ð¹Ð´Ñĭ
Ð¾Ð³ÐµÐ½ Ð´Ñĸ
] [
ĠÐ¼Ð°Ð¼ÑĭÑĢ Ð´Ð°
Òļ Ð°Ñģ
ĠÒļÐ°Ð½ Ð´Ð°Ð¹
ĠÐ¡ Ð¾Ò£
ÑĤÑĸÐº ÐºÐµ
ĠÒĽÐ°Ð±ÑĸÐ» ÐµÑĤ
Ðºi Ð¼ÐµÑĤ
ĠÐºÑĸÑĤÐ°Ð¿ÑħÐ°Ð½ Ð°ÑģÑĭ
ÐĲ Ðº
ĠÐľ ÑĭÑĢÐ·
ĠÐĸ Ð¾
ĠÐ¶ÑĭÐ»Ð´Ð°Ð¼ Ð´ÑĭÒĵÑĭ
an g
ĠÐºÓ©ÑĢÑģÐµÑĤÑĥ Ð´Ñĸ
................ ................
ÐµÐº ÐµÑĢ
Ñİ Ð½
ÑĪÐ°ÑĢ Ð°Ð»
ĠÐĲÒĽ ÑĭÐ½
ĠÐºÐµÒ£ ÑĸÑģÑĤÑĸ
ĠÒĽÒ±ÑĢÐ°Ð» Ð´Ð°ÑĢÐ´Ñĭ
ÒļÐ°Ð· ÑĭÐ½Ð°
Ðº ÐµÐº
ĠÐ°Ñĥ ÑĭÑĢÑĤ
20 21
ÑĪÐ° ÒĵÐ°
ÑĪÑĸÐ»Ñĸ Ð³ÑĸÐ½Ðµ
5 1
ĠÒĽÐ¾Ð» Ð¼ÐµÐ½
ĠÐ§ Ð°Ð¿
ĠÑģÑĭÐ½ ÒĵÐ°
ĠÑĤ Ð°Ñı
ĠÒ±ÑģÑĭÐ½ ÑĭÐ»Ð´Ñĭ
ĠÐºÐµÑĪÑĸÑĢ ÑĸÐ¼
Qazaq stan
ĠÐ¼Ò±ÒĵÐ°Ð»ÑĸÐ¼ Ð´ÐµÑĢÑĸ
ĠÐ´ÐµÒ£Ð³ÐµÐ¹ ÑĸÐ½ÑĸÒ£
ĠÐ´ Ð¸Ð²
ĠÐ¶Ð°Ð¹ ÑĭÐ¿
ĠÐºÐ°Ð½Ð´Ð¸Ð´Ð° ÑĤÑĤÐ°ÑĢ
ĠÐ¶Ð°Ð»Ð°ÒĽ ÑĭÑģÑĭ
ĠÐµÑĢ ÑĸÐ¿
ĠÐ³Ðµ Ð¾Ð¼ÐµÑĤÑĢ
ĠÐ´Ð¸Ð°Ð³Ð½Ð¾ÑģÑĤ Ð¸ÐºÐ°
Ð» ÑĭÐ»Ð°ÑĢ
Ð² Ð¸Ð½
ĠÐ½ÓĻÑĤÐ¸Ð¶ ÐµÐ»ÐµÑĢÑĸÐ½Ðµ
ĠÐ·Ð°Ð» Ð°Ð»
ÐµÒ£ Ð±ÐµÐº
ĠÐ¾ÑĢ Ð´ÐµÐ½
ĠÐ·Ð°Ò£ Ñĭ
ĠÒĽÐ°Ð»ÑĭÐ¿ ÒĽÐ°
Ðľ ÑĸÐ½Ðµ
ĠÐĺ ÑģÐ¿Ð°Ð½
ÐºÐµÑĢÐ»ÐµÑĢ ÑĸÐ½ÑĸÒ£
ĠÐ´ ÑĢÐ°Ð¼
ĠÐºÓ© Ð±Ðµ
ĠÐ¶Ò¯Ð· Ñĸ
ĠÐĺ Ð±ÑĢ
Ð°Ð¿ ÑĤÐ°ÑĢ
ĠÒļÒ± ÑĤÑĤÑĭÒĽ
ĠÑĤÐ¾Ð± ÑĭÐ½Ð°
ĠÐĲÐ»Ð¼Ð°ÑĤÑĭ Ð´Ð°ÒĵÑĭ
Ð³ Ð°ÑĢ
Ñĭ Ðº
ĠÐ¾ÑĢ Ðº
ĠÑĤÓĻÑĥÐµÐºÐµÐ»Ð´ÐµÑĢ ÑĸÐ½
ĠÑĤÐµÐ¾ÑĢ Ð¸Ñı
ĠÐĳÒ± ÒĽÐ°ÑĢ
ĠÐ°Ð´ Ð²Ð¾Ðº
ĠÒĵÐ¸Ð±Ð° Ð´Ð°ÑĤ
Ðĺ ÑģÐ»Ð°Ð¼
ĠÑįÐº ÑĢÐ°Ð½
ĠÒĽÒ±ÒĽÑĭÒĽ ÑĤÐ°ÑĢÐ´Ñĭ
ĠÓ©Ð½ÐµÑĢÐºÓĻÑģÑĸ Ð±Ñĸ
âĨ ĳ
ĠÐ±ÑĸÑĢ ÑĸÐ³ÑĸÐ¿
ÑĤÑĸ ÑģÑĸ
ĠÒĽÐ¾ÑĢ ÒĵÐ°
ÐĲ Ðĳ
ĠÐºÐµÐ· Ð´ÐµÐ¹ÑģÐ¾ÒĽ
ÑĤÐ°Ð¹ Ð¼ÑĭÐ½
ĠÐ¿ÐµÑĢ ÑĸÑĪ
ÐĲ Ðľ
ĠÐ±ÐµÑĢ ÑģÐµ
ĠÒĽÐ°Ð¶ Ñĭ
ĠÒ¯Ð¹ÑĢÐµÐ½ Ñĥ
e st
ĠÐ¶Ð°Ð· ÑĭÒĽ
ĠÐ¿ÑĢÐ¾ÐºÑĥÑĢÐ°ÑĤÑĥÑĢ Ð°
ÐºÐµÐ½ ÑĸÒ£
ĠÒĽÐ¾ÑĢ ÑĪÐ°Ñĥ
ĠÓ©Ò£ÑĸÑĢ Ð´Ðµ
Ñİ ÑĪ
ĠÐ´Ò¯Ð½Ð¸ ÐµÑĤÐ°Ð½
ĠÐ°ÑĢ Ð±
ĠÐ°ÑĪÑĭ ÒĵÐ°Ð½
ÐµÐ¿ Ð°ÑĤ
ĠÐºÓ©ÑĢÑģÐµÑĤÑĥ Ð¼ÐµÐ½
ĠÐ¶Ò¯ÑĢÐµÐº ÑĤÐµÐ½
ĠÐµÐºÐµÑĥ Ð¼ÑĸÐ·
ĠÓĻÐ· iÑĢ
ĠÐ¶Ð°ÑĥÑĭÐ½ Ð³ÐµÑĢ
Ñģ Ð°Ð¿Ð°ÑĢ
ÑĤÐµÐ¼ ÑĸÐ·
Ð¿ÐµÑĢÐ¸ Ð¼ÐµÐ½ÑĤ
Ð¶Ð°ÒĵÐ°ÑĢ Ð¼Ð°Ð¹
ĠÑĤÐ°Ð½ Ð°Ñĥ
ĠÒĽÐ°Ð·Ð°ÒĽÑģÑĤÐ°Ð½Ð´ÑĭÒĽ ÑĤÐ°ÑĢÐ´ÑĭÒ£
ĠÐ¼ÐµÒ£Ð³ÐµÑĢ ÑĥÑĸ
ĠÓ©ÑĤÑĥ Ð³Ðµ
ĠÑģÐ¸Ð¿Ð°ÑĤÑĤÐ°Ð¼ Ð°ÑģÑĭ
ĠÐ±Ð¾Ñģ Ð°ÑĤÑĭÐ»
as h
ĠÐ¿ ÑĭÑĪ
ĠÒ± ÑĤÑĭÐ¿
ĠÑĤÐ°ÑĢ Ð°ÑĤÑĭÐ¿
ĠÒ¯Ð¹ Ð»ÐµÑĢÑĸÐ½Ðµ
ĠÐ» Ð°ÑģÑĤÐ°Ð½
Ð¡Ð¾Ð½ Ð´ÑĭÒĽÑĤÐ°Ð½
Ð½ Ò±ÑĢ
ĠÒļ Ð°Ð¼
ĠÐĲÐ²ÑĤÐ¾ÑĢ Ð»ÑĭÒĽ
ĠÑģÓĻÑĤÑĤÑĸ Ð»ÑĸÐº
ĠÐ¾ÑĢ Ð´
ĠÐĲÐ»ÑĤÑĭÐ½ ÑģÐ°ÑĢÐ¸Ð½
ĠÑĢÐ°Ñģ ÑĤÐ°Ñĥ
ĠÑģ ÑħÐµÐ¼
Ġ ÒĵÐ°ÑĪ
ĠÒĽÒ± ÑĤÑĭÐ»
ĠÑģÐ°Ð½ Ð°Ð¹Ð´Ñĭ
ĠÒĽÐ°Ñģ ÑĤÐµÑĢ
Ð°ÑĪ ÑĭÑĢ
ĠÒĵÐ°Ð»ÑĭÐ¼ Ð´Ð°ÑĢÑĭ
ĠÐ´Ð°Ð¹ÑĭÐ½ Ð´Ð°Ð»ÒĵÐ°Ð½
ĠÐ°Ð¹Ð¼Ð°Òĵ ÑĭÐ½Ð´Ð°ÒĵÑĭ
ĠÐ¼ÓĻ Ò£Ð³Ñĸ
Ð¶ÐµÑĤ ÑĸÐ¼
Ġ0 6
ĠÐ°Ð¹ ÑĭÐ½Ð´Ð°ÒĵÑĭ
ÐµÑĤ ÐµÐ´Ñĸ
ĠÐŀ ÑģÑĭÐ½
ÑĥÑĢÐ¾Ð¿ Ð°Ð»ÑĭÒĽ
Ð¸Ð´ÐµÐ¼ Ð¸Ð¾Ð»Ð¾Ð³Ð¸ÑıÐ»ÑĭÒĽ
Ð°Ñģ Ð°Ð´Ñĭ
Ġ5 4
ĠÑĤÓ©Ð¼ÐµÐ½Ð´ÐµÑĤ Ñĥ
ĠÐ¿ÑĸÑģ ÐºÐµÐ½
ĠÐĲ ÒĽÑĭÐ»
ĠÐŀÐ½ Ð´Ð°Ð¹
y z
ĠÐ¶Ð¾ÑģÐ¿Ð°ÑĢÐ»Ð°Ð½ ÑĥÐ´Ð°
Ñģ ÐºÐµÑĢÐ¸
ĠÐ¼Ò¯Ð´Ð´ ÐµÐ»ÐµÑĢÑĸÐ½
ĠÒĽÐ¾Ð»Ð´Ð°Ñĥ ÒĵÐ°
ĠÒĽÐ°ÑĢ Ð¿ÑĸÐ½Ðµ
ĠÑĦÐ¾ÑĤÐ¾Ñģ ÑĥÑĢ
ĠÐ¾ÑĢÑĭÐ½ Ð´Ð°Ð¿
Ġ4 4
ĠÐ¿Ð°Ð¹ÑĭÐ· ÑĭÐ½Ð°Ð½
E R
ã Ĥ
ĠÐºÐµÑĪ ÐµÐ³Ñĸ
ĠÐ°Ð¹ÑĤÑĭÐ» ÑĭÐ¿
ĠÑĢÐµÐ¹ÑĤ Ð¸Ð½Ð³
ĠÐ¶Ð°ÑĢ Ð°Ð¼Ð´Ñĭ
ĠÐ¶Ð°Ð±Ð´ÑĭÒĽ ÑĤÐ°ÑĢÐ´Ñĭ
ĠÐºÓ©Ð¿ ÑĤÐµÐ¿
Ò±ÑĢ Ð°ÒĵÐ°ÑĤ
ĠÐĲ ÐĽ
ĠÐļ Ó¨
ĠÑģÐ°ÒĽ ÑĤÐ°Ð»ÑĭÐ¿
ĠÐ±Ð¸ Ð»ÑĸÐ³Ñĸ
ĠÐ¾Ð¹Ð» Ð°Ð´ÑĭÐ¼
Ð¼ Ð°Ð³
Ð¸Ð°Ð» ÑĮ
ĠÒĵÐ°Ð»ÑĭÐ¼ Ð´Ð°ÑĢÐ´ÑĭÒ£
ĠÐ´Ð¸Ð°Ð³Ð½Ð¾ÑģÑĤ Ð¸ÐºÐ°Ð»ÑĭÒĽ
ÑĭÑĢÐ°Ñĥ ÒĽÒ±Ð»
ĠÑĦÐ°ÐºÑĥÐ»ÑĮÑĤ ÐµÑĤÑĸÐ½ÑĸÒ£
Ð´iÐ³iÐ½ ÐµÐ½
ÑĤÑĸÑĢ ÑĸÐ»Ð³ÐµÐ½
ĠÑģÑĭÑĢÑĤ ÒĽÐ°
ĠÑĤÐ°Ð¼Ð°ÒĽ ÑĤÐ°Ð½Ñĥ
ĠÐ¼Ò± ÑħÐ¸ÑĤ
ĠÐºÐµÐ´ÐµÐ½ Ð´ÑĸÐº
ĠÐ±Ð°Ð» Ð°Ð»ÑĭÒĽ
Ð¸ÑĨ Ð°
ĠÐĳÐ°ÑģÒĽÐ°ÑĢ Ð¼Ð°
ĠÐ°Ðº ÑĤ
ĠÐºÓ©ÑĤÐµÑĢ ÑĸÐ»ÑĸÐ¿
% )
ĠÐ±Ò±Ð·ÑĥÑĪÑĭÐ»ÑĭÒĽ ÑĤÐ°ÑĢ
ÒĽ Ð°Ð¼
ĠÐļ Ó©Ð»ÑĸÐº
ĠÑģÐ°Ð» Ð°ÑĤÑĭÐ½
ĠÐºÓ© Ð¹
Ð¾Ð½ Ð¸Ð¼
ĠÐ±Ð°ÒĵÐ´Ð°ÑĢÐ»Ð°Ð¼ Ð°Ð½Ñĭ
ÐŀÑģÑĭ ÒĵÐ°Ð½
Ð¸Ð½ ÑĤÐµÑĢÐ½
ĠÐ±ÐµÑĢ ÑĸÐ»ÑĥÑĸ
Ðľ ÐµÑĢ
ĠÐ¡ Ò±ÑĢ
8 8
ĠÐ¾Ð¹ Ð»Ð°ÑĢ
ĠÐºÓ©ÑĢ ÑĸÒ£ÑĸÐ·
ĠÐ½Ò±Ñģ ÒĽÐ°
ĠÓ¨ Ñģ
ĠÒĽÐ°Ð»Ð° Ð´Ð°ÒĵÑĭ
ĠÐ¶Ð°ÑĢÐ¸ÑıÐ»Ð°Ð½ÒĵÐ°Ð½ ÑĭÐ½Ð°Ð½
ĠÐķ ÐºÐµÑĥ
ĠÐ¼Ò¯ ÑģÑĸÐ½
ĠÐ·Ð°ÒĽÑĭÐ¼ Ð´Ð°Ð½
ĠÑģÐµÐ· ÑĸÐ»Ð´Ñĸ
Ð»Ñİ Ðº
Ðº Ð¼
ĠÑĥÓĻ Ð´Ðµ
ĠÐ°ÑĪÑĭÐ» ÑĥÑĭ
t v
ĠÐľÐµÐºÑĤÐµÐ¿ ÐºÐµ
ĠÑģÑĸÑĢ ÓĻ
ĠÐ¾ÑĢÐ³Ð°Ð½Ð´Ð°ÑĢ Ð¼ÐµÐ½
ĠÐ¶Ð°Ð· ÑĭÐ»ÑĭÐ¿
ĠÒĽÐ¾Ð»Ð´Ð°Ð½ ÑĭÐ»ÒĵÐ°Ð½
Ð»Ð°Ð½ Ð°Ð´Ñĭ
ĠÐ°ÑģÐ¿ Ð°Ð¹ÑĤÑĭÐ½
ĠÐ¶Ð°ÑĢÐ°Ð¼ ÑģÑĭÐ·
ĠÐ±Ð¾Ð»ÒĵÐ°Ð½ Ð½Ð°Ð½
ĠÑģ ÑĭÒĽ
ĠÐ¶Ò±Ð¼ÑĭÑģ ÑĪÑĭ
Ó¨ Ð»
ĠÐĳ Ð°Ð¹Ð»Ð°Ð½ÑĭÑģ
Ðľ Ð°Ñħ
ĠÑĤÐµÑħÐ½ Ð¸ÐºÐ°ÑģÑĭ
Ð¡ Ð°Ð½
Ð³ Ð¸Ð´
ĠÑĤÐµ Ð¶
ĠÐŀ ÒĽÑĭÑĤÑĥ
ĠÑĤÐ°ÐºÐ¿Ð°Ðº ÑĤÐ°ÑĢ
ÑĤÑĭÑĢ Ð°ÑĤÑĭÐ½
Ð¡ Ð°Ð»ÑĭÒĽ
Ó¨ Ð½ÐµÑĢ
ĠÑģÐ¾ ÒĵÑĭÐ¿
ĠÑĤÓĻÐ¶ÑĸÑĢÐ¸Ð± ÐµÐ»ÑĸÐº
ĠÑĤÐ°ÑĢ Ð°Ñĥ
ĠÒ±Ð¶ÑĭÐ¼ Ð´ÑĭÒĽ
ĠÐ³ ÑĢÐ°Ð´
ĠÐµÑĢÐµÐ¶ Ðµ
ĠÑģÐ°Ð½ ÐºÑĨÐ¸Ñı
ĠÐ»Ð°Ð³ÐµÑĢÑĮ Ð»ÐµÑĢÐ´Ðµ
ÑĨÐ¸Ñı Ð½ÑĭÒ£
ĠÐ¼ÓĻÑģÐµÐ» ÐµÐ½ÑĸÒ£
ĠÑĤÐµÐ¼Ð¿ÐµÑĢÐ°ÑĤÑĥÑĢ Ð°ÑģÑĭ
ĠÐ¿ÑĢ Ð°Ð²
ĠÒ±Ð¹ÑĭÐ¼Ð´Ð°ÑģÑĤÑĭÑĢ ÒĵÐ°Ð½
ĠÐ± ÑĭÐ»
ĠÑĤÐ¾Ð± ÑĭÐ½
ĠÐ¤Ð¾ÑĤ Ð¾Ð³Ð°Ð»ÐµÑĢÐµÑı
ĠÐŀ Ð´Ð°ÒĵÑĭÐ½ÑĭÒ£
ĠÐµÑģ ÑĸÐ¼Ð´Ðµ
ĠÒĽÐ¾Ñı ÑĤÑĭÐ½
ÐĲÑĥÐ´Ð°Ð½ Ð½ÑĭÒ£
ĠÐ¾ÑĤÐ±Ð°Ñģ ÑĭÐ½Ð°
ĠÐ±Ð°ÑģÑĤÐ°Ð¼ Ð°ÑģÑĭÐ¼ÐµÐ½
Ð¶ ÑĭÐ»Ñĭ
ĠÐ¼Ð¾Ð½ ÑĤÐ°Ð¶
ĠÒĽ Ð¾Ð±
ĠÐ¶Ð¾Ð» Ð´Ð°ÑĢ
ÑģÐ°ÑĤ ÑĤÑĭÒĽÑĤÑĭ
ĠÐł ÑĥÑħÐ°Ð½Ð¸
Ġ y
ĠÐĲÐ» Ð°ÑĤÐ°Ñĥ
ÑĤÐ°ÑĢ ÑĭÐ½Ð°Ð½
ĠÐºÐ¾Ð¼Ð¼ÑĥÐ½Ð¸Ðº Ð°ÑĨÐ¸Ñı
ĠÑħÐ°Ð½Ð´Ñĭ ÒĵÑĭÐ½ÑĭÒ£
ĠÑĤÑĸÐ· ÐµÑĢÐ»ÐµÐ¿
ĠÐ½ÑĭÒĵÐ°Ð¹ÑĤÑĥ ÒĵÐ°
ĠÒ® ÑĪÐ°ÑĢÐ°Ð»
ĠÑģÐ°Ð»ÑĭÐ½ Ð°ÑĤÑĭÐ½
ÑĭÒ£ Ð´Ð°
ĠÒĽÒ±Ð·ÑĭÑĢÐµÑĤÑĤÑĸ Ð»ÑĸÐ³ÑĸÐ½
ĠÐµ Ð»ÑĸÐº
ĠÐµÑĤÑĥ Ð´ÑĸÒ£
Ġ7 2
ĠÒ±Ð¹ ÒĵÐ°ÑĢ
ÑĪ ÐµÐ²
ĠÐ¼ Ð°Ð¹Ñĭ
Ð°Ðº Ñĥ
Ġ ti
ĠÐ´ÐµÑĢÐµÐº ÒĽÐ¾ÑĢ
Ð´Ð¾Ð½ ÐµÐ·
ĠÐ¶ÐµÑĤ ÑĸÐ¼Ð´Ñĸ
ĠÑĦÐ¸ÑĤ Ð¾ÑģÐ°Ð½
ĠÐ¶ ÐµÐ¿
ĠÑĤÐ¾Ð»ÑĭÒĽ ÒĽÐ°Ð½Ð´Ñĭ
ĠÐ±Ð°Ð¹ Ð»ÑĭÒĽ
Ð´ÐµÑĤ ÑĸÐ¿
ĠÑĪ ÐµÐºÑĤÑĸ
ĠÐ°ÑĢÐ½Ð°Ð» Ð³Ð°Ð½
ÑĪÑĸÐ»ÐµÑĢ Ð´Ñĸ
ĠÐ Ļ
Ðľ Ð¾Ð»
Ġ199 5
Ð°Ð¼ÑĭÐ· Ð´Ð°
ĠÐºÐ°ÑĢ Ð´Ð¸
ĠÒĽÑĭÐ· Ñĥ
Ðĳ Ó©
ÑĤÐ°Ð» ÑĥÑĭ
ĠÐ¿ÑĢ ÐµÐ¼ÑĮÐµÑĢ
ÑĢ ÐµÐ¹
ĠÑĸÑģ ÐºÐµÑĢ
Ġ ol
ĠÐĺ Ð±Ð½
Ð¸ÑģÑĮ ÐºÐ¸
ĠÑĪÑĭÒĽÑĤÑĭ Ð¼
ĠÐĸ ÐµÑĤÑĸ
ĠÑģÐ°Ð½ Ð°Ð¿
ÒĴ Ð«
ĠÓĻ Ð´ÐµÐ¹
ĠÐļ ÐµÐ¼
ĠÐºÓ©ÑĪ Ð¿ÐµÐ»Ñĸ
ĠÒ±Ð¹ÑĭÐ¼ ÑĭÐ½Ð°
ĠÐºÐ¾Ð¾Ð¿ÐµÑĢ Ð°ÑĤÐ¸Ð²
ĠÐ½ÑĭÑģÐ°Ð½ Ð´Ð°
Ð½ Ð°Ñģ
Ð¶ Ð¸Ð½
Ð³ÑĸÐ½ Ð´Ñĸ
ĠÒĽÑĭÐ¼ÑĭÐ· Ð´ÑĭÒ£
ĠÑĤÐ°Ð»Ð´Ð°Ð¼ Ð°Ð»Ñĭ
ĠÐ°Ð½ÑĭÒĽ ÑĤÐ°Ð´Ñĭ
ĠÒĽÒ±ÑĪ ÑĤÐ°ÑĢ
ĠÐŁ Ð¾ÑĢ
Ġ5 9
ĠÓĺÐ» ÑĸÐ¼
ĠÐļ ÐµÑĪÐµÐ³Ñĸ
Ġ ....
ĠÐ¿ÐµÑĢÐ· ÐµÐ½ÑĤ
5 3
Òĵ Ð°Ð·
Ð± Ð°ÑĤÑĤÑĭ
ÐµÑģÑĤ Ð²
ĠÐ°Ð¹Ð½Ð°Ð» Ð´ÑĭÑĢÑĥ
r in
Ðł ÐµÑģÐ¿ÑĥÐ±Ð»Ð¸ÐºÐ°Ð»ÑĭÒĽ
ĠÑĪÐ°ÑĢ Ð°Ð»Ð°ÑĢÐ´ÑĭÒ£
ĠÒĽÐ° Ò»Ð°ÑĢ
Ð¸Ñı Ð»Ð°Ð½Ð´ÑĭÑĢÑĥ
ĠÐ¥ Ð¸ÑĢÑĥÑĢÐ³
ĠÐ¢ ÐµÐ¼
Ð´Ñĸ Ð±ÐµÐº
ĠÐ°ÑģÑĭÑĢ Ð°
ĠÐºÒ¯Ð» Ð»Ñĸ
ÑĨ ÐµÐ½ÑĤ
ĠÐ¶Ò¯ÑĢ ÐµÑĤiÐ½
ĠÑĢÐµ ÑĨÐµÐ¿
ĠÒ¯Ð¹ Ð´ÐµÐ½
Ð°Ò£ÑĭÐ· Ð´Ñĭ
Ð¼ÐµÑĤ Ð°Ð»ÑĭÒĽ
ĠÐ¢ Ð¸
ĠÒļÐ°Ð¹ ÑĭÑĢ
ĠÑĦÐµÑģÑĤÐ¸Ð² Ð°Ð»ÑĮ
ĠÓĺ Ð·
ĠÑĢÐµÐ³Ð»Ð°Ð¼ÐµÐ½ÑĤ ÑĸÐ½
ÐµÐ» Ðµ
ĠÐŃÐļ Ðĵ
ĠÐ¡ÑĭÑĢ Ð´Ð°ÑĢÐ¸Ñı
ĠÐ¿ÑĢÐ¾ÑĨÐµÐ´ ÑĥÑĢ
ĠÑĤÒ±ÑĢ ÑģÐ°
ĠÐµÐ» Ñĥ
Ð¸ÑĤÐ°Ð¼ Ð¸Ð½
Ð¸Ñı Ð»
ĠÑĤÐµÒ£ Ð³ÐµÐ½ÑĸÒ£
ĠÑĨ ÐµÑħ
ĠÑģÐ¾ÒĽ ÒĽÑĭ
ĠÐ°Ð¹Ð¼Ð°Òĵ ÑĭÐ½ÑĭÒ£
ĠÐ¾ÑĢ ÑĤÐ°Ð½ÑĭÒ£
Ðĸ Òļ
Ð¿ Ð¸Ð½
ĠÐ¼ÐµÐºÐµÐ¼ ÐµÑģÑĸÐ½Ðµ
ĠÐ§Ð°Ð¿ Ð°ÐµÐ²
ĠÐ¼ ÉĻ
ĠÐ°Ñı ÒĵÑĭÐ½Ð´Ð°
ĠÐ´ÑĸÑĢ ÑĸÐ»
ĠÑĤ Ð¸Ð¼
ĠÐ¡ÓĻÑĤ Ð±Ð°ÐµÐ²
ĠÑģÐ°Òĵ Ð°ÑĤÑĤÐ°ÑĢÑĭ
ĠÐĸ Ò¯Ðº
ĠÓ©Ð· Ð´iÐ³iÐ½ÐµÐ½
ĠÐ¾ÑĢÐ½ ÑĭÐ½ÑĭÒ£
Ð°ÑĢ ÒĽÐ°
ĠÐĲÐ± Ð´ÑĥÐ»
ĠÑĤÐ°ÒĵÐ°Ð¹ÑĭÐ½ Ð´Ð°Ð»ÒĵÐ°Ð½
ÐµÐ»Ð¸ Ð¾ÑĢ
ĠÐºÓ©Ò£ ÑĸÐ»Ð´Ñĸ
ĠÐĲ ÑģÐ¿
ĠÐ±Ð°Ñģ ÑĭÐ½Ð´Ð°ÒĵÑĭ
ĠÑĤÐ°Ð± Ð¸ÒĵÐ°
ĠÓĻÑĢÐµÐºÐµÑĤ ÑĸÐ½Ðµ
Òļ Ð°ÑĢÐ°
ĠÐ±ÐµÐ»Ð³ÑĸÐ»ÐµÑĢ ÑĸÐ½
ĠÐ´ Ð¸ÑĦ
ĠÑĪÑĭÒĵÐ°ÑĢ ÑĭÐ»Ð´Ñĭ
ĠÓĺÐ± Ð´ÑĸÑĢ
ĠÒ±Ð¹ÑĭÐ¼Ð´Ð°ÑģÑĤÑĭÑĢÑĥ ÑĪÑĭ
ĠÑģÐµÐ·ÑĸÐ¼ ÑĸÐ½
ĠÐ½ Ð¸
ĠÐ°Ð»Ð¼ Ð°Ð´ÑĭÐ¼
ĠÑģÐµÐ¿ ÑĤÑĸÐ³ÑĸÐ½
ĠÐ°Ð¹ÑĤ ÑģÐ°
Ð°ÒĽ ÑĤÐ°
ĠÑĪ Ð°ÒĽÑĤÑĭ
ÒĽÐ° Ð´Ð°Ð¼
ĠÐ´ÐµÐ¼Ð°Ð» ÑĥÑĭ
ĠÐºÓ©ÑĪÑĸÑĢ ÑĥÐ³Ðµ
ĠÒĵÐ¸Ð¼Ð°ÑĢ Ð°ÑĤ
ĠÑĤÒ¯Ðº Ð¿ÑĸÑĢ
ĠÐ±Ð°ÒĽÑĭÐ»Ð°Ñĥ ÒĵÐ°
ĠÐ°ÑĥÑĭÐ» Ð´Ð°
ÑĢ Ð°Ð³
ĠÒĽÒ± Ð½Ð°Ð½
ĠÑĪÐ°ÒĽÑĭÑĢ Ð°Ð¼ÑĭÐ·
ĠÐºÐ¾Ð½ÐºÑĥÑĢ ÑģÑĭÐ½ÑĭÒ£
ĠÑģÐ°Ð±Ð°ÒĽ ÒĽÐ°
ÑĤÑĸÐ» ÐµÑĤÑĸÐ½
ĠÐ¿Ð°ÑĢ Ð°Ñģ
ĠÑĪÑĭÒĵ ÑĥÒĵÐ°
ĠÒĽÐ°Ð» Ð°ÒĵÐ°
ĠÐ¶Ò¯Ð¹ ÐµÐ»ÐµÑĢÑĸ
ĠÒĽÐ°Ñĥ iÐ¿
ĠÒļÐ°Ð½Ð´Ñĭ Ð°ÒĵÐ°ÑĪ
ĠÐ±ÐµÑĢ ÐµÐº
iÐ¼ Ð´ÐµÑĢ
stan a
ĠÑĤÑĸÐ»ÐµÐ¹ Ð¼ÑĸÐ½
ĠÒĽÒ±ÑĢÐ¼ÐµÑĤ ÑĸÐ½Ðµ
ĠÑĤÑĥ Ð´ÑĭÑĢÑĥ
P I
ĠÐ´ ÑĸÒ£
ĠÐ¶Ð¾Ð± Ð°ÑģÑĭÐ½Ð°
ĠÒĽÒ±Ð» Ð°Ð¿
ĠÑģÑĭÑĢ Ñĭ
Ð°Ð¼ÑĭÐ· ÒĵÐ°
ĠÐ°Ñı ÒĵÑĭÐ½Ð°
Ġ8 00
ĠÒĽÒ±ÑĢÐ°Ð¼ Ð°
ĠÒĽÐ°Ð¹ Ñģ
ĠÐ´ÐµÐ¼ Ð¾ÐºÑĢÐ°ÑĤÐ¸ÑıÐ»ÑĭÒĽ
ĠÐ±ÐµÑĢ ÐµÑĢ
ĠÐºÐµÐ»ÑĤÑĸÑĢ ÑĸÐ¿
Ð»Ð°ÑĢ ÑĭÐ½Ð°Ð½
ĠÐ±Ð°ÒĵÑĭ ÑĤÑĭÐ½
ĠÐ±ÐµÐºÑĸ ÑĤÐµÐ´Ñĸ
ĠÐºÐ¾Ð¼ Ð°Ð½
ĠÐºÐ¾Ð¼ Ð±Ð¸Ð½
ĠÐ±Ð¸ Ð¾
ĠÒĵÑĭÐ»ÑĭÐ¼ ÑĭÐ½ÑĭÒ£
ĠÑĪÐµÐº ÑĤÐµÐ»
ĠÑĤÐ°ÒĵÐ°Ð¹ÑĭÐ½Ð´Ð°Ð» Ð°Ð´Ñĭ
Ð³Ñĸ Ò£ÑĸÐ·
ĠÐ±Ð°Ð½Ðº ÑĤÑĸÒ£
rig ht
ĠÓ©Ð» ÑĸÐ¿
ĠÑĤÑĭÑĢÑĭÑģ Ð°Ð´Ñĭ
ĠÒĽÐ¾Ñģ ÑĭÐ»Ð°
ÑĨ Ð¸Ð´
ÐµÐ¼ÐµÑĤ ÑģÑĸÐ·
. :
ĠÐ¼Ò±ÑĢ Ð°ÑģÑĭ
ĠÐ°ÐºÐ°Ð´ÐµÐ¼ Ð¸ÑıÑģÑĭ
ĠÑģÐ¾ÒĽ ÑĤÑĭ
ĠÐ±ÑĸÐ» Ð¼ÐµÐ¹ÑĤÑĸÐ½
Ð´ÑĸÑĢ ÐµÐ´Ñĸ
ĠÒļÐ¾ÑĢ Ñĭ
ĠÐ± ÓĻÐ»
ĠÑĪ Ð°Ð¼Ð°
ÐŁ Ð£
ĠÐºÐµÐ»ÑĤÑĸÑĢ ÐµÑĤÑĸÐ½
ĠÐ± ÐµÑģÑĸÐ½ÑĪÑĸ
ĠÐ¾ÒĽÑĭÑĤÑĥ Ð´Ñĭ
Ð¸ÑģÑĤ ÐµÐ¼
ĠÒĽÐ°Ð¹ÑĤÐ°ÑĢ ÑĭÐ¿
ĠÐĸÐ°Ò£ Ð°ÑĤÐ°Ñģ
ÑĪ Ð°ÒĽÑĤÐ°ÑĢ
ĠÐĺ Ð»ÑĮ
ĠÐ½ÑĭÑģÐ°Ð½ Ð°Ð»Ñĭ
ĠÐ½ ÐµÐºÐµ
ĠÐĳ Ð¸Ðµ
ĠÒ±Ð¹ÑĭÐ¼ Ð´Ð°ÑĢÒĵÐ°
ĠÐ¶Ò¯Ðº ÑĤÐµÐ¿
ĠÐ¼ÐµÐºÑĤÐµÐ¿ ÑĤÐµÑĢÐ´ÑĸÒ£
ĠÑĤÓ©Ð»ÐµÑĥ Ð³Ðµ
ÓĻ Ð´ÑĸÐº
ĠÐµÑĢÐµÐ¶ ÐµÑģÑĸÐ½
Ð°Ñĥ ÒĽÐ°ÑĤ
ÑģÑĤÐ°ÑĢ Ð´ÑĭÒ£
ĠÐĸ Ñĥ
ĠÐ¼ÓĻÑģÐµÐ» ÐµÑģÑĸÐ½Ðµ
ÐºÐµÑĢÐ»ÐµÑĢ Ð³Ðµ
ĠÐ¼ÐµÑĢÐ·ÑĸÐ¼ ÑĸÐ½
ĠÑĤÑĸÐ· ÑĸÐ¼ÑĸÐ½
ĠÐ°Ð²ÑĤ Ð¾Ð½Ð¾Ð¼
ĠÑĪÑĭÒĵÐ°ÑĢ ÑĭÐ»Ð°Ð´Ñĭ
ĠÐ¶Ð°Ð· ÑĥÒĵÐ°
ĠÐĹ Ð¸ÑıÑĤ
ĠÒ±Ð¹ÑĭÐ¼Ð´Ð°ÑģÑĤÑĭÑĢÑĥ Ð´ÑĭÒ£
Ð¼ Ð¾Ð»
ĠÐºÒ¯ÑĢ Ð´ÐµÐ»
ĠÑĤÒ¯ÑģÑĸÐ½Ð´ÑĸÑĢ Ð¼Ðµ
Ð½ Ð°Ð»Ñĭ
ĠÐĳ Ñĥ
Ð¾Ð· Ð´ÑĭÒ£
ĠÐ°ÒĽÑĭÐ½ Ñĭ
ÐºÑĸÐ½ Ñĸ
ĠÐµÑģÑĸÑĢÑĤ ÐºÑĸ
ĠÐ°ÑĥÑĢÑĥ Ð»Ð°ÑĢÑĭÐ½ÑĭÒ£
ĠÐ¿ÑĢÐ¾Ð±Ð»ÐµÐ¼ Ð°Ð»Ð°ÑĢÑĭ
Ð±Ð°Òĵ ÑĥÒĵÐ°
ĠÐ¡Ò¯Ð¹ ÑĸÐ½Ð´ÑĸÐº
Ð¸ÑĢ ÑĤÑĥÐ°Ð»Ð´Ñĭ
ÐĲÑĢ Ñħ
ĠÐ°ÑĢÐ´Ð°Ð³ÐµÑĢ Ð»ÐµÑĢÑĸ
ĠÑĤÐ¸ Ð»ÐµÐº
ĠÐ¾ÑĢÑĤÐ°Ð»ÑĭÒĽ ÑĤÐ°ÑĢÑĭ
ÐĲ ÑĤ
ÑĭÐ» ÑĭÒĵÑĭÐ½
Ðµ Ð¾
ÐĲÑĢ Ð½Ð°Ð¹Ñĭ
ĠÐ±Ð¾Ð¹ ÑĭÐ¼ÐµÐ½
al im
ĠÐĲ ÑĤÐ°Ð»Ð¼ÑĭÑĪ
ĠÓ©Ð½Ð´ÑĸÑĢ ÐµÐ´Ñĸ
ĠÓĻ Ð¼Ð±ÐµÐ±Ð°Ð¿
ĠÓ¨Ð· ÑĸÐ½ÑĸÒ£
ĠÐķÑģ ÑĸÐ»
ĠÐ°Ð²ÑĤÐ¾Ð¼ Ð°ÑĤÑĤÐ°Ð½
ĠÑĪÐ°ÑĪ ÑĤÑĭ
ĠÐĺÐ· ÑĢÐ°Ð¸Ð»ÑĮ
ĠÓ©Ò£ÑĸÑĢ Ð´ÑĸÒ£
ĠÐ°Ð»Ð¼Ð°Ð¹ Ð¼ÑĭÐ·
ĠÐ¼ÐµÑħÐ°Ð½ Ð¸ÐºÐ°Ð»ÑĭÒĽ
Ñ ļ
Ð¾Ð¿ Ð¿Ð»ÐµÑĢÐ¾Ð³ÑĢÐ°ÑĦÐ¸Ñı
ĠÐ°ÑĢ ÑĤÐ°
ĠÑģÐ°Ð¹ÑĤ ÒĽÐ°
ĠÐ´Ð¸Ð°Ð³Ð½Ð¾ÑģÑĤÐ¸Ðº Ð°Ð»Ð°Ñĥ
ĠÐ¾ÒĽ ÑĭÑĤ
ĠÒ±Ð¹ÑĭÐ¼ Ð´Ð°ÑĢÐ¼ÐµÐ½
ĠÐºÐµÑģ ÑĸÐ¿
ĠÐ¼ÓĻÑģÐµÐ»ÐµÐ»ÐµÑĢ Ð´ÑĸÒ£
Ð· Ð¾Ð¼Ð±
Òļ Ð°Ð»
Ð¼ÐµÐ½ Ñĸ
ĠÐ´Ð¸Ð°Ð³Ð½Ð¾ÑģÑĤ Ð¸ÐºÐ°ÑģÑĭ
ĠÐŀ ÒļÐŀ
ĠÐĵÐµ Ð¾Ð³ÑĢÐ°ÑĦÐ¸Ñı
ĠÐľÒ± ÑģÑĤÐ°ÑĦ
ÐĲÒĽÐ¿Ð°ÑĢÐ°ÑĤ ÑĤÑĭÒĽ
ÐļÓ©Ð¿ ÑĤÐµÐ³ÐµÐ½
ÐµÐº ÑĨÐ¸ÑıÐ»ÑĭÒĽ
ĠÐ¶ÑĭÐ» Ð¼ÐµÐ½
ĠÐ¾ÒĽÑĥ Ð´Ñĭ
ĠÐĳÑĸÑĢ ÐµÑĥ
ĠÑģÑĸÐ· Ð´Ñĸ
ĠÐ±Ð°ÒĵÐ´Ð°ÑĢÐ»Ð°Ð¼ Ð°Ð»Ð°ÑĢÐ´ÑĭÒ£
ÒĽ ÑĭÐ·ÑĭÐ»
ĠÐ±Ð°Ð» Ð°ÑģÑĭÐ½Ð°
Ġ Q
ÐµÐ½ ÐºÐ¾
ĠÐ° ÑīÑĭ
ĠÐ±ÑĸÐ»Ð´ÑĸÑĢ ÐµÑĤÑĸÐ½
eb ook
Ð³ÑĸÐ» Ð³ÐµÐ½
ĠÐĶ ÓĻÑĢ
ĠÑģÑĥÐ±ÑĬÐµÐºÑĤÑĸ Ð»ÐµÑĢÑĸ
ĠÐ¾ÑĢÑĤ Ð°ÑģÑĭ
ĠÐ±Ð¾Ñģ Ð°ÑĤÑĥ
âĢ¦âĢ¦ âĢ¦âĢ¦
ĠÐ½ Ð°Ð·
ĠÐ¶Ð¾ÑģÐ¿Ð°ÑĢ Ð»Ñĭ
ĠÑģÐ°Ð¿ Ð°ÑģÑĭÐ½ÑĭÒ£
op y
Ð°Òĵ Ð°ÑģÑĭ
ĠÐ»Ð°ÑĥÐ°Ð·ÑĭÐ¼ Ð´ÑĭÒĽ
Ñį Ð»ÐµÐºÑĤÑĢÐ¾Ð½Ð´ÑĭÒĽ
Ð¨Ð°Ð» ÒĵÐ°Ð¹Ð´Ð°ÒĵÑĭ
Ð³ ÐµÐ¼
ĠÒĽÐ°ÑĤÑĭÑģÑĥÑĪÑĭÐ»Ð°ÑĢ ÒĵÐ°
ĠÒļÒ±Ð´Ð°Ð¹ Ð±ÐµÑĢÐ³ÐµÐ½
ĠÐ¿ÑĢÐ¾ÑĦÐ¸Ð» Ð°ÐºÑĤÐ¸ÐºÐ°Ð»ÑĭÒĽ
ĠÑĤÒ±ÑĢÒĵÐ°Ð½ Ð´Ð°
Ñģ Ñģ
ĠÒ¯Ð· ÑĸÐ»ÑĸÑģ
ĠÒĽÐ¾Ñģ ÑĭÐ»ÑĭÑģ
ĠÐºÓ©ÑĤÐµÑĢ ÑĸÐ»Ð´Ñĸ
ĠÐ³Ð°Ð· Ð±ÐµÐ½
ĠÐº Ð¾Ñģ
ÐĶ Ð°Ð¼Ð±Ñĭ
Ó¨ Ð½
ĠÐ°Ð»ÒĵÐ°Ð½ Ð½Ð°Ð½
ĠÑĤÐ°Ð¿ÑģÑĭÑĢÐ¼ Ð°Ð»Ð°ÑĢÐ´Ñĭ
ĠÐ¼ÐµÐºÐµÐ¼ÐµÐ»ÐµÑĢ Ð´Ðµ
ĠÐºÐµÐ¹ÑĸÐ¿ ÐºÐµÑĢ
ĠÐľÐµÑĢ Ð·
ĠÑĤÒ¯Ð·ÐµÑĤÑĥ Ð»ÐµÑĢ
ĠÐºÒ¯Ð¹ Ð´Ðµ
ĠÐ°Ñģ Ð°ÑĤÑĭÐ½
Ġ7 9
ĠÓ© ÐºÑĸÐ½ÑĸÑĪ
ĠÐµÒ£Ð±Ðµ Ð³ÑĸÐ½
ĠÐ¾ÑĢÑĭÐ½Ð´Ð°Ð» Ñĥ
ĠÑĤÐ°ÑĢÐ°Ð¿ ÑĤÑĭÒ£
ĠÐ¢Ó©Ð¼ÐµÐ½ Ð³Ñĸ
ÑĥÐ» Ð»Ð¸Ð½
ĠÐļ Ó©Ð»
ĠÐ¾Ð½ Ð´Ð°ÒĵÐ°Ð½
ÑĸÑģÑĤÐµÑĢ Ð´Ñĸ
ĠÑĪÐµÐ» ÐµÐºÑĤÑĸ
ÐºÐµÐ½ ÑĤÐ°Ð¹
ĠÐ¶Ð¾Òĵ Ð°Ð»ÑĭÐ¿
Ð¢ÓĻÑĥÐµÐ» ÑģÑĸÐ·Ð´ÑĸÐº
Ð°Ñĥ Ð´Ñĭ
ĠÐĨÐĨ ÐĶ
ĠÐº ÓĻÑģÑĸ
ĠÑĥÐ°ÒĽÑĭÑĤ ÑĤÑĭ
ĠÒĽÑĭÐ·Ð¼ÐµÑĤÐºÐµÑĢÐ»ÐµÑĢ ÑĸÐ½Ðµ
ĠÓĺ Ò£Ð³ÑĸÐ¼
ĠÒĽÐ¾Ð»Ð´Ð°Ð½Ñĥ Ð´ÑĭÒ£
Ð¸Ð±ÑĢ Ð°ÑĤÑĤÑĭ
ĠÐ´Ð°Ð¼ ÑĭÑĤ
ĠÐļ Ð¸
ĠÐ¶Ò±Ð¼ Ð°
ĠÐºÐµÐ·Ð´ÐµÑģ ÑĥÑĸ
ĠÐ°Ð²ÑĤÐ¾Ð±ÑĥÑģÑĤÐ°ÑĢ Ð¼ÐµÐ½
ĠÐ¶ÑĭÐ» Ð´Ð°ÑĢÐ´ÑĭÒ£
ĠÐºÓ©ÑĢ Ð´ÑĸÐº
ĠÐĽ Ð¾Ð½Ð´Ð¾Ð½
ĠÐ¼Ð°ÑĪÐ¸Ð½ Ð°Ð»Ð°ÑĢÑĭ
Ñģ ÑĤÑĸÒ£
ĠÐ°ÑĥÐ´Ð°ÑĢ ÑĭÐ»ÒĵÐ°Ð½
ĠÐ¼Ð¸Ð½Ð¸ÑģÑĤÑĢ Ð»ÑĸÐ³ÑĸÐ½Ð´Ðµ
ÑĤ Ð¸ÐºÐ°
ĠÒĽÐ¾Ð» Ð°Ð¹ÑģÑĭÐ·
Ð¸Ðº Ð°ÑģÑĭÐ½Ð°
ÐĲ ÐľÐĲ
ĠÐ¼ÐµÐºÑĤÐµÐ¿ÑĤÐµÑĢ Ð´Ðµ
ĠÐĳÐ¸ÑĭÐ» ÒĵÑĭ
ĠÐºÐµÐ» Ð¼ÐµÐ³ÐµÐ½
ĠÐ¶Ð°Ð±Ð´ÑĭÒĽ ÑĤÐ°Ð»ÒĵÐ°Ð½
ĠÐ¾Ð¹ ÒĵÐ°
ĠÐ¶Ð¾ÑģÐ¿Ð°ÑĢ ÑĭÐ¼ÐµÐ½
ĠÒĽÑĭÑģ ÒĽÑĭ
ĠÐ¾ÑĢÑĭÐ½Ð´Ð°Ð» Ð°Ð´Ñĭ
Ð°Ð½ Ð°Ð´Ñĭ
ĠÒĽ Ð°Ð»Ð°ÑĢ
ĠÐ¡ Ð¾Ð²
ĠÐ¢ ÑĢÐ°Ð¼Ð¿
ĠÒĽÐ°Ð»Ð°Ð¹ ÑĪÐ°
ĠÐ°ÑĤÐ°Ñĥ ÑĭÐ½
ĠÑģ Ð¸ÑĢ
ĠÐ¢ Ð°Ð½
ÒĽ Ð°Ð¿
ĠÒĴ Ð°Ð»Ð°Ð¼
ĠÑĤÐ°ÑĢ ÑĤÑĭÐ¼Ð´Ñĭ
ÑĸÑĪ ÐºÐµ
ĠÐ°Ð½ÑĭÒĽ ÑĤÐ°Ð¹ÑĤÑĭÐ½
ĠÑĪÑĭÐ± ÑĭÐ½
Ð¦ Ð¸ÑĦÑĢ
Ġ ÑĭÐ·
ÐµÐ¼ ÑĸÑģ
ÒĵÑĭÐ» ÑĭÒĽ
ĠÐºÐµÐ» Ð±
ĠÐ±Ð°Ð½Ðº ÑĤÐµÑĢ
ĠÐŁ Ð°Ð»
ĠÓ©ÑĤÐºÐµÐ½ Ð½ÐµÐ½
ĠÐºÑĢÐ¸ÑĤÐµÑĢ Ð¸Ð¹
ÑĤÐ°Ð½ ÑĭÐ¼Ð´ÑĭÒĽ
Òĵ Ð°Ð¶Ð°Ð¹ÑĭÐ¿
ĠÑĤÐµÐ¼ ÐµÐºÑĸ
ĠÑĤÓ©ÑĢÑĤ ÐºÒ¯Ð»
ĠÒļÐ°ÑĢ Ð°Ð¿
ĠÐµÐ» Ð´ÐµÐ½
Ð°ÑģÑĤÑĭÑĢ ÑĭÐ¿
ĠÒĽÐ°Ð»Ð´ÑĭÑĢ Ð°Ð´Ñĭ
ÐĲÑģÑĤÐ°Ð½ Ð°Ð´Ð°
ĠÐ¾ÑĢ Ð°Ð»ÒĵÐ°Ð½
ĠÐµÐ½Ð³ÑĸÐ· Ð³ÐµÐ½
ĠÑĢÑĥÑģ ÑģÐº
ĠÐµÒ£Ð±ÐµÐº ÑĤÑĸ
ĠÑĪÑĸÐ»Ð´Ðµ Ð´Ðµ
Ð°ÑĢÐ¼Ð° ÑĨÐµÐ²
ĠÐĲÑģÑĤÐ°Ð½Ð° Ð´Ð°ÒĵÑĭ
ĠÑĤÑĸÐ·Ð± ÐµÑģÑĸÐ½
Ò¯ Ð³ÑĸÑĢ
ĠÑģÓĻÑĥÑĸÑĢ Ð´Ðµ
ĠÑĤÑĢÐ°Ð½ÑģÑĦ ÐµÑĢÑĤ
ÒļÐ°Ð·Ð°ÒĽ ÑĤÑĭÒ£
ĠÐĸÐµÒ£ ÐµÑĪÐµÐ¼
ĠÐ¼ÐµÐºÑĤÐµÐ¿ ÑĤÑĸ
ĠÒĽÑĭÑĢ ÐºÒ¯Ð¹
ĠÐ±Ð°ÑģÑĤÐ°Ñĥ Ñĭ
ĠÐ°Ð»Ð¼Ð°Ð¹ Ð¼ÑĭÐ½
ĠÒ° ÑĢ
ÑħÐ°Ð¼ Ð¼ÐµÐ´
ĠÑĢÐµÐ¶ Ð¸ÑģÑģÐµÑĢ
ĠÑĢÐµÐ´Ð°Ðº ÑĤÐ¾ÑĢÑĭ
Ð½ Ð°Ð´
ÑĸÒ£ Ð´Ðµ
Ðĳ Ð°Ð»Ð°
ĠÑĸÑģ ÑĤÑĸÒ£
ÐĶ Ð«
ĠÐ°Ð¹Ð½Ð°Ð»ÑĭÑģ Ñĥ
ĠÓĻ Ð¿
ĠÐ°Ñı ÑĤ
ĠÐ¾ÑĢÑĭÑģ ÑĪÐ°
ĠÑģÐ°Ð½ Ð´Ñĭ
Ñģ ÑĸÐ¼ÐµÐ½
ĠÐºÐµÐ· Ñĸ
ĠÐ¶Ð°ÑĢ ÒĽÑĭÑĢ
ĠÐ¸ ÑĸÑģ
ĠÐ¸Ð´Ðµ Ð¾Ð»Ð¾Ð³Ð¸Ñı
Ð¾Ð»Ð¾Ð³ ÑĤÐ°ÑĢ
ĠÒļÑĭÑĤÐ°Ð¹ Ð´ÑĭÒ£
ĠÒ±Ð»ÒĵÐ°Ð¹ ÑĤÑĥ
ĠÐ°Ð¹ÑĭÑĢÐ±Ð°Ñģ ÑĤÐ°Ñĥ
ÐµÐ± ÐµÐ±
ĠÐ·ÐµÑĢ ÐµÐ½Ð´Ñĸ
ÑĤÐµÑĢ i
ĠÑĤÒ±ÑĢ ÒĵÑĭÐ»ÑĭÒĽÑĤÑĭ
Ð±Ð¸ Ð¾ÑĤ
ÑĥÐ» ÑıÑĢ
ĠÐ¼ÐµÑĢ ÐµÐ¹
ÑĤÐ°ÑĢÐ¼Ð°Òĵ ÑĭÐ½Ð°
ĠÐ¡Ó©ÑĢ ÐµÐ½ÑĸÒ£
ĠÐ¢ Ð¾Ð»ÑĭÒĽ
ĠÐŁ Ð°ÑĢÑĤ
ac ebook
ĠÐĸÐŀ Ð¡ÐŁ
ĠÐ¾ÑĢÐ½Ð°Ð»Ð°ÑģÑĤÑĭÑĢ ÑĥÒĵÐ°
ÐļÓ©Ðº ÑĪÐµÑĤÐ°Ñĥ
ĠÒĽÐ°Ñĥ Ð°ÒĽ
ĠÑħÐ°Ð»ÑĭÒĽ ÑĤÐ°ÑĢÑĭÐ½ÑĭÒ£
ĠÑģÐµÐº ÑĥÐ½Ð´
S E
ĠÑģÑĤÐ¸ Ð»ÑĮ
ĠÐ¶Ð¾ÑģÐ¿Ð°ÑĢ Ð»Ð°ÑĢ
ĠÑĤÑĭÒ£ Ð´Ð°Ð¿
Ð±ÐµÐº ÑĤÑĸÒ£
ĠÒĽÐ°Ð· Ð¸ÑĤ
is m
ĠÐĸÐ°ÑĢÐ±Ð¸Ð¼ Ð°Ð½ÑĭÒ£
Ð½ Ñĥ
ĠÒĽÐ°ÑĤÐ°ÑĢ Ð»Ñĭ
7 4
Ð³ ÑĸÐ¼ÑĸÐ·
ĠÐĸ Ð°Ð¹ÑĭÒĽ
ĠÒĽÐ°Ñĥ Ð»Ñĭ
ĠÑħÐ°Ð±Ð°ÑĢÐ»Ð°Ñĥ ÑĭÐ½ÑĪÐ°
ĠÐĸ Ð¾ÑģÐ¿Ð°ÑĢ
ĠÒ¯Ð½ Ð´Ñĸ
7 6
ĠÐ´ÓĻÑĢÑĸÐ³ÐµÑĢ Ð»ÑĸÐº
Ð°Ð» Ð°Ð½ÒĵÐ°Ð½
ĠÑģÐ°Ð¹ ÑĭÑģÒĽÐ°
Ð±Ð°Ð¿ ÑĤÑĭÒ£
ĠÑģÐ¾ÑĤ ÑĤÐ°Ð»ÒĵÐ°Ð½
ĠÐ°Ð¹Ð½Ð°Ð»ÑĭÑģ Ð°Ð´Ñĭ
Òļ Ð«
ĠÑĢÐµÑģÑĥÑĢÑģÑĤÐ°ÑĢ Ð´Ñĭ
ÐĸÐµÑĢ Ð³ÑĸÐ»ÑĸÐºÑĤÑĸ
ĠÐ±Ð°Ð½ ÐºÑĸ
Ġ4 1
ĠÐ¨ ÓĻÐºÓĻÑĢÑĸÐ¼
Ñĩ ÐµÑģÐº
Ð¼ ÑĭÑģÐ°Ð»Ñĭ
ĠÑģÐ°Ð¹ ÑĭÑģÑĭ
ĠÐ°ÑĢÑĤ ÑĤÑĭ
Ñģ ÐµÐ¹
ĠÐ°Ð»ÑĥÑĪÑĭ ÒĵÐ°
Ð°Ñı Ð´Ñĭ
ĠÐºÐµÐ¼ Ð¿ÑĸÑĢ
ĠÓ©ÑĢ Ð½ÐµÐº
ĠÐ¼Ó©Ð»ÑĪÐµÑĢ ÑĸÐ½Ð´Ðµ
ĠÐ¡Ð°ÑĢÑĭ Ó©Ð·ÐµÐº
y l
ĠÐĨÐĨ Ðľ
ĠÐ±ÑĸÑĢÐµÑĥ Ð´ÑĸÒ£
Ðĳ Ð°Ð½Ðº
Ð¢ ÑĸÑĢ
ÐĲÐ» Ð°Ð¹Ð´Ð°
ĠÒ¯Ð¹ÑĢÐµÐ½ ÑĸÐ¿
ĠÐ° Ð´Ð°Ñģ
Ð±ÐµÑĢ Ð½
ĠÑĤÐ°ÑĢÐ¸Ñħ ÑĭÐ½Ð°
ĠÓ¨Ð· Ñĸ
ĠÐ¿ÑĸÐºÑĸÑĢ ÑĸÐ½ÑĪÐµ
ĠÑĤiÑĢ ÐºÐµÐ¼ÐµÐ»ÐµÑĢ
ĠÐ¶Ð°Ð½ Ð´Ñĭ
Ò® ÐºÑĸÐ¼ÐµÑĤ
ĠÑĤÐ°Ð½Ñĭ ÑĤÑĥ
ĠÐ¼ÓĻÐ´ÐµÐ½Ð¸ÐµÑĤ ÑĸÐ½ÑĸÒ£
ĠÓĻÐºÐµÐ» ÐµÑĤÑĸÐ½
ĠÑģÐ°Ð»ÑĤÐ°Ð½ Ð°ÑĤÑĭ
ĠÐ¾ÑĢÑĤÐ° Ð´Ð°
ĠÐ¶Ð°ÑĢÑĭÒĽ ÒĽÐ°
ĠÐ¾Ò£ÑĤ Ð°Ð¹Ð»
ĠÐ°Ð»Ñĥ Ð»Ð°ÑĢÐ´ÑĭÒ£
ĠÐ±Ð°ÑģÒĽÐ° ÑĪÐ°
ĠÐ¸Ð½Ð´Ð¸Ðº Ð°ÑĤÐ¾ÑĢ
8 6
ĠÐºÐ¾Ð¼Ð¿ ÑĮÑİ
ĠÑĦÐµÑģÑĤÐ¸Ð² Ð°Ð»
ÑĭÑģ Ð°Ð½
ĠÐ°Ð¿Ð°ÑĢ ÑĭÐ¿
ĠÐ°Ð´Ð°Ð¼ Ð´Ð°ÑĢÑĭ
ĠÒĽÑĭÐ»Ð¼ ÑĭÑģÑĤÐ°ÑĢ
ĠÑĤÓ©Ð»ÐµÑĥ Ð´Ñĸ
ĠÑĤÑĢÐµÐ½ Ð¸Ð½Ð³
Ð°ÑĢ Ñħ
ĠÐ·Ð°Ò£Ð½Ð°Ð¼ Ð°Ð½Ñĭ
ĠÐ°ÑĤÒĽÐ°ÑĢ ÑĭÐ»ÑĭÐ¿
ĠÑĦÐ¾ÑĢÐ¼ Ð°ÑģÑĭ
ÐºÐ¾Ð½ ÐºÑĥÑĢ
ĠÐ·Ð°ÒĽÑĭÐ¼ Ð´Ð°Ð½Ñĥ
Ġ re
ĠÑĪ Ð°Ð½
Ð¿ ÐµÑĤ
ĠÐ¡Ð°Ð¹ ÒĽÑĭÐ½
ĠÒĵ Ð°Ð¶Ð°Ð¹ÑĭÐ¿
ĠÐµÑĤÐ¿ ÐµÐ¹Ð´Ñĸ
ÑĤÐµÐº ÑģÐµÑĢ
ĠÑįÐº ÑģÐº
ĠÑĤÓĻÑģÑĸÐ» Ð´ÐµÑĢÑĸÐ½
ÑĪi Ð»ÐµÑĢ
Ð»Ñİ Ð·
ĠÐŀ Ðł
Ðº Ó©Ð¿
ĠÒ°Ð¶ÑĭÐ¼ Ð´ÑĭÒĽ
Ð°Ð¼ Ð¸ÐºÐ°
ĠÒ±Ð¼Ñĭ ÑĤÑĭÐ¿
ĠÑĤÑĸÐ» Ð´ÐµÑĢ
ĠÒļÒ±ÑĤÑĤÑĭÒĽ ÑĤÐ°Ñĥ
ĠÑģÐ¾Ð½ Ð°Ñĥ
ĠÒ®Ð½Ð´Ñĸ ÑģÑĤÐ°Ð½
ĠÒĽÒ±ÑĢÐ°Ð» Ð´Ð°ÑĢÐ¼ÐµÐ½
ĠÒĽÑĭÐ·Ð¼ÐµÑĤÐºÐµÑĢ Ð´ÑĸÒ£
ĠÒĽÒ±ÒĽ ÑĭÒĵÑĭÐ½Ð´Ð°ÒĵÑĭ
ĠÑģÒ±ÑĢ Ð°ÑĥÒĵÐ°
Ñģ Ð°Ð¹ÑĤ
ĠÐĴ ÐµÐ½
ÑİÑĪ ÐºÐ¸Ð½
ĠÓĻÐ¹ÐµÐ»Ð´ÐµÑĢ Ð³Ðµ
ĠÐ°Ð» ÐºÐ¾Ð³Ð¾Ð»ÑĮ
ĠÐĸ Ð°Ñĥ
ĠÒ±ÑģÑĤ Ð°Ð¹
ĠÐ·ÐµÑĢÑĤ ÑĤÐµÐ»
Ð´ÐµÐ» ÑĸÐºÑĤÑĸ
ĠÐºÐ°Ð¿ Ð¸
ĠÐ¶Ð°Ð½ Ð°ÑĪÑĭÑĢ
ĠÒ¯Ð· ÑĸÐ»ÑĸÐ¿
ĠÐĲ ÒĽÐ¾ÑĢ
ĠÑĪÐ°ÑĢ Ð¸Òĵ
ĠÑģÓ©Ð· Ð´ÐµÑĢÐ´ÑĸÒ£
ÐĹ ÐµÑĢÑĤÑĤÐµÑĥ
Ð¶Ð°ÑĢ Ð°ÒĽ
ĠÐ´ÐµÐ¿Ñĥ ÑĤÐ°ÑĤ
ĠÐ¨ ÒļÐŀ
ĠÐ·Ð°Ò£ Ð´Ð°ÑĢÑĭÐ½Ð´Ð°
Ð¿ Ð¾Ð»
ĠÐ¢Ð¾Ð» ÑĭÒĵÑĭÑĢÐ°ÒĽ
ĠÒĽÒ±ÑĢ Ð°Ð¿
ĠÐ¼Ò¯Ð¼ÐºÑĸÐ½Ð´ÑĸÐº ÑĤÐµÑĢ
ĠÐ¶Ò¯Ðº ÑĤÐµÐ»Ð³ÐµÐ½
ÑĢ Ð¸Ð¹
ĠÐ°Ð· Ð°Ð¿
ĠÐºÓ©Ð¿ ÐºÐµ
ĠÑģÐ°ÒĽÑĤÐ°Ð» ÑĥÑĭ
ĠÑĤÒ¯Ð± ÑĸÐ½Ð´Ðµ
ĠÑģ Ð¸Ð³
Ð´Ð°Ñģ Ð°
ĠÐ°Ð» Ð´Ð°
ĠÐ°Ñı ÒĵÑĭÐ½Ð´Ð°ÒĵÑĭ
ÑģÐ°ÑĤ ÑĤÑĭÒĽ
ĠÐºÐµÑĤ ÐµÑĢ
Ð° ÑħÐ°Ð½
ÐŁ Ðļ
ĠÐºÓ©Ð· Ð´ÑĸÒ£
ĠÒĽÒ±ÑĢÑĭÐ»ÑĭÐ¼ ÑĭÐ½
ĠÐ¡Ð°Ñĥ Ð´
Ñģ Ð¸Ð½
ĠÐļ ÐµÐ´ÐµÐ½
Ġ25 0
ĠÓ©ÑĤÐºÐµÐ½ Ð´ÐµÐ¹
ĠÓ©ÑĢÐºÐµÐ½ Ð¸
Ñ ĵ
ĠÐ°Ð»Ñĥ ÑĭÐ½Ð°
ĠÑĤÒ¯Ð½ Ñĸ
ĠÐ· Ð°ÑĤÑĤÑĭÒ£
ĠÒĽÒ±ÑĢÐ°Ð¼ ÑĭÐ½
ĠÐĲ Ð³ÐµÐ½
ÑĦ ÑĦ
ĠÐ² Ð¸Ð·
ĠÒĽÐ°ÑĢÐ°Ð¼ Ð°Ð¹
Â« âĦĸ
ĠÐºÒ¯Ð½ ÑĸÐ½Ð´Ðµ
ĠÑĤÓ© Ò£ÐºÐµÑĢ
ĠÐ¶Ò¯Ð¹ ÐµÐ³Ðµ
ĠÐ°ÑģÒĽÑĭÐ½ Ñĥ
ĠÑĤÒ¯Ñģ ÑĥÑĸ
ĠÐ·ÐµÑĢÑĤÑĤÐµÑĥ Ð³Ðµ
a Ð»
ĠÐ¼ ÐµÐ¶
ĠÑįÐº Ð¾Ð»Ð¾Ð³Ð¸Ñı
ĠÐ¶Ð°ÑĢÐ¸Ñı Ð»Ð°ÑĥÒĵÐ°
ĠÒĽÐ°Ñģ ÒĽÑĭÑĢ
ĠÐ¾ÑĢÑĤÐ°Ð»ÑĭÒĽ ÑĤÐ°Ð½Ð´ÑĭÑĢÑĭÐ»ÒĵÐ°Ð½
Ð´i Ð³i
ĠÐºÐµÐ¼ ÐµÐ»
ĠÐ±ÐµÑĢÑĥ ÑĪ
ĠÑĤÐ°ÑĥÐ°ÑĢ Ð»Ð°ÑĢÐ´ÑĭÒ£
Ð¸Ð½ Ð°ÑĤ
ĠÑģÒ±ÑĢ ÑĭÐ¿
ĠÐ´ÑĢ Ð°Ð¼Ð°
ĠÐ½ ÐµÑģÐµÐ¿
ĠÐºÐ¾Ð½ ÑĤÑĢ
ĠÒĽÐ°Ð· ÑĭÐ»Ð°ÑĢ
ĠÐºÐ¾Ð¼Ð¿Ð°Ð½Ð¸Ñı Ð»Ð°ÑĢÐ´ÑĭÒ£
ĠÐ¶Ð¾Ð¹ ÑĭÐ»Ð´Ñĭ
ĠÒĽÐ°Ð» Ð°Ð»Ð°ÑĢÑĭ
ĠÐºÐ»Ð°ÑģÑģ Ð¸ÐºÐ°Ð»ÑĭÒĽ
Ò®ÑĪ ÑĸÐ½ÑĪÑĸ
ĠÓ©Ñģ ÑĥÑĸÐ½Ðµ
ĠÐŀ ÑģÐ¿Ð°Ð½
ĠÑħ Ð°ÑĤÑĭ
ÑģÑĸÐ· Ð´ÑĸÐ³ÑĸÐ½Ðµ
ĠÐºÐ°ÑĦÐµÐ´ÑĢ Ð°ÑģÑĭ
ÐĲ ÑĥÑĢ
ĠÐ¡ ÑĭÐ½ÑĭÐ¿
ÐĲÐĽ ÐĲÐł
ĠÐºÐµÐ»ÑĸÑģÑģÓ©Ð· Ð´ÐµÑĢ
Ð°ÒĽÐ°Ð»Ð¿Ð°ÒĽ ÑģÑĤÐ°Ð½
ĠÐ¼ÐµÐ¼Ð»ÐµÐºÐµÑĤ ÐºÐµ
ĠÑįÐ½ÐµÑĢÐ³ ÐµÑĤÐ¸ÐºÐ°Ð»ÑĭÒĽ
A T
ĠÑĢ Ð¾Ð±
ĠÓ©Ð¼ÑĸÑĢ ÑĸÐ½Ð´Ðµ
ĠÒĽÐ°Ð¹ÑĤÐ°ÑĢ Ñĥ
ĠÑģ Ð°ÑĤÑĭÑģ
Ðĸ Ð¾Ð±
ĠÐºÒ¯Ð½ Ð³Ñĸ
Ð°Ðº ÑĨÐ¸Ð½
ĠÐ» Ð¾Ðº
Ð¾ÑĢ Ð»ÑĭÒĽ
Ð¸Ðº ÑĤÐ¾ÑĢ
ĠÐ°ÑĥÑĢÑĥ ÑħÐ°Ð½Ð°
ĠÐ±Ó© ÑĤÐµÐ½
ÑĸÑĢ ÐµÐ¿
ĠÑĪÒ±ÒĵÑĭÐ» Ð´Ð°Ð½
ĠÐµÐº Ð¿Ðµ
ÐľÐ°ÑĤ ÐµÑĢÐ¸Ð°Ð»Ð´Ð°ÑĢÐ´Ñĭ
ĠÐ°ÑĤ Ð»ÐµÑĤ
ĠÐ³ÐµÐ½ ÐµÑĤÐ¸ÐºÐ°Ð»ÑĭÒĽ
ĠÐ¼ÐµÑĤÐ°Ð»Ð» ÑĥÑĢÐ³
ÑĭÐ¼ ÑĭÑģÑĤÑĭ
ĠÐºÐµÐ» iÑģ
Ð¢ Ðŀ
ÑĪÐ°ÑĢ Ð°Ð»Ð°ÑĢÐ´ÑĭÒ£
ĠÓĻÐ»ÐµÐ¼ Ð½ÐµÐ½
ur e
ĠÑģÐµÐ±ÐµÐ± ÑĸÐ½
Ð°Ð½ ÑİÑĪÐºÐ¸Ð½
ĠÑģÐµÐ½ Ð´ÐµÑĢÐ³Ðµ
ĠÐĨ Ð·
Ð¸Ñı ÑģÑĭÐ½Ð°
ĠÒļ Ð°ÑĤ
ĠÐ¢ ÑĸÑĢ
ĠÐ·Ð°Ò£ Ð¼ÐµÐ½
ÐĳÐ°Ñģ ÒĽÐ°ÑĢ
ĠÒĽÐ°Ð±ÑĭÐ» Ð´Ð°Ð¹
Ð¡ Ñĥ
ĠÐ¿ Ð°Ð¿
ĠÐ¸ Ð»
ĠÐºÐ¾Ð¼Ð¿ Ð¾Ð·Ð¸ÑĤÐ¾ÑĢ
Ð¾Ð±Ð» ÑĭÑģÑĤÑĭÒĽ
ĠÐ°ÐºÑĤÑĸ Ð»ÐµÑĢÑĸ
ari um
ĠÐ°Ðº ÐºÑĢÐµÐ´Ð¸ÑĤ
opy right
ĠÐ½ Ò±ÒĽ
ĠÐ¶Ð°ÒĵÐ´Ð°Ð¹ Ð´ÑĭÒ£
ĠÐ°ÑģÐ¿ ÐµÐºÑĤÑĸ
ĠÐ¶Ð°Ð»Òĵ Ð°ÑģÑĭÐ½
Ð°ÑĢÐ¼Ð° ÑĪÑĭÐ»ÑĭÒĽ
ĠÑĤÐµÐ³Ñĸ Ñģ
ĠÑĤÐ°Ð»ÒĽÑĭÐ» Ð°Ð´Ñĭ
ĠÑĪÐµÐ½ ÐµÑĥÐ½
ĠÐĿÐ¸Ðº Ð¾Ð»
ĠÑģÒ¯ Ð·
Ð¾Ð¼ Ð°
Ð¹ÑĢ ÐµÐ¼
ÑĤÐµÐ¼ ÐµÐ»ÐµÑĢ
ĠÐ±ÑĸÑĢ ÑĸÐ½ÐµÐ½
Ð¸ÑĤ ÐµÐ»
ĠÒĽÐ°ÑĤÑĭÐ½ Ð°ÑģÑĭ
h at
Ñģ Ð¾Ð»
ĠÑĢ Ð°Ð±
ĠÐļ Ð°Ð±
Ð¾Ðº Ð°ÑĢÐ´
ĠÑģÒ±ÑĢ Ð°Ð¹Ð¼ÑĭÐ·
ĠÑĢ Ð°Ñħ
ĠÐ±ÐµÐ»ÑģÐµÐ½Ð´Ñĸ Ð»ÑĸÐº
ĠÐ´Ð°Ð¹ÑĭÐ½Ð´Ð° ÑĥÒĵÐ°
ĠÑģÐ°ÒĵÐ°ÑĤ ÑĤÐ°Ð½
Ð¢ ÐµÐº
ĠÑģÑĤÑĢÐ°ÑĤÐµÐ³ Ð¸ÑıÑģÑĭ
ĠÑĪ Ð°Ð»Ð´ÑĭÒĽ
Ðĺ ÐĿ
ĠÒĽÐ°Ð»ÑĭÐ¿ÑĤÐ°Ñģ ÑĥÑĭÐ½Ð°
AM AN
ĠÐ¨ ÐŀÐĳ
ÐĨÑĪ ÐºÑĸ
ĠÐ£ Ð°ÒĽÑĭÑĤÑĭ
ÑĥÑĪÑĭÐ»Ð°ÑĢ Ð´Ñĭ
Òļ ÐĲ
ĠÒĽÑĥ Ð°Ð½Ð´Ñĭ
ĠÒ±Ð· Ð°ÑĢÑĤÑĥ
ĠÐ°ÒĽÑĭÑĢ ÑĭÐ½
Ð ¬
ĠÒ¯Ð¹ Ð»ÐµÑĢÐ´Ñĸ
ĠÒĽÒ±ÑĢÑĭÐ» ÒĵÑĭ
ĠÑĢÒ±ÒĽÑģÐ°ÑĤÑĭ Ð¼ÐµÐ½
ĠÐ±Ð°ÑģÐ¿Ð°Ð½ Ð°
ĠÐºÓ©Ò£ÑĸÐ» Ñĸ
ÑĤ Ð°ÑģÑĤÑĭÑĢÑĥ
ĠÑĪÐ°ÑĢÑĤ ÑĤÑĭÒ£
ĠÒ± Ð»ÑĭÒĽ
ÐµÑĤÑĤÑĸÒ£ ÑĸÐ·
Ð· ÐµÐ»
ĠÑĪÐ°ÒĽ ÑĤÐ°
Ġ %-
ĠÐ¼ÓĻ Ð·
Ðĸ ÐµÒ£
Ð¾Ðº Ðº
Ð°Ð»ÑĮ Ð´
u g
ĠÒĽÐ°ÑĢ ÑĤ
Ð¡ Ó©Ð·
Ðĸ ÐµÐ¼ÒĽÐ¾ÑĢÐ»ÑĭÒĽÐ¿ÐµÐ½
ĠÐ±ÑĸÐ» ÑĸÐº
ÑĤÐµÐ½ ÑģÐ¸Ð²ÑĤÑĸ
ĠÐļÓ© Ò£ÑĸÐ»
ĠÒĽÐ°ÑĤÑĭÑģ Ð°
ĠÐĸÓĻ Ð¹ÑĢÐµÐ¼
Ð± ÓĻÑĢÑĸ
Ð´ÐµÐ½ ÐµÒ£
Ð¿Ð°ÑĢ Ð°ÑĨÐ¸Ñı
ĠÐ¾ÑĢÑĭÐ½ Ð´Ð°Ð¹Ð´Ñĭ
ÐµÑĤÑĤÐµÑĢ ÑĸÐ½ÑĸÒ£
ĠÑģÑĭÐ½ Ñĭ
ÐµÑĤÑĸÐ½ ÑĪÐµ
ĠÑĪÑĭÒĵ ÑĥÑĭ
Ð°ÑĤ ÐµÐ»ÑĮ
ĠÐ¢ ÓĻÑĥ
ĠÒ±Ð¹ÑĭÐ¼Ð´Ð°ÑģÑĤÑĭÑĢ ÑĥÒĵÐ°
ĠÐ¨ÑĭÒĵ Ð°ÑĢ
ÐµÐº ÐµÐ¹
ĠÐ¾ÑĢÑĭÐ½Ð´Ð°Ð» ÒĵÐ°Ð½
ĠÐºÐ¾Ð½ÑģÑĤÐ¸ÑĤÑĥ ÑĨÐ¸ÑıÐ»ÑĭÒĽ
ĠÐ¼ ÑĭÐ½Ð°Ð½
ĠÐĲÑĢ ÑĭÑģÑĤÐ°Ð½
ĠÒĽÐ¾ÑĢÒĵÐ°Ð½ ÑĪÑĭÐ»Ð°ÑĢÒĵÐ°
ĠÓ©Ò£ Ð´ÐµÐ»
ĠÐ¼Ð°ÒĽÑģÐ°ÑĤÑĭ Ð¼ÐµÐ½
qu arium
Ð´ Ð¸Ð½Ð³
ĠÒĽÐ°Ð·Ð°ÒĽ ÑĤÐ°ÑĢÐ´ÑĭÒ£
ĠÒĽÐ°Ð»ÑĭÐ¿ÑĤÐ°Ñģ Ñĥ
ĠÐ±ÐµÑĢÑĸÐ» Ð¼ÐµÐ¹Ð´Ñĸ
8 2
ĠÐ½ÐµÐ³ÑĸÐ· Ð´ÐµÑĢÑĸÐ½
ĠÐĲ ÑĢÑĤ
ĠÑįÐºÑģÐ¿ÐµÐ´Ð¸ÑĨÐ¸Ñı ÑģÑĭ
ÐŁÐ°ÑĢ ÑĭÐ·
ĠÐºÐµÐ·Ð´ÐµÑģÑĥ Ð»ÐµÑĢ
ĠÐ¼Ð°Ò£ ÑĭÐ½Ð´Ð°
it y
ĠÐ¢Ð°Ð¿ ÑģÑĭÑĢ
ĠÐŀ Ð¿ÐµÑĢ
ĠÐ¶Ð°Ñģ ÑĤÐ°ÑĢÑĭ
Ð°Ñĥ ÑĭÒĽ
ĠÒĽÐ°Ñģ ÑĸÑĢ
ĠÓĻÑĢÑĸÐ¿ ÑĤ
ÑĪÐµÐº ÐµÐ¹
ĠÒĽÒ± Ð¹ÑĢ
ĠÐºÓ©Ð»ÐµÒ£ ÐºÐµÐ»Ñĸ
ĠÐ½Ó© ÑģÐµÑĢ
ĠÐ°ÑĢÐ´Ð°Ð³ÐµÑĢ Ð»ÐµÑĢ
ĠÐ¶Ò¯ÑĢÐ³ÑĸÐ· ÐµÑĤÑĸÐ½
Ġ199 6
ĠÐ±Ð°ÑģÑĪÑĭÐ»ÑĭÒĽ ÒĽÐ°
ĠÐºÓ©Ð±ÐµÐ¹ ÑĸÐ¿
Ó© Ñģ
ÑĤÐ¾ÑĢ Ð»ÑĭÒĽ
ĠÐĲÐ£ÐĶ ÐĲÐĿ
ĠÐ³ ÐµÐ¿Ð°ÑĤ
Ð¼ ÑĥÑĢ
ÑĸÐ¼ Ð³Ðµ
Ò±ÑĢ Ð»ÑĭÐ¼
ĠÐľÑĥÐ·Ñĭ Ðº
ĠÐµÑĢ ÐºÐµÐ»
ĠÐ½Ð°ÑĥÑĢÑĭÐ· Ð´Ð°
ĠÐ¶Ð¾Ð» ÑĭÐ½ÑĭÒ£
ĠÑĤÐ¾Ð¿ ÑĤÑĭÒĽ
ĠÐ¼ÐµÐ¹ Ð»
ĠÑĤÑĥ Ð´ÑĭÑĢÐ°ÑĤÑĭÐ½
ĠÐºÐ¾ Ð´Ñĭ
ĠÐ°ÑĥÑĭÑĤ ÒĽÑĥ
Ðŀ ÒĽÑĭÑĤÑĥ
ĠÐ°Ñı Ð»
ĠÑĸÐ· Ð´ÐµÑģÑĤÑĸÑĢÑĥ
Ð¼Ð¾ ÑĤÑĢ
Ð´ÑĸÑĢ ÑĸÑģÑĤÑĸÐº
ĠÐŀ Ð´Ð°ÒĵÑĭ
ĠÐ» ÑĭÒĽ
Ð°Ñħ ÑģÑĤÐ°Ð½Ð°
Ð°Ð² ÑĢ
ĠÑĪÑĭÒĵÐ°ÑĢ Ð°
ÐµÑģÑģ Ð¸Ð²ÑĤÑĸ
ĠÑģÑĥÐ±ÑĬÐµÐºÑĤÑĸ Ð»ÐµÑĢÐ¼ÐµÐ½
ĠÐ» Ñİ
ĠÑĤÑĥÑĢ Ð¸ÑģÑĤÐµÑĢ
ĠÑħ Ð¾ÑĢ
ÐķÐ» ÑĤÐ°Ð¹
ĠÐĸ Óĺ
Ð¾Ð² ÑĤÑĭ
ĠÐ¸Ð¼ Ð¿Ð¾ÑĢÑĤ
Ġa quarium
Ð°Ñĥ Ð½
Ġol en
ÐµÑģ iÐ½
ĠÐ°Ð» ÒĽÐ°
ĠÑħ Ð°ÑĢ
Ñģ ÑĸÐ½Ð´Ðµ
ĠÐĶÐµ Ð¿Ð°ÑĢÑĤÐ°Ð¼ÐµÐ½ÑĤ
Ð°Ðº Ð°Ð»
ĠÑĤÐµÑĢÐµÐ· Ðµ
ĠÐ´Ð°Ð¹ÑĭÐ½ Ð´Ð°Ð¿
ĠÐµÐº i
iÐ» i
ĠÒļÐ°Ð·Ð°ÒĽÑģÑĤÐ°Ð½Ð´ÑĭÒĽ ÑĤÐ°ÑĢÐ´ÑĭÒ£
ĠÒĽÐ°Ð¹ ÑĤÒĽÐ°Ð½
ĠÐºÐ°ÑĢ ÑĤÐ°
Ġi ÑģÑĤ
ÒļÐ°Ð¼ÒĽÐ¾ÑĢ ÑĪÑĭÐ»Ð°ÑĢÒĵÐ°
ĠÐ¶Ð°Ð¹ ÑĤ
ĠÐ±Ð°Ð¹ ÒĽÐ°ÒĵÐ°Ð½
Ð½ Ð°Ð¹
ĠÐ¶Ð°ÒĵÑĭ Ð¿
ÑĨ ÐµÑģ
Ð¸Ð» Ð¸Ñı
ĠÒĽÐ°ÑĤ ÐµÑĢ
ĠÒ±Ð¹ÑĭÐ¼Ð´Ð°ÑģÑĤÑĭÑĢ ÑĭÐ»ÑĭÐ¿
Ð¾Ð½ Ð´Ñĭ
ĠÓ©Ò£ÑĸÑĢ Ð»ÐµÑĢ
ĠÐ°ÑĢÑħÐµ Ð¾Ð»Ð¾Ð³Ð¸ÑıÐ»ÑĭÒĽ
Ð¸ Ñĥ
ĠÐ¼Ð¾Ð±Ð¸Ð»ÑĮ Ð´Ñĸ
ĠÐĲ Ð³
ĠÐ°ÑĥÑĭÐ» ÑĭÐ½Ð´Ð°ÒĵÑĭ
ĠÑĤÓ©Ð¼ÐµÐ½Ð´ÐµÐ³Ñĸ Ð´ÐµÐ¹
ÒĽ Ð¾Ð¶Ð°
ĠÑĪ Ð°Òĵ
ÑĭÐ½ Ð´Ð°ÑĢ
Ð°Ð¹ Ð»ÑĭÒĽ
ÑĪÑĸÑĢ ÑĸÐ¿
ÐµÐ»ÐµÑĢ Ð´ÐµÐ½
ĠÐĹ Ð°ÑĢ
Ġn ur
Ð»ÐµÐº ÐµÑĤ
ĠÑįÑĤÐ½ Ð¸ÐºÐ°Ð»ÑĭÒĽ
ĠÐ°Ð» ÒĵÑĭ
ĠÐĸ Ò±ÑĢÑĤ
ĠÒļÐ°ÑĪ ÑĭÑĢ
ĠÐĳÐ°Ð½ ÐºÑĸ
ĠÐł ÐľÐļ
ĠÐ¶Ò¯Ð» Ð´ÐµÐ»Ñĸ
Ð¸ÑĩÐµÑģÐº Ð¸Ñħ
Ð· Ð¸ÑĤ
ĠÐ¿Ð°Ð¹Ð´Ð°Ð»Ð°Ð½ Ð°ÑĤÑĭÐ½
ĠÑĤÐ°ÒĽÑĭÑĢ ÑĭÐ¿ÑĤÑĭ
ĠÑĸÐ· Ð´ÐµÐ³ÐµÐ½
ÒĽÐ¾Ð» Ð´Ð°Ð½
Ð¼ Ð´Ñĭ
ĠÑģÐ¾Ð½ ÑĪÐ°Ð¼Ð°
ĠÐ¼Ò±ÒĵÐ°Ð» ÑĸÐ¼Ð½ÑĸÒ£
ĠÑĢÐ°ÑģÑģÐº Ð°Ð·
ĠÐ¾ Ð´Ð°ÒĵÑĭ
ÑĤÐ°ÑĢ Ð°Ð¿
Ð¾Ð¼ ÐµÑĤ
ĠÓĻÐºÑĸÐ¼ ÑĪÑĸÐ»ÑĸÐ³Ñĸ
ÐµÐ» Ð»
ĠÑĤÐ¾ÒĽ ÑĤÐ°Ð»
ĠÐ¿Ð¾ ÑģÑĤ
ĠÐ¼ ÑĭÑĢÐ·Ð°
ĠÑģÐµÐ· ÑĸÐ¼Ñĸ
ĠÐºÐ°ÑĢÑĤ Ð¾Ñĩ
ĠÑĪÑĭÒĵÐ°ÑĢÐ¼ Ð°Ð»Ð°ÑĢÑĭ
ĠÐ½ Ð°Ð³
ĠÐ±Ð°ÒĵÑĭÐ½ ÑĭÑģ
ÐĳÐĲ Ðĺ
ĠÐ°Ð¼ÐµÑĢ Ð¸ÐºÐ°Ð»ÑĭÒĽ
ĠÑģ Ò±ÒĽ
ÑĤÑĸÐ½ Ñĸ
Ð°Ð¼ÑĭÐ· Ð´Ñĭ
ĠÐ¶ÐµÑĤÑĸÑģÑĤÑĸÐº ÑĤÐµÑĢ
ĠÐŁÐ°ÑĢÐ»Ð°Ð¼ÐµÐ½ÑĤ ÑĸÐ½ÑĸÒ£
ĠÒ¯Ð½ Ð´ÐµÑĥ
ĠÐºÐµÐ¿ ÑĸÐ»Ñĸ
ĠÑĤÐ°Ð» ÒĵÐ°Ð¼
Ñ ĺ
Ð¾ÑĢÐ¼ Ð°ÑĤÐ¸Ð²ÑĤÑĸÐº
ĠÐ¶Ð°ÑĢÐ½ Ð°Ð»Ð°ÑĢÑĭÐ½
ĠÐ¶ÐµÑĢ Ð»ÐµÑĢÐ´Ñĸ
ĠÐºÐ°Ð½Ð´Ð¸Ð´Ð° ÑĤÑĭ
Ð¸Ñģ Ð°
ÑĸÑĪ ÑĸÐ»ÑĸÐº
ĠÒ¯ÑĢ ÐµÐ¹
ĠÐ¶Ð¸Ð½Ð°ÒĽ ÑĤÐ°Ð»ÒĵÐ°Ð½
ĠÑĪÑĸÑĢ ÐºÐµÑĥ
ĠÐ· Ð°
Ġ0 3
ÑĤÐ¿ ÐµÐ¹
ĠÒĽ Ð¸ÑĢ
ĠÐ±ÑĸÐ» ÐµÑģÑĸÐ·
ĠÒĽÐ°Ð»Ð´ÑĭÑĢ Ð´Ñĭ
ĠÒĽÐ¾ÑĢ ÑĪ
ĠÐ¢Ò±ÑĢ ÑģÑĭÐ½
Ð± Ð°ÑıÐ½
ÐĸÐ°Ò£ Ð°Ð»ÑĭÒĽÑĤÐ°ÑĢ
ĠÐ°Ð»ÑĥÑĪÑĭÐ»Ð°ÑĢ ÒĵÐ°
ĠÐļÑĸÑĤÐ°Ð¿ ÑħÐ°Ð½Ð°
ĠÒĽ Ð°ÑģÑĭÐ½Ð´Ð°
ĠÐ¼Ð¸Ð½Ð¸ÑģÑĤÑĢ Ð»ÑĸÐº
ĠÐ´ÐµÑĢÐµÐº ÑĤÐµÑĢÑĸ
Ġs h
Ð±Ò±Ð» Ð°ÒĽ
ÐĲÑĤÐ°Ð¼ ÐµÐºÐµÐ½
Ð°ÑĤÑĤÐ°ÑĢ ÑĭÐ½Ð°Ð½
ĠÐ¼ÐµÑĢÐµÐ¹ÑĤÐ¾Ð¹ ÑĭÐ½Ð°
ĠÐ³Ð¸Ð´ ÑĢÐ¾
ĠÑĤÐ¾ÒĽ ÑĤÐ°Ð»ÑĭÐ¿
ĠÑģÑĸÐ»ÑĤÐµÐ¼ ÐµÑģÑĸÐ½
ĠÑģÐ°Ð»ÑĭÑģ ÑĤÑĭÑĢÑĥ
ĠÑĪÑĭÒĵÑĭÐ½ Ð´Ð°ÑĢ
ĠÒĽÐ¾Ð» Ð´Ð°Ð¿
ĠÐ´Ð°Ò£ ÒĵÑĭÐ»Ñĭ
ÑĭÑĢ Ð°Ð¿
ĠÑģÑĤÐ°Ð½ Ñģ
ĠÐºÐµÐ·Ð´ÐµÑģ ÐºÐµÐ½
ĠÑĤÑĭÐ½ÑĭÑĪ ÑĤÑĭÒĽ
ĠÑĤÐ°Ð¿ ÒĽÑĭÑĢ
Ð°Ð»Ð°ÑĢ ÑĭÐ½Ð°Ð½
ĠÐ° Ð´ÑĢ
Ð¾Ð· ÒĵÐ°Ð»
ĠÐºÐ¾ÑĢ Ð¿Ð°ÑĢÐ°ÑĨÐ¸Ñı
ÑĭÐ» Ð°Ñĥ
ÐµÐº ÑĤÑĸÐº
ĠÑĥ Ð»Ñĭ
ĠÒ±Ð¹ÑĭÐ¼Ð´Ð°ÑģÑĤÑĭÑĢ Ð´Ñĭ
ĠÐĳÐµÐ» Ð³ÑĸÐ»Ñĸ
Ð»i Ð³i
ĠÐºÑĥÑĢ ÑģÑĭ
ĠÑĦÐ°ÐºÑĥÐ»ÑĮÑĤ ÐµÑĤÑĸ
ĠÐ°Ð» Ð¼Ð°
ĠÓĻÒ£Ð³ÑĸÐ¼ÐµÐ»ÐµÑģ Ñĥ
ĠÑįÐ½ ÑĨÐ¸ÐºÐ»Ð¾Ð¿ÐµÐ´
ĠÐĺÐ½ Ð´ÑĥÑģÑĤÑĢ
ĠÐ°Ð½Ð³Ð¸Ð¼ Ðµ
ĠÑĤÐ°Ð¼ ÑģÐ°Ð½
ĠÐ±ÐµÑĢÑĥ Ð´Ðµ
ĠÑĤÒ¯ÑģÑĸÐ½Ð´ÑĸÑĢ Ð´Ñĸ
ĠÐ¶Ð°Òĵ ÑĭÐ½
ĠÑģÐ°ÑıÑģÐ°ÑĤ ÑĤÑĭÒ£
Ġ !
Ðĺ ÓĻ
ĠÐľÐ°ÑĤ ÐµÑĢÐ¸Ð°Ð»
Ò°Ð» ÑĤ
ĠÐŀÑĢ Ð»Ñĭ
ÑĪ Ð°Ò£
ĠÐº Ð°ÑĤÐ°Ð»
Ð± Ð¸ÑĤ
ĠÒĽÑĭÐ·Ð¼ÐµÑĤ ÑĸÐ½ÐµÐ½
Ð±ÑĸÑĢ ÑĤÐµ
ĠÑĸÑģÑĤ ÐµÐ´Ñĸ
ÑĸÑģÑĤÐµÑĢ Ð´ÑĸÒ£
an k
ĠÓ©Ò£ÑĸÑĢ Ð´ÐµÐ³Ñĸ
ĠÒĽÒ±ÑĤÑĤÑĭÒĽ ÑĤÐ°Ð¿
ĠI S
ÐĿÒ±ÑĢ Ð¶Ð°Ñĥ
ĠÐ¿ÑĢÐ¾ÑĨ ÐµÑģÑĸÐ½ÑĸÒ£
Ñĩ ÐµÑĢ
Ðĳ Ð°Ð¹Ð´Ð°
Ð±Ð°Ñģ Ð°
ĠÓ©Ð» ÑĤÑĸÑĢÑĥ
ĠÒļÐ°ÑĢ Ð°Ð±
ĠÑĤÐ°Ð¿ Ð¿Ð°Ð¹
ĠÐ°Ñĥ Ð»Ð°Ñĥ
ĠÑĢ Ð°Ð·Ñĭ
ĠÐºÐµÑģ ÐºÑĸÐ½
ĠÐºÑĥÓĻÐ»Ð°Ð½ Ð´ÑĭÑĢÑĭÐ»ÒĵÐ°Ð½
ĠÓ©Ð·Ð³ÐµÑĢÑĸÑģÑĤÐµÑĢ Ð³Ðµ
ÒĽÐ°Ð¹ ÑĭÑĢ
ĠÐ¾Ò£ÑĤ Ð°Ð¹Ð»Ñĭ
Ðŀ Ð»Ð°ÑĢ
ÒļÐ°Ð¹ÑĭÑĢ ÑĪÐ°ÒĽÑĤÑĭ
Ðļ ÐµÑĢ
ĠÐ´ÐµÑĢÐµÐº ÐºÓ©Ð·
ÑĦ Ð¸
ĠÐ¾Ð¹ÑĭÐ½ ÑĪÑĭÒĽ
ÑĸÐ»Ñĥ ÑĸÐ½
ĠÐľ ÐµÐ´Ð¸ÑĨÐ¸Ð½Ð°
ĠÐ¡ ÓĻÐ»
ĠÐ°ÒĽ ÑĥÑĭÐ·
ĠÐºÐµÑĤ ÑģÐµÐº
ĠÐ¶ÐµÒ£ ÑĸÑģ
ĠÒ±ÑĢÐ¿ Ð°ÒĽÑĤÑĭ
ĠÐŀÑĢ Ð´Ð°
Ð³ÐµÐ» Ð´Ð¸Ð½
ĠÑģ ÐµÐ¹
ĠÑĦÐ°ÐºÑĤÐ¾ÑĢ Ð»Ð°ÑĢÐ´ÑĭÒ£
ĠÒĽÒ± ÑĤÑĤÑĭ
ÑĸÐ» ÐµÑĢÑĸ
ĠÐ´Ð¸ ÒĽÐ°Ð½
ĠÑįÐºÐ¾Ð½Ð¾Ð¼Ð¸Ðº Ð°ÑģÑĭÐ½ÑĭÒ£
ĠÐ¼ÐµÐ½ÐµÐ´Ð¶ Ð¼ÐµÐ½ÑĤ
ĠÐĸ Ð°Ð¼
ĠÐºÑĥÓĻ Ð»ÑĸÐ³Ñĸ
ĠÒĽÐ¾Ð» Ó©Ð½ÐµÑĢ
ĠÐ¼ÐµÐ¼Ð»ÐµÐº ÐµÑĤÑĸ
Ð¿ Ð°ÑģÓ©Ð·
ĠÒļ Ð°Ð»ÒĵÐ°Ð½
Ð±ÑĸÑĢ ÑĸÐ½
ĠÐ² ÐµÐ½
ĠÒ±ÑģÑĭÐ½ÑĭÑģ ÑĤÐ°ÑĢÑĭÐ½
ĠÐ°ÑıÒĽ ÑĤÐ°Ð»Ð°Ð´Ñĭ
ÒĽÑĭÑĪ ÑĤÐ°ÑĢ
Ð°Òĵ Ð°ÑĤÑĤÑĭ
ÐĲÐ·Ð°Ð¼ Ð°ÑĤÑĤÑĭÒĽ
ÑĢ ÑĭÐ½
ĠÐķÐ» ÑĪÑĸÑģÑĸ
Ð¶ÐµÐ» ÑĤÐ¾ÒĽÑģÐ°Ð½
ÑĤÐ¿ ÐµÐ³ÐµÐ½
ĠÒĽÐ°ÑĢÐ°ÑĪ Ð°ÑģÑĭÐ½Ð´Ð°
ĠÐ¼ ÐµÐ»Ð¸Ð¾ÑĢ
ĠÐ¶ÐµÑĤÐºÑĸÐ· ÐµÐ´Ñĸ
ĠÑĭÒĽ ÑĪÐ°Ð¼
Ð¾ÒĽ ÑĭÑĤÑĥ
Ġ6 3
ĠÑĤ ÑĭÒĵ
ĠÐ±Ð°Ð»Ð°Ð»Ð°ÑĢ Ð´Ð°
? ?
ĠÑģÐ°Ð± Ð°ÒĵÑĭ
Ð´Ð°Ð» ÑĭÐ¿
ĠÑĤÑĸÐ· Ð±ÐµÐº
Ġ0 2
Ð°ÒĽ Ð¿ÐµÐ½
Ð±Ð» Ð¸
ĠÒļÐ°Ð½ Ð°ÑĤ
Ñħ Ð°Ð±
ĠÐµÐºÐµÐ½ ÑģÑĸÒ£
n ik
ÑģÐ°Ñĥ ÑĭÒĽ
ĠÑĤÑĸÐ· ÑĸÐ»ÑĸÐ¼Ñĸ
ĠÐĳÒ±Ð» Ð°ÑĢ
Ð¢ Ò±
Ð·Ð¾Ð¼Ð± ÑĭÐ»ÑĭÒĽ
ĠÐ¼Ð°Ð¼Ð°Ð½ Ð´Ð°ÑĢÑĭÐ½Ð°
Ð¾ÑĢÑĤÐ°Ð½ Ð±Ð°Ð¹
ĠÒĽÒ±Ð¶ Ð°ÑĤÑĤÑĭÒ£
ĠÐ¢Ó© ÑĢÑĤ
ĠÐļ Ò¯Ð¹
ĠÑĤÐ°Ð±Ð¸ÒĵÐ° ÑĤÑĭ
p h
Ð¡ Ð°ÑĢÑĭ
ĠÐ¶Ð°Ð½ ÑĭÐ½Ð°
ĠÐºÒ¯ÑĪ ÐºÐµ
ĠÑįÐºÑģÐ¿Ð¾ÑĢÑĤ ÑĤÑĭÒ£
Ð¼ ÓĻÑĤ
ÑĤÐµ Ð³ÑĸÐ»ÐµÑĢ
ĠÒ±ÑĢÐ¿ Ð°ÒĵÑĭ
ĠÐ±Ð°ÒĵÐ´Ð°ÑĢ Ð»Ð°Ð½Ñĥ
ĠÐ°Ð¹ÒĽÑĭÐ½ Ð´Ð°Ð¹ÑĤÑĭÐ½
ĠÐ¿ÑĢ ÐµÐ´
ÑĭÐ¼ÑĭÐ· Ð±ÐµÐ½
ĠÑĤÒ±ÑĢÒĵÐ°Ð½ Ð´Ð°Ð¹
ĠÒĽ Ð°ÒĵÐ°Ð½
ĠÐºÐµÑģ ÐµÐ½
ÐµÒ£ Ñĸ
ĠÐ¶ÑĥÑĢÐ½Ð°Ð»Ð¸ÑģÑĤ Ð¸ÐºÐ°
ĠÐ¶ ÓĻÐ´Ñĸ
ĠÑĤÑĸÐ» Ð´ÐµÑĢÑĸÐ½Ð´Ðµ
ĠÓ©ÑĤÐºÑĸÐ· ÐµÑĤÑĸÐ½
Ð» Ð¾Ð½
ĠÑģÒ¯Ð¹ÐµÐ½ ÑģÐµÐº
ĠÑģÐ¸Ð¿Ð°ÑĤ ÑĤÐ°Ð»Ð°ÑĤÑĭÐ½
ĠÑįÐºÐ¾Ð½Ð¾Ð¼Ð¸Ðº Ð°Ð½Ñĭ
ĠÐĲÑĦÑĢ Ð¸ÐºÐ°
Ð¼ Ð°ÑĪ
ÐµÐ»ÐµÑĢ ÑĸÐ½Ð´Ðµ
ĠÐ¼ÐµÐºÐµÐ½ Ð¶Ð°Ð¹Ñĭ
ĠÑįÐºÐ¾Ð½Ð¾Ð¼ Ð¸ÐºÐ°ÑģÑĭ
ĠÐŁÑĥÑĤ Ð¸Ð½
ĠÐ´ÐµÐ³ÐµÐ½ Ñĸ
ĠÐ±Ð°Ð½Ðº ÑĤÑĸÐº
ĠÐ¿ ÐµÑĪ
ĠÓĻÑĥ ÐµÐ»
ĠÒĽÐ°Ð´ÑĸÑĢ Ð»Ñĸ
ÐŃÐļ Ð¡ÐŁÐŀ
ĠÑĪ Ð¸ÑĢ
ĠÐ´Ð¾ ÑģÑĭ
ĠÐºÐ¾ÑĢÐ¿Ð¾ÑĢ Ð°ÑĤÐ¸Ð²ÑĤÑĸÐº
ÐľÒ±Ð½ Ð°Ð¹
ĠÐ¢ Ð¾
ĠÐ« Ð±ÑĭÑĢ
ĠZ AMAN
Ð± Ð°Ñĥ
ÑĪÐ° ÒĵÑĭ
ĠÐĶ Ð°ÑģÑĤÐ°ÑĢ
Ð°Ð» Ð¸Ð·Ð°ÑĨÐ¸Ñı
ĠÐ°ÑĢÑĤ ÒĽÐ°Ð½
ÐµÐ»ÑĸÐº ÑĤÐµÐ½
ĠÑĤÐ°Ð½ÑĭÑģÑĤÑĭÑĢ Ð´Ñĭ
ĠXX I
ĠÐ°ÑĢ Ð´Ð°ÒĽÑĤÑĭ
ÑĸÐ¼ÑĸÐ· Ð´ÐµÐ³Ñĸ
ĠÐºÐµÑĤÑĤÑĸ Ð¼
ĠÐ¿ÑĢÐ¾Ð³ÑĢ Ð°Ð¼Ð¼
ĠÐ¼ÐµÐ¹Ð» ÑĸÐ½ÑĪÐµ
ĠÒĽÐ°ÑĥÐ» ÑĭÐ»Ð°ÑĢ
ĠÑĤÐµÐ¿ Ðµ
ÑĤ ÒĽÑĭ
ĠÒĽÐ°Ð» Ð¼Ð°Ð¹
ĠÑģÐ°Ð» Ð°Ð»Ð°ÑĢÑĭÐ½Ð´Ð°
ĠÓ©Ò£ÑĸÑĢ ÑĸÐ½Ð´Ðµ
ÐĨÐĨ ÐĨ
ĠÒĽÒ±ÑĢÐ°Ð» Ð´Ð°ÑĢÑĭÐ½Ð´Ð°
ĠÐŁÒļ ÐĳÐĲÐĺ
ĠÐ°ÑģÑĭÑĢÑĥ Ð´Ñĭ
ĠÐ¶ÑĥÑĢ Ð½Ð°Ð»Ñĭ
ĠÑģÐ°Ð» Ð´ÑĭÑĢ
ĠÐĲÐ¹ Ð¼Ð°ÒĽ
ĠÑģ Ð¿ÐµÑĢ
ĠÐ¾ÒĽÑĥ Ð»ÑĭÒĽÑĤÐ°ÑĢ
ĠÐ±Ð°Ð¹Ð» ÑĭÒĵÑĭ
ĠÑĤÐ°ÑĢ ÑĤÑĭÑģ
ĠÑħÐ¸ÑĢÑĥÑĢÐ³ Ð¸Ñı
t r
ĠÐ¿Ð¾Ð»Ð¸Ð³ Ð¾Ð½
ĠÑħÐ°Ð±Ð°ÑĢÐ»Ð°Ð¼ Ð°ÑģÑĭ
Ð¸Ð½Ð¸ Ò£
Ð± Ð¸Ðº
Ð´Ð°ÒĵÑĭ Ð´Ð°Ð¹
Ðł Ðŀ
ĠÓĻÒ£Ð³ ÑĸÐ¼ÐµÐ½
ĠÐ¡ Ð¸
ĠÑĤÒ±ÑģÐ°Ñĥ ÐºÐµÑģ
ÑĤÐ°Ð½ ÑĭÐ¿
ĠÐ±Ð¾Ð¹ ÑĭÐ½
ĠÑģÓ©Ð¹ ÑĤÑĸÐ¿
ÐµÐ» ÐµÒ£
ĠÒĽÐ°ÑĢÐ¶ÑĭÐ»Ð°Ð½ Ð´ÑĭÑĢ
ĠÐļ ÑĸÑĢ
ĠÐºÓ©Ð¼ÐµÐº ÐºÐµ
ĠÑģÐ¾Òĵ ÑĭÑģÒĽÐ°
ĠÐµÐ¼Ð´ÐµÐ» ÑĥÑĪÑĸÐ»ÐµÑĢ
ĠÐ¾ÑĤ Ð±Ð°ÑģÑĭÐ½Ð´Ð°
ĠÐ¼ÐµÐºÑĤÐµÐ¿ ÑĤÐµÑĢÑĸÐ½ÑĸÒ£
ĠÒ± ÑĪÑĭ
Ðļ ÐŁ
Ð¸Ð½Ð³ Ð²
ĠÐ¶ÐµÑĤÑĸÑģÑĤÑĸÐº ÑĤÐµÑĢÑĸÐ½
ĠÐ°ÑĢ ÑĤÑĭÐ½Ð°Ð½
ĠÑģÐ°ÒĽ ÑĤÐ°Ð¹Ð´Ñĭ
ĠÐľÐ°ÒĽ ÑģÐ°ÑĤÑĭ
ĠÐ¢Ó©Ð» Ðµ
ĠÒĽÐ°Ð±ÑĭÐ» Ð´Ð°Ð¼
ĠÑģÑĸÐ» ÐºÑĸÐ½
ĠÒĽÐ°ÒĵÐ°Ð· Ð´Ð°ÑĢ
ĠÓĺÑģ ÐºÐµÑĢÐ¸
ĠÓ©ÑĤÐµÐ¼ Ð°ÒĽÑĭ
ĠÐĸ ÐµÐº
Ð¿Ð°ÒĽ ÑĪÑĭ
ĠÑģÐµÐ·ÑĸÐ¼ Ð³Ðµ
ĠÓ¨ Ðº
ĠÐ´ÐµÐ½ ÐµÐ½ÑĸÒ£
ĠÐ½Ð°Ð·Ð°ÑĢ ÑĭÐ½
ĠÐ°ÑĥÐ´Ð°Ð½ Ð´Ð°
ĠÐĲÑĢ Ð½Ð°Ð¹Ñĭ
ĠÐ±Ð°Ð¿ ÐºÐµÑĢ
ĠÑĤ ÑĭÐ»
Ð¿ ÐµÐ´Ð°Ð³Ð¾Ð³Ð¸ÐºÐ°Ð»ÑĭÒĽ
ĠÐľ Ð°Ñģ
ĠÐ¨ Ð¾ÒĽ
ĠÑĤÐ°Ð¿ÑģÑĭÑĢÐ¼ Ð°Ð»Ð°ÑĢÐ´ÑĭÒ£
ĠÐľÒ±ÒĽ Ð°ÒĵÐ°Ð»Ð¸
g le
ĠÐ±Ó©Ð» ÐµÐ´Ñĸ
Ð°ÑĪ ÑĭÒĽ
ĠÐĺÑĤÐ°Ð» Ð¸Ñı
ĠÐ¶ ÑĸÐ¿
ÑĤÑĥ Ð°Ð»Ð´ÑĭÒĽ
ĠÐ±Ð¾Ð»Ð°ÑĤÑĭÐ½ Ñĭ
ĠÒĽ Ð°ÑģÑĭÐ½Ð°
ĠÒĽÐ¾Ð¹ Ð¼
ÑģÑĭÐ· Ð´Ð°ÑĢ
ÑĤÐ°Ñģ ÒĽÐ°Ð½
ĠÐ±ÐµÐ· ÐµÐ½
ĠÐ°Ð½Ð°Ð» Ð¸ÑĤÐ¸ÐºÐ°Ð»ÑĭÒĽ
ĠÐ¼Ð°Ò£ÑĭÐ·Ð´Ñĭ Ð»ÑĭÒĵÑĭÐ½
ĠÐ¼ÓĻÑģÐµÐ»ÐµÐ»ÐµÑĢ ÑĸÐ½Ðµ
ĠÑģÒ¯Ð¹ÐµÐ¼ÐµÐ» Ð´ÐµÑĥ
ĠÐ±Ð°ÒĵÑĭÐ½ÑĭÑģ ÑĤÑĭÐ»ÑĭÒĵÑĭÐ½Ð°
ĠÐµÐ¼ ÑħÐ°Ð½Ð°
Ð¨ÐµÑĤ ÐµÐ»
Ġ6 9
ÒļÑĭÐ· Ð¼ÐµÑĤ
ÐľÒ±Ð½ Ð´Ð°Ð¹
ĠÐ±ÐµÑĢÑĥ ÑĪÑĸÐ»ÐµÑĢÐ´ÑĸÒ£
ÑĪ ÐµÑĪ
ÐµÑĤ ÐºÐµÐ½
ĠÐ°ÑĢÑĤ ÒĽÑĭ
Ð³ Ð¸Ð¿
ÐĹ Ð°Ò£
ÑĤÐ°ÑĢ Ð´Ð°ÒĵÑĭ
ĠÐ¶Ò±Ð¼ ÑģÐ°Ñĥ
ĠÑĥ ÓĻÐ¶
ĠÐĳÑĸÐ· Ð³Ðµ
ĠÐľ Ðĸ
ĠÑģÓ©Ð· ÑĸÐ½ÐµÐ½
ĠÐ¾Ð¹ÑĭÐ½ Ð´Ð°ÑĢÑĭ
ĠÐ¶Ð°ÑĤÑĤÑĭÒĵÑĥ Ð»Ð°ÑĢÑĭÐ½ÑĭÒ£
ĠÐ£ÓĻÐ» Ð¸ÑħÐ°Ð½Ð¾Ð²
Ð½ ÐµÐ¹
Ðļ Ð¾ÑĢ
ĠÑĥ ÐµÐ·
ĠÐ±ÐµÐ»ÑģÐµÐ½Ð´Ñĸ Ð»ÑĸÐ³ÑĸÐ½
ĠÓ©ÑĤÑĥ Ð´Ñĸ
Ð½ Ñı
ation al
ĠÐµÑĢ ÑĸÐº
ĠÐ¥ Ð¾Ð»
ĠÑĤÐ°Ñģ ÑĤÐ°Ð¹Ð´Ñĭ
ĠÑĥÑĩÐ°Ñģ ÐºÐµÑģ
ĠÐ°Ð½ Ð°Ð»ÑĭÒĽ
ĠÐ± Ð°Ð¶
Ð°Ð¼ Ð°Ð¹
ĠÐ¶Ð°ÑģÐ°Ñĥ Ð´ÑĭÒ£
ĠÓĻÑĢÑĸÐ¿ÑĤÐµÑģ ÑĤÐµÑĢ
ĠÐ¾ÑĢÐ½Ð°Ð»Ð°ÑģÑĤÑĭÑĢ ÑĭÐ»ÒĵÐ°Ð½
ĠÐ¼Ð°ÑĢ ÑĪ
.Â» ;
8 5
ĠÐ¸ ÑĤÐµÑĢ
ĠÐĹ ÐµÐ¹Ð½ÐµÑĤ
ĠN o
ĠÒ¯Ð»Ð³Ñĸ ÑģÑĸÐ½
ĠÐ·Ð°ÑĥÑĭ ÑĤÑĭ
ĠÐ¾ ÑĦ
ĠÑį ÑĤÐ¸
Ð°ÑĤÑĤÑĭ ÒĵÑĥ
Ð½ ÓĻÑĢ
Ð»Ð¸ ÐµÐ½ÑĤ
Ð½ Ð¸Ð¼
ĠÐľ ÐµÑĤ
Ðĸ Ò¯Ð»
ĠÐļ ÓĻ
ĠÒĽÐ¾ÑĢ ÑĭÑĤÑĥ
ĠÒĽÐ¾ÑĢ ÒĵÐ°Ð¿
ĠÒĽÐ°Ð¹ ÒĵÑĭ
ĠÐ¡ÐµÑĢ Ð³ÐµÐ¹
ĠÒĽÐ°ÑĢÐ¶ÑĭÐ»Ð°Ð½Ð´ÑĭÑĢÑĥ ÒĵÐ°
Ð¢ ÐµÒ£ÑĸÐ·
Ð±ÐµÑĢ Ð´Ñĸ
ĠÑģÒ¯Ð¹ Ð³ÐµÐ½
ĠÐºÐ¾Ð»Ð»ÐµÐ´Ð¶ Ñĸ
an s
ĠÓ©ÑĢÐºÐµÐ½ Ð´ÐµÑĥ
ĠÐ½Ð°ÑĢÐ°Ð· ÑĭÐ»ÑĭÒĽ
ĠÐ¾ÑĢ Ð°ÑģÐ°Ð½
Ð¾Ð¼ Ð°ÑĢÑĤ
Ð¢ ÐµÐ¼ÑĸÑĢ
ĠÒĽÐ°Ð¹ ÑĤÑĤÑĭ
ĠÐ¼ÐµÑĤ Ð°Ð±Ð¾Ð»
ĠÓ©Ð·Ð³ÐµÑĢ ÐµÐ´Ñĸ
Ñĥ Ð¿
Ð¶ ÓĻÐ½Ðµ
Ð³ÑĸÐ» Ð´ÑĸÑĢ
ĠÓĺ ÐĶÐķ
Ð°ÑĤÑĭÐ» ÑĭÑģÑĤÐ°Ð½Ñĥ
ĠÐĸÐ°Ð½ Ð°ÑĢ
Ð¡Ð°Ð¼ Ò±ÑĢÑĭÒĽ
ĠÐºÓ©Ò£ÑĸÐ» Ð³Ðµ
ĠÑĤÒ¯ ÑĤÑĸÐº
ĠÐ±ÐµÐ»Ð³ÑĸÐ» ÐµÐ¹Ð´Ñĸ
ĠÑģÐµÐ¼ Ð¸Ð½Ð°ÑĢÑĭ
ĠÑģÐ°Ð½ Ð¸ÑĤÐ°ÑĢÐ¸ÑıÐ»ÑĭÒĽ
ĠÐ½Ð°Ñĥ ÒĽÐ°Ð½
ĠÐ°Ð²ÑĤÐ¾Ð¼ Ð°ÑĤÑĤÐ°Ð½Ð´ÑĭÑĢÑĥ
ĠÐ±Ñĸ ÑĤÑĸÐ¼
ĠÐ¼ÐµÐ· ÐµÑĤÑĤÐµ
ĠÑįÑģÑĤ ÐµÑĤÐ¸ÐºÐ°Ð»ÑĭÒĽ
ĠÐ¶Ð¾ÒĵÐ°Ð» ÑĤÑĥ
ĠÐŁ ÑĢÐ¾ÑĦ
ÐºÑĸÐ» ÐµÑĢ
ĠÐºÐ°Ð½Ð´Ð¸Ð´Ð° ÑĤ
ĠÑĪÐ°Ò» Ð°ÑĢ
ĠÐ¡ ÑĭÑĢÑĭÐ¼
ĠÐ±Ð°Ñĥ Ð»Ñĥ
ĠÑĤÑĸÑĢÐºÐµÐ» ÑĸÐ¿
ÐºÐµÑĤ Ð°Ð½Ñĥ
ĠÐ± Ð°ÑıÑĥ
ÐµÐ» ÐµÐ¹ÑĤÑĸÐ½
Ð´ ÐµÑĤÑĤÐµÑĢ
ĠÐº ÐµÐº
Ð´ÑĭÒĽ Ð¿ÐµÐ½
Ð¾Ð³ Ð»
ĠÑģÐ°Ð» Ð°ÒĵÐ°
ĠÐºÓ©Ð· Ð´ÐµÐ¹Ð´Ñĸ
ĠÐ½ÑĭÑģÐ°Ð½ Ð´Ð°ÑĢÑĭÐ½
Ð°Ñģ ÑģÐ¸
ĠÐ¼Ò¯ Ð¹
ĠÐ¶Ð¸Ð½ Ð°Ð»ÑĭÐ¿
ĠÒĽÐ°Ð½Ð°ÒĵÐ°ÑĤ ÑĤÐ°Ð½Ð´ÑĭÑĢÑĥ
Ð½ ÑĭÐ½
ĠÐºÐµÐ· ÑĸÐ¼Ð´Ðµ
ÐķÐ¢ ÐĨ
ĠÐ¶Ð°Ð·Ð± Ð°Ð»Ð°ÑĢÐ´Ñĭ
ĠÐ¨ Ñĥ
ĠÐ½ÑĭÑģÐ°Ð½ Ð´Ð°ÑĢ
ĠÒĵÐ°Ð»Ð°Ð¼ Ð´ÑĭÒĽ
ÑĸÐ¼ ÑģÑĸÐ·
ĠÐ¶ÐµÑĤ ÑĥÐ³Ðµ
ĠÐ¶Ð°Ð»Ð¿Ñĭ Ò±Ð»ÑĤÑĤÑĭÒĽ
i ÑģÑĤÐµÑĢ
ĠÒ¯ÐºÑĸÐ¼ ÐµÑĤÑĤÑĸÒ£
Ò£ÑĭÐ· Ð´Ñĭ
ĠÑĪÐ¸ ÐµÐ»ÐµÐ½
ĠÐ¨ ÑĭÑĢ
ĠÐ¶Ð°Ð½ Ð´Ð°ÑĢÐ´Ñĭ
ÑĥÐ½ ÐºÑĨÐ¸Ð¾Ð½
ÑĪ ÐµÒ£
Ðķ ÐĻ
ĠÐ°Ð»Ð°Ò£ Ð´Ð°
ÑģÑĤ Ð°ÒĵÑĭ
ĠÒĵÐ°ÑģÑĭÑĢ Ð´Ð°ÒĵÑĭ
ÑĥÑĪ ÐºÐ¸Ð½
Ó¨ ÑĤÐµ
ĠÑģÑĤÐ¸ Ð¿ÐµÐ½
ĠÑģÐ°ÒĽÑĤÐ°Ð» ÑĥÑĭÐ½
ĠÐ¶Ð¾Ð± Ð°Ð»Ð°ÑĢÐ´ÑĭÒ£
ĠÒĽÒ±Ð¶Ð°ÑĤÑĤÐ°ÑĢ Ñĭ
ĠÓĻÐºÐµÐ» Ð³ÐµÐ½
ĠÐµÑĢ ÑĤÐµÑĢÐµÐº
Ðº Ð¾ÑĢ
ĠÓĺ ÑĥÐ»
ĠÐ¼Ð°ÑĤ Ñĩ
Ò° ÑģÑĤÐ°Ð·
ĠÒĽÒ±Ð½Ð´ÑĭÐ»ÑĭÒĽ ÑĤÐ°ÑĢÐ´Ñĭ
ĠÑĭÐ½ÑĤÑĭÐ¼Ð°ÒĽÑĤÐ°ÑģÑĤÑĭÒĽ ÑĤÑĭ
d oc
Ð»ÑĭÒĽ ÑĤÐ°Ð½
ÐµÐ¿ ÑĤÑĸ
ĠÐµÑĢ ÑĸÐ½
ĠÑģÐ°Ð½ Ð°Ð»
ÑĤÐ°Ñģ Ñĥ
ĠÐµÐ³ Ð¶ÐµÐ¹
oo gle
ĠÑģÐ¾Ò£ Ñĭ
Ð¸Ð´ Ð¸
ĠÐºÒ¯ÑĢ ÑĸÑĪ
ĠÒĽÐ°ÑĤÑĭÐ½Ð°Ñģ ÒĽÐ°
ĠÐĸ ÐĲ
ĠÐĸÓĺ ÐĿÐķ
ÐľÐĲ Ð¡Ð«
ÑĤÐµÑĢ iÐ½
ĠÑĤÐ¸ÑĸÑģ Ð¿ÑĸÐ·
ĠÐ±Ò±Ð· ÑĭÐ»ÑĭÐ¿
ĠÐ½ÑĭÒĵ Ð°Ð¹
e v
Ð¸Ð¼ Ð¾Ð²
Ð°Ñĥ Ð¼Ð°ÒĽÑĤÑĭÒĽ
ĠÐ°Ð¹ÒĽÑĭÐ½ Ð´Ð°Ð»Ð°Ð´Ñĭ
Ð°Ð´ÑĢ Ð»ÑĭÒĽ
ĠÐµÑĢ ÐºÑĸÐ¼ÐµÐ½
on g
ĠÐ´Ð°Ð¹ÑĭÐ½ Ð´Ð°Ð¹ÑĤÑĭÐ½
ĠÐµÐ»Ð´ÐµÑĢ ÑĸÐ½Ð´Ðµ
ĠÒ±ÑģÑĭÐ½ ÑĭÑģÑĭ
ĠÐ¶ ÑĭÐ¼
Ðľ ÑĸÐ½Ð´ÐµÑĤÑĤÑĸ
ĠÑĤÒ±Ð» ÒĵÐ°Ð½Ñĭ
ĠÐ±Ð°ÑĤÑĭÑĢ Ð´ÑĭÒ£
ĠÑģÐ°Ò£ ÑĭÑĢÐ°ÑĥÒĽÒ±Ð»
ĠÓĻÐºÐµÑĤ ÑĸÐ¿
Ð°Ð»Ð°Ñĥ ÒĵÐ°
Ð·Ð°Ð¼ Ð°Ð¹
ĠÐĶ Ð¾Ð½
ĠÑģÑĤÐ¸ Ð»
ĠÐ¢Ð¾ÑĢ ÒĵÐ°Ð¹
ĠÑģÐºÑĢ Ð¸Ð½
ĠÐºÐµÐ» Ð¼ÐµÐ¹
Ðķ Ð³ÐµÐ¼ÐµÐ½
ĠÐ°Ð¹ÑĭÑĢ Ñĥ
ĠÐ´ÐµÑģ ÐµÒ£ÑĸÐ·
Ð´Ð°Ð½ Ð´Ñĭ
ĠÐ¼Ð°ÒĽ Ð°ÑĤÐ°ÐµÐ²
ĠÐ°Ð¹Ð½Ð°Ð» ÑĥÑĭ
ĠÑĤÒ¯ÑģÑĸÐ½ Ð³ÐµÐ½
ĠÐµÑģÐµÐ± ÑĸÐ¼ÐµÐ½
ĠÑĥÐ°ÒĽÑĭÑĤÑĭ Ð»Ñĭ
ĠÐ¼ÐµÐºÐµÐ¼ ÐµÑģÑĸÐ½
Ð¸Ð·Ð¼ Ð³Ðµ
ĠÑĢÐµÑģÑĥÑĢ ÑģÑĤÐ°ÑĢÑĭ
ĠÐ ©
ĠÐ°ÑĤ Ð°ÒĵÐ°Ð½
ĠÐ³ÑĢÐ°Ð´ ÑĥÑģ
ĠÑĤÐ°ÑĢ ÑĤ
ĠÐĳÐ°Ñģ ÑĤÐ°Ð¿ÒĽÑĭ
ĠÐ°Ð½ Ð°Ð»Ð°ÑĢ
ÑĤi Ð»
Ñį Ð¹
Ð¶ Ð°
ĠÑģÒ±Ð¹ ÑĭÒĽ
u d
ĠÒĽÐ°Ñĥ ÑĭÐ½
ĠÐºÐ¸ ÑĸÐ¿
ĠÓĺÐ» ÑĸÐ¿Ð±Ð¸
ĠÑĤÐ°Ò£Ð´Ð° Ò£ÑĭÐ·
Ġ Ð°Ð´ÑĭÑĢ
ĠÐŁ ÐµÐ´Ð°Ð³Ð¾Ð³
ĠÐ³ÑĢÐ°Ð½ ÑĤÑĤÐ°ÑĢ
ĠÐ¾Ð±ÑĬÐµÐº ÑĤ
ĠÐ± Ð°ÑıÒĵÑĭ
ĠÐµÑģ ÑĸÐ½Ðµ
ÒĽÑĭÐ½ Ð´Ñĭ
ĠÑĤÒ¯ÑģÑĸÑĢ ÑĸÐ»Ð³ÐµÐ½
ĠZAMAN Y
ÑĤ Ð°ÑģÑĭÐ½
ĠÐºÓ©ÑĪÑĸÑĢÐ¼ ÐµÑģÑĸÐ½
ĠX V
ĠÒĵÒ±Ð» Ð°Ð¼
ÐµÐ½ Ð¸Ñı
ĠÐļ Ð°Ð¿
ĠÒ±Ð¹ÑĭÐ¼Ð´Ð°ÑģÑĤÑĭÑĢ ÑĭÐ¿
ĠÑģÐ¸Ð¼Ð¿ÑĤÐ¾Ð¼ Ð´Ð°ÑĢÑĭ
ĠÓĺÐĶÐķ ÐĳÐĺ
Ð¸Ñı Ð»Ð°ÑĢÐ´ÑĭÒ£
ĠÐ¿ÐµÐ´Ð°Ð³Ð¾Ð³ ÑĤÐµÑĢÐ´ÑĸÒ£
ĠÐ±ÐµÐºÑĸ ÑĤÑĸÐ»Ð´Ñĸ
ĠÐ±Ð°Ñģ ÑĭÐ¼Ð´Ñĭ
ĠÐ¼Ð°ÑĤ ÐµÑĢ
ĠÑĩÐµÐ¼Ð¿Ð¸Ð¾Ð½ Ð°ÑĤÑĭÐ½ÑĭÒ£
Ñį ÑĦ
ĠÐ·Ð°Ð¼Ð°Ð½ Ð½ÑĭÒ£
ĠÑģÑĭÐ¿ Ð°Ð¹Ñĭ
ut nik
ĠÐ¢ÓĻÐ¶ÑĸÐº ÑģÑĤÐ°Ð½
ĠÐ¶ ÑĸÒ£
Ð¡ Ð°ÑĥÐ´Ð°
ĠÐµÑģÐµÐ¿ Ð¿ÐµÐ½
ĠÐĶ Ð¾
Ðº Ð¾Ð¿
ÑĤÑĸÑĢ ÐºÐµÐ½
ĠÑĭÐ½ÑĤÑĭÐ¼Ð°ÒĽÑĤÐ°Ñģ ÑĤÑĭÒĵÑĭ
ĠÐ±Ò±Ð» Ð°ÑĢ
ĠÐ¶Ò¯Ð»Ð´Ðµ Ð³ÐµÑĢ
ĠÑĤÐ°Ð·Ð°ÑĢ ÑĤÑĥ
ĠÑĪÐº Ð¾Ð»
ĠÐĲÑģÑģÐ°Ð¼Ð±Ð»ÐµÑı ÑģÑĭ
ĠÐ¾ÑĢÑĭÐ½ Ð´Ð°Ð¹
ĠÐ¾Ð¹ Ð»Ð°ÑĢÑĭÐ½
ĠÑģÒ¯Ð¹ÑĸÑģÐ¿ÐµÐ½ ÑĪÑĸÐ»ÑĸÐº
ĠÒĽÑĭÑģÒĽÐ°ÑĢ ÑĤÑĥ
l ay
ĠÓĻ ÑĪÐµÐºÐµÐ¹
Ð¡ Ð°ÒĽ
ĠÐ³ÐµÐ½ ÐµÑĢÐ°Ð»
Ñħ Ð°ÑĢ
ĠÐ¶Ð¾Ð» Ð°ÑĥÑĪÑĭ
Ġ20 40
ĠÓĻÑĢÐµÐº ÐµÑĤÑĸÐ½
Ð¸ÑĤ ÑĤÐµÑĢ
ĠÒ± Ð½Ð°Ð¼
ÐĨ Ð¥
ĠÐºÐµÑĤ Ð¿
ĠÐ¿Ð¾Ð» Ð¸
6 4
Ñĭ ÑĪÑĭ
ĠÐ±Ð°ÑĢ ÑĭÑģÑĭÐ½
ĠÑģÑĤÑĥÐ´ÐµÐ½ÑĤ ÑĤÐµÑĢÐ³Ðµ
ĠÑıÐ·Ñĭ ÐºÑĥ
ĠÐĸ ÐµÐ´ÐµÐ»
ÑĤÐ°Ñĥ ÑĪÑĭ
ĠÐ°Òĵ Ð°Ð¼ÑĭÐ·
ĠÐ± Ð¾Ðº
Óĺ ÐºÑĸÐ¼
ÐĲÐ» Ð»Ð°Ò»
7 3
ĠÑĤÒ¯ÑĢ Ð»ÐµÑĢÑĸÐ½Ðµ
ĠÐ°ÑģÑĭÑĢ ÑĭÐ»ÑĭÐ¿
ÑģÐ¾ ÑĨÐ¸
ĠÐ¡ ÐµÐ·
ĠÓ©Ð·Ð³ÐµÑĢÑĤÑĥ Ð³Ðµ
ĠÐ¼ÐµÑĢÐ¸ÑĤ Ð¾ÐºÑĢÐ°ÑĤÐ¸Ñı
ĠÐºÓĻÑģÑĸÐ¿ ÒĽÐ¾Ð¹
ÐĲÐĽ Ð«Òļ
ĠÐ±ÐµÐ´ÐµÐ» Ð´Ñĸ
ĠÓĺÐ» Ð¸ÑħÐ°Ð½
ĠÓ© ÐºÑĸÐ¼ÐµÑĤ
ĠÐ¼Ò¯Ð» ÐºÑĸÐ½Ðµ
ĠÑįÑĤÐ½ Ð¾Ñģ
Ð¸ Ð´ÐµÑĢ
Ðł Ðµ
ĠÐ¼ÓĻÐ»ÑĸÐ¼ Ð´ÐµÐ¼
ĠÐ½Ð° Ñĩ
ĠÐ±Ð¾Ð» ÐµÐ·
ĠÓĺÐ¹ ÐµÐ»Ð´ÐµÑĢ
ĠÐ½Ó©Ð¼ÑĸÑĢ Ð»ÐµÑĢÑĸ
ĠÐ¼Ð¾Ð¹Ð½ ÑĭÐ½Ð°
ĠÐ±ÑĸÐ» ÑĸÒ£ÑĸÐ·
Ð± Ð°ÒĽÑĤÐ°ÑĢ
ÑĪÐ° Ð´Ð°
Ðŀ Ð½
ĠÑģÐ°Ð½ Ð°ÑĤÑĤÑĭ
ĠÑģÓĻ ÑĤÑĸ
ĠÐ´ÓĻÐ¼ ÑĸÐ½
ĠÐµÐ½Ð³iÐ· Ñĥ
ĠÑĤÐ°Ð½Ñĭ ÑĤÒĽÐ°Ð½
ĠÐ¡ÑĥÑĢ ÐµÑĤÑĤÑĸ
ĠÐºÐ»ÑĥÐ± ÑĭÐ½ÑĭÒ£
ĠÐ½Ò¯ÐºÑĤ ÐµÑģÑĸ
ĠÐ¼ÐµÑĢ Ð´Ñĸ
ĠÐ¾ÑĢÐº ÐµÑģÑĤÑĢ
Ð¼ ÐµÐ»ÐµÑĢ
Ð°Òĵ Ð°Ð¼
ĠÐĳ Ð¸Ð·Ð½ÐµÑģ
ĠÐ¾ÐºÑĢÑĥÐ³ ÑĤÐµÑĢÑĸ
ĠÐ´ÑĸÐ½ Ñĸ
ĠÓ©ÑĢ ÑĸÐº
ĠÐĸ Ð°Ð±
ĠÐ¶Ò¯Ð· Ð´ÐµÐ³ÐµÐ½
ĠÐ¼Ð°ÒĽÐ°Ð» Ð°ÑģÑĭÐ½Ð´Ð°
ĠÐ± Ð¸Ð·
Óĺ Ð´Ñĸ
ĠÐ°Ð¹Ð¼Ð°ÒĽ ÑĤÑĭÒ£
ĠÐ°ÑĥÐ· ÑĭÐ½
ĠÐĲÑģÐ¿ Ð°Ð·
ĠÐºÐ»ÑĥÐ± Ñĭ
ĠÐ´ÐµÑģ ÐµÒ£
Ð¼ÓĻÑĤ ÐµÐ»Ð´ÐµÑĢ
ĠÐ±Ð¸ Ð»ÑĸÐºÑĤÑĸÒ£
ĠÐºÐ¾Ð» Ð»ÐµÐº
ÑĭÒĽÑĤÑĭ ÒĵÑĭ
Ð¼ Ð°Ðº
ĠÐĳ ÓĻÑĢÑĸ
ĠÐ¿Ð°Ð¹ Ð´Ð°Ð»
Ð±ÐµÐº Ò±Ð»Ñĭ
ĠÐ¶Ð¾Ð± Ð°Ð»Ð°ÑĢÒĵÐ°
ĠÑĤÐ°ÑĢÐ¸Ñħ ÑĭÐ½ÑĭÒ£
ĠÐ¶Ò±Ð¼Ñģ Ð°Ð»ÒĵÐ°Ð½
ĠÐĺÐ¼ Ð°Ð¼
ĠÐĲÑģÑģÐ°Ð¼Ð±Ð»ÐµÑı ÑģÑĭÐ½ÑĭÒ£
ĠÐ¶ÐµÑĢ Ð»ÐµÑĢÐ³Ðµ
ÐŀÒĽ ÑĥÑĪÑĭÐ»Ð°ÑĢÐ´ÑĭÒ£
ÑĤ Ð¸Ð½
ĠÐ±ÑĸÑĢ ÑĤÐµ
ÐŃ Ðĵ
ĠÒĽÒ±ÑĢ ÑĭÐ»ÑĭÐ¿
ĠÐ¶Ð°ÑĢ ÑĭÑģÑĤÐ°ÑĢ
ĠÐĲÐ½ Ð´ÑĢ
ĠÐ°Ð²ÑĤÐ¾Ð¼Ð¾Ð±Ð¸Ð»ÑĮ Ð´ÐµÑĢ
ĠÐĸÐ°Ð¿Ð¾Ð½ Ð¸Ñı
ĠÒĽÐ°Ð·Ð°ÒĽÑģÑĤÐ°Ð½Ð´ÑĭÒĽ ÑĤÐ°ÑĢ
h D
ĠÑĤÐ°Ð± ÑĭÑģÑĭ
ĠÓ©ÑĤÐºiÐ· Ñĥ
ĠÒļ Ð°
ĠB AQ
ĠÒĽÐ°Ð±ÑĭÐ»Ð´Ð°Ñĥ Ñĭ
ÑĤ ÑĤÐµÑĢ
ĠÐ±ÑĸÑĢ ÐµÑĢ
ĠÑĦ Ð°Ð±ÑĢ
ĠÑĭÐ´ÑĭÑģ ÑĤÑĭÒ£
Ð¾Ð¼ ÑĭÑĪ
Ò® Ðł
ĠÑį Ð»ÐµÐºÑĤÑĢÐ¾
ÒĽÒ±Ð¶ Ð°ÑĤÑĤÐ°ÑĢ
ĠÐ¼Ð°Ò£ ÑĭÐ½Ð´Ð°ÒĵÑĭ
ĠÐ¶Ð¸ ÑĭÐ¿
ĠÐ´ÐµÐ½ÑģÐ°Ñĥ Ð»ÑĭÒĵÑĭÐ½
ĠÐ´ÐµÑĤ ÑģÐºÐ¸Ðµ
Ø §
ÑĪÑĭ ÒĵÑĭ
ĠÐ°ÑĢ ÑĤÑĭÒĵÑĭÐ½
ĠÒĽÑĭÐ·Ð¼ÐµÑĤ ÑĤÐµÐ½
ĠÒ®Ð¹ Ð³Ðµ
Ð¾ÑĢ Ðº
ĠZ akon
ĠÑģÐ°Ñĥ Ð´Ð°Ð³ÐµÑĢ
ĠÑģÐ°ÑĥÐ°Ð» Ð½Ð°Ð¼Ð°
o st
ĠÑĤÐ¾Ð¿ ÑĤÐ°ÑĢÑĭ
ĠÐ½ÑĭÑģÐ°Ð½ Ð´Ð°ÑĢÑĭ
ÐºÐµÑĢ Ð»iÐº
ĠÐĨ Ð»Ðµ
ĠÑĤÐµÐ°ÑĤÑĢ ÑĭÐ½ÑĭÒ£
ĠÒĽÐ°ÑĢÑģÑĭÐ» Ð°Ñģ
ĠÑĤÐ¾Ð» ÑĥÑĭÐ½Ð°
ĠÐ¼ Ó©ÑĢ
ĠÐĲÑĥ ÑĭÑĢ
ĠÐ¶Ð¸Ò» Ð°Ð·
Ð¾Ð½ ÐºÐ°
Ðĳ ÐµÐ¹
ĠÐ±Ð°Ð» ÑĥÐ°Ð½
ĠÑĤÑĥ Ð°Ð´Ñĭ
ĠÐŁÑĢÐµÐ·Ð¸Ð´ÐµÐ½ÑĤ ÑĤÑĸÒ£
ĠÒĽÐ°Ð»Ð°Ð¼ Ð³ÐµÑĢ
ĠÐ¶ ÑĭÒĵ
Ñĭ Ñħ
ĠÐºÐ°Ð´ÑĢ Ð»ÑĭÒĽ
ĠÑĪÐ°Ð¹ÒĽ Ð°Ð¿
ĠÐ³ Ð¾Ð´
ÑĭÐ» Ð°ÑĢÑĭ
ÐĲ ÑĪÑĭÒĽ
ĠÐ¼Ð¸Ð½ ÐµÑĢ
ĠÉĻ ÑĢ
Ð» ÐµÑģÑĤ
ĠÐĳ ÓĻÑĢ
ĠÒĽÐ¾Ñģ ÑĤÑĸÐ»Ð´Ñĸ
ĠÐ·Ð°Ò£Ð½Ð°Ð¼ Ð°ÑģÑĭÐ½
ĠÐ¶Ð°Ð· Ð´Ð°
ĠÑģÑĭÑĢ Ð»Ð°Ñģ
ÑĤÐµÑħÐ½ Ð¾Ð»Ð¾Ð³Ð¸Ñı
Ð£ Ðł
Ð¼ Ð°Ð»Ð´Ñĭ
ĠÒ¯ÐºÑĸÐ¼ÐµÑĤ ÑĸÐ½ÑĸÒ£
ĠÐĽ Ð¸Ð¼
ĠÐ°ÑĢÐ°Ð»Ð°Ñģ ÑĭÐ¿
Ð°Ð¹ ÒĵÐ°
ĠÐ°Ñı ÒĵÑĭÐ½
at e
ĠÒ±Ð» ÒĵÐ°Ñİ
ĠÐºÐµÒ£ÐµÑģ ÑĤÑĸÐº
Ð´ÐµÐ½ Ð¸Ñı
Ð°Ð½ Ð°ÑģÑĭ
ĠÐ·Ð°Ò£ Ð´Ð°
ÑĤ ÐºÑĸÐ·
ĠÓĻÐ»Ð´Ðµ ÒĽÐ°ÑĪÐ°Ð½
ĠÒ¯ÑĢÐ´Ñĸ ÑģÑĤÐµÑĢ
ĠÑģÐ°ÑĢ Ð±Ð°Ð·
ĠÓĻÑģÐµÑĢ Ð»Ñĸ
ÑĭÒĽÑĤÑĭÒĽ ÑĤÑĭÒ£
ĠÑĤÐ°Ò£ ÒĵÐ°Ð¶Ð°Ð¹ÑĭÐ¿
ĠÓ©Ò£ÑĸÑĢ Ñĸ
ĠÐ´Ð¸Ñģ ÑģÐµÑĢ
Ð´ Ð°Ð³ÐµÑĢÑĸ
ĠÐļ ÓĻÑĢÑĸÐ¼
ĠÒĽÒ±ÑĢ ÑĭÐ»Ð°Ð´Ñĭ
Ð°ÑĨÐ¸Ñı ÑģÑĭÐ½
ÐĽ ÐĲÐł
ĠÑĤÐµÐ¼ Ñĥ
ĠÑģÐµÐ½ÑĸÐ¼ Ð³ÐµÑĢÐ»ÑĸÐº
Ñį Ð½ÐµÑĢÐ³
ĠÑĤÑĸÑĢ ÐµÐº
ĠÑģÐ°Ð¿Ð°ÑĢ ÑĭÐ½ÑĭÒ£
ĠÐ¢ Ð°ÒĽ
ĠÐ°ÑĤ Ð°ÒĽ
ĠÐ² Ð¾Ð»
er v
ĠÐĹÐ°Ò£ Ð´Ð°ÑĢÑĭÐ¼ÐµÐ½
Ġ ][
ÐµÐ¼ Ðµ
Ð´ÐµÐ½ Ñĥ
ĠÐ¼Ð°ÒĽÑģ Ð°ÑĤÑĤÐ°ÑĢÒĵÐ°
ĠÐ¿ÑĢÐ¾Ð² Ð¸Ð½
ÑĸÐ» Ð¼ÐµÐ¹
ĠÐ¢ ÐµÐ½
Ðĳ Ð°Ð¹ÑĤÒ±ÑĢÑģÑĭÐ½
ĠÐ¶ Ð¾Ð¿
ĠÒĽÐ¾Ð»Ð´Ð°Ð½ Ð°ÑĤÑĭÐ½
ÑĸÐ»ÐµÑĢ Ð´ÑĸÒ£
Ġ199 0
ĠÒ±Ð¹ÑĭÒĽ ÑĤÐ°Ð¿
ĠÐ°Ð´Ð°Ð¼ Ð¸
ĠÐº Ð°ÑĤ
ĠÒĽÐ°Ð» Ð°Ð»Ð°ÑĢÑĭÐ½ÑĭÒ£
ĠÐ±Ò¯Ð»Ð´ÑĸÑĢ ÑĪÑĸÐ½
Ð´ Ð¸Ð¾Ð½
ĠÐ¨ Ð°ÒĵÑĭÐ½
ĠÐłÐµÑģÐµÐ¹ Ð´Ðµ
ĠÒ± Ð·Ð°Ð¼Ð°Ð¹
ĠÑģÐ°Ð» Ð°Ð½ÑĭÒ£
ĠÐ±ÐµÑĤ ÐºÐµ
ĠÓĻÐ´ÐµÐ¿ ÑĤÑĸÐ»ÑĸÐº
i Ð¼ÐµÑĤ
ĠÐĶ ÓĻ
ĠÑĢÐµÐ´Ð°ÐºÑĨÐ¸Ñı Ð½ÑĭÒ£
! âĢĶ
ĠÒ±Ð½ Ð°ÑĤ
ĠÑĪÑĭÒĵÑĭÐ½ Ð´Ð°ÑĢÑĭÐ½
ĠÒĽ ÑĭÐ½
ĠÐ³ Ò¯
Ñģ ÑĭÐ¿
Ð»ÐµÑĢ ÑĸÐ¼ÐµÐ½
ĠÐ°ÑĥÑĢÑĥ Ð»Ð°ÑĢÐ´Ñĭ
ĠÐµ Ð´ÐµÐ½
ĠÐ´ÐµÐ³ÐµÐ½ Ð¼ÐµÐ½
ĠÐºÐµÑģ ÑĸÑĢ
ĠÐ·ÐµÐ¹Ð½ÐµÑĤ Ð°ÒĽ
Ð£ Ð½Ð¸Ð²ÐµÑĢÑģ
ĠÐľÒ±ÑħÐ°Ð¼ ÐµÐ´
ĠÐĳ Ð°Ñħ
ÐºÐµÐ· ÐµÒ£
ĠÑģÐ¾ ÑĨÐ¸Ð°Ð»
ÐµÐ½ ÑĸÐ¿
ĠÐ¿ÑĢÐ¾ ÑģÑĤ
ĠÑįÐ½ÐµÑĢÐ³ Ð¸ÑıÑģÑĭ
ĠÂ« âĦĸ
ĠÐ¢ Ð¾Ð¹
ĠÐµÐ¼ ÑĪÐµÐº
ĠÐ¶Ð°ÑĤ Ð¿Ð°Ð¹Ð´Ñĭ
ĠÓĻÐ»ÐµÑĥ ÐµÑĤÑĸ
ĠÑĤÐ°Ñģ ÑĤÐ°Ð»Ð´Ñĭ
ĠÑįÐ½ÐµÑĢÐ³ Ð¸ÑıÑģÑĭÐ½
Ġ10 2
ĠÐĸÐ°ÒĽ ÑĭÐ½Ð´Ð°
ĠÐ¶Ð¾Ð» Ð´Ð°Ð¹
ÑĤÒĽÐ°ÑĢ Ñĥ
ĠÐ°Ð»Ð¿ Ð°ÑĥÑĭÑĤ
ĠÐ¾ÑĢ Ð°Ð·
ÐĸÐ¾ÒĵÐ°ÑĢÑĭ Ð´Ð°
ÓĻÐ´Ñĸ Ð»
ĠiÑģ ÐºÐµ
ÐµÐº ÑĤÑĭ
ĠÑĤÐ°ÑĢÐ¸Ñħ ÑĤÑĭÒ£
ĠÐ¼ÐµÐºÐµÐ½ Ð¶Ð°Ð¹ÑĭÐ½
a st
ĠÐĲÑĢ Ñħ
ĠÒĽÐ°Ð¹ÑĭÑĢ Ð°
ĠÑĦ Ð¾Ð»ÑĮÐºÐ»Ð¾ÑĢ
ĠÐ±Ó©Ð»ÑĸÐº ÑĤÐµÑĢÑĸÐ½
Ðº ÑĤÐ¸Ð²ÑĤÑĸ
ÑĪ ÑĭÒĽÑĤÑĭ
ĠÐ¶Ñĥ ÑĭÐ¿
Ð¾ ÑģÑĤÐ¸
ĠÐ´ Ð¸Ðº
ÑĤÐµÐ» ÑĮ
ĠÐ´Ò¯Ð½Ð¸Ðµ Ð´ÐµÐ½
ĠÒĽÐ¾Ñģ Ð°Ð´Ñĭ
ĠÐĸ Ò¯Ð·
ĠÐ¿Ð°Ð¹Ð´Ð°Ð»Ð°Ð½ ÑĥÑĭ
ĠÐ¶ ÓĻÐ¹
ĠÐķÑģ ÑĸÐ¼
ÑĤ Ð°Ð»Ð°ÑĢ
ĠÐļÐ¾Ð¼ Ð¸ÑĤÐµÑĤ
Ðº Ð°Ð»Ð°ÑĢ
ĠÑģ Ð°ÑħÐ°Ð±
ĠÐ±ÑĸÑĢ ÐµÑģÐµ
ĠÐ¢ Ð¾Ð¼
ĠÑĪÐµÑĪ ÐµÐ´Ñĸ
ĠÐ°ÐºÑĤÑĸ Ð»ÐµÑĢÐ´Ñĸ
ĠÐ°Ð¹Ð¼Ð°ÒĽ ÑĤÐ°ÒĵÑĭ
, âĢĶ
Ð³ Ð¸Ð¼Ð½
ĠÒ±Ð» Ð°Ð½
ĠÐĲÑĥ Ð´Ð°ÑĢ
ÑĨ Ð°ÑĢ
ĠÒĽÑĭÐ·Ð¼ÐµÑĤ Ð¿ÐµÐ½
Ð¸Ð¾Ð½ ÐµÑĢ
Ġ6 8
Ðĵ ÑĢÐ°ÑĦ
Ð³ÑĸÐ· ÑĥÑĪÑĸ
ÑĤÐµÐ³ Ð¶ÐµÐ¹
ĠÐ°ÑĥÑĭÐ» ÑĭÐ½Ð°Ð½
ĠÐ±Ð°Ð¹ÒĽ Ð°Ð»
ĠÐ°Ð³ÑĢ Ð°ÑĢÐ»ÑĭÒĽ
6 3
ĠÓ©Ð½ ÐµÐ³
ĠÑģÓ©Ð· ÑĸÐ½ÑĪÐµ
ĠÑĤÐµÒ£ Ð³
Ð´ Ð¾Ñģ
ĠÒĽÐ¾Ð¹ Ð¼Ð°Ð¹Ð´Ñĭ
ĠÒ® Ð½
ĠÐ¤ÐµÐ´ÐµÑĢ Ð°ÑĨÐ¸ÑıÑģÑĭÐ½ÑĭÒ£
ĠÓĻÐºÑĸÐ¼ÑĪÑĸÐ»ÑĸÐº ÑĤÑĸÒ£
? Â»,
Ð¾Ð» Ð¸
ĠÐĲ Ò£
ÑĤÐ°Ð¼ ÐµÐ½
ÑĢÑĤ Ò¯ÑĢÐ»Ñĸ
ĠÒĽÒ±ÑĤÑĤÑĭÒĽ ÑĤÐ°Ð¹Ð¼ÑĭÐ·
ÐļÐµÐ¹ Ð±ÑĸÑĢ
ĠÐ½ ÐµÑĢÐ²
Ðĳ ÐĸÐĹÒļ
Ġ... "
ĠÐ¶Ð°Ð± Ñĥ
g mail
ĠÐ±Ð¾Ð¹ Ð¶ÐµÑĤÐºÐµÐ½
ĠÓ©Ð½ ÐµÐ³Ðµ
ĠÐ°Ðº ÑĨÐ¸ÑıÑģÑĭ
ĠÐ¼Ð¾Ð¹ Ð½Ñĭ
ĠÐļÐ°Ð· Ð°ÑħÑģÑĤÐ°Ð½Ð°
Ñħ Ð°
ÑĤÐ°Ð¼ Ð°Ð»ÑĭÒĽ
ĠÐµÐ» ÑĸÐ½
ĠÑıÐ·Ñĭ Ðº
ĠÐĳ Ð°Ð»ÑĭÒĽ
Ð¾Òĵ ÑĭÑģ
ĠÑĤÒ¯Ð· Ñĥ
ĠÐ»Ð¸Ð¼ ÑĦÐ°
N UR
ĠÑĥÐ°ÒĽÑĭÑĤ ÑĤÐ°Ð½
ĠÐºÐµÐ·ÐµÒ£ Ð½ÐµÐ½
ĠÐ¢Ð°ÒĽÑĭÑĢ ÑĭÐ±Ñĭ
Ð¶Ð°ÒĵÐ°ÑĢÐ¼Ð°Ð¹ Ð¼ÐµÐ½
ĠÐ¶Ò¯ÑĢ ÐµÐ³
ÑĤ Ð°Ð»Ñĭ
Ð°ÒĽÑĤÐ°ÑĢ ÑĭÐ½ÑĭÒ£
ĠÓ©Ð½ÐµÑĢ Ð³Ðµ
ĠÐµÑĢÐµÐºÑĪÐµÐ»ÑĸÐº ÑĤÐµÑĢÑĸÐ½Ðµ
ĠÐ¡Ð°ÑĥÐ´Ð° Ð´Ð°ÒĵÑĭ
Ð¼ Ñĭ
ĠÐĺÐ½ Ð´Ð¾Ð½ÐµÐ·
ĠÑĪ Ð°Ð±ÑĭÐ»
ĠÐ±Ð°ÑĢ Ð¼Ð°Ð¹
ĠÒĽÐ°ÑģÐ¸ ÐµÑĤÑĸÐ½
Ð°ÑħÐ°Ð± Ð±Ð°ÑĤ
ĠÐ¶ÑĭÐ» ÑĭÐ½ÑĭÒ£
ĠÒĽÐ°Ð» Ð°Ð¹Ñĭ
ĠÑĤÐ°Ð» Ð¿ÑĭÐ½
ĠÑģÐ¾Ð» Ð°ÑĢ
ĠÒĽÐ°ÑĥÑĸÐ¿ÑģÑĸÐ·Ð´ÑĸÐº ÑĤÑĸ
ĠÓĻÐ·ÑĸÑĢ Ð³Ðµ
ĠÒĽÐ°Ð¹ÑĤÐ°Ð» Ð°Ð¿
ĠÐ¼ÐµÐ¼Ð»ÐµÐºÐµÑĤ ÑĸÐ½ÑĸÒ£
ĠÐ´ÐµÑģ ÑĤÑĸ
ĠÐ¼Ð°ÒĽÑģ Ð°ÑĤÑĭÐ½
Ð´Ð°ÑĢ Ð¼Ð°Ð½
ĠÐ±Ñİ ÑĢÐ¾
ÑĪ ÑĭÒĵÑĭÑģ
Ð°Ð´Ð° ÒĽ
ĠÑĪ Ð°Ð»Ð´Ñĭ
Ð°ÑĪ ÐµÐ²
ĠÐľ Ð°Ð´
ĠÐ¾Ð¹ Ð»Ð°Ð¼
ĠÑģÑĥ Ð¿ÐµÑĢ
ĠÐºÓ©ÑĢÑģÐµÑĤÐºÑĸÑĪ ÑĤÐµÑĢ
ĠÐļÐµÐ½ ÐµÑģ
Ð± ÐµÐ·
ĠÐ¼Ð°ÑĤÐµÐ¼Ð°ÑĤ Ð¸ÐºÐ°Ð»ÑĭÒĽ
ĠÐºÑĸÑĤÐ°Ð¿ÑħÐ°Ð½ Ð°Ð»Ð°ÑĢ
ĠÐ´ÐµÐ¿ Ð¾Ð·Ð¸ÑĤ
ĠÑģÐ°Ð¿Ð°ÑĢ ÒĵÐ°
ĠÐķÑĥÑĢÐ¾Ð¿ Ð°Ð»ÑĭÒĽ
ĠÑĤÐ°Ð· Ð°Ð»ÑĭÒĽ
ÒļÐ¾ÒĵÐ°Ð¼ Ð´ÑĭÒĽ
a h
Ġ Ñİ
ĠÐ°ÑĢ Ð´Ð°Ð³ÐµÑĢÑĸ
Ð· Ð¸
ĠÐ¿ Ð¾Ñģ
ĠÐ°Òĵ Ð°ÑģÑĭ
ĠÑĤÒ±ÑĢÒĵÐ°Ð½ ÑĭÐ½
ĠÑĦ Ð»
Ð°Ñĥ Ð´ÑĭÒ£
ĠÑĢ ÐµÐºÑĤÐ¾ÑĢÑĭ
Ñĥ ÑĪÑĸÐ»ÐµÑĢÐ´ÑĸÒ£
ĠÐºÐµÑĢÐµÐº ÑĤÑĸ
ĠÒļÐ°ÑĢ ÑĭÐ·
Ġ12 5
ĠÒ±Ñı ÑĤ
ĠÐ±Ð°ÒĵÐ°Ð¼ Ñĭ
Ñı Ð±ÑĢ
ĠÐ°ÑĤ Ð¿ÐµÐ½
ĠÐŁ ÑĸÐºÑĸÑĢ
ĠÐ±Ð¸ ÑĸÐºÑĤÑĸÐ³Ñĸ
Ñģ ÑĤÑĭ
ÓĺÑĢ Ð±ÑĸÑĢ
ĠÐºÓ©Ð»ÐµÐ¼ ÑĸÐ½Ðµ
ĠÒĽÑĥÐ°Ð½Ð´Ñĭ Ð¼
ĠÐ¼ Ð°Ð¹Ð»Ñĭ
Ð¸Ðº Ð°Ð½Ð´ÑĭÒĽ
Ð¢ Ð°Ò£
ĠÐ·Ð¸Ñı Ð»Ñĭ
ĠÐºÐ°Ð±Ð¸Ð½ ÐµÑĤ
I X
Ñģ ÑĥÑĢÐµÑĤ
ĠÒ±Ð¹ÑĭÐ¼Ð´Ð°ÑģÑĤÑĭÑĢ ÑĭÐ»Ð°ÑĤÑĭÐ½
ÑįÑĦ ÑĦÐ¸ÑĨ
ĠÐ´ Ð¾ÑģÑĤ
Ðŀ ÑģÑĭÐ»Ð°Ð¹ÑĪÐ°
Ð°Ð»ÑĮ Ð½ÑĭÐ¹
ĠÐ¶Ò¯Ð³ÑĸÑĢ ÑĸÐ¿
ĠÑĤ ÑĭÑģÒĽÐ°
ĠÓ© Ð¼iÑĢ
Ð´ ÓĻÑĥÐ»ÐµÑĤ
ĠÒĽÐ°Ð¶ÐµÑĤÑĤÑĸ Ð»ÑĸÐ³ÑĸÐ½
Ðº ÑĤÑĸ
Ò± Ñħ
ĠÐ´Ð¸Ð¿Ð»Ð¾Ð¼Ð°ÑĤ Ð¸ÑıÐ»ÑĭÒĽ
7 9
ÑĤ Ð¸Ðº
ĠÐ¼ÓĻÐ»ÑĸÐ¼ ÐµÑĤÑĸÐ½ÑĪÐµ
ĠÐ´ÓĻÑĢÑĸÐ³ÐµÑĢ Ð´ÑĸÒ£
ĠÑĪ Ð°ÑģÑģÐ¸
Ð´ÑĭÑĢ ÑĭÒĽ
ĠÓĺÐ»ÑĸÐ¿Ð±Ð¸ ÑĸÐ¼ÑĸÐ·Ð´Ñĸ
Ð´ ÑĭÐ½ÑĭÒ£
ĠÐ¥ Ð°Ð¼
ĠÐµÐ½Ð³ÑĸÐ· ÑĸÐ¿
ĠÓĺÐ» Ð¸
ĠÐ¨ Ð°Ð½
ĠÑĸÑĢÐ³ ÐµÐ»Ñĸ
Ð°Ð» Ð¸Ð½
ÑĤÐ°Ð» Ð°Ñģ
ĠÑĦ Ð¸
ÐµÑĤÑĸÐ½ ÑĪÑĸ
Ð¥ Ð°Ð±Ð°ÑĢ
ĠÐ¸Ð½Ð´ÐµÐº ÑģÑĸ
ÐĸÒ¯Ð» Ð´ÐµÐ»ÐµÑĢ
Ð¸ Ð³Ñĸ
ĠÑĤ Ð°ÑıÒĽ
ÐºÑĸÐ» ÐµÑĤÑĤÑĸ
ĠÐ´Ò¯Ð½Ð¸ ÐµÐ½ÑĸÒ£
ĠÐ¢Ó©ÑĢ Ðµ
ĠÑĢÐµÐ³Ð»Ð°Ð¼ÐµÐ½ÑĤ ÑĤÐµÑĢÑĸÐ½
ĠÒĽÒ± Ñı
ĠÐºÓĻÑģÑĸÐ¿ Ð¾Ð´Ð°ÒĽ
Ġ8 3
ĠÐ± ÐµÐ¹ÑĸÐ½
ĠÐ¼ÑĸÐ½ÐµÐ· Ñĸ
ĠÐ±Ð°ÑĢ ÑĪ
ĠÐĵ ÑĢÐ°Ð¼
Ò±Ð» Ñĥ
ĠÒ¯ÑģÑĤ ÑĸÐ½Ð´ÐµÐ³Ñĸ
ĠÑģÒ¯ Ñİ
ĠÐºÒ¯Ð½Ð´Ñĸ Ð·
ÐĿ Ð°ÑĥÑĢÑĭÐ·
ĠÒ¯Ð½ÐµÐ¼ Ð´ÐµÑĥ
ĠÒĽÑĭÐ·Ð¼ÐµÑĤ ÑĤÐµ
ĠÐĲÑĥÒĵÐ°Ð½ ÑģÑĤÐ°Ð½
ĠÐĲ ÑĪ
ĠÒĽÒ± Ð·ÑĸÑĢ
ĠÐ±ÑĸÐ»ÑĸÐ¼ Ð³Ðµ
ÐµÐ± ÐµÑĢ
ĠÐ°Ð½ÑĭÒĽ ÑĤÐ°ÒĵÐ°Ð½
ĠÐŀÐ½ Ð´Ð°ÒĵÑĭ
ĠÐŃ ÑħÐ¾
ĠÐ±Ð°ÒĵÐ°Ð»Ð°Ñĥ ÒĵÐ°
ĠÐºÑĥÓĻÐ»Ð°Ð½ Ð´ÑĭÑĢÐ°ÑĤÑĭÐ½
ĠÐķÐ» ÑĸÐ¼ÑĸÐ·Ð´ÑĸÒ£
ĠÒ¯Ð¹Ð»ÐµÑģ ÑĸÐ¼Ð´Ñĸ
Ð°Ð½ Ð°Ð»Ð°ÑĢÐ´ÑĭÒ£
ĠÐ´ÐµÐ¿ÑĥÑĤ Ð°ÑĤÑĤÐ°ÑĢÑĭÐ½ÑĭÒ£
ĠÐ¿Ð°ÑĤÑĢÐ¸ Ð¾
Ð¢ Ð¾ÑĢ
ĠÑĦ Ð°ÑĢÐ¼Ð°ÑĨÐµÐ²
ĠÑĦÑĥÐ½ÐºÑĨÐ¸Ñı ÑģÑĭÐ½
ĠtaÒĽpaÒĽ tar
ĠÒĽÐ°ÑĢ Ð°Ð»Ð´Ñĭ
Ð°Ðº Ñģ
ĠÐµÑĤÑĸÐ» Ð´Ñĸ
ĠÐ´Ð°Ò£ ÒĵÑĭÐ»
ĠÐ¶Ð¾Òĵ Ð°Ð»Ð´Ñĭ
ÑģÑĤÐµÑĢ ÑĸÒ£ÑĸÐ·Ð³Ðµ
ĠÐ¼iÐ½ Ð´ÐµÑĤÑĤÐµÑĢ
ĠÒĽÐ°ÑĤÑĭÐ½Ð°Ñģ ÑĤÐ°
ĠÑĸÐ» ÑĤÐ¸Ð¿
ĠÑĸÑĪ ÑĸÐ¼Ð´ÑĸÐº
Ð¶Ó©Ð½ Ñĸ
ĠÐ¿Ð¾Ñĩ ÑĤÐ°
ĠÓ¨ Ò£
ĠÓ©Ò£ÑĸÑĢ ÑĸÐ½ÑĸÒ£
Ġ0 7
Ðķ ÑĥÑĢ
ÑĤÑĭ ÒĵÑĭÐ½Ð°
ĠÑĤÒ¯ÑģÑĸÐ½Ð´ÑĸÑĢ ÑĸÐ¿
ĠÐ³ Ñĥ
ĠÐĳÑĸÑĢ Ð½ÐµÑĪÐµ
ĠÑĪÐµÑĤ ÐºÑĸ
ĠÐ¿Ð°Ð¹ÑĭÐ· Ð´ÑĭÒĽ
ÐºÑĸÐ¼ Ð´Ñĸ
ĠÐ¶Ò¯Ðº ÑĤÐµÑĥ
ĠÐ» Ð°Ñģ
ĠÑĤÐ°Ð± ÑĭÒ£ÑĭÐ·
ĠÓĺÐ» Ð´ÐµÐ½
ĠÑĪÐµÒ£Ð±ÐµÑĢ ÑĸÐ½Ð´ÐµÐ³Ñĸ
ĠÑĤÐ°ÒĽÑĭÑĢÑĭÐ¿ ÑĤÐ°
Ð¢Ò¯ÑĢ Ðº
Ðķ Ð£
ÐµÐ¹ Ðº
ĠÐ±Ð¾Ð» ÑĥÐ´Ñĭ
ĠÑĪÐ°ÑĢÑĥÐ° ÑĪÑĭÐ»
Ð¸ÑĦ Ð¼ÐµÑĤ
ĠÐ°Ð²ÑĤÐ¾ÑĢ Ð´ÑĭÒ£
ĠÐºÑĸÐ½ ÓĻÐ»Ñĸ
ĠÐ¼ÐµÑĤÐ°Ð» Ð»Ð¾
ĠÒĽÐ°ÑĤ Ð°ÑĢÑĭ
Ð¢ Ð¾Ð»
ĠÐ¼Ð°Ð¼Ð°Ð½ Ð´Ð°ÑĢÑĭÐ½ÑĭÒ£
ĠÐĲÐ·Ð°Ð¼ Ð°ÑĤÑĤÐ°ÑĢÒĵÐ°
Ð¶Ð°Ò£ Ð°
Ò± Òĵ
ÑĤÐ°Ð¹ ÑĭÐ½
ĠÐ°ÑģÑĭÑĢ ÑĭÐ¿
ĠÑģÑĭÐ½ ÑĪÑĭ
ĠÐºÓ©ÑĢÐ³ÐµÐ½ Ð´Ðµ
Ġ x
ĠÐĴ ÐµÑĤÐµÑĢÐ¸Ð½Ð°ÑĢÐ¸Ñı
ĠÐ°ÒĵÐ°ÑĪ ÑĤÐ°Ð½
ÒļÐ°Ð·Ð°ÒĽÑģÑĤÐ°Ð½ Ð´Ð°ÒĵÑĭ
ĠÑĤÐ¾ÒĽ ÑĤÐ°Ð¿
ĠÐ¨ ÐµÑĪ
Ð¸Ñı Ð»Ð°ÑĢÐ´Ñĭ
ĠÐ¾ÑĤ Ð±Ð°ÑģÑĭÐ½
ÑĸÑĢÐµÐº ÑĤÐµ
ĠÐµÒ£ Ñģ
ÐĴ Ðĺ
ĠÐ°Ð·Ð°Ð¼Ð°ÑĤÑĤÐ°ÑĢ ÑĭÐ½ÑĭÒ£
ĠÐ¡ÑĭÑĢÑĤ ÑĤÐ°Ð½
ĠÐ´ Ò¯Ð¹
ÐºÐ¾Ð½ Ð¸Ð¹
ĠÐ¤ Ð¾ÑĢÑĥÐ¼
ĠÐľ Ð¸Ñħ
Ð¨ ÒļÐŀ
ÐĴ Ð¸Ð´ÐµÐ¾
ÒĵÑĭÐ» Ð°ÑĢÐ´ÑĭÒ£
ĠÒĽÐ°ÑĤÑĭÐ½Ð°Ñģ ÑĤÐ°ÑĢÑĭÐ½
ÒĽ Ð°ÑĤÑĤÑĭ
ĠÐ¾ÒĽ ÑĭÒ£ÑĭÐ·Ð´Ð°ÑĢ
ÐľÐ°Ñħ Ð°Ð¼Ð±ÐµÑĤ
ĠÐ¼ ÑĭÒĽ
ĠI N
ĠÐºÐµÐ¼ ÐµÐ»ÐµÑĢÐ´Ñĸ
ĠÐ³Ð°Ð· ÐµÑĤÑĤÐµÑĢ
ĠÑģÐ°Ð± Ð°ÒĽÑĤÑĭ
ĠÐ¼Ð°Ðº ÑģÐ¸Ð¼
ÑĤ Ò¯Ð¹
el l
ĠÐ±Ð°ÑĥÑĭÑĢ ÑĭÐ½Ð°
ÑĦÐ¾ÑĢ Ð¼Ð°
ĠÑģÐ°Ð» ÑĥÐ´Ñĭ
y n
Ðĳ ÓĻÐ¹
ĠÐŁ Ð¾Ð»ÑĮ
ĠÑĤÑĥÒĵÐ°Ð½ ÑĭÐ½Ð°
ĠÑĤÒ¯Ð¹ Ðµ
ĠÑĸÐ½ ÑĸÑģÑĸ
ĠÓĺÑĥ ÐµÐ»
ĠÐ´Ð¸Ð· Ð°Ð¹Ð½
ĠÐ£Ð½Ð¸Ð²ÐµÑĢÑģ Ð¸ÑĤÐµÑĤ
00 00
Ð°ÑĨÐ¸Ñı ÑģÑĭÐ½Ð°
ĠÐ¼Ð¸ ÑĭÐ½ÑĭÒ£
ĠÐ¶Ò¯Ð»Ð´Ðµ Ð³ÐµÑĢÑĸ
ĠÐ±Ð°Ð¹Ð» Ð°Ð¿
ĠÐ°Ð¹Ð½Ð°Ð» Ð°
ÑĤÓĻÐ¶ÑĸÑĢÐ¸Ð± ÐµÐ»ÑĸÐº
ĠÑģÑĭÐ· ÑĭÒĽ
ĠÑĤÑĸ ÑĤÑĸÑĢÐºÐµÐ½
Ðºi ÑĪ
6 1
ĠÐ¶Ð¾Òĵ Ð°Ð»Ð°Ð´Ñĭ
ĠÒ¯Ð½ ÑģÑĸÐ·
ÒĴ ÑĭÐ»ÑĭÐ¼
ĠÐļ Ðŀ
ĠÐ±Ó©Ð»Ð¼ ÐµÑģÑĸ
ĠÐ¶ÐµÒ£ÑĸÐ»Ð´ÑĸÐº ÑĤÐµÑĢ
Ð´ Ð¾Ð¼
Ð°Ð¼ Ð¼Ð°
ĠÐ¾ÒĽÑĭ Ð´Ñĭ
ĠÐłÐµÑģÐ¿ÑĥÐ±Ð»Ð¸Ðº Ð°ÑģÑĭÐ½Ð°
ĠÒ¯ÑģÑĤÐµÐ» Ð´ÑĸÒ£
ĠÐĲÐ¼Ð°Ð½ Ð¶Ð¾Ð»
Ð¾ÑĢ ÑĤÐ°
ĠÐľ Ð°Ò£
Ð¼ÐµÐ½ ÑĤÐ°ÑĢ
Ò±Ð¼ Ð°ÑĢ
ĠÐ´ÐµÐ½ Ñĸ
ĠÐ¾ÑĢ Ð°Ð¼
ĠÓĻÑĢ i
ĠÒ° ÑģÑĭÐ½
ĠÐ¼Ð°ÑĥÑģÑĭÐ¼ ÑĭÐ½Ð´Ð°
Ó¨ Ò£ÑĸÑĢ
ĠÑĤÐ°Ð¿ÑģÑĭÑĢÐ¼ Ð°ÑģÑĭ
y t
Ð°ÑĢ ÑĤÑĭÐ»ÒĵÐ°Ð½
ĠÐ´Ð°Ð» Ð°Ð½ÑĭÒ£
Ġ9 1
ĠÐ¸Ð´ÐµÑı ÑģÑĭÐ½
ĠÐĲÑĥ ÑĭÐ·
ĠÐŃÐ½Ð´ Ð¾ÑģÐºÐ¾Ð¿Ð¸Ñı
ĠÒĽÐ°ÑĢÐ°Ð¶ Ð°ÑĤÑĭÐ½ÑĭÒ£
ĠÐºÓ©Ð» Ð´ÐµÐ½ÐµÒ£
ĠÐ´Ð°ÑģÑĤÐ°ÑĢ ÑħÐ°Ð½
ÒĽÐ¾ÑģÑĭÐ¼ÑĪÐ° ÒĵÐ°
Ñģ ÑĸÐ¿
ĠÑĪ ÑĤÐ°Ð±
ĠÐ¡ ÑĸÐ±ÑĸÑĢ
Ðļ Ò¯
ĠÑģÓ©Ð· Ð´ÐµÑĢÑĸÐ½
ĠÑĪÐ°Ò£ ÑĭÑĢ
ĠÒĽÐ°Ð· Ñĭ
ĠÑĤÐµÐºÑģÐµÑĢ ÑĸÐ¿
ĠÐµÐº Ð¿ÑĸÐ½
ĠÐ¼Ð°ÑĢÐ°Ð¿Ð°ÑĤ ÑĤÐ°Ñĥ
ĠÑĤÒ¯Ð¹ÑĸÐ½ Ð´ÐµÑĢÑĸÐ½ÑĸÒ£
ĠÓ©Ð½ÑĸÐ¼Ð´ÐµÑĢ Ð´Ñĸ
ĠÑĤÒ±ÑĤÑĭÐ½ ÑĥÑĪÑĭÐ»Ð°ÑĢ
ĠÐĸ Ð°Ð¼Ð°Ð½
Ġ5 3
ĠÐ¶Ð°Ð± Ð°Ð¹Ñĭ
ĠÑĤÐµÐ°ÑĤÑĢ Ñĭ
Ð°Ð± ÑĭÑĢ
ĠÒ±ÑģÑĤ Ð°Ð»ÒĵÐ°Ð½
ĠÐ¿ÓĻÐ½ Ð´ÐµÑĢÑĸÐ½ÑĸÒ£
ĠÐ¼ÓĻÐ¶ ÑĸÐ»
ĠÑĨÐ¸ÑĢ ÐºÐ¾Ð½Ð¸Ð¹
ĠÐ¢Ð°Ð» ÒĵÐ°ÑĤ
ĠÐºÓ©ÑĤÐµÑĢ ÑĥÐ³Ðµ
ĠÓ¨Ð· ÑĸÐ¼
ĠÐºÐµÑģ Ñĥ
ĠÐ±ÐµÑĤÑĸÐ½ ÐµÐ½
ĠÑĪ Ð°ÒĵÑĭ
ĠÐµÑĢ ÑĤÑĸÐ¿
ĠÓ©ÑĤ ÑģÐµ
ĠÐ±Ð°Ð» Ð°Ð»Ñĭ
ĠÒĽÐ°ÑĢÐ°ÑģÑĤÑĭÑĢ ÑĭÐ»Ð°Ð´Ñĭ
ĠÐ±ÐµÑĢÐ³ÐµÐ½ Ð´Ðµ
ĠÑĭÐ´Ñĭ ÑģÑĤÐ°ÑĢÐ´Ñĭ
ĠÑģÐ°Ð» Ð°Ð»Ñĭ
ĠÐ¢Ó©ÑĢÐ°Òĵ Ð°ÑģÑĭÐ½ÑĭÒ£
ĠÑĪÐ°ÑĢ ÑĤÑĤÐ°ÑĢÑĭÐ½
ĠÐ¶Ð°ÑģÐ°Ñĥ Ð´Ð°
ĠÑĤ Ñĭ
ĠÒļ Ð¾Ð¶Ð°
ĠÓĻÐ´ÐµÐ±Ð¸ ÐµÑĤÑĤÐµÑĢ
ĠÐ¾ÒĽÑĭÑĢÐ¼Ð°Ð½ Ð´Ð°ÑĢ
ÑĪ Ð¿Ð°Ð½
Ð¿ Ð°Ð»ÑĭÒĽ
ĠÒĵ Ð¸Ð±ÑĢÐ°ÑĤÑĤÑĭ
ÐĶ Ð¸
ĠÐ±ÐµÐ¹Ð½ ÐµÐ»ÐµÐ½Ð³ÐµÐ½
ĠÐ¼ÐµÐºÐµÐ¼ÐµÐ»ÐµÑĢ ÑĸÐ½Ð´ÐµÐ³Ñĸ
ĠÐ£ Ð´Ð°Ð»
ĠÐ´ÓĻ Ð¿
ĠÑģÐ¿ Ð¸ÑĢ
Ð¶ ÑĭÐ»ÑĭÒĽ
ĠÐ¶Ð°Òĵ ÑĭÐ½Ð´Ð°ÒĵÑĭ
ÑħÐ°Ð½ Ð°ÑģÑĭ
ĠÐľÐµÐ¹ ÑĸÑĢ
ĠÑĢÐµÐ½ Ð¶
ĠÐ°ÑĥÑĭÐ» ÑĭÐ½Ð°
ÑĨÐ¸Ð¾Ð½ Ð°Ð»Ð´ÑĭÒĽ
ĠÐ±Ð°Ñģ Ð°Ð´Ñĭ
ĠÐĲÐ» ÒĵÐ°
ĠÑĤÐµÑĢÐ¼Ð¸Ð½ Ð°Ð»
ÐµÑĤÐµÑĢ Ð±ÑĥÑĢÐ³
ÑĢÑĥ Ð·Ð¸Ñı
ĠÒ°Ð» ÑĤÑĤÐ°ÑĢ
ĠÒļÐ¾ÑĢÒĵÐ°Ð½ ÑĭÑģ
Ð´ Ð¾Ð»
ÑĪ iÐº
ĠÐ°Ð» ÑĭÒ£ÑĭÐ·
ÐĲ ÑģÑĭÐ»
Ðļ Ð°ÑĢ
Ðŀ ÑģÑĭÐ½Ð´Ð°Ð¹
ĠÑĤÒ¯ÑĢ ÑĤ
ĠÑĤÑĸÐ» ÑĸÐ¼
ĠÐ±ÐµÐ»Ð³ÑĸÐ» ÐµÐ³ÐµÐ½
ĠÑĤÓĻÐ¶ÑĸÑĢÐ¸Ð± ÐµÐ½Ñĸ
ĠÐ±Ð°ÑĤÑĭÑĢ Ð»Ð°ÑĢ
ĠÑĦÑĥÐ½ÐºÑĨÐ¸Ñı Ð»Ð°ÑĢÑĭÐ½
ĠÒĽÐ°Ð±ÑĭÑĢ ÒĵÐ°
ÐºÐµÑĢ Ð°Ð¼Ð¸ÐºÐ°
ÐµÐº ÐµÑĤ
ĠÐ¿Ð°Ð¹Ð´Ð°Ð»Ð°Ð½ ÑĥÑĪÑĭÐ»Ð°ÑĢ
Ð°Ð¹Ð» Ð°Ð¿
ĠÐºÐ¾ ÑįÑĦÑĦÐ¸ÑĨ
ĠÑĤÑĸÐ» ÐµÐºÑĤÐµÑĢ
Ð°ÑĤÐ¾ÑĢ Ñĭ
ĠÐ±Ð°Ð· Ð°ÑģÑĭ
ĠÐ¢ Ð¸Ð¼
ĠÐ±Ð¾Ð»Ð¼ ÑĭÑģ
ĠÑĪÑĭÒĽ ÑģÐ°
ĠÑĤÓĻÐ¶ÑĸÑĢÐ¸Ð± ÐµÐ»Ñĸ
ĠÐ°Ð¼Ð°Ð½ Ð°ÑĤ
ÑĤÑĸÐº ÑĤÑĸ
ĠÐºÐ¾Ð½ÐºÑĥÑĢÑģ ÑĤÑĭ
ĠÑģÓĻÑĤ ÑĤÐµÐ½
ĠÐļÐ¾ÑĢ Ð¾Ð½ÐºÐ°
ĠÐµÐ» ÑĸÐ½Ð´Ðµ
Ð¢ÑĢ Ð°ÐºÑĤÐ¾ÑĢ
ÐµÑĤ Ðµ
ĠÒļÐ°Ð·Ð°ÒĽÑģÑĤÐ°Ð½ Ð´Ñĭ
ĠÐ°Ð¶ Ð°Ð»
Â ·
Ñģ Ð¾Ð¼
ÒĽ Ð°Ð»ÑĭÐ¿
Ð¼ Ð°Ò£ÑĭÐ·
ĠÐ¶ Ð°Ð¹Ñĭ
ĠÑģ Ð½Ð¸Ð¼
Ð¾ÑĦ Ð¸Ð·
ĠÓĻÐ¹ÐµÐ» Ð³Ðµ
200 7
Ð¾Ð¼ÐµÑĤ ÑĢÐ¸
ÑģÑĭÐ· Ð´Ð°Ð½
ĠÐ´ÐµÑģ ÐµÐ¼
ĠÐµÐ¼Ð´ÐµÑĥ Ð´ÑĸÒ£
Ð´ÐµÑĢ i
ĠÐµÑĢ ÑĸÐºÑģÑĸÐ·
ĠÐ¶Ð°Ð½ ÑĭÐ½
ĠÑģÐ°Ð¹Ð» Ð°Ð½ÒĵÐ°Ð½
ĠÐºÓ©ÑĪ ÐµÑģÑĸÐ½ÑĸÒ£
ĠÐºÐ¾Ð» ÑħÐ¾Ð·
ĠÑįÐºÑģ Ð¿ÐµÑĢÐ¸Ð¼ÐµÐ½ÑĤ
ĠÐ°ÒĽÐ¿Ð°Ð½ Ð´Ð°
ĠÐ±ÐµÑĢÑĸÐ»Ð³ÐµÐ½ Ð½ÐµÐ½
ĠÐ¶ Ð¾Ð½
Ð¸Ñı Ð¼ÐµÐ½
ĠÑĤÒ¯ÑģÑĸÐ½ ÑĥÐ³Ðµ
ÐĲÐ»Ð¼Ð°ÑĤÑĭ Ð´Ð°
ÓĺÑĢ Ð¸Ð½Ðµ
ĠÐ°Ñĥ Ð¼Ð°ÒĵÑĭÐ½
ĠÐ½Ð°ÑĥÒĽÐ°Ñģ ÑĤÐ°ÑĢ
ÑĤÐ¸ ÑĭÐ¿
ĠÒļÒ±ÑĢ Ð¼Ð°Ð½
ĠÐ¶ÐµÐºÐµÑĪÐµÐ»ÐµÐ½ Ð´ÑĸÑĢÑĥ
Ð¶ÑĭÐ»Ð´ÑĭÒĽ ÑĤÐ°
Â», âĢĶ
ĠÐ±Ð°ÑģÒĽ Ð°Ð»Ð°ÑĢ
ĠÐĶ Ð¾Ð¿Ð¿Ð»ÐµÑĢÐ¾Ð³ÑĢÐ°ÑĦÐ¸Ñı
ĠÒ±ÑģÑĭÐ½ ÑĭÐ¼Ð´Ð°ÑĢ
ÑĤÐ¸Ð¼ ÐµÐ´Ð¸
Ñģ i
ĠÒĽÐ¸ÑĭÐ½ Ð´ÑĭÒĽÒĽÐ°
ĠÑģÐ½Ð¸Ð¼ Ð¾Ðº
ĠÐ±ÑĸÑĢ ÑĸÐ½ÑĸÒ£
ĠÐ´ÓĻÑĢÑĸÐ³ÐµÑĢ Ñĸ
ĠÑĸÑĪÑĸÐ½ Ð°ÑĢÐ°
ĠÐ¼ÐµÑĤÐ°Ð»Ð»Ð¾ ÐºÐµÑĢÐ°Ð¼Ð¸ÐºÐ°
ÐļÐµÒ£ ÐµÑģ
ĠÒĽÐ°ÑĥÑĭÐ¼Ð´Ð°Ñģ ÑĤÑĭÒĵÑĭ
ĠÐ£Ð´Ð°Ð» ÐµÐ½Ð¸Ðµ
Ð¼ Ð°Ð»ÑĭÒĽ
ĠÐºÐµÐ» ÐµÐ¼ÑĸÐ·
ĠÒĽÐ°ÑĤÑĭÑģÑĥÑĪÑĭÐ»Ð°ÑĢ Ñĭ
ĠÒĴÐ°Ð»Ð°Ð¼ ÑĤÐ¾ÑĢ
ĠÐ°ÒĵÐ°ÑĪ ÑĤÑĭÒ£
ĠÐĸ ÑĸÐ³ÑĸÑĤ
Ðļ ÐµÐ½
ĠÒļÐ°Ð» ÒĽÐ°Ð½ÑĪÐ°
ĠÐ¾ ÑģÐ°Ð»
ĠÒĽÒ±ÑĤÑĤÑĭÒĽ ÑĤÐ°Ð´Ñĭ
ĠÐ¾ÒĽ ÑĭÑģ
ĠÐŀÑĤ Ð±Ð°ÑģÑĭ
p er
Ðµ ÐµÐ²
Ġ199 4
ĠÐĺÐ½ÑĦÐ¾ÑĢÐ¼ Ð°ÑĨÐ¸Ñı
ĠÐ°Ð»Ð¼Ð°Ð¹ ÑģÑĭÒ£
ĠÑģÐºÑĢÐ¸Ð½ Ð¸Ð½Ð³
Ī Ĵ
Ð¸ÑģÑĤ Ðµ
ĠÐ¶ÑĭÐ»ÒĽÑĭ ÑĪÑĭ
ĠÓ©Ð· ÑĸÐ¼Ð½ÑĸÒ£
ĠÑģÐ¿Ð¾ÑĢÑĤ Ð¿ÐµÐ½
ĠÑĪÑĭÒĵÐ°ÑĢÐ¼Ð° ÑĪÑĭÐ»ÑĭÒĵÑĭÐ½
ĠÑĢÐµÐ´Ð°ÐºÑĨÐ¸Ñı ÑģÑĭÐ½ÑĭÒ£
Ñİ ÑĤ
ĠÑģÓ©Ð· ÑĸÐ½ÑĸÒ£
ĠÐ´Ð°Ð¹ÑĭÐ½Ð´Ð°Ñĥ Ð´Ñĭ
ĠÐ±ÐµÑĢÐ¼ ÐµÑĥÑĸ
Ð¡ ÓĻÐ»
ĠÐ¿Ð°Ñģ Ð¿Ð¾ÑĢÑĤ
ĠÐłÐµ ÑĦÐµÑĢ
ĠÑĤÓ© Ð³ÑĸÐ¿
ĠÑįÑĤ Ð½Ð¾
ĠÑĤÐµÑĢÑĸ Ð³Ðµ
Ð´ Ð°Ð»Ñĭ
Ð¾Ñģ Ð¾Ð¼
ĠÒĽÒ±ÑĢÐ°Ð¼ Ð´Ð°Ñģ
ĠÑĢÐµÑģÑĥÑĢ ÑģÑĭ
ĠÑĤÐµÐ¼Ð¿ÐµÑĢÐ°ÑĤÑĥÑĢ Ð°
ĠÐ°Ð»ÒĽÐ°Ð¿ ÑĤÐ°ÑĢÑĭÐ½
ÐĿ Ðµ
ĠÐĳÐ°Ð» Ð°Ð½ÑĭÒ£
ĠÑĤÒ¯Ð¹ ÑĸÑĢ
ÑħÐ°Ð½ Ð°Ð»Ð°ÑĢ
ĠÓ¨ ÐºÑĸÐ½ÑĸÑĪÐºÐµ
ĠI T
ÑģÑĤÐµÐ½ ÑģÐ¸Ð²ÑĤÑĸ
ÑĤÐ°Ñĥ Ð´Ñĭ
ĠÐºÐ°Ð´ÑĢ Ð»Ð°ÑĢÐ´Ñĭ
a Ð½
ĠÑģ ÑĤÐµÐ½
ĠÒĽÐ°ÑĢÐ¶ ÑĭÐ»Ð°Ð¹
ĠÐµÑģÐºÐµÑĢ Ñĥ
ĠÒļÒ± Ð¶
ĠÐ±Ð°Ð¹Ð»Ð°Ð½ÑĭÑģ ÑĤÐ°ÑĢ
o f
ĠÐµÑĤ ÐµÐº
ĠÑģÐ°Ð±Ð°ÒĽ ÑĤÐ°
ĠÐ¿Ð¾ ÑĤÐµÐ½
ÑĭÐ» Ð°ÑĢÐ´ÑĭÒ£
ĠÒ¯Ð¹ Ð»ÐµÑĢÐ´ÑĸÒ£
ĠÐĳ ÑĥÑĢÐ°Ð±Ð°Ð¹
Ð¾Ñģ Ñĥ
ÑĤÐ°Ð» ÑĮÐ¼
ĠÓ©ÑĢ ÑĤÐµÐ½
ÐµÐº ÑĪÐµ
ĠÐ±ÐµÑĢ Ð¼ÐµÐº
ĠÐŀ Ð´Ð°ÒĽ
Ð« Ð¢
iÐ» Ð´i
Ð¼Ð°Òĵ Ð°Ð¼Ð±ÐµÑĤÐ¾Ð²
Ð»Ð¸Ñı Ñģ
Ðº Ð¸Ð¹
ĠÐ¶ÑĭÐ» ÑĤÑĭÑĢ
ĠÑĤÐ°Ò£ Ð±
ĠÑģÑĥÑĢ ÐµÑĤÑĤÑĸ
Ã ¡
ĠÐµÐ» Ð¾ÑĢÐ´Ð°
ĠÐ¿ÑĭÑģ ÒĽÑĭÑĢ
ĠÓ©Ð·Ð³ÐµÑĢÑĸÑģÑĤÐµÑĢ Ð´Ñĸ
ÐĶÐĲ Ð£
ĠÐ¢ÓĻ Ò£ÑĸÑĢ
ĠÐ¶Ò±Ð¼ Ð±Ð°ÒĽ
ĠÐ¶Ð°Ð½ÑĥÐ°ÑĢ Ð»Ð°ÑĢÐ´Ñĭ
ĠÑģÐ°Ð¼ Ð¼Ð¸ÑĤ
ÐĨÐ· Ð´ÐµÑģÑĤÑĸÑĢÑĥ
ÑĤÐ°Ð¼ Ð°Ð¹Ð´Ñĭ
ĠÑģÐ°Ñĥ Ñģ
ĠÑĪÑĸÐ» Ð´ÐµÑģÑĸÐ½Ðµ
Ð¶ Ð¾Òĵ
ĠÐºÐµÐ» ÑĥÐ³Ðµ
ĠÑĢ Ð¾Ð¶
Ð°Ñħ Ð¼Ð°Ð½
Ð» Ð¸Ð³
Ñģ Ð°Ð½Ñĭ
ĠÐ¼ÐµÐºÐµÐ¼ ÐµÐ»ÐµÑĢÑĸ
ĠÑĤÑĥ Ð´Ñĭ
ĠÐ¼ÓĻÐ´ÐµÐ½Ð¸ ÐµÑĤÑĤÑĸÒ£
a in
ĠÐ¶ÑĭÐ» Ð´Ð°ÒĵÑĭ
ĠÑĤÓ©Ð¼ÐµÐ½ Ð´ÐµÐ¹Ð´Ñĸ
ĠÐºÐµÑĤÐºÐµÐ½ Ð´ÐµÐ¹
Ð¼ÑĸÐ· Ð´ÐµÐ³Ñĸ
Ð¢ ÑĥÑĢ
ĠÐ¡ Ð¿ÐµÑĨ
ĠÐĲÑģÑĤÐ°Ð½ Ð°ÒĵÐ°
ÑĢ ÐµÑģÑģÐ¸Ñı
ĠÓĺÐ»ÐµÐ¼ Ð´ÑĸÐº
ĠÐ±Ð¾Ð¹ ÑĭÐ½Ð°Ð½
ĠÐ¼Ð°ÒĽÑģÐ°ÑĤ ÑĭÐ½Ð°
ÐŃ Ðº
ĠÐ½Ð°ÑĢ ÑĭÒĵÑĭÐ½Ð´Ð°
ĠÐ³ Ð°ÑģÑĤÑĢÐ¾ÑįÐ½ÑĤÐµÑĢ
ĠÒĵÑĭÐ»ÑĭÐ¼ Ð½ÑĭÒ£
ĠÐ¢Ó©ÑĢÐ°Òĵ Ð°ÑģÑĭ
ĠÐµÐ½Ð³ÑĸÐ·Ñĥ Ð´Ñĸ
ÑģÐº ÐµÐ»ÐµÒ£
ĠÒĽÑĭÑĢ ÒĵÐ°
Ð°ÒĽ Ð¿Ð°Ð½
ĠÑħ ÑĢÐ¾Ð¼
ĠÐĳ ÐĸÐĹÒļ
Ð´ÐµÑģ ÑĸÐ½ÐµÐ½
ĠÐľÐµÑĢÐ· ÑĸÐ¼Ñĸ
ÐļÐ¾Ð½ÐºÑĥÑĢÑģ ÒĽÐ°
Ġ ;
ĠÑĤÓ©Ð» ÐµÐ¹ÑĤÑĸÐ½
Ð² Ð¾ÑĢ
ĠÒ± Ð´Ð°Ð¹Ñĭ
ĠÐµÑģ ÑĸÐ½Ð´Ðµ
ÑĢÐ¾ Ð±
ĠÐ±ÐµÐ¹Ð½ ÐµÑģÑĸÐ½
ĠÑģÐ¸Ð½ ÑĤÐµÐ·
Ð±Ò±ÑĢ ÑĭÑĪ
Ð¾ÑĢÐ³Ð°Ð½ Ð¸Ð·Ð¼
ĠÑģ Ð°Ñħ
ĠÐ² Ð¸ÑĤÐ°Ð¼Ð¸Ð½
ĠÐ¶Ð°ÑĢÑĭÒĽ ÑĤÐ°Ð½Ð´ÑĭÑĢÑĥ
ĠÐºÐ¾Ð»Ð»ÐµÐ´Ð¶ ÑĸÐ½ÑĸÒ£
ĠÐ¾ÒĽÑĥ Ð»Ð°ÑĢÑĭ
ĠÐ¶Ð¾Ð»Ð´Ð°Ñĥ Ñĭ
ĠÐ°Ð½ ÑģÐ°Ð¼Ð±Ð»
ĠÑĤÐµÑĢ ÑĸÐ¿
Òĵ Ð°ÑĢÑĭ
ĠÐ° ÒĵÑĭÐ¿
ĠÒ±ÑĢ Ð¿Ð°ÒĽÑĤÐ°ÑĢ
Ð»Ñı ÑĨÐ¸ÑıÐ»ÑĭÒĽ
Ð» ÑĭÐ¿
i f
ĠÑģÒ¯ ÑĤÑĤÑĸ
ĠÐ³ Ð»ÑİÐº
ĠÐ¼ Ð°Ñĥ
ĠÐ±Ò±Ð· ÑĭÐ¿
ĠÐºÐµÑĪÑĸÐºÑĤÑĸÑĢ Ð¼ÐµÐ¹
ĠÒĽÐ°ÑĤÑĭÐ½Ð°Ñģ ÑĤÐ°ÑĢÐ´Ñĭ
Ð°ÐµÐ² Ð°
ĠÐ±Ð¸Ð» ÐµÐ¿
9 8
o ur
ĠÐ¶ ÑĥÐ¼
ĠÐ¼ÐµÐ¹ÑĸÑĢ ÑĸÐ¼Ð´Ñĸ
ĠÐ¾ÑģÑĭÐ½ Ñĭ
ĠÐłÐ°Ð± Ð±
ĠÐ¶Ð°Ð¿ Ð¾Ð½
ÐµÑĤÑĤÑĸ Ð»ÑĸÐº
Ðł Ð°Ð·Ð²
ĠÒĽÒ±Ð» Ð°ÒĵÐ°Ð½
ĠÒļÐ¾Ñģ ÑĭÐ¼ÑĪÐ°
ĠÒĽÐ°ÑĢ ÑĥÐ»Ñĭ
ĠÐ¶Ð°Ð» Ð¿Ð°ÒĽ
Ð´ÑĭÑĢ ÒĵÑĭÑĪ
ĠÐ¿Ð°Ð» ÑĥÐ°Ð½
ĠÐµ ÑĥÑĢ
ĠÐ¶Ò¯ Ð½
ÑĤ ÐµÐºÐµ
ĠÒĽÐ°Ð½ Ð´Ñĭ
ĠÑĤÐ°Ð½ ÑĭÐ»Ð°Ð´Ñĭ
ĠÐºÐ¸ ÑĸÐ¼Ð´ÐµÑĢ
ĠÐ½Ð¾Ð¼ ÐµÑĢ
ĠÑĪ Ð°ÑĤÑĭÑĢ
ĠÐ¿ Ð½ÐµÐ²
ÑĪ ÐµÑĢ
ÐŁÑĢÐµÐ·Ð¸Ð´ÐµÐ½ ÑĤ
ÒĽÐ°Ð½ Ð´Ð°
Ñİ ÒĵÐ°
ĠÑģÓĻÑĥ Ð»ÐµÑģ
ĠÐ¼ Ð°Ð¹ÑĭÐ½
ÐĲ ÐŁ
ĠÑĤÓĻÑĥ Ð»ÑĸÐ³ÑĸÐ½Ðµ
ĠÐ¶Ð°Ð¿ ÑĭÑĢÐ°ÒĽ
Ð´ÐµÐ½ Ðµ
ĠÑĤÐ°Ð±Ð¸Òĵ Ð°ÑĤÑĤÑĭ
ĠÑĤÒ¯ÑģÑĸÑĢ ÐµÐ´Ñĸ
ĠÐ¼ÐµÑĤÑĢ Ð³Ðµ
ĠÓ©Ð·ÑĸÒ£ÑĸÐ· Ð±ÐµÐ½
ĠÑģÐ°Ñĥ ÑĭÒĽÑĤÑĭÑĢÑĥ
ĠÐķÑĢ ÑĤÑĸÑģ
ĠÑĸÑģ ÑĸÐ³Ñĸ
ĠÑħÐ°Ð»ÑĭÒĽ ÑĤÐ°ÑĢÐ´ÑĭÒ£
Ð¿ÑģÐ¸Ñħ Ð¾Ð»Ð¾Ð³Ð¸ÑıÐ»ÑĭÒĽ
ĠÑĭÒĽÑĭÐ» Ð°Ñģ
Ð¿Ð¾Ð½ Ð´ÐµÐ½
ĠÐ¼ Ð°Ð»Ð´Ñĭ
ĠÑģ ÑĸÐ¼
Ð± ÑĢÐ°Ð½
ĠÒĽÐ°Ð» Ð°Ð»Ð°ÑĢÑĭÐ½Ð´Ð°
ĠÐ¾ÒĽ ÑĭÐ»ÑĭÐ¼
ĠÐķÑĢ ÐºÑĸÐ½
ĠÐĸÐ°ÑĢ Ð»ÑĭÒĵÑĭÐ¼ÐµÐ½
ĠÐ¢Ò¯ÑĢ ÐºÑĸ
http s
ĠÐ¶ ÐµÐ¹
ĠÓĻÐ·iÑĢ Ð»ÐµÑĥ
ĠÒĽÑĭÐ·Ð¼ÐµÑĤ iÐ½
ĠÐ±ÐµÑĢÑĥ Ð´ÐµÐ³Ñĸ
ĠÐ¡ÑĤÑĢÐ°ÑĤÐµÐ³ Ð¸ÑıÐ»ÑĭÒĽ
Ġ18 0
ĠÑģÐ¾ÒĽ ÑĭÑĢ
ĠÐ°Ðº ÑĤiÐ»ÐµÑĢ
ĠÐ±ÑĸÐ» ÑĸÐ½Ð±ÐµÐ¹Ð´Ñĸ
ĠÐĵ ÑĢ
ĠÓ©ÑĤÑĸÐ½ÑĸÑĪ ÑĤÑĸ
ÑĨ ÐµÑģÑģ
ĠÐµ ÑĥÑĢÐ¾Ð¿Ð°Ð»ÑĭÒĽ
ĠÐ°Ð½ Ð°Ñĥ
ĠÐĺ ÑģÐ°
ĠÑģÐ¾ ÑĤÑĭ
ĠÐ¼Ð°ÑĢÑĪ ÑĢÑĥ
ĠÐ¼Ð°Ð¼Ð°Ð½Ð´ÑĭÒĽ ÑĤÐ°ÑĢÑĭ
ĠÑģÑĤÐ° Ð´Ð¸Ð¾Ð½
Ð»ÐµÑĢ Ð´ÐµÐ½
ÐĳÐ¸Ð·Ð½ÐµÑģ ÑĤÑĸÒ£
ĠÐŁÓĻÐ½ Ñĸ
ĠÑĤÓ©Ð·Ð±ÐµÑĥ ÑĪÑĸÐ»ÑĸÐº
Ġ ÒĵÐ°
ĠÑģÑĥ ÑģÑĭÐ½Ð´Ð°
ĠÑĦÐ¸Ð»Ð¸Ð°Ð» ÑĭÐ½Ð´Ð°
l d
Ð°Ð½ ÑĪÐ°Ð¹ÑĭÐ¼
Ð¢ Ð°ÒĽÑĭÑĢ
ĠÐ¿Ð°Ð¹ÑĭÐ· Ð´Ñĭ
ĠÑĢÓĻÑģ ÑĸÐ¼Ð´ÐµÑĢÑĸÐ½
ĠÑĢÐµÑĦÐ¾ÑĢÐ¼ Ð°Ð»Ð°ÑĢ
ĠÐ½Ð¾ÑĢÐ¼ Ð°Ð»Ð°ÑĢÑĭ
ĠÐ¶ i
Ð¾Ð² Ð¿ÐµÐ½
ĠÐ¶Ð°ÑģÐ°ÒĵÐ°Ð½ Ñĭ
ĠÑģÐµÑĢÑĤÐ¸ÑĦÐ¸Ðº Ð°ÑĤ
ĠÐµÐ»ÑĸÐ¼ÑĸÐ· Ð³Ðµ
ÑĪ ÐµÐ»ÐµÑĢ
ĠÑĤ Ð¾Ò£
Ð¢ Ð¾Ð¿
ĠÐ±Ð°ÒĵÑĭ ÑĤÑĤÐ°ÑĢÑĭÐ½
ÑĭÑĢÑĤ ÒĽ
ĠÑĢÐµ ÑĦ
ĠÐ¼ÐµÑĪÑĸÑĤ ÑĸÐ½ÑĸÒ£
ĠÐ¸Ð¿Ð¾ÑĤÐµÐº Ð°Ð»ÑĭÒĽ
ĠÑĢ Ð¸Ð·
ĠÐľÒ±ÑģÑĤÐ°ÑĦ Ð°
ĠÑĤÐ°ÒĽÑĭÑĢÑĭÐ¿ ÑĤÑĭÒĽ
ÑĸÐ» ÐµÐ¿
ĠÐĹÐ¸ÑıÑĤ ÐºÐµÑĢÐ»ÑĸÐº
ĠÐ»Ð¸ÑĨ ÐµÐ¹
Ð¾ ÑĤÐ¸
ĠÐ¼ÐµÐ½ ÑĪÑĸÐºÑĤÑĸ
ĠÐŀÑĢÐ°Ð» ÑħÐ°Ð½
ĠÑĤ Ð°ÑĤÐ°ÑĢ
ĠÑģ ÑĤÐ°ÑĢ
ĠÓ©Ð· ÑĸÐ¼ÐµÐ½
ĠÑģÑĭÐ½ Ð°Ð¿
ĠÑĤÐ°Ð±Ð¸Òĵ Ð°ÑĤÑĤÑĭÒ£
ĠÐ½Ð°Ð¼ ÑĭÑģÑĭÐ½
Ð´Ð°ÑĢ ÑĭÒ£ÑĭÐ·
ĠÐ¶Ò¯ÑĢÐ³ÑĸÐ·Ñĥ Ð´ÑĸÒ£
Ðĺ ÐĲ
ÑģÐº Ð¾Ð¹
Ð¶ Ð°Ð½Ñĭ
ĠÐĲ Òĵ
ĠÐŃ Ð»ÐµÐºÑĤÑĢ
ĠÐ·ÐµÑĢÑĤÑĤÐµÑĥ Ð»ÐµÑĢÑĸ
ĠÐĺÐ½ ÑĤÐµÐ½ÑģÐ¸Ð²ÑĤÑĸ
ĠÐºÓ©Ð¼ÐµÐºÑĤÐµÑģ Ñĥ
ĠÓ©Ð·ÐµÐ½ Ð½ÑĸÒ£
9 1
ÑĦ ÑĥÐ»Ð»Ð¸Ð½
ĠÐ±Ð°Ð¹ Òĵ
ĠÑģÑĤÑĥÐ´ÐµÐ½ÑĤ ÑĤÑĸÐº
ĠÑģÐ°ÒĵÐ°ÑĤ ÒĽÐ°
Ó¨Ð· Ð´ÑĸÐ³ÑĸÐ½ÐµÐ½
ĠÐľ Ð°ÑĪ
Ð¾Ð¼ Ð¾
Ð¾Ð¼ ÐµÐ½
ÐĶ Ð¾
Ð¾Ð¼ ÓĻÐ´ÐµÐ½Ð¸
ĠÐĶÐ°ÑģÑĤÐ°ÑĢ ÒĽÐ°Ð½
Ð°Ð½ Ð°Ð½ÑĭÒ£
ĠÐ¶Ò±Ð¼ ÑĭÑĢÑĤÒĽÐ°
ĠÐ¾Ð¹ ÑĭÐ¿
ĠÐ½ÑĭÑģÐ°Ð½ ÑĭÐ½
ĠÓĻÑĢÒĽÐ°Ð¹Ñģ ÑĭÑģÑĭ
ĠÐĳ Ð¾Ð¹
ĠÐ°ÑĢÑħ Ð¸ÑĤ
ĠÒĽÐ°Ð»Ð´ÑĭÒĽ ÑĤÐ°ÑĢÐ´Ñĭ
ĠÐ¡ÑĭÐ½ ÑĭÐ±Ñĭ
Ð¼ÐµÐº ÐµÐ½
ĠÐ±Ð°ÑıÐ½ Ð´Ð°Ñĥ
ĠÐ°Ð¹Ð½Ð°Ð»ÑĭÑģ ÑĭÐ¿
ĠÒ¯Ð´ÐµÑĢ ÑĸÑģÑĸÐ½Ðµ
ĠÐľ Ð¸Ð½
ĠÑĤÒ±ÑĢÒĵÑĭÐ½ Ð´Ð°ÑĢÒĵÐ°
ĠÐ² Ð¾Ðº
ĠÐº ÑĥÐ½
Ġ7 00
or y
Ð°Ð ¥
ÑģÐµÑĤ ÑĸÐ»Ð³ÐµÐ½
ĠÐ¶ÐµÐ¼ÒĽÐ¾ÑĢÐ»ÑĭÒĽ Ð¿ÐµÐ½
ĠÐ·ÐµÑĢÐ´ÐµÐ» ÐµÑĥ
ĠÓ¨Ð»ÐµÒ£ Ð´ÐµÑĢ
ĠÒļÒ±ÑĢ Ð°Ð¼Ð°
ĠÑģÑĥÑĢ ÐµÑĤÐºÐµ
ĠÐ±ÑĸÑĢÐ»ÐµÑģ ÑĤÑĸÐ³Ñĸ
ĠÓ©Ð½ÑĸÐ¼Ð´ÐµÑĢ Ð´ÑĸÒ£
Ð³ ÐµÐ»Ñĸ
ĠÐ¿ Ð¸Ð»Ð¾ÑĤÑĤÑĭÒĽ
ĠÑĢ ÐµÐºÑĤÐ¾ÑĢ
ĠÑĤÑĭÒ£Ð´Ð°Ñĥ Ð»Ð°ÑĢ
ĠÓ©Ð½ Ð´iÑĢ
ĠÑĤÓĻÐ¼ Ð°Ð¼
ĠÐĸÐŀÐ¡ÐŁ ÐĲÐłÐ«
ĠÒļ Ð°Ð´ÑĭÑĢ
ĠÑĤ Ð¾ÑģÑĤ
Ñħ Ð°Ð¹
Ġ9 7
ĠÒĽÐ°ÑĢÐ°ÑģÑĤÑĭÑĢ Ð°Ð´Ñĭ
ĠÒĽÑĭÐ·Ð¼ÐµÑĤÑĪÑĸÐ»ÐµÑĢ Ð´Ñĸ
ÐĿ Ð°ÑĢ
14 2
ĠÑģÐ°Ð» Ð¼Ð°ÒĽÑĤÑĭ
ÒĵÑĭÐ» ÑĤ
ĠÐ°ÑģÑĤÐ°Ð½ Ð°
ĠÐ¡ÓĻ ÐºÐµÐ½
Ð¡ Ð¾ÑĤ
ĠÑĤÐ°ÑĢÐ¸Ñħ ÑĭÐ½Ð´Ð°ÒĵÑĭ
ĠÑģÐµÐ½ Ð´ÐµÑĢ
Ð¸Ð¾ ÑĤÐµÑĢÐ°Ð¿Ð¸Ñı
ĠÑĪÑĥÐ¼Ð°ÒĽ ÑĤÐ°ÑĢÑĭ
ĠÑĢÐµÑĤ ÑĤÐµÐ»
Ð°Ð¹ÑĭÐ¼ Ñĭ
ĠÐ°ÑĤÑĭ Ð¼ÐµÐ½
-- --
ÐµÐ¹ ÑĨÐ°ÑĢ
ĠÒļÐ°Ð·Ò° Ð£
ĠÐºÐµÐ» ÑĥÑĪÑĸÐ»ÐµÑĢ
ĠÐ¾Ð¹ ÑĪÑĭÐ»
ĠÐ¸Ð´ÐµÑı Ð»Ð°ÑĢÑĭÐ½
ĠÑģÒ¯Ð» Ð³Ñĸ
ĠÒĽÐ°Ð½ Ð½ÑĭÒ£
ÐĳÒ± ÒĵÐ°Ð½
ĠÐ¸Ð¼Ð°Ð¼ Ñĭ
ĠÑģ Ó©Ð»
ĠÒ° Ð·Ð°ÒĽ
ĠÐłÐµÑģÐµÐ¹ Ð³Ðµ
Ñĥ Ð¹
ĠÐ¶Ð°Ð» Ð´Ð°Ñĥ
ĠÐľÒ±Ð½ Ð´Ð°ÒĵÑĭ
ĠÐ±ÐµÑĢ Ð³Ñĸ
ĠÐ°ÑĥÐ´Ð°Ð½ Ð´Ð°ÑĢÐ´ÑĭÒ£
ĠÑĤÒ±ÑĢÐ°ÒĽÑĤÑĭ Ð»ÑĭÒĽ
ĠÐµÐ¼Ð´ÐµÑĥ Ð´Ñĸ
ĠÑĥÐ»ÑĮÑĤÑĢÐ°Ð´ÑĭÐ± ÑĭÑģÑĤÑĭÒĽ
ĠÒĽÐ¾Ð» ÑĭÐ¼Ð´Ð°ÒĵÑĭ
Ñģ Ð¼ÐµÑĤÐ°Ð»ÑĭÒĽ
ÒĴ ÐĲÐĿ
ĠÐ¼Ð°ÒĵÑĭÐ½ Ð°ÑģÑĭÐ½
ĠÒĽ Ð°ÑĤÑĭÐ¿
Ð½ ÐµÐºÑĸ
ĠÑģÐ°Ð» Ð°Ð»Ð°ÑĢÐ´Ð°
ĠÐĲÐ¹ Ð´Ð°ÑĢ
ĠÐŃÐº ÑģÑĤÐµÐ½ÑģÐ¸Ð²ÑĤÑĸ
ĠÑĤÑĥ ÑĭÑģ
ĠÑĤÐµÑĢ Ð¼
Ð°Ð¹ ÒĵÑĭÑĢ
ÑĨÐ¸Ñı ÒĵÐ°
ĠÒĽÐ¾Ð·ÒĵÐ°Ð» ÑĭÑģÑĭÐ½ÑĭÒ£
ĠÐ¶Ð°ÑĢ ÑĭÐ»
Ð¾ÑĢ Ð´Ð°Ð½ÑĭÒ£
ĠÓ©Ð½ ÑĸÐ¼Ñĸ
ĠÒ¯Ð· Ð´ÑĸÐ³Ñĸ
ÑĢÑĥ Ð³
ĠÒ¯Ð¼ Ñĸ
ĠÐ½ÓĻÑĢÑģ ÐµÐ³Ðµ
i b
ĠÐ°ÑĥÑĭÐ» Ð´Ñĭ
ĠÐ°ÑĪ ÑĤÑĭÒĽ
ĠÑĪÐµÑĪÑĸÐ¼ Ð´ÐµÑĢÑĸ
ĠÐĳÑĸÐ· Ð´Ðµ
ĠÐºÓ©Ð· Ð´ÐµÑĢÑĸÐ½
ĠÓ©Ð·Ð³ÐµÑĢ Ð³ÐµÐ½
ĠÑĢÓĻÐ¼ÑĸÐ· Ð´ÐµÑĢÑĸ
Ð¾Ð½ Ð°ÑĤ
ÑĤÑĥ Ð°ÑĢ
ĠÑĦÐµÑĢ Ð¼ÐµÐ½ÑĤ
ĠÐ´ÓĻÐ½ ÐµÐºÐµÑĢ
ĠÐ¼Ð¾ÑĢ Ð°Ð»ÑĮÐ´ÑĭÒĽ
ĠÐĿÐ°Ñĥ ÒĽÐ°Ñģ
ĠÐºÓ©Ð· ÑĸÐ½ÐµÐ½
ĠÑĢÐ°Ñģ ÑĤÐ°Ò£ÑĭÐ·
ĠÐ¶Ð¸ Ð´Ðµ
8 3
ĠÐ±Ð¾Ð» Ð°Ð¼ÑĭÐ½
ÑĨÐ¸Ñı ÑģÑĭÐ½ÑĭÒ£
ÒĽÑĭ ÒĵÐ°
ĠÐ´ÐµÑĢÐµÐº ÑĤÑĸ
ĠÑĤÓĻÑĢÑĤÑĸÐ¿ ÑĤÐµ
ĠÐĲÐ² ÑģÑĤÑĢ
Ġnur tv
ĠÑĢ ÑĭÐ½
Ð°ÒĵÐ°ÑĤ Ð°Ð¹
ĠÑĪÑĭÒĵÐ°ÑĢÐ¼Ð° ÑĪÑĭÐ»
ĠÑĦÑĥÐ½ÐºÑĨÐ¸Ñı ÑģÑĭ
ÐļÐµÐ» ÑĸÑģÑĥ
ĠÑĤÐ¾Ð¿ ÑĤÐ°ÑģÑĤÑĭÑĢ
ĠÐ¼Ð¸Ð» Ð¸ÑĨÐ¸Ñı
ĠÐ¾ Ð¶Ð°Ñĥ
ĠK ism
Ð¿ÑĢÐ¾ ÐµÐºÑĤÑĭ
ĠÐ°Ð´Ð°Ð¼Ð· Ð°ÑĤÑĤÑĭÒ£
ĠÑħ ÑĢÐ¸ÑģÑĤ
ÑģÑĸÐ½ ÑĸÐ¿
ÐºÓ©ÑĢ ÑģÐµÑĤÑĸÐ»ÐµÑĤÑĸÐ½
ĠÐ¡Ð¿ÐµÑĨ Ð¿ÑĢÐ¾ÐµÐºÑĤÑĭ
ĠKism ia
Ð¼ ÐµÐ±Ð°ÐµÐ²
h er
ĠÒĽÑĭÐ·Ð¼ÐµÑĤ ÑĪÑĸ
ĠÐ¢Ó©Ð» ÐµÐ³ÐµÐ½
Ðł Ðķ
ĠÐļÓ©Ð· Ð´Ñĸ
ĠÐ°ÑĢ Ð°ÑģÑĭÐ½
ĠÐµÑģ ÑĸÐ³ÑĸÐ½
ĠÐ°Ð½ Ð°ÑģÑĭÐ½ÑĭÒ£
ĠÐ±Ð¸ Ð´ÑĸÒ£
ĠÑģÐ°Ð¿ Ð°Ð»ÑĭÒĽ
ĠÑģÐµÐº ÑĸÑĢ
Ð´Ñĭ Ð»ÑĭÒĵÑĭ
ÑĪÑĭÐ»ÑĭÒĽ ÒĽÐ°
ĠÐ´Ð°Ð¼ÑĭÑĤÑĥ Ð´Ñĭ
ĠÑģÑĭÐ¹ Ð»Ð°ÒĵÐ°Ð½
ĠÑĥ Ð°ÒĵÑĭÐ·
ĠÐŀÑĢ Ð½
B N
Ð± Ð°ÒĵÐ´Ð°ÑĢÐ»Ð°Ð¼
ÑĤÑĸÐ» ÑĥÐ´Ðµ
ĠÐ¡ÑĸÐ· Ð´ÐµÑĢÐ³Ðµ
ĠÐŀÑĢÑĭÐ½ Ð±Ð¾ÑĢ
ÐºÑĥÑĢ Ð¾ÑĢ
ĠÐľÐĸ Óĺ
Ð¸Ð½ Ðº
ĠÑĤÒ¯Ñģ ÐºÐµ
Ð°Ð¹ÑĤÑĭÐ½ ÑĭÐ½
ĠÐºÐµÐ¼ ÑĸÑĢÑĸÐ¿
ĠÐ±Ò±Ð·ÑĥÑĪÑĭÐ»ÑĭÒĽ ÑĤÑĭÒ£
ÐµÐº Ð°
ĠÐ±Ð°ÒĽÑĭÐ» Ð°Ð¿
le g
Ð¾Ð¿Ð°ÑĤ Ð¸Ñı
ĠÐ´Ð°ÒĵÐ´Ð°ÑĢ ÑĭÑģ
Ð°ÑĤ Ð¸Ð½
ĠÓ©Ð·Ð³ÐµÑĢ Ñĥ
ĠÐ¸ Ð³ÑĸÐ»Ñĸ
ĠÑĤÒ¯Ñģ ÑģÐµ
Ð´ÑĸÑĢ ÐµÑĤÑĸÐ½
ĠÒĽÑĥ ÒĵÑĭÐ½
ĠÒļ Ò±ÒĽÑĭÒĽÑĤÑĭÒĽ
ĠÐļ Ò¯Ð·
ĠÐºÒ¯ Ð±Ñĸ
ĠÐºÑĸÑĢ Ðµ
ĠÐĳ Ð¾
ĠÐ¾ÑĤ ÒĽÐ°
ÒĽÒ± ÑĤÒĽÐ°ÑĢÑĥ
ĠÒĽÐ°Ð» Ð°ÑģÑĭÐ½
ĠÐ½Ð°ÑĥÒĽÐ°Ñģ ÑĤÐ°ÑĢÐ´Ð°
Ð¼ ÑĸÑģ
ÐµÐº ÐµÒ£
ĠÐºÓ©ÑĤÐµÑĢ Ðµ
Ð»Ðµ ÑĩÐµÐ½Ð¸Ñı
ĠÐ¶ÐµÒ£ ÐµÑĪÐµÐ¼
Ð»ÐµÑĥ Ð¼ÐµÑĤ
ĠÒ±ÑĪ Ð°ÒĽ
ĠÐ¾ÑĢÑĤ Ð°ÑģÑĭÐ½Ð°
ĠÑģÑĥÑģÑĭÐ½ ÑĭÐ½
ĠÐº ÓĻÑĢÑĸ
ĠÐĶ Ð¸Ð¼Ð°ÑĪ
ĠÑĤÑĥ Ð³Ð°Ð½
ĠÑĤÒ±ÑĢÐ¼ ÑĭÑģÒĽÐ°
ĠÐ¾ ÑĤÐ°ÑĥÒĵÐ°
ĠÐ°ÒĽÑĪ Ð°ÑģÑĭÐ½
ĠÐ¶Ð°Ò£ÒĵÑĭÑĢÑĥ Ñĭ
ĠÐ±ÑĸÑĢÐµÑĥ Ð³Ðµ
ĠÑĤÒ¯ÑģÑĸÐ½Ð´ÑĸÑĢ ÐµÐ´Ñĸ
ĠÐ¨ Ò±
ĠÑĤÐ°ÒĵÐ°Ð¹ÑĭÐ½ Ð´Ð°Ð¹Ð´Ñĭ
ĠÑģ ÑĤÑĥ
Ð´Ðµ Ð³Ðµ
ĠÐºÑĥÑĢ ÑģÑĭÐ½
ĠÐ¾ ÑĦÐ¸ÑĨ
ĠÑģÒ¯ÑĢ ÑĤÑĤÑĸ
ĠÒ¯Ð³Ñĸ ÑĤ
ĠÐ¶Ð¸ ÑĭÐ½Ð´Ð°
ĠÐ¼Ð¸Ð»Ð»Ð¸Ð¾Ð½ Ð½Ð°Ð½
ĠÐ¡Ð°Ð¹ÑĤ ÑĤÐ°
ÑĭÐ± Ð°Ð¹
ĠÒ±ÑģÑĭÐ½ ÑĥÒĵÐ°
ĠÐĴ Ð¸Ð´Ðµ
ĠÒĽÐ°Ð½ ÑĤÐ°ÑĢ
ĠÐ°Ð²ÑĤÐ¾Ð¼Ð°ÑĤÑĤÐ°Ð½ Ð´ÑĭÑĢÑĭÐ»ÒĵÐ°Ð½
ĠÐ´ Ð°ÑģÑĤÐ°Ð½
Òļ ÐľÐ£
Ð°Ð¶ Ð°Ð¹Ñĭ
ĠÑĤÓĻÑĢÑĤÑĸÐ¿ ÑĤÑĸÐº
ĠÐ¼ÐµÐ½ÑĪÑĸ Ð³ÑĸÐ½Ð´ÐµÐ³Ñĸ
ĠÒĽÐ°ÑĢ Ð°Ð»
ĠÑĥÐ°ÒĽÑĭÑĤ ÑĤÑĭÒ£
Ð¢Ð°ÑĢ Ð°Ð·
ĠÒĵÐ°Ð¶ Ð°Ð¿
ĠÐĲ ÒĽÐ°Ð½
ĠÑĤÐ°Ð± ÑĭÑģÒĽÐ°
ĠÑĤÓĻÑĢÐ±Ð¸ ÐµÐ»ÐµÐ¿
ĠÐŁÐ¾Ð» ÐµÐ·
ĠÐ°Ð¹ÑĤ Ð¿
ĠÑģÐ°Ð» Ð´Ð°ÑĢÑĭ
ĠÐ¼ÐµÐºÑĤÐµÐ¿ ÑĤÐµÐ³Ñĸ
ÒļÒ± Ð¶
ÐĲ Ð¼Ð°Ð½
Ðĳ ÑİÐ´Ð¶
ĠÐ±ÑĸÑĢÐ»ÐµÑģ ÑĤÑĸÐ³ÑĸÐ½ÑĸÒ£
ĠSp utnik
ĠÐ¶ÐµÒ£ Ñĥ
ĠÐĳÐµÐ¹Ð½ Ðµ
ĠÒĽÐ¾Ð¹ Ð¼Ð°ÒĵÐ°Ð½
ĠÑĤÓĻÑĢÑĤÑĸÐ¿ ÑĤÑĸ
ĠÐºÓ©Ð¹ Ð»ÐµÐº
Ð¼ ÐµÑĥÑĸ
ĠÐ½Ð°Ð³ ÑĢÐ°Ð´
ĠÐ¶ÑĸÒ£ ÑĸÑĪÐºÐµ
ÑĮ Ðµ
ĠÐºÐ¾Ð´ÐµÐº ÑģÑĸÐ½
ĠÒ® ÑģÑĤÑĸ
ÑĨÐ¸Ð¾Ð½ Ð°Ð»Ð´Ñĭ
ĠÑĨ Ð¸ÑĤ
ĠÑĸÑģÑĤÐµÐ¹Ð´Ñĸ ÐļÐµÐ»ÑĸÑģÑĥ
ĠÐĸÐ°ÑĢÐ½Ð°Ð¼Ð° NUR
ĠÐľÑĥÐ·ÑĭÐº Ð°Ð¥
ÐłÐ°Ð·Ð² Ð»ÐµÑĩÐµÐ½Ð¸Ñı
ĠÐŁÐ¾Ð»ÐµÐ· Ð½Ð¾Ðµ
ĠÐľÑĥÐ·ÑĭÐºÐ°Ð¥ Ð°Ð½ÑĪÐ°Ð¹ÑĭÐ¼
ĠÐºÐµÐ» ÐµÐ¼ÑĸÐ½
ĠÑĤÐ°Ò£ Ñĭ
ĠÒ¯Ð´ÐµÑĢ ÑĸÑģÑĸÐ½
ĠÑĢÐ¾Ð¶ Ð´ÐµÐ½Ð¸Ñı
ÑĸÑĪ ÐºÐµÐ½ÑĤÐ°Ð¹
ÐĶ Ð¾Ð¼
ĠÓ©ÑĤÐºÑĸÐ· Ð³ÑĸÑĪ
ĠÐ¶Ð°Ò£Ð° ÑĪÐ°
ĠÐ¶Ð°Ð½ Ñĥ
ÑĤÑĤÐ°ÑĢ Ð´Ð°
ĠÐķÑĢ Ð¼ÐµÐº
ÑĪ Ð¸Ð½
ÑĤÐ°ÑĢ ÑĭÐ¿
ĠÐ¶Ò¯Ð¹ ÐµÐ½Ñĸ
Ð°Ð»ÑĭÒĵ ÑĭÐ½Ð°Ð½
Ñģ Ð¾Ò£
Ðļ Ð°Ð½
ÑĥÑĪ ÑĸÐ½ÑĸÒ£
ĠÓĻÑĥ ÐµÑģ
ĠÒĽÐ°Ð±ÑĸÐ»ÐµÑĤÑĤÑĸ Ð»ÑĸÐº
ĠÐ´ Ð°ÑĤ
ĠÐ±Ð°Ð¹Ð»Ð°Ð½ÑĭÑģ ÑĭÐ½
ĠÒĽÐ°Ð»ÑĭÐ¿ÑĤÐ°Ñģ ÑĤÑĭ
ĠÐ±Ð°Ð»Ð°Ð±Ð°ÒĽÑĪÐ° ÒĵÐ°
ĠÒĽÒ±ÑĢ ÑĥÐ´Ñĭ
Ðķ Ð¼
ĠÐĲÒĽ ÑģÑĥ
ĠÐ¶Ð°Ñĥ Ð°Ð±
ĠÐ¿Ð°ÑĤ ÑĪ
ĠÐ¼Ò±ÑģÑĭÐ»Ð¼Ð°Ð½ Ð´Ð°ÑĢ
ĠÐŁ Ð°Ð½
ĠÑĭÐ» Ð´Ð¸
ĠÒļÒ±Ð½Ð°Ð½ Ð±Ð°ÐµÐ²
Ð³ iÐ½Ð´Ðµ
ÐŁ Ð¾Ð»
Ð¨ ÑĭÐ½
ĠÐ°ÑĤ Ð°ÒĵÑĭÐ½
ĠÐ¸ Ð¾Ð½
ĠÑĤÒ¯ÑĢ Ð´ÐµÐ½
ĠÐ°ÑĥÑĢÑĥ ÒĵÐ°
ĠÐļÓ©ÑĢ ÑĪÑĸ
ĠÐ±Ð°ÑĤÑĭÐ» ÑĭÐ¼
ĠÒĽÐ¾Ñģ ÑĭÐ»Ñĥ
ĠÑħÐ°Ð»ÑĭÒĽ ÑĤÐ°ÑĢ
ĠÐ´ÓĻÑĢ ÐµÑĤ
ĠÑĤÒ±ÑĢÒĵÑĭÐ½ Ð´Ð°ÑĢÑĭÐ½Ð°
ĠÐ¼Ð°ÑĢ ÒĽÒ±Ð¼
Ġ6 7
ĠÓĻÐ»ÐµÐ¼ Ð´Ñĸ
ĠÑĢÓĻÐ¼ÑĸÐ· Ð´ÐµÑĢ
ĠÐ¿ Ð¾Ð²
Ġ1 01
ĠÐ±ÐµÑĢÑĥÑĪÑĸÐ»ÐµÑĢ Ð³Ðµ
Ð¼ÑĥÐ½Ð¸Ðº Ð°ÑĨÐ¸ÑıÐ»ÑĭÒĽ
ĠÐĸÒ±Ð¼ Ð°Òĵ
ĠÐ»Ð°ÑĥÐ°Ð·ÑĭÐ¼ Ð´Ð°ÑĢÑĭÐ½Ð´Ð°
ÐĲÐ³ ÑĢÐ¾
9 2
ĠÐĲ Ð¼
ĠÑģ Ñİ
ÑĭÒ£ Ð½ÑĭÒ£
ĠÐ½ ÑĭÑĪ
ĠÐ°Ð· Ð°ÑĤ
ÐĲÐ» ÒĵÐ°ÑĪÒĽÑĭ
ĠÑĪÑĸÐ»Ð´Ðµ Ð³Ðµ
ĠÐ¼ÓĻÐ» iÐ¼ÐµÑĤ
Ðĳ Ð¾Ñģ
ĠÐµÑģÐµÐ¿ ÑĤÐµ
ĠÒļÒ±ÑĢ ÑĭÒĽ
ĠÒĽÐ¾Ñģ Ð°ÑĤÑĭÐ½
ĠR e
ĠÑĪÐ°Ð»Ð´ÑĭÒĽ ÒĽÐ°Ð½
ÑĤ Ð¾Ð²
ĠÐ²ÐµÐ± Ð¸Ð½Ð°ÑĢ
ĠÐºÓĻÑģÑĸÐ¿Ð¾ÑĢ Ð½
ÐºÐ¾Ð½ ÑĦÐµÑĢÐµÐ½ÑĨÐ¸Ñı
ĠÐ±Ð¾Ð» ÑģÐ°Ð¼
ĠÐ²ÐµÐ» Ð¾Ñģ
ĠÒĽÐ¾Ð· ÒĵÐ°Ð´Ñĭ
ĠÐ¥Ð°Ð» ÒĽ
Ð°Ð» Ð°Ð±Ð°Ð¹
ĠÑĤÑĸÐ» Ð´ÐµÑĢÑĸ
ĠÐ´Ð¸Ð· Ð°Ð¹
Ó© Ò£
Ð± Ð°ÒĽÑĤÑĭ
.. ...
ĠÐ¨ ÐµÑĢ
ĠÒĽÐ°Ð¼ÑĤÑĥ ÒĵÐ°
ÐºÑĤ Ð¸ÐºÐ°Ð»ÑĭÒĽ
ĠÒ¯Ð¹Ð»ÐµÐ½ Ñĥ
ĠÐļÓ©Ðº ÑĤÐµÐ¼
ĠÐĲÐ»Ð´Ñĭ Ð¼ÐµÐ½
ĠÐ¶Ò±ÑĤ ÒĽÑĭÐ·
Ðľ ÑĭÑģÐ°Ð»Ñĭ
Ð³ Ð¾
ĠÓ©Ð» ÐºÐµ
ĠÐŃ Ð»ÐµÐºÑĤÑĢÐ¾Ð½Ð´Ñĭ
ÐĿÓĻÑĤÐ¸Ð¶ ÐµÐ»Ñĸ
ĠÒļÐ¾ÑĢ ÒĽÑĭÑĤ
ÑĥÐ»ÑĮÑĤ ÑĦÐ¸Ð»ÑĮÐ¼
ĠÐ¼ÑĥÐ»ÑĮ ÑĤÐ¸Ð¼ÐµÐ´Ð¸
Ò£ ÒĽÑĭÑĢ
ĠÐ´ÐµÑĢÑĤ ÐºÐµ
ĠÓ©Ð· ÑĸÐ¼Ðµ
ĠÑĤÒ¯Ñģ ÑĸÐ½ÐµÐ´Ñĸ
ĠÓĺÐ±ÑĸÑĪ Ò±Ð»Ñĭ
Ð¿Ñĥ ÑĤ
ĠÐ°ÑģÑĭÑĢÑĥ Ð´Ð°
ĠÐ¾ÑĢ Ð´Ð°ÑģÑĭ
ĠÐ¶Ð°Ð» Ð°ÑĤÒĽÐ°Ð½
ĠÐ±Ò±ÑĢÑĭÐ½ Ð½Ð°Ð½
ĠÑĤÒ±ÑĢÒĵÑĭÐ½ Ð´Ð°ÑĢÑĭÐ¼ÐµÐ½
ĠÓ©Ò£Ð´ÐµÑĥ Ð´Ñĸ
ĠÐ°Ð·Ð°Ð¹ÑĤÑĥ ÒĵÐ°
ĠÐ½ ÐµÐ½Ñĸ
Ġ64 8
ĠÑħÐ°Ð½ Ð´ÑĭÒĵÑĭ
ĠÑģÓ©Ð· Ð´ÐµÐ½
ÐµÐ¹ÑĤ ÐºÐµ
ĠÑģÐ¸ ÒĽÑĭÑĢ
ĠÐ±Ð¸ ÐµÐ½
Ð´ÑĭÒ£ ÒĵÑĭ
ĠÒļ Ð¾ÑĪ
ĠÒĽÐ°ÑĤ Ð°Ð»
ĠÐºÐµÐ·ÐµÒ£ Ð´ÐµÐ³Ñĸ
ĠÐºÓ©Ð·ÒĽÐ°ÑĢ Ð°ÑģÑĭÐ½
ĠÑģÐ°Ð» ÑĤÑĭ
Ð°ÑĨÐ¸Ñı ÒĵÐ°
ĠÑģÐ°Ð± Ð°ÒĵÑĭÐ¼
ĠÑĤÓĻ Ò£ÑĸÑĢ
ĠÒ¯ Ò£ÑĸÐ»
ÑĤÑĸÑĢ ÐµÐ´Ñĸ
ĠÓĻÐ½ Ñĸ
ĠÐ±ÑĸÐ» ÐµÑģÑĸÒ£
ÑĸÑĪ ÐµÐº
ĠÒ¯Ð¼ÑĸÑĤ ÑĤÐµÐ½
ĠÐķÐºÑĸÐ½ÑĪÑĸ Ð´ÐµÐ½
ĠÓĻÒ£Ð³ÑĸÐ¼ÐµÐ»ÐµÑģ ÑĥÐ³Ðµ
Ð´ÐµÑĢ Ð»ÑĸÐº
ĠÐĳ Ð°Ð±
ĠÐ°Ð¹Ð½Ð°Ð» Ð°ÑģÑĭÐ½Ð´Ð°
ĠÐĸÐ°Ò£Ð°ÒĽ Ð°Ð»Ð°
ĠÐ³Ð¸Ð³Ð¸ÐµÐ½ Ð°Ð»ÑĭÒĽ
ĠÒĽÐ°ÑĥiÐ¿ ÑģiÐ·
ĠÐºÓ© Ñģ
ĠÐ¶Ð°Ð· ÑĭÐ»Ñĥ
ĠÑģÓĻÐ¹ÐºÐµÑģÑĤÐµÐ½ Ð´ÑĸÑĢÑĥ
Ð´ ÑĸÐ½
ĠÐºÓ©Ð· Ðµ
ĠÐ¶Ò±Ð¼ÑĭÑģÑĤÐ°ÑĢ Ð´Ð°Ð½
ĠÐ°Ð¹Ð½Ð°Ð»ÑĭÑģ ÑĥÒĵÐ°
ĠÐ¿ÑĢÐ¾ÑĦÐµÑģÑģÐ¾ÑĢ Ñĭ
Ð°Ð½ Ð±Ð°Ð¹
ĠÐ°Ð¹ ÒĵÐ°ÒĽ
Ð´ Ð¸Ð½Ð°
ĠÒ¯Ð¹ Ð´ÐµÐ³Ñĸ
ĠÑĪÒ¯ Ò£
ĠÒĽÒ±Ð¶Ð°ÑĤÑĤÐ°ÑĢ ÑĭÐ½ÑĭÒ£
ĠÑĩÐµÐ¼Ð¿Ð¸Ð¾Ð½ Ð°ÑĤÑĭ
ĠÐ¡ Ð°Ð¹Ð»Ð°Ñĥ
ĠÐĶ Ò±ÑĢÑĭÑģ
ĠÐ¾ÒĽÑĭÑĤÑĥ ÑĪÑĭÐ»Ð°ÑĢ
ĠÐ¸ ÐµÐ¼
Ðļ Ð°Ð´ÑĢÐ»ÑĭÒĽ
ÑĭÐ½Ð´Ñĭ ÒĵÑĭÐ½
ÑģÑĭÒ£ Ð´Ð°ÑĢ
ĠÑĤÒ¯ Ð±Ñĸ
ĠÑĤ Ð¸ÑıÐ½
ĠÐ°ÑĢ Ð°ÑģÑĭÐ½Ð°
Ð¾Ð³ Ñĭ
ĠÐ¶Ð°Ð¹ ÑĭÐ»ÑĭÐ¼
ĠÐ·Ð°Ð¼Ð°Ð½ ÑĭÐ½Ð´Ð°
ĠÐ¼Ð°ÑĢ Ðº
ĠÐ±ÓĻÑĢ ÑĸÐ¼ÑĸÐ·
ĠÐŀÐ½ Ð»Ð°Ð¹Ð½
ĠÓĺÐ±Ð´Ñĸ ÒĽÐ°Ð»ÑĭÒĽ
s e
ĠÑģ ÑĭÐ¼
ĠÐĲ ÑĥÐ°
ĠÐĳ ÑİÐ´Ð¶
ĠÒĽÒ± ÑĪÐ°ÒĽ
ÐµÐ»Ñĸ Ð³Ñĸ
ĠÐ¼Ð¾Ð´ÐµÐ» ÑĸÐ½
Ðķ Ò°
ĠÑĪÐº Ð¾Ð»Ð°
ĠÐ¾ÑĢÐ½Ð°Ð»Ð°Ñģ ÑĥÑĭ
ÑĪ Ò»
ÐĲ Ðĸ
ĠÐĶ ÑĥÐ»Ð°ÑĤ
ĠÐ±ÐµÐº ÑĸÐ½
ĠÐ¶Ð°Ð¼ Ð°ÒĵÐ°ÑĤ
ĠÐ±ÐµÑĢÑĥÑĪÑĸ Ð³Ðµ
ĠÐºÑĸÑģÑĸÐ»ÐµÑĢ Ð´ÑĸÒ£
ĠÐ¶ÐµÑĤÐµÐº ÑĪÑĸÐ»ÑĸÐº
ĠÐ·Ð°ÒĽÑĭÐ¼ Ð´Ð°Ð»
ĠÐĸÒ¯ÑĢ ÐµÐº
ter n
ĠÐ±Ð°Ð· Ð°ÑģÑĭÐ½
ÑĤÐµÐ³Ð¶ÐµÐ¹ Ð»Ñĸ
Ðµ Ñĩ
ĠÓĺ ÐºÐµÐ¼
ĠÐµÑģÐµÐ¿ ÑĤÐµÐ»Ð³ÐµÐ½
Ð¾Ð· ÑĭÐ»Ð¼Ð°Ð»Ñĭ
ĠÒ±ÒĽÑģ Ð°Ð¹Ð´Ñĭ
ĠÑĤÑĢÐ°Ð½Ñģ ÑĦÐµÑĢ
ĠÐľ Ð¾Ò£ÒĵÐ¾Ð»
ĠÐ°ÑģÑĭÑĢ ÑĭÐ»ÑĥÐ´Ð°
ĠÑĪÐ°ÒĽÑĭÑĢ ÑĭÐ»ÒĵÐ°Ð½
ĠÐ±ÑĸÐ» ÐµÐº
ĠÐ°ÒĽÑĭÑĢ Ñĭ
Ð» ÑĭÐ»ÑĭÒĽ
Ġ8 2
ĠÑĢÐ°Ð´ Ð¸Ðº
ĠÒĽ ÑĭÐ»ÒĵÐ°Ð½
ĠÐľ ÐµÐ¼Ð»ÐµÐº
ĠÐ¶Ð°Ð½ÑĥÐ°ÑĢ Ð»Ð°ÑĢÐ´ÑĭÒ£
ÐļÓ© ÑĪÑĸÑĢÑĸÐ¿
ĠÐŁ ÐµÑĤÑĢ
ĠÐ¥Ð°Ð»ÑĭÒĽ ÑĤÑĭÒ£
ÑĭÑĢ Ð»Ð°Ð¿
ÑĭÑĤ Ð°Ð¹Ð´Ð°
ĠÐŀÒĽ ÑĭÐ¼ÑĭÑģÑĤÑĭ
ĠÐºÓ©Ð¿ÑĪÑĸÐ»ÑĸÐº ÐºÐµ
Ð± Ð°Ð½Ðº
ĠÐ¡ ÐµÐ¼Ð¸Ð½Ð°ÑĢ
ĠÐ±Ð°Ñģ ÑĤÐ°ÑĢ
ĠÒĽÐ°Ð± ÑĸÑĢ
ĠÐºÒ¯Ð¹ ÑĸÐ½
ĠÐºÐµÑĢ ÑĥÐµÐ½
Ð¾Ð² ÑģÐºÐ¸Ð¹
ĠÑĢÐµÐ· Ð¸Ð´ÐµÐ½
ĠÐ¶Ð°Ð· Ð°Ð»Ð°Ð½
ĠÑģ Ð°Ð»ÑĭÒĵÑĭ
Ð°ÒĽ ÑĤÐ°Ð¿
ĠÑĤÒ¯ ÑģÑĤÐµÑĢ
ĠÐ´ÐµÐ¼ ÐµÐºÑĪÑĸ
ÐµÑĤÑĸÐ½ Ñĸ
ĠÐķ Ð¡Ðķ
ĠÐ°Ð² Ð°ÑĢ
ĠÐ¢Ð¾ÑĢ ÑģÑĭÒĽ
ĠÒĽÐ¾Ð· Ñĭ
ĠÐ¾ÑĢÑĭÐ½Ð´Ð° ÒĵÐ°Ð½
% ),
ĠÐŃ ÑģÑĤ
ĠÐ¶ÐµÐ» ÑĸÑģÑĸÐ½
ĠÐ´ÓĻÐ» ÐµÐ»Ð´ÐµÑĢ
ÒļÐ°ÑĢ ÒĵÐ°Ð¼
ĠÒ±ÑģÑĤ Ð°Ð·Ñĭ
ĠÐ¾Ð¹ÑĭÐ½ Ð´Ð°ÑĢÑĭÐ½ÑĭÒ£
ĠÐ°ÑĥÐ¼Ð°Òĵ ÑĭÐ½Ð°
Ð°Ð»Ð°ÑĢ ÑĭÐ¼ÑĭÐ·Ð´ÑĭÒ£
ÒĽÐ° ÐºÓ©Ð»
ĠÐĲÒĽ ÓĻÐ´ÑĸÐ»
ĠÑĤÐ°Ð¿ÑģÑĭÑĢ Ð°Ð´Ñĭ
ĠÐŀÒĽ Ð¸ÒĵÐ°
ĠÐĳÐµÐ¹ Ð±ÑĸÑĤ
Ñģ ÐµÐ¹Ð½
i on
ĠÐ· ÑĭÐ¼ÑĭÑĢ
ĠÑĥÑĩÐ°ÑģÐº ÐµÐ»ÐµÑĢÑĸÐ½Ðµ
ĠÑĪÐ°ÒĵÑĭÐ¼ Ð´Ð°Ð½Ñĥ
ĠÑģÑĤ Ð°Ð²Ðº
ĠÐ¶Ð°ÑĢÐ¸Ñı Ð»Ð°Ð¿
ĠÐķÑĢ Ð¶Ð°Ð½
ÒļÐ°Ð·Ð°ÒĽÑģÑĤÐ°Ð½Ð´ÑĭÒĽ ÑĤÐ°ÑĢÐ´ÑĭÒ£
ĠÒĽÐ°Ð» Ñĸ
ĠÐ¿ÑĢÐ¾ ÑĤÐµÐ·
ĠÐĹ Ð°Ð¼Ð°Ð½
ĠÐ±Ó©Ð»ÑĸÐ¼ÑĪ ÐµÐ»ÐµÑĢÑĸ
Ð°Ñģ ÑĤÐ¸
Ðĺ Ð¼
ĠÐ±Ò±Ð· ÒĵÐ°Ð½
ĠÐµÑģÐºÐµÑĢ ÑĸÐ¿
ĠÐ°ÑıÒĽÑĤÐ°Ð»ÒĵÐ°Ð½ Ð½Ð°Ð½
ĠÑģÐ°Ð»Ð´ÑĭÑĢ Ð°ÑĤÑĭÐ¿
Ð» Ð°ÒĽ
ĠÐ¶Ð°Ð»Òĵ Ð°ÑģÑĭÐ¿
ĠÐºÐ¾Ð¼Ð¼Ñĥ Ð½Ð°
ĠÐ±Ð°Ð¹ÒĽ Ð°Ð¿
ĠÐĲÒĽÑĭÑĢ Ñĭ
ĠÐ«Ð» Ð´Ð¸
Ð´Ñĸ Ð»ÑĸÐº
ĠÓ©Ð· ÐµÐºÑĤÐµÐ½
ĠÐĶ Ð¸ÑĢÐµÐºÑĤÐ¾ÑĢ
ĠÐ¼ÐµÐºÑĤÐµÐ¿ ÑĤÐµÑĢÑĸ
ĠÐºÓ©Ð»ÑĸÐº ÑĤÑĸÒ£
ĠÑĪÒ¯Ò£ ÐµÐ¹ÑĤÐºÐµ
ĠÐ°Ð» ÑĤÐ°Ð½
ĠÒ¯Ð¹ÑĢ ÐµÐ½Ð³ÐµÐ½
ĠÐ¡Ð°Ð» ÑĤÐ°Ð½
ĠÐ°ÑĤ Ð°Ð´Ñĭ
ĠÐĿ Ð°ÒĽÑĤÑĭ
ĠÑģÑĭÐ½ÑĭÐ¿ ÑĤÐ°
ĠÑĤÐ°ÒĽÑĭÑĢÑĭÐ¿ ÒĽÐ°
ĠÐĶ Ð°Ð»Ð°
ĠÐ·ÐµÑĢÐµÐ½ Ð¼ÐµÐ½
y st
Ð¾Ð½ Ð´
ĠÑģÐ¾ÑģÑĭÐ½ ÒĵÑĭ
ĠÒĽÐ°Ñĥ Ð°ÒĽÑĤÐ°Ð½
ĠÐŁÐµÑĢ Ð¼Ðµ
ÐĲÒĽÑĤÓĻ ÑĤÐµ
ÐĲÒĽÑĤÓĻ ÑĤÐµÐ½ÑĸÒ£
ĠÐ±Ð¸ÐµÐ½ ÑĸÐºÑĸ
ĠÒļ Ð°ÒĽ
Ð°Ò£ Ð½ÑĭÒ£
ĠÐºÐµÐ·ÐµÒ£ Ð½ÑĸÒ£
Ġ0 8
ĠÑĩÐµÐ¼Ð¿Ð¸Ð¾Ð½ Ð°ÑĤÑĭÐ½Ð´Ð°
ĠÐĲÐ» ÒĵÐ°ÑĪ
Ġ5 50
ĠÐŃ Ð¼
Ðº Ó©Ðº
ĠÓ©Ð»ÐµÒ£ Ñĸ
ĠÓĻÐ»ÑĸÐ¿Ð±Ð¸ ÑĸÐ½Ðµ
ĠÐºÒ¯Ð· Ð³Ñĸ
ÐķÒ£Ð±ÐµÐº ÑĪÑĸ
Ð«Ðł Ð£
ĠÑĪÐ°ÒĽÑĭÑĢ ÒĵÐ°Ð½
ĠÐ¶ÑĭÐ» ÑĥÐ¼ÐµÐ½
ĠÒļÒ±Ð¿ Ð¸Ñı
ĠÑģÒ±ÑĢÐ°Ð½ÑĭÑģ ÒĽÐ°
ĠÐĶÐ°Ð¼ Ñĥ
Ð¢ Ò¯
ĠÑĢÐµÑģ ÑĸÐ¼
ÐĶ Ðĳ
ĠÒĽÐ¾Ð»Ð´Ð°Ð½ Ð±Ð°Ð»Ñĭ
ĠÑĤÐ°ÑĢÐ°Ð» ÑĥÑĭ
ÐµÑģ ÐºÐµ
ĠÑĤÐ°ÑĢ ÑĤÑĭÐ»
ĠÐ°ÑĥÑĭÑĢ Ð°Ð´Ñĭ
ÐĳÐ°Ð» Ð°Ð»Ð°ÑĢÒĵÐ°
ĠÐ± ÑĥÐ½
ĠÐ¼Ò±ÑĢ Ð°Ð³ÐµÑĢ
ĠÐ¼Ð¾ÑĢ ÑĦ
9 7
ĠÐ¾Ð¹ Ð»Ð°Ñģ
ÑĤi Ð·Ð±
ĠÑĤÐ°Òĵ Ð°Ð»Ð°
ÐĲÐ¢ Ð¢ÐĲ
ĠÐ°Ð½ÑĤÐ¸ Ð±Ð¸Ð¾ÑĤ
ĠÐºÓ© Ð³ÐµÑĢ
ĠÐ¼Ð°ÒĽÑģÐ°ÑĤÑĭ Ð¼ÑĭÐ·
ĠÐ±Ò±Ð· ÑĭÐ»ÑĥÑĭÐ½Ð°
ĠÐĸÐ°ÒĽ ÑĭÐ¿
ĠÐŀÒĽÑĥÑĪÑĭÐ»Ð°ÑĢ ÒĵÐ°
ĠÐ±ÐµÐº ÐµÑĢ
ĠÐº iÑĢ
ĠÐ°Ð»ÑĭÐ¿ ÑĤÑĭ
ĠÐ³Ð°Ð·ÐµÑĤ ÑĸÐ½Ð´Ðµ
Ð°Ñĥ Ð´Ð¸Ð¾
Ð¾Ð½ ÑĤ
ĠÐŀ Ñģ
Ġ7 4
ĠÑıÐ·Ñĭ ÐºÐ¾Ð¼
Ð±ÐµÑĤ ÑĤÐµ
ÐŃ Ð»ÐµÐºÑĤÑĢ
ĠÐ½ÐµÐ³iÐ· Ð³i
ÑĤÑĭÑĢ Ð°
ĠÑĤÐµÐ· ÑĸÑĢÐµÐº
ÒĽÐ°Ð¹Ñģ ÑĭÑģÑĭ
Òļ Ðľ
Ð°ÑĥÒĽÐ°ÑĤ ÑĭÐ½ÑĭÒ£
ÐµÐ»ÐµÑĢ ÑĸÐ¼ÐµÐ½
ĠÒ± staz
Ġ6 6
ĠÐĲÒĽÐ¿Ð°ÑĢÐ°ÑĤ ÑĤÑĭ
ĠÐ°Ð± Ð°Ð¹
ĠÐ¼Ò¯Ð³ÐµÐ´ÐµÐº ÑĤÐµÑĢ
ĠÐ¿ Ð¸
Ð»Ð°Ñģ ÑĤÐ¸ÐºÐ°Ð»ÑĭÒĽ
ĠÐºÐ¸ Ð³ÐµÐ½
ĠÒĽÐ¾ÒĵÐ°Ð¼ Ð´Ñĭ
ĠÑĥÐ½Ð¸Ð²ÐµÑĢÑģÐ¸ÑĤ ÐµÑĤÑĤÑĸÒ£
Ð¶Ð°Ð¹ Ð»Ð°ÑĢÐ´Ñĭ
ĠÐ¼Ò¯Ð» iÐº
ĠÑģÐ¾Ð½ ÑĪÐ°Ð»ÑĭÒĽÑĤÑĭ
ĠÑĪÐµÑĪ ÑĤÑĸ
Ð°Òĵ Ð°ÑģÑĭÑĢ
ÑĤiÐ·Ð± ÐµÐ»iÐº
ÐºÑĸÐ» Ñĸ
ÐºÑĸÐ» ÑĸÐºÑĤÑĸ
ĠÑĤÐ¾Ð¿ ÑĤÐ°ÑĢÐ´ÑĭÒ£
ĠÑĤÑĸÐ»ÐµÐ¹ Ð¼ÑĸÐ·
ĠÐ¿Ð°Ð¹Ð´Ð°Ð»Ð°Ð½ ÒĵÐ°Ð½Ð´Ð°
ĠÐ±Ð¸ Ðµ
ĠÐ¼Ðµ ÑĪÑĸ
Ð°ÑĤÐ°ÑĢ ÐµÑı
ĠÐ³ Ð¸Ð½ÐµÐº
ĠÑĤÐ¸ Ð³ÐµÐ½
Ġ6 2
ÐµÒ£ ÐºÐµ
ĠÐ°Ð¹ÑĤÑĤÑĭ Ð¼
Ð¾Ð½ Ð¸Ñı
ĠÑģÐµÐ±ÐµÐ¿ ÑĤÐµÑĢ
ĠÑĤÒ¯ÑģÑĸÑĢ ÑĸÐ»ÑĸÐ¼
ĠÐľ ÑĸÐ½Ð´ÐµÑĤÑĤÑĸ
Ð¢ Ó©Ð»
ĠÐ´Ò¯Ð½Ð¸Ðµ Ð´Ðµ
Ð°ÑĥÐ´Ð°Ð½ Ð´ÑĭÒĽ
ĠÒ® Ð»
ĠÐºÓ©Ðº ÑĸÑĢ
Ð³Ðµ Ð´Ñĸ
ĠÒĽÐ°Ð»ÑĭÐ¿ÑĤÐ°ÑģÑĤÑĭÑĢ Ð°Ð´Ñĭ
ĠÐ¡ ÑĤÐ°Ð½Ð´Ð°ÑĢ
ÒĽÐ°Ð· Ð°Ð½Ð½ÑĭÒ£
Ġâ Ĩ
ĠÒĽÐ¾ÑĢÒĵ Ð°Ð¹ÑĤÑĭÐ½
ĠÑĸÑĪ ÐµÐ´Ñĸ
ĠÐºÐµÑĤ ÑĥÐ³Ðµ
ĠÐ¼Ð¾Ð½Ð¸ÑĤÐ¾ÑĢÐ¸Ð½Ð³ ÑĤÑĸÒ£
ĠÐ»Ð¸Ð¼ ÑĦ
ĠÒĽÐ¾Ð½Ð´ÑĭÑĢ ÒĵÑĭÐ»Ð°ÑĢ
ĠÓĻ ÐºÐµÑģ
ĠÒĽÐ¾Ð¹ ÑĭÐ»ÑĭÐ¿
ĠÐ±Ð°ÒĵÐ°Ð»Ð°Ñĥ Ð´ÑĭÒ£
ĠÐ²Ð°Ð³ Ð¾Ð½
Ð°Ð» ÒĵÐ°
ÐĲÐĽ Ð«
Ð°Ò£ Ð´Ð°Ð¿
ĠÑįÑĤÐ½ Ð¾Ð¼ÓĻÐ´ÐµÐ½Ð¸
ĠÓ©Ð½ÑĸÐ¼ ÑĸÐ½
ÐķÐ» Ð±Ð°ÑģÑĭÐ½ÑĭÒ£
ĠÐ¼ Ð°Ð½Ñģ
ĠÐ¶ÑĸÐ³ÑĸÑĤ ÑĤÐµÑĢÑĸ
ĠÐ¶Ð¾ÑĢ ÑĭÒĽ
ĠÒĽÐ¾ÑĢ Ð°Ð¿
ĠÐĲÐ» Ð¼Ð°ÑĤ
ĠÐ±Ò¯ ÑĤÑĸÐ½
ÐĳÑĸÐ» ÑĸÐºÑĤÑĸ
Ð°ÑĤ ÑĥÑĪÑĭ
Ð½Ð¸ Ð¹
ĠÒ±Ð¼ÑĭÑĤ Ð¿
ĠÐ¾Ð±ÑĢÐ°Ð· Ð¾Ð²
ĠÐ¶ Ðµ
Ð³ Ð¸ÑģÑĤ
ĠÐ¢ Ð°Ð·Ð°
ĠÓ¨ ÑĢÑĤ
Ġ8 4
ĠÐ¼Ó©Ð»ÑĪÐµÑĢÐ»ÐµÐ¼ ÐµÐ»ÐµÑĢÑĸÐ½
ĠÒ±ÒĵÑĭÐ¼ Ñĭ
ĠÐºÒ¯Ð¹ Ð·ÐµÐ»
ĠÐ¶ Ð°ÒĵÐ°
Ð¾ÑĢ Ð¼Ð°
ÒĽÐ° ÐµÐ²
ĠÐĸÐ¾Ð± Ð°
ÐĶ Ð°ÑĢ
ĠÐ¾ÒĽÑĥÑĪÑĭÐ»Ð°ÑĢ ÑĭÐ½Ð°
ĠÐºÒ¯Ð½ ÑĤiÐ·Ð±ÐµÐ»iÐº
ĠÑĪÐ°ÑĢ ÑĤÑĭÐ½
ĠÐ´ÐµÐ¿ÑĥÑĤ Ð°ÑĤÑĤÐ°ÑĢ
ĠÐ¿Ð°Ð¹Ð´Ð°Ð»Ð°Ð½ ÑĥÑĪÑĭ
ĠÒĽÐ°Ñģ ÑĭÒĽ
iÐ¼ iÐ·
ĠÑĤÒ¯Ð· ÐµÑĤ
ĠÐ¡ÓĻÑĢ ÑģÐµÐ½
Ð¼ÐµÐ½ ÑĤÑĸ
ĠÑĤÑĸÐ» ÐµÐ³Ñĸ
ĠÐ¶Ð¾Ð± Ð°Ð»Ð°ÑĢÑĭÐ½Ð°
ĠÒĽÐ°ÑĢÐ°Ð¶ Ð°ÑĤÑĤÑĭÒ£
ĠÓ©Ð½Ð´ÑĸÑĢ ÐµÑĤÑĸÐ½
ĠÑĤÐ¾Ñģ ÒĽÐ°Ñĥ
ĠÐºÓ© Ð³ÑĸÐ»Ð´ÑĸÑĢ
ĠÐ¶ÐµÑĤ Ð¿ÐµÐ¹
ÑĭÑģÑĤÑĭÑĢ ÑĭÐ¿
Ð½Ð°Ð´ Ð¸Ð¹
ĠÑģ ÑĭÐ¹ÑĭÐ¼
ĠÑħ Ð°ÑĤÑĤÐ°ÑĢ
ĠÐ°ÑĢÑĤÑĤÑĭÑĢÑĥ Ð´ÑĭÒ£
ĠÐµ Ð·
ĠÒ¯ÑĢÐ´Ñĸ ÑģÑĸ
y s
ĠÐ¶Ð¾Ð» Ð´Ð°Ð¼
ĠÒĽÐ¾Ð½ ÑĭÑģÑĤÐ°Ð½
ĠÐ¿Ð°ÑĢÑĤ Ð¸ÑıÐ»ÑĭÒĽ
ĠÐºÐ¾ ÑĥÑĩ
ĠÐºÐ¾Ð½ÐºÑĥÑĢ ÑģÑĭ
ÑĸÐ¼Ð´ÐµÑĢ Ð³Ðµ
ĠÐ¶Ð°ÒĵÐ´Ð°Ð¹ Ð»Ð°ÑĢÒĵÐ°
ĠÐ´ÓĻÑĥÑĸÑĢ Ñĸ
ĠÑĤÑĸÐ» ÑĸÐ¼ÐµÐ½
n e
, ...
ĠÐ±Ó©Ð» i
ĠÐ±Ð°Ð½Ðº ÑĤÐµÑĢÐ´ÑĸÒ£
ĠÐ°ÑĢ Ð¼Ð°Ð½Ñĭ
[...]
