{"<s>":0,"<pad>":1,"</s>":2,"<unk>":3,"<mask>":4,"!":5,"\"":6,"#":7,"$":8,"%":9,"&":10,"'":11,"(":12,")":13,"*":14,"+":15,",":16,"-":17,".":18,"/":19,"0":20,"1":21,"2":22,"3":23,"4":24,"5":25,"6":26,"7":27,"8":28,"9":29,":":30,";":31,"<":32,"=":33,">":34,"?":35,"@":36,"A":37,"B":38,"C":39,"D":40,"E":41,"F":42,"G":43,"H":44,"I":45,"J":46,"K":47,"L":48,"M":49,"N":50,"O":51,"P":52,"Q":53,"R":54,"S":55,"T":56,"U":57,"V":58,"W":59,"X":60,"Y":61,"Z":62,"[":63,"\\":64,"]":65,"^":66,"_":67,"`":68,"a":69,"b":70,"c":71,"d":72,"e":73,"f":74,"g":75,"h":76,"i":77,"j":78,"k":79,"l":80,"m":81,"n":82,"o":83,"p":84,"q":85,"r":86,"s":87,"t":88,"u":89,"v":90,"w":91,"x":92,"y":93,"z":94,"{":95,"|":96,"}":97,"~":98,"¡":99,"¢":100,"£":101,"¤":102,"¥":103,"¦":104,"§":105,"¨":106,"©":107,"ª":108,"«":109,"¬":110,"®":111,"¯":112,"°":113,"±":114,"²":115,"³":116,"´":117,"µ":118,"¶":119,"·":120,"¸":121,"¹":122,"º":123,"»":124,"¼":125,"½":126,"¾":127,"¿":128,"À":129,"Á":130,"Â":131,"Ã":132,"Ä":133,"Å":134,"Æ":135,"Ç":136,"È":137,"É":138,"Ê":139,"Ë":140,"Ì":141,"Í":142,"Î":143,"Ï":144,"Ð":145,"Ñ":146,"Ò":147,"Ó":148,"Ô":149,"Õ":150,"Ö":151,"×":152,"Ø":153,"Ù":154,"Ú":155,"Û":156,"Ü":157,"Ý":158,"Þ":159,"ß":160,"à":161,"á":162,"â":163,"ã":164,"ä":165,"å":166,"æ":167,"ç":168,"è":169,"é":170,"ê":171,"ë":172,"ì":173,"í":174,"î":175,"ï":176,"ð":177,"ñ":178,"ò":179,"ó":180,"ô":181,"õ":182,"ö":183,"÷":184,"ø":185,"ù":186,"ú":187,"û":188,"ü":189,"ý":190,"þ":191,"ÿ":192,"Ā":193,"ā":194,"Ă":195,"ă":196,"Ą":197,"ą":198,"Ć":199,"ć":200,"Ĉ":201,"ĉ":202,"Ċ":203,"ċ":204,"Č":205,"č":206,"Ď":207,"ď":208,"Đ":209,"đ":210,"Ē":211,"ē":212,"Ĕ":213,"ĕ":214,"Ė":215,"ė":216,"Ę":217,"ę":218,"Ě":219,"ě":220,"Ĝ":221,"ĝ":222,"Ğ":223,"ğ":224,"Ġ":225,"ġ":226,"Ģ":227,"ģ":228,"Ĥ":229,"ĥ":230,"Ħ":231,"ħ":232,"Ĩ":233,"ĩ":234,"Ī":235,"ī":236,"Ĭ":237,"ĭ":238,"Į":239,"į":240,"İ":241,"ı":242,"Ĳ":243,"ĳ":244,"Ĵ":245,"ĵ":246,"Ķ":247,"ķ":248,"ĸ":249,"Ĺ":250,"ĺ":251,"Ļ":252,"ļ":253,"Ľ":254,"ľ":255,"Ŀ":256,"ŀ":257,"Ł":258,"ł":259,"Ń":260,"Ð°":261,"Ñĭ":262,"ĠÐ":263,"Ðµ":264,"Ð½":265,"ÑĤ":266,"ÑĢ":267,"Ð»":268,"Ñĸ":269,"Ñģ":270,"Ð´":271,"ÒĽ":272,"Ð¼":273,"Ñĥ":274,"Ðº":275,"Ð°ÑĢ":276,"Ð¾":277,"Ð°Ð":278,"Òĵ":279,"Ð°Ð½":280,"Ò£":281,"Ð¸":282,"ÑĭÐ½":283,"ĠÐ¶":284,"Ð°Ð»":285,"ĠÐ±":286,"ÑĪ":287,"Ð·":288,"ÐµÑĢ":289,"ĠÒĽ":290,"Ð³":291,"ĠÑĤ":292,"Ð¿":293,"ÐµÐ½":294,"ÑĸÐ½":295,"Ð´Ñĭ":296,"Ð°Ñģ":297,"ĠÐº":298,"ÓĻ":299,"Ò±":300,"Ó©":301,"ÐµÑĤ":302,"ÑĤÑĭ":303,"Ð°Ð¹":304,"ĠÑģ":305,"Ò¯":306,"ĠÐ¼":307,"ÑĭÐ»":308,"Ð´Ð°":309,"Ð±":310,"Ð¹":311,"Ð°ÑĤ":312,"Ð´Ñĸ":313,"ĠÐ¾":314,"Ð°ÒĽ":315,"ÐµÐº":316,"ÑĭÒĽ":317,"Ð°Ñĥ":318,"ÑĤÑĸ":319,"Ð¾Ð»":320,"ĠÐ´":321,"ÐµÑģ":322,"ÑĭÑģ":323,"ÐµÐ»":324,"ÑĭÒ£":325,"Ð°Ð¼":326,"ÑĸÐ»":327,"Ñı":328,"ÐµÐ¼":329,"Ð´Ðµ":330,"ĠÐµ":331,"Ð°Ð·":332,"ÑĸÐ¼":333,"ÒĵÐ°Ð½":334,"ÑĸÑĢ":335,"ÒĵÑĭ":336,"Òļ":337,"ĠÓ©":338,"ÑĭÐ·":339,"Ð³Ñĸ":340,"Ð¸Ñı":341,"ÑģÑĤ":342,"ÒĵÐ°":343,"Ð¾ÑĢ":344,"ÑĭÐ¼":345,"Ð´Ð°ÑĢ":346,"ÓĻÐ½":347,"ÑĤÐ°ÑĢ":348,"Ò±ÑĢ":349,"ÑĭÐ½Ð´Ð°":350,"ĠÐºÓ©":351,"ĠÑĪ":352,"ÑĭÐ½ÑĭÒ£":353,"ĠÓĻ":354,"ÓĻÐ½Ðµ":355,"ĠÐ¶ÓĻÐ½Ðµ":356,"Ñħ":357,"ÑĸÒ£":358,"Ð°Ð¿":359,"Ð¶":360,"ÑĭÐ¿":361,"Ð´ÑĭÒ£":362,"Ð°Ð±":363,"ĠÒļ":364,"ÐµÐ¹":365,"ÑĭÑĢ":366,"Â»":367,"ÑĸÐ·":368,"Â«":369,"ĠÐ¿":370,"ĠÐĲ":371,"ĠÐ±Ð°Ñģ":372,"Ð³ÐµÐ½":373,"ĠÐ½":374,"Ð³Ðµ":375,"Ð°Ð»ÑĭÒĽ":376,"ÑĸÐº":377,"Ð²":378,"ÑĤÑĭÑĢ":379,"ÐµÑĤÑĤÑĸ":380,"ĠÒ¯":381,"Ð°Òĵ":382,"ĠÐ±Ð¾Ð»":383,"ĠÐ°Ð»":384,"Ð¾Ð½":385,"ÑĭÐ½Ð°":386,"ÑĤÐµÑĢ":387,"Ð´Ð°Ð½":388,"Ð¸Ðº":389,"Ð»ÑĭÒĽ":390,"ÑĥÑĢ":391,"ĠÐ¶ÑĭÐ»":392,"Ġ2":393,"Ð°Ò£":394,"Ð´ÐµÑĢ":395,"ÑĪÐ°":396,"ĠÐ°ÑĢ":397,"ÐĲ":398,"Ð¾Ð¹":399,"ÑĸÐ½Ð´Ðµ":400,"Ò±Ð»":401,"Ð°Ð´Ñĭ":402,"Ò¯ÑĢ":403,"ÑĨ":404,"ĠÂ«":405,"ĠÐĳ":406,"Ð»Ð°ÑĢ":407,"Ð±Ð»":408,"ÑĸÐ½ÑĸÒ£":409,"ĠÐ¾ÑĢ":410,"ĠÐ´Ðµ":411,"ĠÐ°Ñĥ":412,"Ð°Ð»Ð°ÑĢ":413,"âĢ":414,"Ð°Ð»Ñĭ":415,"Ð¸Ð½":416,"Ð»ÐµÐº":417,"ÑĤÐµ":418,"Ð´ÑĭÒĽ":419,"ÑĸÑģ":420,"ÑĸÐ¿":421,"ĠÐ¡":422,"01":423,"Ð°Ð·Ð°ÒĽ":424,"ĠÐ°":425,"ÐµÑĤÑĤÑĸÐº":426,"ÑĦ":427,"Ð°ÑģÑĭ":428,"ÑģÑĤÐ°Ð½":429,"ĠÐľ":430,"ÑĸÐ½Ðµ":431,"ĠÐ¼ÐµÐ½":432,"ÑĤÑĥ":433,"Ð¾Ð¼":434,"ÑģÑĭ":435,"ÐµÐ¼Ð»ÐµÐº":436,"ĠÑĢ":437,"ĠÐ±ÐµÑĢ":438,"ÑĤÐ°":439,"ĠÐ±ÑĸÑĢ":440,"ÒĽÐ°":441,"ĠÒĽÑĭÐ·":442,"ÐµÐ·":443,"ĠÒ±":444,"ÑĤÐ°Ð½":445,"ĠÒĽÐ°Ð»":446,"ÑĪÑĭÐ»":447,"Ġ1":448,"ÑĤÑĭÒĽ":449,"ĠâĢ":450,"Ġ(":451,"ĠÐºÓ©ÑĢ":452,"ĠÒĽÐ°ÑĢ":453,"Ð°ÑĤÑĭ":454,"Ð´ÑĸÒ£":455,"ÐµÒ£":456,"ÐºÐµÐ½":457,"ĠÐ±Ð¾Ð¹":458,"ĠÐ°Ð¹":459,"Ð¼ÐµÑĤ":460,"Ð´Ð°Ð¹":461,"ĠÐĸ":462,"ÑĭÐ½ÑĪÐ°":463,"ĠÐļ":464,"ĠÐŀ":465,"ĠÓ©Ð·":466,"ÐµÐ¼Ð»ÐµÐºÐµÑĤÑĤÑĸÐº":467,"Ġ201":468,"Ð½ÑĭÒ£":469,"Ð¾Ñģ":470,"Ð¿Ð°ÑĢ":471,"ÑĭÑģÑĭ":472,"ÐµÑĥ":473,"Ð¼ÐµÐ½":474,"Ð³ÑĸÐ·":475,"ĠÑĤÑĥÑĢ":476,"Ð´Ð°Ñĥ":477,"ĠÐ±Ð¾Ð¹ÑĭÐ½ÑĪÐ°":478,"Ð½Ð°Ð»":479,"Ó©Ð»":480,"ĠÐ¢":481,"ĠÐ·":482,"ÑĨÐ¸Ñı":483,"ĠÐ¾Ð±Ð»":484,"Ð°ÑĤÑĭÐ½":485,"ÑĢÑĥ":486,"Ò±Ð¼":487,"Ð¡":488,"Ð°Ð¹Ð»":489,"Ð°Ð·Ð°ÒĽÑģÑĤÐ°Ð½":490,"ĠÑħ":491,"ĠÒĽÑĭÐ·Ð¼ÐµÑĤ":492,"Ð»ÐµÑĢ":493,"ÑĸÑĪ":494,"ĠÐ±Ð°ÑĢ":495,"Ð´ÐµÐ½":496,"ĠÐºÐµÐ»":497,"ĠÑĤÑĥÑĢÐ°Ð»Ñĭ":498,"ĠÐºÒ¯":499,"ÐµÑĤÑĸÐ½":500,"ĠÐ¸":501,"ÑĤÑĭÒ£":502,"ÒĽÐ°ÑĢ":503,"ĠÐ°ÑĤ":504,"Ðľ":505,"..":506,"ÑĭÒĵ":507,"ÐµÐ´Ñĸ":508,"ÐºÑĸÐ¼":509,"ĠÐ¼ÐµÐ¼Ð»ÐµÐºÐµÑĤÑĤÑĸÐº":510,"ĠÐ¶Ð°Ñģ":511,"ĠÒĽÒ±":512,"Ð¾Ð²":513,"ĠÐ¶Ò¯ÑĢ":514,"ĠÐ±ÑĸÐ»":515,"ÐºÑĸ":516,"ÓĻÑĢ":517,"ÑĮ":518,"ĠâĢĵ":519,"ĠÒ¯ÑĪ":520,"Ð´Ð°Ð¼":521,"ĠÑĤÒ±ÑĢ":522,"ÓĻÑģ":523,"ÐºÐµ":524,"ĠÐ¶Ò±Ð¼":525,"ÒĽÐ°Ð½":526,"Ġ-":527,"Ñį":528,"ĠÒĽÒ±ÑĢ":529,"ĠÑĤÒ¯":530,"Ðĳ":531,"ÑģÐµÑĤ":532,"Ð¾Ð³":533,"ĠÐł":534,"ÐµÑģÑĸ":535,"ÐµÐ»ÐµÑĢ":536,"Ð¢":537,"ĠÓ":538,"ĠÐºÓ©ÑĢÑģÐµÑĤ":539,"Ð°ÑĤÑĤÐ°ÑĢ":540,"Ð°Ð±ÑĭÐ»":541,"Ð¾ÒĽ":542,"ÑĤÐ°Ð¼":543,"Ð»Ñĸ":544,"ĠÑģÐ°Ð»":545,"ĠÒĽÐ¾Ð»":546,"ĠÐºÐµÐ·":547,"ÑĤÑĭÐ½":548,"Ðķ":549,"ĠÐ°ÒĽ":550,"ĠÐ°Ñģ":551,"Ð´ÑĸÐº":552,"ĠÒļÐ°Ð·Ð°ÒĽÑģÑĤÐ°Ð½":553,"ÑĭÐ½Ð´Ð°ÒĵÑĭ":554,"ĠÒ¯ÑĪÑĸÐ½":555,"ĠÑĤÐ°Ð»":556,"ĠÐ¶Ò±Ð¼ÑĭÑģ":557,"ÐºÐµÑĢ":558,"ĠÑĸÑĪ":559,"ĠÓ©ÑĤ":560,"ÂŃ":561,"Ð»ÑĸÐº":562,"ĠÐ¾ÒĽ":563,"Ð¿Ñĥ":564,"Ð³ÐµÑĢ":565,"ĠÐ±Ó©Ð»":566,"ÑĭÐ±":567,"ĠÐ¶Ò¯":568,"ÐµÐ´":569,"ĠÐķ":570,"ÑĤÐ¸":571,"ÑĪÑĸ":572,"Ð°ÑģÑĭÐ½ÑĭÒ£":573,"ĠÐ¾Ð±Ð»ÑĭÑģÑĭ":574,"ĠÒĽÐ¾ÑĢ":575,"ĠÐ´Ð°":576,"Ð¸ÐºÐ°Ð»ÑĭÒĽ":577,"ĠÐ¶Ð°ÑĢ":578,"ĠÐ°ÑĥÐ´Ð°Ð½":579,"ĠÑį":580,"ÑĤÐ°Ð»":581,"Ð¾Òĵ":582,"ĠÐºÒ¯Ð½":583,"ÓĻÑĥ":584,"ĠÐ¼Ò¯":585,"ÒĽÐ¾ÑĢ":586,"ÐµÑģÐ¿Ñĥ":587,"ĠÓĻÐºÑĸÐ¼":588,"ÑĤÑĭÑĢÐ°Ñĥ":589,"ÐµÑģÐ¿ÑĥÐ±Ð»":590,"ĠÐ¼ÐµÐº":591,"ÑģÑĭÐ½":592,"ÑĤÐ°Ñĥ":593,"ÐµÐ¹ÑĸÐ½":594,"ĠÐµÑģ":595,"ĠÓĻÐ»":596,"ĠÐ°Ð½":597,"ÐµÑĪ":598,"ÑĤÑĸÐº":599,"ÐµÑģÐµ":600,"Ð°ÒĵÐ°Ð½":601,"ĠÑĦ":602,"Ð³ÑĸÐ½":603,"ÑĪÑĭÐ»Ð°ÑĢ":604,"Ð¸ÑĤ":605,"ĠÐ±ÐµÑĢÑĥ":606,"ĠÒĽÐ°Ð±ÑĭÐ»":607,"ĠÐ°ÑĢÐ½Ð°Ð»":608,"ÑĪÑĭ":609,"ÐµÐ²":610,"ÐµÐ¿":611,"Ð´Ð°ÒĵÑĭ":612,"Ðļ":613,"ĠÐ±Ð°ÑģÒĽÐ°ÑĢ":614,"ÐºÑĸÐ½":615,"ÑĭÐ¼ÐµÐ½":616,"ĠÐ±Ð°Ð»":617,"ĠÐ°ÑĢÐ½Ð°Ð»ÒĵÐ°Ð½":618,"ĠÒĵ":619,"Ð°ÒĵÑĭ":620,"ĠÐ¶Ð¾Ð»":621,"ĠÐ´ÐµÐ¿":622,"ÑĥÒĵÐ°":623,"ĠÐ¶ÐµÐ¼":624,"ĠÑĪÐ°ÑĢ":625,"Ð»Ð°Ð¼":626,"ĠÐ°Ð´Ð°Ð¼":627,"ĠÑĤÐ°ÑĢ":628,"ĠÐ¶ÑĭÐ»Ð´ÑĭÒ£":629,"Ñİ":630,"ÒĽÐ¾ÑĢÐ»ÑĭÒĽ":631,"Ó©Ð·":632,"Ðŀ":633,"ÑĪÑĸÐ»":634,"Ð¸Ð¼":635,"ÑĭÐ½Ð°Ð½":636,"Ðĸ":637,"ĠÐĲÐ»":638,"ĠÐ°Ð·":639,"ĠÐŁ":640,"ĠÑĤÒ¯Ñģ":641,"ÐĨ":642,"Ð³ÑĸÐ»":643,"Ð°Ð½Ñĭ":644,"Ð°Ð¹Ð»Ð°Ñģ":645,"ĠÐ¶ÐµÐ¼ÒĽÐ¾ÑĢÐ»ÑĭÒĽ":646,"ĠÒ":647,"ĠÑĥ":648,"ĠÐ¾ÑĤÑĭÑĢ":649,"ĠÐ¶ÐµÑĢ":650,"ĠÐ³":651,"Ðł":652,"ĠÐ½Ðµ":653,"ÑĭÐ±Ð°Ð¹Ð»Ð°Ñģ":654,"ÐµÑģÐ¿ÑĥÐ±Ð»Ð¸Ðº":655,"ĠÒ¯Ð¹":656,"Ó©Ð½":657,"Ð¿Ð°ÑĢÐ°ÑĤ":658,"ĠÐ±Ð°Òĵ":659,"ĠÓĻÑĢ":660,"ÑĭÒĵÑĭ":661,"ĠÓĺ":662,"Ð°Ð¹Ð´Ñĭ":663,"ĠÐ´Ð°Ð¼":664,"ĠÐ¶Ò¯ÑĢÐ³ÑĸÐ·":665,"ĠÐ¿Ð°Ð¹":666,"Ð°Ð¶":667,"Ð±Ð¸":668,"ÑĸÐ½Ð´ÐµÐ³Ñĸ":669,"ĠÐ¶Ð°Òĵ":670,"ĠÐĿ":671,"ĠÐĶ":672,"00":673,"Ð¸ÑıÐ»ÑĭÒĽ":674,"ÑĥÑĭ":675,"Ð¹ÑĭÐ¼":676,"ÐĲÑĤÑĭÑĢÐ°Ñĥ":677,"ĠÑĸÑģ":678,"Ð´Ð°Ð»":679,"ĠÐłÐµÑģÐ¿ÑĥÐ±Ð»Ð¸Ðº":680,"ĠÐºÐ¾Ð¼":681,"ĠÐ¶ÐµÑĤ":682,"ÑĢÐ¾":683,"ĠÑĤÑĸÐ»":684,"Ð°Ðº":685,"ĠÐµÐ»":686,"Ð°Ñı":687,"ĠÐ±ÑĸÐ»ÑĸÐ¼":688,"ĠÐµÑĢ":689,"ÒĵÑĭÐ½":690,"ĠÐµÐ¼":691,"ÑĤÑĸÒ£":692,"ÐµÐºÐµ":693,"Ð°ÑģÑĤÑĭÑĢ":694,"ĠÐ±Ð°ÑģÒĽÐ°ÑĢÐ¼":695,"ĠÒĽÐ°Ð±ÑĭÐ»Ð´Ð°Ñĥ":696,"Ð½Ñĭ":697,"Ð¾Ð»Ð¾Ð³":698,"Ð¿ÐµÐ½":699,"Ð¼Ð°Ð½":700,"ĠÑĤÒ¯ÑĢ":701,"ÐµÐ¼ÐµÑģÐµ":702,"ĠÑģÐ¾":703,"ÑĸÑģÑĤ":704,"Ð°ÑģÑĭÐ½Ð´Ð°":705,"Ð°ÑĨÐ¸Ñı":706,"iÐ½":707,"Ð°Ð³":708,"Ð°ÑĤÑĭÑģ":709,"ÑĤÐ°Ð¿":710,"ÐµÐ±":711,"ĠÓ©Ð½":712,"ĠÐ¨":713,"ĠÒĽÐ°Ð¹":714,"ĠÐ¶Ó©Ð½":715,"ÒĽÑĭÐ»":716,"ĠÐ¶Ð°Ò£":717,"ĠÐ¾Ð±Ð»ÑĭÑģ":718,"Ð¸Ð»":719,"ĠÑĪÑĭÒĵ":720,"ÐµÑĢÐµÐº":721,"ÑģÐ°Ð½":722,"Ð¸Ð·":723,"ĠÐ°ÑĥÑĭÐ»":724,"Ð´Ð°ÑĢÑĭ":725,"ĠÐ¸Ð½":726,"ÓĻÐ»":727,"ÐĶ":728,"ĠÐ¾ÑĢÑĭÐ½":729,"Ð±ÐµÐº":730,"ĠÐ°Ð½ÑĭÒĽ":731,"ÑĭÑĤ":732,"Ð¸ÑģÑĤ":733,"Ð°Ð½ÑĭÑģ":734,"ÑĭÐ»ÑĭÐ¼":735,"ĠÐ±Ð¾Ð»ÑĭÐ¿":736,"ÐĿ":737,"Ñĩ":738,"ĠÒĽÐ°Ð¼":739,"ĠÐ»":740,"Ð°ÑĪ":741,"ĠÑĸÑĪÐºÑĸ":742,"Ð°ÑĢÑĭ":743,"Ð¸Ñħ":744,"ĠÐ¶Ð°ÒĵÐ´Ð°Ð¹":745,"Ð°Ð²":746,"ÐºÑĸÐ·":747,"ĠÐ±Ò±Ð»":748,"ĠÐ½ÐµÐ¼ÐµÑģÐµ":749,"ĠÐ±ÐµÐ»":750,"ĠÐ±Ó©Ð»ÑĸÐ¼":751,"ĠÐºÓ©ÑĢÑģÐµÑĤÑĸÐ»":752,"ĠÒ±Ð¹ÑĭÐ¼":753,"Ð»Ð°Ð½":754,"ÐµÑģÑĤ":755,"ĠÑĤÓ©":756,"Ġ3":757,"ĠÐ¶Ð°Ð»":758,"ĠÑĤÐµ":759,"ÑģÐ°ÑĤ":760,"Ð½Ð¸":761,"ĠÐ¶Ð°ÑĤ":762,"ĠÐ°Ð·Ð°Ð¼":763,"ÒĽÑĭ":764,"ĠÑĤÓĻÑĥ":765,"ÑĭÐ»ÒĵÐ°Ð½":766,"...":767,"ĠÒĽÐ¾Ñģ":768,"Ð¾Ð±":769,"ĠÐ´ÐµÐ³ÐµÐ½":770,"ÑĸÐ½ÐµÐ½":771,"ĠÐµÒ£":772,"ĠÐ·Ð°Ò£":773,"ĠÐ¾Ð¹":774,"ÐµÐ»Ð´ÐµÑĢ":775,"ĠÐ¶ÐµÐºÐµ":776,"ĠÒĽÐ°ÑĤÑĭÑģ":777,"ÑĪÑĭÐ»ÑĭÒĽ":778,"Ð¾Ð¿":779,"201":780,"ĠÐĨ":781,"ÐµÐ³":782,"ÑħÐ°Ð½":783,"ĠÑĤÐ°Ð»Ð´Ð°Ñĥ":784,"ÑĸÐ¼ÐµÐ½":785,"ĠÑĤÐ¸":786,"ÑĭÐ¼ÑĭÐ·":787,"Ð¼ÐºÑĸÐ½":788,"ĠÑģÑĭÐ±Ð°Ð¹Ð»Ð°Ñģ":789,"ÑģÑĸÐ·":790,"Ð¸ÐºÐ°":791,"Ð¿Ð¾ÑĢ":792,"ĠÐ¶Ð°Ð·":793,"Ð°ÑģÑĭÐ½":794,"Ð°Ð½ÑĭÒ£":795,"ÑĸÐºÑĤÑĸ":796,"ĠÐĳÒ±Ð»":797,"ĠÐ°Ð¿":798,"ÑĭÑĤÑĥ":799,"Ð°Ð¼Ð°Ð½":800,"ĠÐ¾Ð»Ð°ÑĢ":801,"ÐµÐ³Ðµ":802,"ĠÐµÐ½":803,"ĠÐ¼Ò¯Ð¼ÐºÑĸÐ½":804,"ĠÐ¾ÒĽÑĥ":805,"ĠÐ¼Ð°ÒĽ":806,"Ð¾ÒĽÑģÐ°Ð½":807,"Ð»Ñĭ":808,"Ð¼ÐµÑĤÑĤÑĸÐº":809,"ĠÐ°ÒĽÐ¿Ð°ÑĢÐ°ÑĤ":810,"Ð´ÑĸÑĢ":811,"ĠÐ¶ÑĭÐ»ÒĵÑĭ":812,"Ð¸Ñģ":813,"ĠÐ°Ð»Ñĥ":814,"ÑĤÐµÑĥ":815,"ĠÐ¶ÑĭÐ»Ñĭ":816,"Ð°ÒĽÑĤÑĭ":817,"ĠÐ±Ð¾Ð»Ð°Ð´Ñĭ":818,"Ò¯Ð¹":819,"ĠÑĤÐ¾Ð»":820,"ĠÐ±Ð°ÒĵÐ´Ð°ÑĢ":821,"ĠÓĻÐ»ÐµÑĥ":822,"Ð¸ÑĢ":823,"Ġ2018":824,"ÐµÐ½ÑĤ":825,"ÑĤÐ°ÑĢÑĭ":826,"ÑĸÐ»Ð³ÐµÐ½":827,"Ð±Ð°":828,"ÐµÑĤÑĤÐµÑĢ":829,"ĠÒĽÐ°Ð·Ð°ÒĽ":830,"ĠÐµÐ¼ÐµÑģ":831,"ÐºÑĸÐ»":832,"ÐµÑĢÑĸ":833,"ÑĤÑĤÑĭÒĽ":834,"ĠÐ±Ð°Ð¹Ð»":835,"Ð¾ÑģÐ¿Ð°ÑĢ":836,"ĠÐ½ÐµÐ³ÑĸÐ·":837,"ĠÐ±Ò±":838,"ĠÑģÐ°ÒĽ":839,"ĠÐ¶Ð°Ð½":840,"Ġ\"":841,"ĠÐ±Ð°ÑģÑĪ":842,"ĠÒĽÐ°ÑĤ":843,"ÑĸÐ¼Ð´Ñĸ":844,"ĠÐ¶Ð¾ÑģÐ¿Ð°ÑĢ":845,"Ð´ÑĭÑĢ":846,"ĠÐ°ÑģÑĭÑĢ":847,"ĠÑįÐº":848,"ÑĤÐµÐ¿":849,"ÑĸÐ¼ÑĸÐ·":850,"ĠÐ±Ð°ÑģÒĽÐ°ÑĢÐ¼Ð°ÑģÑĭ":851,"ĠÐ¾ÑģÑĭ":852,"ĠÑĤÒ±ÑĢÒĵÑĭÐ½":853,"ĠÑĢÐµÑĤ":854,"Ð°Ð±Ð°ÑĢ":855,"ĠÑħÐ°Ð»ÑĭÒĽ":856,"ĠÐµÐºÐµÐ½":857,"ĠÑĤÓĻÑĥÐµÐº":858,"ĠÒĽÐ¾Ð»Ð´Ð°Ð½":859,"ĠÒĽÐ°Ð½":860,"ÑĤÑĢ":861,"ÒĵÐ°Ð»":862,"ĠÐºÓ©Ð¿":863,"Ð±Ð°Ñģ":864,"ĠÒ±Ð»":865,"ÐŁ":866,"ĠÐ¼Ò±":867,"ÑĤÐ¾ÑĢ":868,"Ð¼ÑĸÑĢ":869,"ĠÐ¶Ò¯ÑĢÐ³ÑĸÐ·Ñĥ":870,"ĠÐ´ÐµÐ¹ÑĸÐ½":871,"Ð¾Ð·":872,"ĠÒ¯Ð»":873,"ĠÓ¨":874,"ĠÐºÓ©Ð·":875,"ĠÐ¾Ð½ÑĭÒ£":876,"ĠÐºÓ©ÑĢÑģÐµÑĤÑĸÐ»ÐµÑĤÑĸÐ½":877,"ÑģÐ°":878,"ĠÐ¾ÑĢÑĤ":879,"ĠÐ±Ð°ÒĵÐ´Ð°ÑĢÐ»Ð°Ð¼":880,"ĠÑĤÓĻÑĥÐµÐºÐµÐ»Ð´ÐµÑĢ":881,"ĠÑģÓ©Ð·":882,"ĠÑģÐ¾Ð½":883,"Ð°ÒĵÐ°":884,"ĠÐ¼ÓĻÑģ":885,"ĠÐĲÒĽ":886,"ÒĽÑĭÐ»Ñĭ":887,"ĠÐ¥":888,"ĠÐ±Ð°Ð¹Ð»Ð°Ð½ÑĭÑģ":889,"ĠÑĪÑĭÒĵÐ°ÑĢ":890,"ÑĤÑĸÐ½":891,"Ð´ÐµÐ³Ñĸ":892,"ĠÐ¾Ð»":893,"ĠÐ±Ð¾Ð»ÒĵÐ°Ð½":894,"ĠÐĺ":895,"Ð½ÑĸÒ£":896,"ÐµÑĤÑĸ":897,"ÓĻÑģÑĸÐ¿":898,"ĠÒĽÒ±ÒĽ":899,"ĠÑģÑĥ":900,"ĠÓĻÐ»ÐµÑĥÐ¼ÐµÑĤÑĤÑĸÐº":901,"ĠÐ¶Ð°ÒĽ":902,"ĠâĢĶ":903,"ĠÑģÐ°Ð¹":904,"ĠÑĤÓĻÑĢ":905,"Ð³Ð°Ð½":906,"ÑĭÐ»Ð´Ñĭ":907,"ĠÐ²":908,"ÑĤÐµÐ½":909,"Ð±ÑĸÑĢ":910,"ÐµÐ¹Ð´Ñĸ":911,"ĠÐºÐ¾Ð½":912,"âĦ":913,"âĦĸ":914,"ĠÑħÐ°Ð±Ð°ÑĢ":915,"Ð°ÑĤÑĤÐ°ÑĢÐ´Ñĭ":916,"ÑĥÐ°":917,"Ġ2017":918,"Ð´Ð°ÑĢÐ´ÑĭÒ£":919,"ÑĪÐµ":920,"ĠÑģÐ°Ð½":921,"ĠÐºÐµÑĢÐµÐº":922,"ĠÑĤÐ°Ð±":923,"Ð°Ð´":924,"ĠÐ¶Ò¯Ð·":925,"Ð¾Ð½Ð¾Ð¼":926,"ÑħÐ½":927,"ÑĭÑģÑĭÐ½ÑĭÒ£":928,"ĠÒĽÐ¾Ð¹":929,"ĠÒĽÐ°ÑĢÑģÑĭ":930,"ĠÐ¶Ò¯Ð¹":931,"ĠÐ°Ñı":932,"ĠÑĤÒ±Ð»":933,"Â»,":934,"ÑĥÐ»":935,"ĠÐ°ÑĢÒĽÑĭÐ»Ñĭ":936,"ĠÑģÓĻ":937,"ĠÐ¼ÐµÐºÐµÐ¼":938,"ÐµÐ»Ñĸ":939,"ĠÑĤÓĻÑĥÐµÐºÐµÐ»Ð´ÐµÑĢÑĸÐ½Ðµ":940,"Ò£Ð³":941,"Ð¸Ð¿":942,"Ð´Ð°Ð»Ð°Ð½":943,"Ð¼Ð°ÒĽ":944,"ÑĤÑĭÐ»":945,"ÐµÐ»ÐµÑĢÑĸ":946,"Ġ5":947,"Ð´Ð°ÑĢÐ´Ñĭ":948,"Ð´ÐµÑĥ":949,"ĠÑĸÑģÑĤ":950,"Ð°Ò£ÑĭÐ·":951,"ÑģÑĭÐ·":952,"Ð¸ÑĨ":953,"ÐķÐ¡":954,"ĠÐºÐµÑĤ":955,"ĠÓ©ÑĤÐºÑĸÐ·":956,"Ð¨":957,"ĠI":958,"ĠÑĤÑĥ":959,"ĠÒĽÐ°Ð·":960,"Ð¼Ð°":961,"ĠÐ¿Ð°Ð¹Ð´Ð°Ð»Ð°Ð½":962,"ĠÐłÐµÑģÐ¿ÑĥÐ±Ð»Ð¸ÐºÐ°ÑģÑĭÐ½ÑĭÒ£":963,"ĠÒĽÐ°Ð¶":964,"ÒļÐ°Ð·Ð°ÒĽÑģÑĤÐ°Ð½":965,"ÐºÐµÑģ":966,"Ð¾Ðº":967,"ĠÐºÐµÒ£":968,"ĠÐ¼ÓĻÑģÐµÐ»":969,"ĠÐ¾ÑĢÐ³Ð°Ð½":970,"ÓĻÑĤÐ¸":971,"ĠÑģÑĤÐ°Ð½":972,"ĠÐ¶Ó©Ð½ÑĸÐ½Ð´ÐµÐ³Ñĸ":973,"ĠÐ¼ÓĻ":974,"Ġ4":975,"ĠâĦĸ":976,"ÓĻÑĤÐ¸Ð¶":977,"Ð´ÑĭÑĢÑĥ":978,"Ð´ÐµÑģ":979,"Ð°Ñħ":980,"ĠÐ¶Ð°Ò£Ð°":981,"Ð´ÐµÑĢÑĸ":982,"Ð°Ð»Ð°ÑĢÐ´Ñĭ":983,"ĠÐ¶Ð¾Òĵ":984,"ĠÐ¶Ð¾ÒĽ":985,"ĠÐºÐµÐ¹ÑĸÐ½":986,"ĠÐ¶Ð°Ñĥ":987,"Ðĺ":988,"ÑĤÐ°Ð¹":989,"Ð°ÒĽÑĭÑĤ":990,"Ð¾ÒĵÐ°Ð¼":991,"ÐµÑĢÑĤ":992,"ĠÐ¿ÑĢÐ¾":993,"Ð¸Ð°Ð»":994,"Ð¾Ð»Ð¾Ð³Ð¸Ñı":995,"ĠÑĤÐ¾ÒĽÑģÐ°Ð½":996,"Ð±Ð°ÐµÐ²":997,"Ð°Ð±Ð°ÒĽ":998,"Ð¿Ñĭ":999,"ĠÒ°":1000,"ĠÑĤÒ±":1001,"ĠÒ±ÑģÑĭÐ½":1002,"ĠÐºÐµÑģÑĤ":1003,"Ð½Ð°Ð½":1004,"ÑĤi":1005,"ÑģÐµÑĢ":1006,"ĠÑĪÐ°ÑĢÑĥÐ°":1007,"Ð°ÒĽÑĭÑĢ":1008,"ÑĥÐ³Ðµ":1009,"ĠÐ±ÑĸÐ·":1010,"ĠÑģÑĤÐ°Ð½Ð´Ð°ÑĢ":1011,"ĠÒĽÐ°Ñĥ":1012,"Ġ19":1013,"ĠÑģÑĭÐ½":1014,"ÑĤÑĭÐ½Ð´Ñĭ":1015,"ĠÒĽÐ¾ÑĢÑĭ":1016,"ĠÐ½ÓĻÑĤÐ¸Ð¶":1017,"ĠÐ°ÑĥÐ´Ð°Ð½Ñĭ":1018,"ĠÐ°Ð½ÑĭÒĽÑĤÐ°Ð¼":1019,"ĠÒļÐ°ÑĢ":1020,"Ð«":1021,"Ð»ÐµÐ¼":1022,"ÒĵÐ°Ð½Ð°":1023,"ĠÑģÐ¾Ð»":1024,"ÑĤÑĸÐ¿":1025,"ĠÐ±Ð¸":1026,"ĠÐ¾Ðº":1027,"ĠÑģÒ±ÑĢ":1028,"ÑĤÑĤÐ°ÑĢ":1029,"ÑĸÑģÑĸ":1030,"Ð¿Ð°Ð½":1031,"ĠÒĵÐ°Ð½Ð°":1032,"Ð°ÑģÑĤÑĭÑĢÑĥ":1033,"ĠÑģÐ°Ñı":1034,"Ð±ÐµÑĢ":1035,"ÑĪÑĸÐ»ÑĸÐº":1036,"ÐµÐºÑĤÑĸ":1037,"ĠÐ°Ðº":1038,"ĠÑĤÐ°Ð¿":1039,"Ð°ÑģÑĭÐ·":1040,"Ð°Ð´Ð°":1041,"ÐµÐ¼Ð»ÐµÐºÐµÑĤ":1042,"ĠÐ°Ð¹ÑĤ":1043,"ĠÑĤÑĸÑĢ":1044,"ĠÒĵÑĭÐ»ÑĭÐ¼":1045,"Ð¸ÑģÑĤÑĢ":1046,"ÑĸÐ»Ð´Ñĸ":1047,"ĠÑĤÐµÑĢ":1048,"ĠÐºÐµÑģÑĤÐµÑģÑĸ":1049,"Ð°ÑĢÐ°Ð»ÑĭÒĽ":1050,"ĠÐ¾ÐºÑĢÑĥ":1051,"ÑĤÑĭÑĢÑĥ":1052,"ĠÐ´Ð°Ð¼Ñĥ":1053,"ĠÐ¡Ð¾Ð½":1054,"ĠÑĤÐµÒ£":1055,"Ð°Ð»Ð°ÑĢÐ´ÑĭÒ£":1056,"ĠÓĻÐºÑĸÐ¼Ñĸ":1057,"ÑĤÐ°Ñģ":1058,"ĠÑģÐ¾Ò£":1059,"ÑģÐº":1060,"ĠÐ°ÑĥÑĭÐ»Ð´ÑĭÒĽ":1061,"ĠÒĽÒ±ÒĽÑĭÒĽ":1062,"Ð´ÐµÐ½Ð¸":1063,"ĠÑĪÐµÑĪ":1064,"ÑĭÑĪ":1065,"ÐµÐ³ÐµÐ½":1066,"Ð´ÐµÐ»":1067,"ÑģÑĭÐ½Ð´Ð°":1068,"ÒĵÐ°ÑĪ":1069,"Ð´ÐµÐ¹":1070,"Ð¸Ð´":1071,"ĠÓ©Ð»":1072,"ĠÐ±Ð°ÑģÒĽÐ°":1073,"ĠÐ¶Ð¾Ð±":1074,"Ð»Ð°ÑĢÑĭ":1075,"Ð°Ð·Ð°ÑĢ":1076,"Ð»Ð°Ñĥ":1077,"Ð°ÑģÑĭÐ½Ð´Ð°ÒĵÑĭ":1078,"ÑĤÑĭÐ¿":1079,"ĠÐ±ÐµÐº":1080,"ĠÐµÑĤ":1081,"ĠÐ±ÐµÐ»Ð³ÑĸÐ»":1082,"ÑĢÐµÐ·":1083,"ÐµÐ¶":1084,"ĠÓ©Ð¼ÑĸÑĢ":1085,"ĠÑĤÒ±Ð»Òĵ":1086,"ĠÐµÐ½Ð³ÑĸÐ·":1087,"ĠÐµÑģÐµÐ¿":1088,"ÑĤÐµÑĢÑĸ":1089,"ÑĸÐ½Ð´":1090,"ĠÐµÐ´Ñĸ":1091,"Ð±Ð°Ð¹":1092,"ĠÐĵ":1093,"ÐµÐ»ÑĸÐº":1094,"ĠÓ©Ð·Ð³ÐµÑĢ":1095,"ĠÐºÓ©ÑĪ":1096,"ÑģÑĭÐ½ÑĭÒ£":1097,"Óĺ":1098,"ĠÒĽÐ¾ÑĢÑĭÑĤÑĭÐ½Ð´Ñĭ":1099,"ĠÐ´Ð°Ð¼ÑĭÑĤÑĥ":1100,"ÐµÑģÑĸÐ½":1101,"ĠÐ°Ð²":1102,"Ð¸Ð¾Ð½":1103,"ĠÒĽÐ°Ð»ÑĭÐ¿":1104,"ĠÐ±Ó©Ð»ÑĸÐ¼Ñĸ":1105,"ĠÐĳÑĸÑĢ":1106,"ĠÐ¼Ð¸Ð½":1107,"ÑĭÒ£ÑĭÐ·":1108,"Ġ7":1109,"ĠÑĤÐµÐº":1110,"ĠÑĤÐµÑħÐ½":1111,"ĠÐµÐºÑĸ":1112,"ĠÑģÐ°Ñĥ":1113,"ĠÒĽÐ¾ÒĵÐ°Ð¼":1114,"ĠÐ°ÑĤÒĽÐ°ÑĢ":1115,"ÐºÐµÐ»":1116,"ĠÐ¼ÐµÐºÑĤÐµÐ¿":1117,"Ð¼Ð°Ð¹":1118,"Ð¸Ð´ÐµÐ½":1119,"ĠÐ±Ð°Ð¹Ð»Ð°Ð½ÑĭÑģÑĤÑĭ":1120,"Ð°ÑĦ":1121,"ĠÐ¾Ð½":1122,"ĠÐ¼Ð°ÑĤ":1123,"Ð°ÑĤÑĭÐ¿":1124,"Ġ6":1125,"ĠÐ±Ð°ÑģÑĪÑĭÑģÑĭÐ½ÑĭÒ£":1126,"ĠÐ±Ð¾Ð»Ð´Ñĭ":1127,"ĠÐ¾ÑĢÑĤÐ°":1128,"ÒĽÑĭÐ½":1129,"ÑĸÐ³Ñĸ":1130,"ĠÑģÓĻÐ¹":1131,"Ð°Ð»Ð°ÑĢÑĭ":1132,"ĠÑĥÐ°ÒĽÑĭÑĤ":1133,"Ð°Ð¼ÑĭÐ·":1134,"ĠÐ¶Ò¯Ð·ÐµÐ³Ðµ":1135,"Ð¼Ñĥ":1136,"ĠÐ¶Ð°ÑĤÒĽÐ°Ð½":1137,"ĠÐ¿ÐµÐ½":1138,"Ð°Ð¹Ñĭ":1139,"ĠÐºÓ©ÑĢÑģÐµÑĤÑĥ":1140,"ÐĽ":1141,"ÑģÐ°Ñĥ":1142,"ĠÒĽÒ±Ð¶":1143,"ĠÐŀÐ»":1144,"ÑĸÐ¼Ð´ÐµÑĢ":1145,"Ò±ÒĽ":1146,"ĠÐ¶Ð¸Ð½":1147,"ĠÐ¼ÑĸÐ½Ð´":1148,"ĠÐ°Ð·Ð°Ð¼Ð°ÑĤÑĤÐ°ÑĢÐ´Ñĭ":1149,"ĠÐºÐµÐ»Ð³ÐµÐ½":1150,"ÐºÑĥÑĢ":1151,"Ð»ÑĸÐ³Ñĸ":1152,"ÒĵÑĭÐ½Ð°":1153,"ĠÐ´ÐµÐ½":1154,"ĠÐºÓĻÑģÑĸÐ¿":1155,"ĠÐ°ÑĥÐ´Ð°Ð½Ð´ÑĭÒĽ":1156,"ĠÐłÐµÑģÐ¿ÑĥÐ±Ð»Ð¸ÐºÐ°ÑģÑĭ":1157,"ĠÐ°Ð¹Ð½Ð°Ð»":1158,"ÑĢÐµÐ·Ð¸Ð´ÐµÐ½":1159,"ĠÑģÓĻÐ¹ÐºÐµÑģ":1160,"ĠÐ¶Ð°ÑĢÑĤÑĭ":1161,"ĠÐĹ":1162,"Ð°ÑĤÑĭÑĢ":1163,"Ð¼ÐµÐº":1164,"ÑĤÐµÐ¼":1165,"ÐºÐµÑĢÐ»ÐµÑĢ":1166,"ĠÐ±Ð°ÒĵÑĭ":1167,"Ð°ÑģÑĭÐ½Ð°":1168,"ĠÐºÐ¾ÑĢ":1169,"Ġ/":1170,"Ġ2016":1171,"ÑĭÐ»ÑĭÑģ":1172,"ÐµÑģÑĸÐ½ÑĸÒ£":1173,"Ð´i":1174,"Ð³ÑĸÐ½ÑĸÒ£":1175,"ĠÑįÐºÐ¾Ð½Ð¾Ð¼":1176,"ĠÐºÒ¯Ð½Ñĸ":1177,"Ð°ÑĤÑĤÑĭ":1178,"ÑĤÐ°ÒĵÑĭ":1179,"ĠÒ®":1180,"ĠÐ°ÑĪ":1181,"ĠÐ¶ÐµÐ¼ÒĽÐ¾ÑĢÐ»ÑĭÒĽÒĽÐ°":1182,"ĠÑĤÐ°ÑĢÐ¸Ñħ":1183,"ĠÐ±Ð°Ð¹":1184,"ĠÓ©Ñģ":1185,"ĠÑĤÐ°Ò£":1186,"Ð°Ð¹ÑĭÐ½":1187,"ÑĤÐ°Ð»ÒĵÐ°Ð½":1188,"ÑĢÐ°Ð½":1189,"ĠÐ°Ð»ÑĭÐ¿":1190,"Ð°Ð·Ñĭ":1191,"ÑĥÑĸ":1192,"ĠÐ±ÐµÐºÑĸ":1193,"ÑĤÐ°ÑĢÐ´ÑĭÒ£":1194,"ĠÒĽÐ°Ð±":1195,"Ð¿Ð¾ÑĢÑĤ":1196,"ĠÐµÑĤÑĥ":1197,"Ð°ÒĽÑĭÐ»":1198,"ĠÐ·Ð°Ò£Ð´Ñĭ":1199,"Ò°":1200,"ÓĻÐ»ÑĸÐ¼":1201,"ÑģÐ¸Ñı":1202,"ĠÐ±Ð°ÑĢÐ»ÑĭÒĽ":1203,"ĠÓĻÐºÑĸÐ¼ÑĸÐ½ÑĸÒ£":1204,"Ð´Ð°ÑĢÒĵÐ°":1205,"ÑĪÑĸÐ»ÐµÑĢ":1206,"ÑĢÑĤ":1207,"iÐ»":1208,"ÑĤÐ°ÑĢÐ´Ñĭ":1209,"ĠÐ£":1210,"ĠÒĽÐ°ÑĤÐ°ÑĢ":1211,"ÐĹ":1212,"Ð´Ð°ÑĢÑĭÐ½ÑĭÒ£":1213,"Ġ...":1214,"ĠÒ±ÑģÑĤ":1215,"ĠÑĤÐ°Ð±ÑĭÐ»":1216,"Ð°Ð»ÒĵÐ°Ð½":1217,"ĠÑģÐ°Ð±Ð°ÒĽ":1218,"ĠÐ°ÑĥÑĢÑĥ":1219,"Ð¾ÑĤ":1220,"ÑĭÐ»Ð°Ð´Ñĭ":1221,"Ð¾Ð»Ð¾Ð³Ð¸ÑıÐ»ÑĭÒĽ":1222,"ĠÐ¶Ð°ÑĥÐ°Ð¿":1223,"Ó¨":1224,"Ð»Ð°ÑĢÐ´ÑĭÒ£":1225,"Ð¼Ð°ÑĤÑĭ":1226,"ĠÐ±Ò±ÑĢ":1227,"ĠÑĢÐµÑģ":1228,"Ġ8":1229,"ÐµÐ¹Ð½":1230,"ĠÐ¼Ð°Ð¼Ð°Ð½":1231,"ÑĥÑĪÑĭ":1232,"ÑĤÑĸÐ»":1233,"ÑĸÐ¼Ñĸ":1234,"ÑĤÐ°ÑĢÑĭÐ½":1235,"ĠÐ¾Ð±Ð»ÑĭÑģÑĤÑĭÒĽ":1236,"ÑĸÒ£ÑĸÐ·":1237,"ÑĪÑĭÐ»ÑĭÒĵÑĭ":1238,"ÑģÑĭÑĢ":1239,"Ð»ÐµÑģ":1240,"ÑĤÒ¯":1241,"ĠÓ©ÐºÑĸÐ»":1242,"ĠÐ±Ò¯":1243,"ĠÐŃ":1244,"ĠÑĸÑĪÑĸÐ½Ð´Ðµ":1245,"ĠÐ¶Ð°Ð»Ð¿Ñĭ":1246,"ĠÐ°ÑĢÐ½":1247,"ĠÐ¶Ð¾ÒĵÐ°ÑĢÑĭ":1248,"ĠÒĽÑĥ":1249,"Ð¸Ð²":1250,"Ð´Ð¶":1251,"Ð¸Òĵ":1252,"ĠÑĤÐ°Ñģ":1253,"ĠÑĤÒ¯ÑģÑĸÐ½":1254,"ĠÑģÐ°Ð¿":1255,"Ð¾ÑĢÐ¼":1256,"ĠÐºÑĸÑĢ":1257,"ĠÐ°Ð»Ð´":1258,"ĠÒ±Ð¹ÑĭÐ¼Ð´":1259,"ÑĪÐ°ÑĢ":1260,"ĠÐ¼ÐµÐ´":1261,"Ð¸Ð½Ð³":1262,"ÐĲÐ»":1263,"ĠÑģÐµÐ½":1264,"ĠÐ±Ñİ":1265,"Ð»Ð°Ñģ":1266,"ĠÑģÑĤÐ°Ð½Ð´Ð°ÑĢÑĤÑĭ":1267,"ĠÐ¼ÐµÑĢ":1268,"ÑĸÐ½ÑĪÑĸ":1269,"Ð±Ðµ":1270,"Ð°Ð»Ð°ÑĢÑĭÐ½":1271,"ĠÐ°ÑĢÑĤ":1272,"ĠÐµÒ£Ð±ÐµÐº":1273,"ÐµÑĢÐ¸Ð°Ð»":1274,"ÑĤÑĸÑĢ":1275,"ĠÐ´ÓĻÑĢ":1276,"ĠÐ¾Ð»Ð°ÑĢÐ´ÑĭÒ£":1277,"Ġ20":1278,"ĠÓ©ÑĤÐºÐµÐ½":1279,"ĠÐľÐµÐ¼Ð»ÐµÐºÐµÑĤÑĤÑĸÐº":1280,"ÑĭÒĽÑĤÑĭ":1281,"ÓĻÐ¶":1282,"ĠÒĽÑĭÐ·Ð¼ÐµÑĤÑĤÐµÑĢ":1283,"Ð°ÒĵÑĭÐ½":1284,"Ð´ÑĸÐ³Ñĸ":1285,"ÑĭÒĵÑĭÐ½":1286,"ĠÐºÒ¯ÑĢ":1287,"ĠÑĤÐ¸ÑĸÑģ":1288,"ĠÐ±Ð¾Ð»Ð¼":1289,"ÑģÐµ":1290,"ÑģÑĭÐ»":1291,"ĠÐ¼ÓĻÐ»ÑĸÐ¼":1292,"ĠÐ¾ÑĢÐ½Ð°Ð»":1293,"20":1294,"ĠÐ·ÐµÑĢÑĤ":1295,"ĠÒĽÐ¾":1296,"ĠÑħÐ°Ð»":1297,"ĠÐľÒ±":1298,"ĠÑĤÐ¾Ð»ÑĭÒĽ":1299,"ĠÑĤÐ°Òĵ":1300,"ĠÐ¼Ð¸Ð½Ð¸ÑģÑĤÑĢ":1301,"ĠÑģÐ°ÒĽÑĤÐ°Ñĥ":1302,"),":1303,"Ð°Ð»ÑĭÒĵ":1304,"ĠÐºÐµÑĪ":1305,"ĠÐ±Ð¾Ð»ÑģÐ°":1306,"ÑĭÐ½Ð´Ð°Ñĥ":1307,"Ð±Ñĸ":1308,"Ð£":1309,"ĠÒļÒ±ÑĢ":1310,"ÑģÐµÐ½":1311,"Ð½ÐµÐ½":1312,"ĠÐ¤":1313,"ÑĭÑĢÑĤ":1314,"Ð»Ð°ÑĢÐ´Ñĭ":1315,"ĠÐ¿Ð°ÑĢ":1316,"ÒĵÐ°Ñĥ":1317,"ĠÐ±Ð°ÑģÑĤÐ°Ð¿":1318,"ĠÐ¶Ð¸":1319,"Ð¸Ð¹":1320,"ĠÐºÐµÐ·Ð´ÐµÑģ":1321,"ÑĸÐ»ÐµÐ´Ñĸ":1322,"ĠÐ¶Ð°ÑĢÐ¸Ñı":1323,"ĠÓĻÐ»ÐµÐ¼":1324,"Ð½Ð°Ð¼":1325,"ĠÐ¼Ð°Ò£ÑĭÐ·":1326,"Ð¸ÑĨÐ¸Ð½":1327,"ÑĸÑģÑĤÐµÑĢ":1328,"ÐºÐµÑĥ":1329,"ĠÑĤÓ©Ð»":1330,"Ð»ÐµÐºÑĤÑĢ":1331,"Ó©ÑĢ":1332,"ĠÐ¼ÑĭÒ£":1333,"ĠÐ¶ÐµÒ£":1334,"ĠÒļÐ°Ð·Ð°ÒĽ":1335,"ĠÐ¶ÐµÐ»":1336,"ĠÐ°Ð¿Ð¿Ð°ÑĢ":1337,"ĠÐ±Ò±Ð·":1338,"Ð°Ð»Ð°":1339,"__":1340,"ĠÐ°Ð»ÒĵÐ°Ð½":1341,"Ð¾Ð´":1342,"ÐµÐ¹ÑĤÑĸÐ½":1343,"ĠÓ©Ò£":1344,"ÑĤÐ¾Ð¼":1345,"ĠÒĽÐ°Ð¶ÐµÑĤ":1346,"ĠÐ¼ÓĻÐ´ÐµÐ½Ð¸":1347,"ĠÒĽÐ°Ð¼ÑĤÐ°Ð¼":1348,"ĠÓĻÐ´Ñĸ":1349,"Ðĵ":1350,"ĠÒļÐ°Ð·":1351,"ĠÐ¾ÐºÑĢÑĥÐ³Ñĸ":1352,"ĠÐ¶Ð°ÑģÐ°Ñĥ":1353,"ĠÒĽÐ°Ð¼ÑĤÐ°Ð¼Ð°ÑģÑĭÐ·":1354,"Ð´ÐµÑĢÑĸÐ½":1355,"ĠÐ°Ð½ÑĭÒĽÑĤÐ°Ð¼Ð°":1356,"ĠÐºÐµÐ·ÑĸÐ½Ð´Ðµ":1357,"ĠÐµÑĢÐµÐº":1358,"ĉĊ":1359,"Ð°Ð»Ð´Ñĭ":1360,"ĠÓ©ÑĤÐµ":1361,"Ð´ÑĭÒĽÑĤÐ°Ð½":1362,"ĠÐ±Ð¾Ð»Ð°ÑĤÑĭÐ½":1363,"ĠÑĤÐ¾Ð¿":1364,"ĠÐºÓ©ÑĤÐµÑĢ":1365,"ÒĵÐ°Ð·Ñĭ":1366,"Ð°Ð»Ð°Ñĥ":1367,"Ð¼ÑĭÐ·":1368,"ĠÑĢÐµ":1369,"ĠÐ±ÑİÐ´Ð¶":1370,"Ò¯Ð½Ð¸":1371,"ĠÐ°Ð¿Ð¿Ð°ÑĢÐ°ÑĤÑĭ":1372,"ĠÐ±Ð°ÒĽÑĭÐ»":1373,"ĠÑģÐ¾Ð½Ð´Ð°Ð¹":1374,"ÐºÑĸÐ¼ÐµÑĤ":1375,"ĠÑĤÐ°Ð¼":1376,"ÓĻÐ¼":1377,"ĠÐ¼Ð°ÒĽÑģÐ°ÑĤ":1378,"ĠÐºÐµÐ»ÑĸÑģ":1379,"ĠÑı":1380,"ĠÒĽÐ°ÑĤÑĭÑģÑĤÑĭ":1381,"Ġ200":1382,"ĠÐ¾ÑĤÑĭÑĢÑĭÐ¿":1383,"ĠÑĤÐ°Ð¿ÑģÑĭÑĢ":1384,"ÑĭÑģÒĽÐ°":1385,"ÑĥÑĪÑĭÐ»Ð°ÑĢ":1386,"Ġ2015":1387,"ĠÒĽÐ°ÑĢÐ¶":1388,"ÒĵÑĭÐ·":1389,"Ġ10":1390,"Ð´ÐµÐ¼":1391,"ĠÐŀÑģÑĭ":1392,"Ð¼Ð°Ð½ÒĵÐ°Ð·Ñĭ":1393,"ĠÑĤÓĻÑĢÐ±Ð¸":1394,"Ð»ÐµÑĥ":1395,"ÑĬ":1396,"ĠÐŁÑĢÐµÐ·Ð¸Ð´ÐµÐ½":1397,"Ð°ÑĤÑĤÑĭÒĽ":1398,"ĠÐºÐµÐ·Ð´Ðµ":1399,"ĠÐ±Ð°Ð»Ð°Ð»Ð°ÑĢ":1400,"Ġ9":1401,"Ð»ÑĮ":1402,"ÑĤÐ°Ð´Ñĭ":1403,"ĠÐºÐµÐ·ÐµÒ£":1404,"on":1405,"Ð´Ð°ÑĢÑĭÐ½":1406,"ĠÐºÓ©Ð¼ÐµÐº":1407,"Ð°ÒĽÑĭ":1408,"ĠÓĻÐ¹":1409,"ÑĥÐ½":1410,"ĠÐ¿ÑĢ":1411,"ĠÐ´ÐµÒ£Ð³":1412,"ĠÐ°Òĵ":1413,"ĠÐĲÒĽÑĤ":1414,"ÐµÑĢÑģ":1415,"ÑĤÐµÑģ":1416,"ĠÐ±Ð°ÒĵÑĭÑĤ":1417,"Ð¸ÑıÑģÑĭ":1418,"ÐµÐ½ÑĸÒ£":1419,"ĠÑĤÐ°Ñĥ":1420,"ĠÑĤÓ©Ð¼ÐµÐ½":1421,"ĠÒļÐł":1422,"Ð´Ð°Ð¿":1423,"ÐĲÒĽ":1424,"ÑĤÐµÑĢÐ´ÑĸÒ£":1425,"Ð°Ð¹ÑĤÑĭÐ½":1426,"ĠÐ¾ÑĢÐ½":1427,"ÑĭÐ¼Ð´Ñĭ":1428,"ĠÐ¶Ñĸ":1429,"ĠÐ¼ÐµÐ¼Ð»ÐµÐºÐµÑĤ":1430,"Ò»":1431,"Ð¶ÑĭÐ»Ð´Ñĭ":1432,"ÑĭÑģÑĤÑĭÒĽ":1433,"ĠÓĻÑģ":1434,"ĠÑĤÐ°Ð½":1435,"ĠÐºÑĸ":1436,"Ò¯Ð»":1437,"Ð»ÐµÑĢÑĸ":1438,"ĠÐĨÐĨ":1439,"ĠÒ±Ð»ÑĤÑĤÑĭÒĽ":1440,"ÑĸÐ»ÑĸÐ¼":1441,"ĠÐºÐ¾ÑĢÐ¿Ð¾ÑĢ":1442,"Ð°Ð¼Ð±":1443,"Ó©Ð¹":1444,"ÑģÑĤÐ°Ð½Ð°":1445,"Ð»Ð°ÑĢÑĭÐ½ÑĭÒ£":1446,"Ð´ÑĸÑĢÑĥ":1447,"Ð¥":1448,"ÑĭÐ·ÑĭÐ»":1449,"Ð¶Ð°Ð½":1450,"ĠÑĸÑģÐºÐµ":1451,"ĠÓ©Ð½ÐµÑĢ":1452,"ĠÐºÓ©Ð»ÐµÐ¼":1453,"Ð¾Ð²Ð°":1454,"ĠÒĽÐ¾ÑĢÒĵÐ°Ñĥ":1455,"ĠÑģÑĭÐ½ÑĭÐ¿":1456,"ĠÐĴ":1457,"Ð³ÑĸÐ»ÑĸÐºÑĤÑĸ":1458,"ÐµÑģÑĸÐ½Ð´Ðµ":1459,"ĠÐ±Ð°ÒĽÑĭÐ»Ð°Ñĥ":1460,"ÑĤÐºÐµÐ½":1461,"ĠÐ¼Ð°ÑĤÐµÑĢÐ¸Ð°Ð»":1462,"ĠÑĤÐ°Ð»Ð°Ð¿":1463,"ÑĭÐ»Ð¼":1464,"ĠÐ¾ÑĤ":1465,"ĠÐºÐµÐ»ÐµÐ´Ñĸ":1466,"ÑĭÐ»ÑĭÐ¿":1467,"Ð°Ð»ÑĮ":1468,"ÑĤÒ¯Ñģ":1469,"Ð´ÐµÑĢÑĸÐ½ÑĸÒ£":1470,"ĠÐ°ÑģÑĭÑĢÑĥ":1471,"Ð°ÒĽÑĤÐ°ÑĢ":1472,"ÒĵÑĭÑģ":1473,"ĠÐķÐ»":1474,"ÑģÑĸ":1475,"ĠÒĽÐ°Ð»Ð°ÑģÑĭ":1476,"ĠÐ¾Ð½Ñĭ":1477,"ĠÒĽÑĭÑĢ":1478,"ÑĥÑĭÐ½":1479,"Ð³i":1480,"Ð¾Ð³ÑĢ":1481,"Ð¸Ð·Ð¼":1482,").":1483,"ĠÐºÐµÐ¹":1484,"ĠÐŀÑĢ":1485,"ĠÑĤÑĸÐ·":1486,"ĠÐĲÑĤÑĭÑĢÐ°Ñĥ":1487,"ĠÑģÑĸÐ·":1488,"ĠÑĢÐµÑĤÑĸÐ½Ð´Ðµ":1489,"Ð°ÑĪÐ°":1490,"ĠÑĤÐ°ÒĽÑĭÑĢ":1491,"ÑĤÐµÑĢÑĸÐ½":1492,"ĠÒ¯Ð»ÐºÐµÐ½":1493,"2018":1494,"Ð»Ð°":1495,"ÑĸÑĢÐ³Ñĸ":1496,"ĠÐ¶Ð°Ð¹":1497,"ĠÐ½ÐµÐ³ÑĸÐ·Ð³Ñĸ":1498,"ĠÑĤÑĸÐ»Ñĸ":1499,"ar":1500,"Ð½Ð¾":1501,"Ð´ÐµÑĤ":1502,"ÐķÐ¡ÐĨ":1503,"ĠÐĲÐ»Ð¼Ð°ÑĤÑĭ":1504,"ĠÐ°Ð»Ð´Ñĭ":1505,"ÐºÑĨÐ¸Ñı":1506,"ĠÐºÐ¾ÑĢÐ¿Ð¾ÑĢÐ°ÑĨÐ¸Ñı":1507,"ĠÑħÐ°Ð»ÑĭÒĽÐ°ÑĢÐ°Ð»ÑĭÒĽ":1508,"ÑģÐ°ÑĥÐ»ÑĭÒĽ":1509,"ĠÐ¶ÐµÑĤÐºÑĸÐ·":1510,"Ð°Ð·Ð°ÑĢÐ±Ð°ÐµÐ²":1511,"ĠÐºÒ¯ÑĪ":1512,"ĠÒĽÐ°Ð»Ð°":1513,"Ð¿ÐµÑĢ":1514,"ÐķÐ¡Ð¢":1515,"ÐµÐ»ÐµÐ½":1516,"ĠÐ¿Ð¾":1517,"ÐµÑĪÐµ":1518,"ĠÐ¶Ð°ÑĢÑĤÑĭÐ¶ÑĭÐ»Ð´Ñĭ":1519,"ĠÐ¼ÐµÐ´Ð¸ÑĨÐ¸Ð½":1520,"ĠÒĽÐ°Ð¹ÑĤÐ°":1521,"ÑģÐ°ÑĤÑĭ":1522,"ĠÐ¾ÒĽÑĭÑĤÑĥ":1523,"ÐµÑĤÑĤÑĸÒ£":1524,"Ð¸ÑģÑģÐ¸Ñı":1525,"ĠÐ°ÑĤÐ°":1526,"Ð·Ñĭ":1527,"ĠÐ¡Ð¾Ð»":1528,"ĠÒĽÒ±ÑĢÐ°Ð¼":1529,"ĠÒĽÐ°Ñģ":1530,"Ð»ÑĭÒĵÑĭ":1531,"Ð°ÑĤÑĭÐ½Ð°Ñģ":1532,"ĠÑģÐµÐ±":1533,"iÑĢ":1534,"ĠÐļÐķÐ¡Ð¢":1535,"ĠÐļÐķÐ¡Ð¢ÐķÐ¡ÐĨ":1536,"Ð¼Ð°Òĵ":1537,"ĠÐĲÑĢ":1538,"19":1539,"ĠÒĵÑĭÐ»ÑĭÐ¼Ð¸":1540,"ÑģÑĤÐ°ÑĢ":1541,"ÐµÐ´Ð°Ð³":1542,"Ð°ÒĵÐ°ÑĤ":1543,"ĠÒĽÐ°Ð¼ÑĤÑĥ":1544,"ÑĭÐ½Ð´Ñĭ":1545,"Ð´ÐµÑĢÐ´Ñĸ":1546,"ÐµÐ´Ð°Ð³Ð¾Ð³":1547,"kz":1548,"ĠÒ±ÑĢ":1549,"ĠÑģÓĻÑĥ":1550,"ÑĤÐµÐ»":1551,"Ð±ÑĬ":1552,"ÐĴ":1553,"ĠÐ°ÑĤÑĤÑĭ":1554,"ÐºÐ°":1555,"ÒĽÐ°Ñĥ":1556,"âĢĶ":1557,"Ð½Ð°":1558,"ĠÐºÐµÐ¼":1559,"Ð¼ÑĥÐ½Ð°Ð»":1560,"ĠÑĪÐµÐº":1561,"ĠÓ©ÑĤÑĤÑĸ":1562,"ĠÑģÐ°ÑĢ":1563,"ĠÓĻÐ´Ðµ":1564,"ĠÑĤÐ°Ð±ÑĭÐ»Ð°Ð´Ñĭ":1565,"Ð°ÑĤÑĥ":1566,"ĠÐ¶Ð°ÒĵÐ´Ð°Ð¹Ð´Ð°":1567,"ĠÐ°Ð»Ð°Ð´Ñĭ":1568,"ĠÐ°ÑĢÐ°ÑģÑĭÐ½Ð´Ð°":1569,"ĠÐµÑĪ":1570,"Ð·Ð°Ð¼":1571,"Ð»ÐµÑĤ":1572,"ĠÐ±ÐµÐºÑĸÑĤÑĥ":1573,"ĠÓĻÑĢÑĸ":1574,"ĠÐ¶ÑĸÐ±ÐµÑĢ":1575,"ÐľÐµÐ¼Ð»ÐµÐºÐµÑĤÑĤÑĸÐº":1576,"ĠÐĳÐ°Ñģ":1577,"ĠÒĽÐ°Òĵ":1578,"ĠÐĽ":1579,"ĠÑĤÓ©ÑĢ":1580,"ĠÑħÐ°Ð±Ð°ÑĢÐ»":1581,"ĠÑģÐ¿Ð¾ÑĢÑĤ":1582,"ĠÐ¶Ð°ÑĤÑĭÑĢ":1583,"ĠÐºÐ°Ð·":1584,"ĠÐ½ÓĻÑĤÐ¸Ð¶ÐµÐ»ÐµÑĢÑĸ":1585,"ÑĥÑĭÐ½Ð°":1586,"ĠÐ¶Ð°ÒĽÑģÑĭ":1587,"ĠÐ·ÐµÑĢÑĤÑĤÐµÑĥ":1588,"ĠÐ±Ð¾Ð»ÑĥÑĭ":1589,"ĠÐ´Ò¯Ð½Ð¸":1590,"ĠÑģÐ°ÑĤÑĭÐ¿":1591,"ĠÐ¾ÑĢÑĭÐ½Ð±Ð°Ñģ":1592,"ÐºÑĥÑĢÑģ":1593,"ĠÐ±Ð°ÑģÑĪÑĭÑģÑĭ":1594,"ÑĤÑĤÑĭ":1595,"iÐ¼":1596,"Ð½ÐµÑĢ":1597,"Ð°ÑĢÐ°":1598,"er":1599,"ÒĵÐ°ÑĪÒĽÑĭ":1600,"ĠÐ½Ð°Ñĥ":1601,"ĠÐ±Ò±ÑĢÑĭÐ½":1602,"ÑĦÐµÑĢ":1603,"ÑĤÑĸÑĢÑĥ":1604,"ti":1605,"ĠÒĽÑĭÐ¼ÑĭÐ·":1606,"ĠÑģÐµÑĢ":1607,"ÑĤÐµÑĢÐ´Ñĸ":1608,"ĠÐ¾ÑĢÐ½Ð°Ð»Ð°Ñģ":1609,"Ð¸ÑĤÐµÑĤ":1610,"iÐº":1611,"ÑĤÒ¯ÑģÑĤÑĸÐº":1612,"ÑĥÐ¼":1613,"Ð´Ð¸":1614,"Ð¼ÑĥÐ½Ð°Ð»Ð´ÑĭÒĽ":1615,"ĠÐ¶ÑĭÐ»ÒĵÐ°":1616,"ĠÐ´ÐµÒ£Ð³ÐµÐ¹":1617,"an":1618,"ĠÑįÐ»ÐµÐºÑĤÑĢ":1619,"ĠÐ¶ÐµÑĢÐ³ÑĸÐ»ÑĸÐºÑĤÑĸ":1620,"ĠÐ¼ÐµÑĢÐ·":1621,"ÑĭÐ¹":1622,"ĠÐ¿ÓĻÐ½":1623,"ĠÐĲÐ¹":1624,"ĠÒĽÐ¸":1625,"ĠÐľÐľ":1626,"Ð¡ÑĭÐ±Ð°Ð¹Ð»Ð°Ñģ":1627,"ÑģÑĤÐ¸":1628,"ĠÐ´ÐµÐ´Ñĸ":1629,"ĠÐĲÒļ":1630,"ĠÒ¯Ð·":1631,"ĠÐ¾Ò£":1632,"ĠÐ°Ð»Ð¼":1633,"Ð¸ÑĦ":1634,"ÑĸÐ¿ÑĤÑĸ":1635,"ĠÒ¯ÑģÑĤ":1636,"ĠÐ»Ð°Ñĥ":1637,"ĠÐ¿Ð°Ð¹Ð´Ð°Ð»Ð°Ð½Ñĥ":1638,"ĠÐ¥Ð°Ð»ÑĭÒĽ":1639,"ĠÑĪÐ°ÑĢÑĥÐ°ÑĪÑĭÐ»ÑĭÒĵÑĭ":1640,"ĠÐ¶Ð¾ÑģÐ¿Ð°ÑĢÑĭ":1641,"ĠÒĽÒ±ÑĢÐ°Ð»":1642,"ĠÑĤÐµÐ»":1643,"Ð¸Ð¼ÑĭÐ»":1644,"ÑĨÐ¸ÑıÐ»ÑĭÒĽ":1645,"ÐµÐºÑĤÐ¾ÑĢ":1646,"ĠÐ±ÐµÑĤ":1647,"ĠÑģÒ¯Ð¹":1648,"ĠÐ¿Ð°Ð¹Ð´Ð°":1649,"ÐµÐ½Ñĸ":1650,"ĠÐ±ÑĸÑĢÑĸ":1651,"Ð¸Ð±":1652,"ĠÐ¾Ð±Ð»ÑĭÑģÑĭÐ½ÑĭÒ£":1653,"ĠÒĽÐ°Ð»ÒĵÐ°Ð½":1654,"ĠÑĢÒ±ÒĽ":1655,"ĠÓĻÑģÐµÑĢ":1656,"ĠÐµÑĤÐµ":1657,"ĠÓ¨Ð·":1658,"ĠÐķÑĢ":1659,"Ð´Ð°ÑĢÑĭÐ½Ð°":1660,"ĠÐ±ÑĸÑĢÑĸÐ½ÑĪÑĸ":1661,"ĠÐºÑĸÑĤÐ°Ð¿":1662,"ÐºÑĸÐ½ÑĪÑĸ":1663,"Ð°Ð»Ð°Ð´Ñĭ":1664,"ĠÐ¼Ò¯Ð¼ÐºÑĸÐ½Ð´ÑĸÐº":1665,"ĠÑĪÑĭÐ½":1666,"ĠÒĽÐ¾ÑĢÑĭÑĤÑĭÐ½Ð´ÑĭÑģÑĭ":1667,"ĠÑĤÐµÒ£Ð³Ðµ":1668,"ÒĽÑĤÑĭ":1669,"ĠÐ³Ð°Ð·":1670,"ĠÐºÐ¾Ð¼Ð¸ÑģÑģÐ¸Ñı":1671,"ÑģÐ°ÒĽ":1672,"ĠÐļÓ©":1673,"ĠÐ¶Ò¯ÑĢÐ³ÐµÐ½":1674,"ÑģÑĸÐ·Ð´ÑĸÐº":1675,"Ð¸Ð½Ð°ÑĢ":1676,"Ð´Ð°Ñģ":1677,"ÐºÒ¯Ð¹":1678,"ÐµÐ½ÑĤÑĸ":1679,"ÑĤÐ°Ð½Ð´ÑĭÑĢÑĥ":1680,"ĠÑĢÑĥ":1681,"Ð±Ð°ÑģÑĭ":1682,"ÑģÑĭÐ¼":1683,"ĠÑĪÑĭÒĽ":1684,"âĢĿ":1685,"âĢĵ":1686,"ÑĤÐ¾ÒĽÑģÐ°Ð½":1687,"Ð¿Ð°ÒĽ":1688,"ĠÐ°Ð¿Ð¿Ð°ÑĢÐ°ÑĤ":1689,"ĠÑĸÑĢ":1690,"2017":1691,"ĠÐĿÒ±ÑĢ":1692,"ĠÐ¶Ò±Ð¼ÑĭÑģÑĤÐ°ÑĢ":1693,"ĠÒ°Ð»":1694,"Ò±Ð»Ñĭ":1695,"ÒĵÑĭÐ»":1696,"ÐºÐµÑĢÐ»ÑĸÐº":1697,"Ð°Ð½Ðº":1698,"ĠÐ¾Ð¹ÑĭÐ½":1699,"Ð°Ð¹Ð´Ð°":1700,"ĠÐµÑģÐºÐµÑĢ":1701,"Ð°Ð»ÑĭÒĵÑĭÐ½Ð´Ð°":1702,"ĠÑĤÒ¯ÑĢÐ´Ðµ":1703,"ĠÐ±Ð¾Ñģ":1704,"ÑĭÑģÑĭÐ½Ð´Ð°":1705,"ĠÒ±Ð·":1706,"Ð·ÑĸÑĢ":1707,"ÑĤÐ¸Ð²":1708,"ĠÓ©Ð·Ð³Ðµ":1709,"ĠÐ½ÑĭÑģ":1710,"ÑĤiÐº":1711,"ĠÐ¼Ðµ":1712,"ĠÐ¶Ð°Ð±":1713,"ĠÑĦÐ¸Ð»":1714,"ĠÐ¼Ò±Ð½":1715,"ĠÐ±ÐµÑĢÐµÐ´Ñĸ":1716,"ĠÐ¼Ò±ÑĢ":1717,"ÒļÒ±ÑĢ":1718,"ĠÐ½Ð°":1719,"ÑģÐ¸":1720,"ĠÓ©Ð·Ñĸ":1721,"ÑĥÐ´Ð°Ð½":1722,"ÑĪÑĸÑģÑĸ":1723,"ĠÓ©Ð½Ð´ÑĸÑĢ":1724,"ÐµÑģÑĸÐ½Ðµ":1725,"ĠÐ¾ÑĤÑĭÑĢÒĵÐ°Ð½":1726,"ÑģÐ¿":1727,"Ð·Ð¸Ñı":1728,"ĠÒĽÐ°ÑĢÐ°Ð¹":1729,"Ġ,":1730,"ĠÐ°ÑĤÑĭÐ½Ð´Ð°ÒĵÑĭ":1731,"ĠÐ»Ð°ÑĥÐ°Ð·":1732,"ÓĻÐ¶ÑĸÑĢ":1733,"ĠÑĤÒ¯ÑĢÐ»Ñĸ":1734,"Ð¾Ð³ÑĢÐ°ÑĦ":1735,"Ð»Ð°ÑĢÑĭÐ½":1736,"ĠÑģÐ°ÑıÑģÐ°ÑĤ":1737,"ÑģÑĤÐ¸ÑĤÑĥ":1738,"Ò±Ð»ÑĤÐ°Ð½":1739,"Ð°Ð»ÑĭÒĵÑĭ":1740,"ĠÓĻÐ´ÐµÐ±Ð¸":1741,"ÐµÑģÐ¿ÑĥÐ±Ð»Ð¸ÐºÐ°Ð»ÑĭÒĽ":1742,"ĠÐ±Ð°ÑģÑĤÑĭ":1743,"ĠÑģÐµÐ·":1744,"ĠÑĸÐ·":1745,"ÑĸÐºÑĸÑĢ":1746,"ĠÑģÑĭÐ¹":1747,"....":1748,"ĠÐ¼Ð»":1749,"ĠÑĤÐ°Ð»Ð´Ð°ÑĥÐ´Ñĭ":1750,"ĠÐºÓ©ÑĢÑĸÐ½":1751,"Ġ15":1752,"ĠÑĤÒ±ÑĢÒĵÐ°Ð½":1753,"ĠÐµÐ½Ð³ÑĸÐ·Ñĥ":1754,"ĠÐ±ÑĸÑĢÐ³Ðµ":1755,"Ð½Ð¸Ð²":1756,"Ð»ÐµÑĢÑĸÐ½":1757,"Ð°ÑĤÑĤÐ°ÑĢÒĵÐ°":1758,"ĠÐ¶Ò¯ÑĢÐ³ÑĸÐ·ÑĸÐ»Ð³ÐµÐ½":1759,"Ð»Ð¾":1760,"ĠÐ¼Ò±ÒĵÐ°Ð»":1761,"ĠÐ°ÑĥÑĭÑĢ":1762,"ĠÑģÓ©Ð¹":1763,"Ð°ÑĥÑģÑĭÐ¼":1764,"ĠÐĿÐ°Ð·Ð°ÑĢÐ±Ð°ÐµÐ²":1765,"ĠÒ¯ÐºÑĸÐ¼ÐµÑĤ":1766,"ĠÐ°ÑĢÐ½Ð°Ð¹Ñĭ":1767,"ĠÑĪÐ°ÑĢÑĥÐ°ÑĪÑĭÐ»ÑĭÒĽ":1768,"in":1769,"ĠÐ±ÐµÑĢÐµÑĤÑĸÐ½":1770,"ĠÐ¾ÒĽÑĥÑĪÑĭÐ»Ð°ÑĢ":1771,"ĠÒĽÑĭÐ·Ð¼ÐµÑĤÐºÐµÑĢÐ»ÐµÑĢ":1772,"Ð¼ÐµÑĤÑĤÑĸ":1773,"Ð¼Ð¸":1774,"Ð½Ð¸Ð²ÐµÑĢÑģ":1775,"ĠÐ¼ÐµÐ´Ð¸ÑĨÐ¸Ð½Ð°Ð»ÑĭÒĽ":1776,"Ð»ÐµÐ½":1777,"ĠÐ±Ð°ÒĵÐ´Ð°ÑĢÐ»Ð°Ð¼Ð°Ð»Ð°ÑĢ":1778,"ĠÑĤÐ¾ÒĽ":1779,"ÑģÑĸÐ½":1780,"ĠÐ±ÑĸÐ·Ð´ÑĸÒ£":1781,"ÑĭÐ»Ð°ÑĤÑĭÐ½":1782,"ÑĤÐ°ÒĵÐ°Ð½":1783,"Ð¼Ò±":1784,"Ð»ÑĸÐ³ÑĸÐ½":1785,"Ð¼ÑĭÐ½":1786,"ĠÐ¼ÐµÐºÐµÐ½":1787,"Ð´ÑĭÒĵÑĭ":1788,"Ð³ÑĸÐ½Ð´Ðµ":1789,"ÐŃ":1790,"ĠÑĪÐ°ÒĽÑĭÑĢ":1791,"ĠÒĽÒ±Ð»":1792,"ĠÒĽÐ¾Ð½":1793,"ĠÒĽÐ°Ð»Ð°Ð»ÑĭÒĽ":1794,"âĢ¦":1795,"ĠÐºÐ¾Ð½ÐºÑĥÑĢÑģ":1796,"Ð´ÐµÑĢÐ´ÑĸÒ£":1797,"ĠÐ´ÑĸÐ½":1798,"ÑĤÐµÐ³ÐµÐ½":1799,"ĠÒĽÐ°Ð»Ð°Ð¹":1800,"ĠÐ¿ÑĢÐ¾ÑĨ":1801,"al":1802,"Ð³ÑĸÐ½Ðµ":1803,"ĠÓ©Ð»ÐµÒ£":1804,"ĠÐ°Ð»ÑĥÒĵÐ°":1805,"ĠÐ°ÑıÑģÑĭÐ½Ð´Ð°":1806,"ĠÐ°ÑıÒĽ":1807,"ĠÒĽÐ°Ð»ÑĭÐ¿ÑĤ":1808,"ĠÐ´ÐµÐ¼":1809,"Ð°Ð¹Ð»Ñĭ":1810,"ĠÑģÐ¸Ð¿":1811,"ĠÒĽÒ±ÑĢÑĭÐ»":1812,"Ġ--":1813,"Ð°Ò£ÑĤÐ°ÑĢ":1814,"ÑĭÒĵÑĭÐ½Ð°":1815,"ĠÑģÐ¸Ñı":1816,"ĠÐĸÒ±Ð¼":1817,"Ð°ÑģÑĭÑĢ":1818,"ĠÑĪÐµÑĤ":1819,"ÒĽÐ¸Ð¼ÑĭÐ»":1820,"ĠÑĤÐ°Ð»Ð´Ð°Ð¼":1821,"ĠÐ°ÑĥÐ´Ð°ÑĢ":1822,"ĠÐĳÑĸÐ·":1823,"Ò±ÑĢÑĭÑģ":1824,"ÑĨÐ¸Ð¾Ð½":1825,"ÐºÑĸÑĪ":1826,"ĠÐ¼Ð¾Ð½":1827,"ĠÐ¶Ð¾Ð»Ð´Ð°ÑĢÑĭ":1828,"ĠÒ±Ð¹ÑĭÐ¼Ð´Ð°ÑģÑĤÑĭÑĢÑĥ":1829,"ÑĢÑĭÐ·":1830,"ĠÑħÐ°ÑĤ":1831,"Ð°Ð¼Ð°":1832,"ÉĻ":1833,"ÑģÑĤÑĢ":1834,"Ġ12":1835,"ĠÑĤÐ°Ð±Ð¸Òĵ":1836,"ÐºÐµÐ¼":1837,"Ð»Ð°Ð½ÒĵÐ°Ð½":1838,"ÑĤÐ°ÑĤ":1839,"ĠÐĸÐ°ÑĢ":1840,"ĠÐ·Ð°Ð¼Ð°Ð½":1841,"ÑĤÑĥÐ´ÐµÐ½":1842,"ÐµÐ¼Ð°ÑĤ":1843,"ĠÓ©ÑĢ":1844,"ĠÒļÒ±":1845,"ĠÐ´Ð°Ð¹ÑĭÐ½":1846,"Ð¸ÑĤÐ¾ÑĢ":1847,"ÑĤÐµÐ³Ñĸ":1848,"ĠÒ±ÑĪ":1849,"ĠÐ±Ð°Ð»Ð°":1850,"ĠÐ´Ð¸":1851,"ĠÐ¼Ð°ÑĢ":1852,"Ġ//":1853,"ĠÐ´ÐµÐ¹Ð´Ñĸ":1854,"Ð¸Ðµ":1855,"ĠÐ½Ð°ÒĽÑĤÑĭ":1856,"ĠÐ¿ÐµÐ´Ð°Ð³Ð¾Ð³":1857,"ĠÐ¼Ð°Ò£ÑĭÐ·Ð´Ñĭ":1858,"Ð°ÑĤÑĭÐ»":1859,"ĠÑģÐ¾ÑĤ":1860,"ĠÐ¢Ò¯ÑĢ":1861,"ĠÒĽÐ¾Ð·":1862,"ĠÐ±Ð°ÑģÒĽÐ°ÑĢÑĥ":1863,"Ò¯Ð½":1864,"Ð´ÑĸÐ³ÑĸÐ½":1865,"ĠÐ±Ð°ÑģÒĽÐ°ÑĢÐ¼Ð°ÑģÑĭÐ½ÑĭÒ£":1866,"ĠC":1867,"ĠÐ±ÓĻÑĢ":1868,"ĠÑģÐ¸ÑıÒĽÑĤÑĭ":1869,"Ð°Ð½Ð´Ñĭ":1870,"ĠÐºÓ©Ðº":1871,"ÐµÐ±Ñĸ":1872,"ĠÓ©Ð·Ð³ÐµÑĢÑĸÑģÑĤÐµÑĢ":1873,"ĠA":1874,"ĠÑĤÐ°Ð½ÑĭÑģ":1875,"Ð°ÑĥÑĪÑĭÐ»Ð°ÑĢ":1876,"ĠÐ±ÐµÐ»Ð³ÑĸÐ»Ñĸ":1877,"ĠÐºÒ¯Ð¹":1878,"ĠÐ¼Ò¯ÑĪ":1879,"Ð°ÑĢÐ»ÑĭÒĽ":1880,"ĠÒĽÐ°Ð¶ÐµÑĤÑĤÑĸ":1881,"ÒĵÑĭÐ¼":1882,"ĠÓ©Ò£ÑĸÑĢ":1883,"st":1884,"ĠÑĦÐ°Ðº":1885,"ĠÑĤÓĻÐ¶ÑĸÑĢ":1886,"ÑĸÐ»ÐµÑĤÑĸÐ½":1887,"ĠâĢľ":1888,"ĠÐ¼ÐµÐºÐµÐ¼ÐµÑģÑĸ":1889,"ĠII":1890,"ĠÐĸÐ¾Ð»":1891,"ĠÐºÒ¯ÑĢÐµÑģ":1892,"Ò£ÑĸÐ»":1893,"ÑĭÒĵÑĭÐ½ÑĭÒ£":1894,"ĠÒĽÐ¾Ð»Ð´Ð°Ñĥ":1895,"Ð°ÑĥÑĭ":1896,"Ð¾ÑĢÐ´Ð°":1897,"Ð´ÐµÐ¿":1898,"ĠÐ°ÑĪÑĭÐ»":1899,"ĠÐºÐ¾Ð¼Ð¿Ð°Ð½":1900,"ĠÑĤÐ°Ð»Ð´Ð°Ð¼Ð°Ð»ÑĭÒĽ":1901,"ĠÐ´ÐµÐ¹ÑĸÐ½Ð³Ñĸ":1902,"ĠÐ°Ð²ÑĤÐ¾Ð¼":1903,"ĠÐĳÑĸÑĢÐ°ÒĽ":1904,"ÑĥÐ±":1905,"ĠÓ©ÑĤÑĸÐ½":1906,"Ð¾ÑģÑĤÐ°Ð½":1907,"Ġ11":1908,"ĠÐ¾ÑĢÑĤÐ°Ð»ÑĭÒĽ":1909,"Ð¤":1910,"Ð´Ð°ÒĵÐ°Ð½":1911,"ÒĵÑĭÑĢ":1912,"ĠÐ°Ð³":1913,"ĠÒĽÑĭÑģ":1914,"ÑĤÐµÑĢÐ³Ðµ":1915,"ĠÒĽÐ¾ÒĵÐ°Ð¼Ð´ÑĭÒĽ":1916,"ÑĭÐ¼ÑĪÐ°":1917,"ĠÓ©Ð·ÑĸÐ½":1918,"ĠÐŀÐ½ÑĭÒ£":1919,"ĠÐ¶Ð°ÑĢÑĤÑĭÐ¶ÑĭÐ»Ð´ÑĭÒĵÑĭÐ½Ð°":1920,"ĠÐĸÐ°Ò£":1921,"ÑĪÑĭÑģÑĭ":1922,"Ð»Ð°Ð¹":1923,"ÑĥÑĤ":1924,"ĠÐ¿Ð°Ð¹ÑĭÐ·":1925,"ĠÐĺÐ½":1926,"ĠÑĢÒ±ÒĽÑģÐ°ÑĤ":1927,"Ð°ÒĵÑĭÐ¼":1928,"ÐµÐ»ÐµÑĢÑĸÐ½":1929,"Ð½ÐµÑĢÐ³":1930,"ĠÒĽÐ°ÑĥÑĸÐ¿":1931,"ĠÒĵÐ¾Ð¹":1932,"Ð¼Ð°ÒĵÐ°Ð½":1933,"Ð±ÑĬÐµÐºÑĤÑĸ":1934,"ÑĭÐ½ÒĵÐ°Ð½":1935,"ĠÐĹÐ°Ò£":1936,"Ġ18":1937,"Ð¸Ð³":1938,"ĠÓĻÑĢÐµÐº":1939,"Ð¾Ð±Ð¸":1940,"ĠÐ¿ÑĸÐºÑĸÑĢ":1941,"Ð¹ÑĢ":1942,"ÒĵÐ°Ð¹":1943,"ÑĥÐ»ÑĮ":1944,"ÑĤÑĤÑĸ":1945,"Ð°ÑĨÐ¸ÑıÐ»ÑĭÒĽ":1946,"ĠÐĲÑģÑĤÐ°Ð½Ð°":1947,"ĠÓĻÐ½":1948,"ĠÓ©Ð·ÑĸÐ½ÑĸÒ£":1949,"ĠÐºÐ¸":1950,"ÐĳÒ±Ð»":1951,"ĠÑģÐ°Ð»Ð°ÑģÑĭÐ½Ð´Ð°ÒĵÑĭ":1952,"Ð°ÑĢÑĤ":1953,"ĠÑģÑĭÑĢÑĤ":1954,"ĠÐ°Ð¹ÑĭÑĢ":1955,"ĠÐŁÑĢÐµÐ·Ð¸Ð´ÐµÐ½ÑĤÑĸ":1956,"ĠÒĽÐ°ÑĤÑĭÐ½Ð°Ñģ":1957,"ÐµÑģÐµÐ¹":1958,"ÑģÑĤÐµÑĢ":1959,"ĠÑĤÒ±Ð»ÒĵÐ°Ð»Ð°ÑĢÐ´ÑĭÒ£":1960,"ĠÐ´Ð°Ñĥ":1961,"ĠÑģÐ°Ð¹ÑĭÐ½":1962,"Ð»Ð°ÑĢÒĵÐ°":1963,"ÒĵÐ½Ð¸":1964,"ĠÐ¼ÓĻÐ´ÐµÐ½Ð¸ÐµÑĤ":1965,"ĠÐºÐµÐ»Ðµ":1966,"ĠÐ¼ÓĻÐ½":1967,"ĠÒĽÐ¾Ð»Ð´Ð°Ð½Ñĥ":1968,"ĠÐ¼Ð°ÒĽÑģÐ°ÑĤÑĭÐ½Ð´Ð°":1969,"ĠÐºÐµÑĢ":1970,"Ð°Ð»Ð°ÑĢÒĵÐ°":1971,"en":1972,"Ð¾Ò£":1973,"ÑĸÐ¼ÑĸÐ·Ð´ÑĸÒ£":1974,"ĠÐ½ÑĭÑģÐ°Ð½":1975,"ĠÒĽÐ°Ð½Ð´Ð°Ð¹":1976,"ĠÒĽÐ°ÑģÐ¸":1977,"ĠÒĴ":1978,"ÑĤÐµÐ¼Ðµ":1979,"ĠÐ¼ÑĸÐ½Ð´ÐµÑĤÑĤÑĸ":1980,"ĠÑģÐµÐº":1981,"ÑĥÑĭÐ»":1982,"ĠÑįÐºÐ¾Ð½Ð¾Ð¼Ð¸ÐºÐ°Ð»ÑĭÒĽ":1983,"ÑĤÑĭÐ»ÒĵÐ°Ð½":1984,"ĠÐ°Ð¹ÑĤÑĥ":1985,"ÑĭÑģÑĤÐ°ÑĢ":1986,"ÑĤÑĥÐ´ÐµÐ½ÑĤ":1987,"ÐºÐ¾Ð½Ð¾Ð¼":1988,"ĠÑģÑĸÐ»":1989,"ĠÐ´ÐµÑĢÐµÐº":1990,"ÑĭÐ»ÑĥÑĭ":1991,"Ð½ÐµÑĪÐµ":1992,"Ð½ÐµÑģ":1993,"ĠÒĽÒ±Ð½":1994,"ĠÐ´ÓĻÐ»":1995,"Ð°ÑģÐ°":1996,"ĠÐ¸Ð¼":1997,"ĠÐ»Ð°ÑĥÐ°Ð·ÑĭÐ¼":1998,"Ò±Ñģ":1999,"ĠÐ´Ò±ÑĢÑĭÑģ":2000,"Ð¿Ð°ÑĢÑĤÐ°Ð¼":2001,"ĠÑĤÐ°ÒĵÑĭ":2002,"ĠÐ±ÐµÑĢÐ³ÐµÐ½":2003,"Ð°Ð¹ÑĭÐ½Ð´Ð°Ñĥ":2004,"ĠÐ°ÐºÑĤÑĸ":2005,"ĠÐ°Ð¹ÑĤÒĽÐ°Ð½":2006,"ĠÐ°Ð»Ð´ÑĭÐ½":2007,"ĠÑĤÐ°ÒĽÑĭÑĢÑĭÐ±":2008,"ĠÒĽÐ°ÑĢÐ°Ð¶":2009,"ĠÑģÒ¯ÑĢ":2010,"ĠÐ¾ÒĵÐ°Ð½":2011,"Ð¾Ð±Ð¸Ð»ÑĮ":2012,"Ð°ÑĤÑĥÑĢ":2013,"ÑĤÐ°Ð¼Ð°":2014,"ĠÐ°ÑĢÑĤÑĤÑĭÑĢÑĥ":2015,"ĠÐ±ÐµÑģ":2016,"ĠÐµÐºÑĸÐ½ÑĪÑĸ":2017,"ÑĢÐ°ÑĤ":2018,"ĠÐ¿Ð°ÑĤ":2019,"ĠÒĽÐ¸ÑĭÐ½":2020,"ÑĸÑģÑĤÑĸÐº":2021,"ĠÐ±ÐµÑĢÑĸÐ»Ð³ÐµÐ½":2022,"ĠÑĤÐµÑħÐ½Ð¾Ð»Ð¾Ð³Ð¸Ñı":2023,"ĠÐ¼Ó©Ð»":2024,"Ò®":2025,"ÐµÐ¼ÑĸÐ·":2026,"ĠÐ¼Ð°ÑĥÑģÑĭÐ¼":2027,"ÐµÑĤÐºÐµ":2028,"ĠÒĽÒ±ÑĢÑĭÐ»ÑĭÑģ":2029,"ĠÐºÐµÐ»ÑĸÐ¿":2030,"ĠÐºÐµÒ£ÐµÑģ":2031,"Ð°ÐµÐ²":2032,"Ð°ÑĤÐ¸Ð²":2033,"ĠÐ¼Ð°Ð·":2034,"ĠÐµÐºÐµÐ½ÑĸÐ½":2035,"Ð°Ð¹ÑĤ":2036,"Ò£Ð³ÑĸÐ¼":2037,"ĠÐ¸Ðµ":2038,"ĠÑĤÐ¸ÑĸÐ¼Ð´Ñĸ":2039,"ĠÐ±Ò¯Ð³ÑĸÐ½":2040,"ĠÐ¼ÐµÑĤ":2041,"ĠÒĽÐ°Ò£ÑĤÐ°ÑĢ":2042,"iÒ£":2043,"Ġ0":2044,"ĠÐ°ÒĽÑĭÐ½":2045,"ÑģÑĭÐ½Ð´Ð°Ð¹":2046,"ĠÓ©ÑĤÐºÑĸÐ·Ñĥ":2047,"ÐĲÐ·Ð°Ð¼":2048,"ÑĥÑģ":2049,"ĠÑĪÑĭÒĽÒĽÐ°Ð½":2050,"ÑĭÐ»ÑĭÒĽ":2051,"Ð°Ð»Ð´ÑĭÒĽ":2052,"ĠÑĤÐ¾ÒĽÑģÐ°Ð½ÑĭÐ½Ð´Ð°":2053,"Ð´ÑĢ":2054,"Ó©Ð±Ðµ":2055,"Ð¢ÐĲ":2056,"ĠÓĻÐ·ÑĸÑĢ":2057,"ĠÐ¶Ò±Ð¼ÑĭÑģÐ¿ÐµÐ½":2058,"ĠÑĥÐ½Ð¸Ð²ÐµÑĢÑģ":2059,"ĠÑĤÑĸÑĢÐºÐµÑĥ":2060,"Ð°Ð¼ÐµÐ½":2061,"ÒĽÒ±":2062,"ĠÐ°Ð»ÒĵÐ°ÑĪÒĽÑĭ":2063,"ÑħÐ°Ð½Ð¸":2064,"ÑĤÐ°Ð»Ð´Ñĭ":2065,"ĠÑĪÐµÑĪÑĸÐ¼":2066,"ĠÐ±ÑĸÐ»Ð´ÑĸÑĢ":2067,"Ð°Ð»ÑĭÐ¼":2068,"ÑĥÐ´Ñĭ":2069,"ÑĸÐ»ÑĸÐ¿":2070,"ĠÒĵÐ°ÑģÑĭÑĢ":2071,"ĠÑįÐ»ÐµÐºÑĤÑĢÐ¾Ð½":2072,"ĠÐºÐµÑĤÐºÐµÐ½":2073,"ÑģÒ±Ð»ÑĤÐ°Ð½":2074,"Ð±Ð°ÑĤ":2075,"ĠÐ±Ñĸ":2076,"ĠÑĭÒĽ":2077,"Ð´Ð°ÑĢÑĭÐ½Ð´Ð°":2078,"ÒĽÑĭÐ·":2079,"ĠÐ±Ð°ÑĢÑĭÑģÑĭÐ½Ð´Ð°":2080,"10":2081,"ĠÑģÑĥÑĢ":2082,"ÑģÐ¸Ñħ":2083,"ĠÐĳÐ°Ð»":2084,"Ġ14":2085,"ĠÓĺÑĢ":2086,"ĠÐºÐ»":2087,"ĠÐ±Ð°ÑģÑĪÑĭÐ»Ð°ÑĢ":2088,"ĠÒ¯Ð½":2089,"Ð½Ð¾Ð²":2090,"Ġ25":2091,"Ð¾Ñĩ":2092,"iÐ½Ð´Ðµ":2093,"ĠÐ´ÓĻ":2094,"ÐµÐ¼ÐµÐ½":2095,"ĠÑħÐ°Ð±Ð°ÑĢÐ»Ð°Ð¹Ð´Ñĭ":2096,"ĠÐ¿Ð»":2097,"ĠÒĽÐ°ÑĢÐ¶Ñĭ":2098,"Ð¸Ð»Ð»":2099,"Ð°ÐºÑĤ":2100,"17":2101,"ĠÑĤÐµÐºÑģÐµÑĢ":2102,"ÐºÑĸÑĢ":2103,"ÐºÐ¾Ð¼":2104,"ĠÐ¡ÑĸÐ·":2105,"ĠÐºÓ©Ò£ÑĸÐ»":2106,"ÐµÑĦ":2107,"ĠÐ±ÐµÐ¹Ð½":2108,"ÒļÐ°Ð·":2109,"ĠÑĤÒ±ÑĢÒĵÑĭÐ½Ð´Ð°ÑĢÐ´Ñĭ":2110,"ÑĥÐ´Ð°":2111,"ĠÐ¾ÑĢÑĭÐ½Ð´Ð°Ð»":2112,"ĠÐºÐ»Ð°Ñģ":2113,"ĠÐ°Ð´Ð°Ð¼Ð½ÑĭÒ£":2114,"ĠÐ±ÐµÐ»ÑģÐµÐ½":2115,"ĠÒ°Ð»ÑĤÑĤÑĭÒĽ":2116,"ĠÐ¼Ó©Ð»ÑĪ":2117,"ÑĤÐµÑĢÑĸÐ½ÑĸÒ£":2118,"ÑĪÑĭÐ½":2119,"ĠÑħÐ°Ð»ÒĽ":2120,"ĠÒĽÐ°":2121,"ĠÐºÑĥÑĢ":2122,"ĠÒĽÑĭÐ·Ð¼ÐµÑĤÑĸ":2123,"ĠÐ´ÐµÐ¿Ð°ÑĢÑĤÐ°Ð¼":2124,"ĠÐ¼ÐµÐ¼Ð»ÐµÐº":2125,"ĠÑģÐ¾Òĵ":2126,"ÑĥÑĪÑĭÐ»ÑĭÒĽ":2127,"ÑĸÐ»Ñĥ":2128,"ĠÑĩ":2129,"ĠÐ¼ÓĻÑģÐµÐ»ÐµÐ»ÐµÑĢÑĸ":2130,"Ð¿Ð°Ð¹":2131,"ĠÐµÑĤÐµÐ´Ñĸ":2132,"ÒĽÐ°Ñģ":2133,"ÑĢÐ¸":2134,"Ġ2014":2135,"ÑĤÐ°ÑĢÒĵÐ°":2136,"ÑģÐ°ÑĢ":2137,"ĠÒ¯Ð¹ÑĢ":2138,"ĠÐºÐµÐ»Ð´Ñĸ":2139,"ĠÐ±ÑĸÑĢÐ½ÐµÑĪÐµ":2140,"Ð¼Ðµ":2141,"ĠÓĻÑģÐºÐµÑĢ":2142,"ĠÑĤÓĻÑĢÑĤÑĸ":2143,"ÓĻÑģÑĸ":2144,"ĠÑģÐµÐ±ÐµÐ¿":2145,"ÑĭÐ¼Ð°Ð»":2146,"ĠÐ¶ÑĭÐ»Ð´Ð°Ð½":2147,"ĠÐµÑĢÐµÐºÑĪÐµ":2148,"ĠÐ´ÓĻÑĢÑĸ":2149,"ÐµÑĤÐµÑĢ":2150,"ĠÑĢÐµÑģÐ¼Ð¸":2151,"ĠÑĭÐ½":2152,"ĠÒ±Ð¹ÑĭÐ¼Ð´Ð°ÑģÑĤÑĭÑĢ":2153,"ĠÐ±ÑĸÑĢÐ°ÒĽ":2154,"ÑģÑĭÐ½Ð°":2155,"ĠÑĤÒ±ÑĢÐ°ÒĽÑĤÑĭ":2156,"Ð°ÑĤÐµÐ³":2157,"ĠÐ¶Ò¯Ðº":2158,"Ò¯ÑĢÐ»Ñĸ":2159,"ÑĭÑģÑĤÑĭÑĢ":2160,"ĠÑģÐ°Ð½Ñĭ":2161,"ĠÒĽÒ±Ð¶Ð°ÑĤÑĤÐ°ÑĢ":2162,"ĠÒĽÐ°Ð·Ð°ÒĽÑģÑĤÐ°Ð½":2163,"Ð°Ð»Ð¿Ñĭ":2164,"ĠÐ±Ó©Ð»ÑĸÐ¼ÑĸÐ½ÑĸÒ£":2165,"Ð°Ð¼ÑĭÑĢ":2166,"ÑĭÑģÑĤÑĭ":2167,"Ð¼ÐµÐ¹":2168,"ĠÑĤÒ¯ÑģÐºÐµÐ½":2169,"ÐĿÒ±ÑĢ":2170,"ĠÐ·Ð°Ò£Ð½Ð°Ð¼":2171,"Ð°ÑĪÐ°ÒĽ":2172,"ĠÑĤÐ¾ÒĽÑģÐ°Ð½ÑĭÐ½Ð°":2173,"ĠÐµÑĢÐµÐºÑĪ":2174,"ĠÑĤÒ±Ð»ÒĵÐ°Ð»Ð°ÑĢÐ´Ñĭ":2175,"ĠÒļÒ±ÑĢÐ¼Ð°Ð½ÒĵÐ°Ð·Ñĭ":2176,"Ġ199":2177,"ĠÒĽÐ¾ÑģÑĭÐ¼ÑĪÐ°":2178,"ĠÑĪÑĭÒĵÐ°ÑĢÐ¼Ð°":2179,"ĠÐºÓ©ÑĪÑĸÑĢ":2180,"ĠÑģÐ¸Ð¿Ð°ÑĤ":2181,"ĠÐ¶Ó©Ð½ÑĸÐ½Ð´Ðµ":2182,"Ð´Ñĥ":2183,"Ò¯Ð³ÑĸÐ½":2184,"ĠÐĶÐµÐ½":2185,"ĠÐºÑĥ":2186,"ÐµÑģÑģ":2187,"ÑĸÐ»ÑĸÐº":2188,"ÐµÐ»ÐµÑĢÐ´Ñĸ":2189,"ĠÐ¶ÐµÐº":2190,"ĠÐ´ÐµÐ½ÑģÐ°ÑĥÐ»ÑĭÒĽ":2191,"ĠÐłÐµÑģÐµÐ¹":2192,"ÑĤÐµÒ£":2193,"ÑĤÐ°Ð»Ð°Ð´Ñĭ":2194,"ÑĢÐ°Ð¼":2195,"Ð°ÑĥÒĵÐ°":2196,"ĠÐľÐµÐ½":2197,"ĠS":2198,"ĠÐ°Ð»Ð¼Ð°Ð¹":2199,"ĠÐ°Ð·Ð°Ð¼Ð°ÑĤÑĤÑĭÒĽ":2200,"____":2201,"ĠÐ±ÐµÐ¹":2202,"ĠÐ¿Ð¾ÑĢ":2203,"ĠÒļÑĭÐ·ÑĭÐ»":2204,"Ð´ÐµÐ»Ð³ÐµÐ½":2205,"Ð°Ð²Ð»Ð¾":2206,"Ð°ÑħÑģÐº":2207,"Ð¸Ð¼Ð¿":2208,"ÒļÒ±ÑĢÐ¼Ð°Ð½ÒĵÐ°Ð·Ñĭ":2209,"ĠÐ°Ð´Ð°Ð¼Ð´Ð°ÑĢ":2210,"Ð¸ÑıÐ½ÑĭÒ£":2211,"ĠÓĻÐºÑĸÐ¼ÑĪÑĸÐ»ÑĸÐº":2212,"ĠÓĻÐºÐµÐ»":2213,"Ð½Ðµ":2214,"Ð°ÑĤÐ¾ÑĢ":2215,"ĠÑįÐºÐ¾Ð½Ð¾Ð¼Ð¸ÐºÐ°":2216,"ĠÐºÐµÐ¿":2217,"ĠÑģÑĤÑĥÐ´ÐµÐ½ÑĤ":2218,"Ð°Ð²Ð»Ð¾Ð´Ð°ÑĢ":2219,"Ð¼ÐµÑĢ":2220,"ĠÑĦÑĥÐ½":2221,"Ð°ÑıÐ½":2222,"ĠÑĤÑĥÒĵÐ°Ð½":2223,"Ð°ÑĤÑĤÑĭÒ£":2224,"ĠÑħÐ°Ð±Ð°ÑĢÐ»Ð°Ð¼":2225,"ÒĽÐ°Ð¹":2226,"Ġt":2227,"ĠÐ¡Ð¾Ð½Ð´ÑĭÒĽÑĤÐ°Ð½":2228,"Ð±Ð¾Ð»":2229,"ĠÐĲÐ½":2230,"or":2231,"ÑĥÑĪ":2232,"ĠÐºÐµ":2233,"ĠÐ°ÑĢÐ°ÑģÑĭÐ½Ð´Ð°ÒĵÑĭ":2234,"ĠÐĲÒĽÑĤÓĻ":2235,"Ġ17":2236,"ĠW":2237,"Ð¿Ðµ":2238,"ĠÓĻÒ£Ð³ÑĸÐ¼":2239,"Ġ16":2240,"ĠÐ¼Ð°":2241,"ĠN":2242,"ĠÐ½Ð°ÑĢ":2243,"ĠÑĨ":2244,"Ð°Ð·Ð°":2245,"ĠÐ°Ð¹ÑĤÑĭÐ¿":2246,"ĠÑĤÑĸÑĢÐºÐµÐ»":2247,"ÓĻÐ´ÐµÐ½Ð¸":2248,"ĠÐºÓ©Ð±":2249,"ĠÑģÐ°Ð¹ÑĤ":2250,"Ð´ÐµÐº":2251,"ÐµÐ»ÑĮ":2252,"Ð¾ÑĢÑĭÐ½":2253,"ĠÒļÐ°Ð·Ð°ÒĽÑģÑĤÐ°Ð½Ð½ÑĭÒ£":2254,"ÑĥÐ´ÑĭÒ£":2255,"ÑĸÐ½ÐµÐ´Ñĸ":2256,"Ð¸Ð·Ð½ÐµÑģ":2257,"ĠÓĺÐ»":2258,"ÐĲÐ·Ð°Ð¼Ð°ÑĤÑĤÐ°ÑĢÒĵÐ°":2259,"ÐµÐ»ÐµÑĥ":2260,"ÑĭÑģÑĭÐ½Ð°":2261,"ÐºÐµÐ½ÑĤ":2262,"Ð¼ÐµÐ¹Ð´Ñĸ":2263,"Ġ|":2264,"ĠÑĤÐ°ÒĽ":2265,"25":2266,"Ġ13":2267,"ĠÑģÑĭÑĢ":2268,"Ð¼ÑĸÐ½":2269,"Ð¶Ñĭ":2270,"ĠÑģÒ¯":2271,"Ð°ÑħÑģÐºÐ¾Ð¼":2272,"ÒĴ":2273,"ÒļÐ°Ð·Ð°ÒĽ":2274,"ĠÑĤÓ©ÑĢÐ°Òĵ":2275,"ĠÐ±Ð°Ð½Ðº":2276,"Ð´ÑĭÒĵÑĭÐ½Ð°":2277,"ÐµÐ³Ñĸ":2278,"ĠÐ¿Ð¾Ð»":2279,"ĠÐ¾Ð´Ð°Ð½":2280,"ĠÐ°ÒĽÐ¿Ð°ÑĢÐ°ÑĤÑĤÑĭÒĽ":2281,"ĠÐ½ÓĻÑĢ":2282,"ĠÐ¼Ð°Ð·Ð¼Ò±":2283,"ĠÒ¯Ð¹Ð»ÐµÑģ":2284,"ĠÐ¾Ð»Ð°ÑĢÐ´Ñĭ":2285,"ĠÐ¼ÐµÐºÐµÐ¼ÐµÑģÑĸÐ½ÑĸÒ£":2286,"ĠÑĪÑĭ":2287,"ĠÐ°Ð²ÑĤÐ¾Ð¼Ð¾Ð±Ð¸Ð»ÑĮ":2288,"ĠÒĽÐ°Ð·ÑĸÑĢÐ³Ñĸ":2289,"ĠÐºÐ»Ð°ÑģÑģ":2290,"ĠÑģÐ°ÒĵÐ°ÑĤ":2291,"12":2292,"ĠÐ±Ð¾Ð¹Ñĭ":2293,"ÐµÐ½Ð³ÐµÐ½":2294,"Ð½ÑĭÐµ":2295,"ĠÐ¾ÑĢÑĤÐ°Ð»ÑĭÒĵÑĭ":2296,"ĠÐ¶Ð°Ð±Ð´ÑĭÒĽ":2297,"ĠÑĭ":2298,"ĠÐºÓ©Ð»ÑĸÐ³Ñĸ":2299,"ĠÒĽÐ°Ð»ÑĭÐ¿ÑĤÐ°ÑģÑĤÑĭÑĢÑĥ":2300,"ÓĻÑģÑĸÐ»":2301,"ĠÒĽÐ°Ð»Ð°ÑģÑĭÐ½ÑĭÒ£":2302,"Ð¹ÑĤÐºÐµÐ½":2303,"ĠÐ±ÑĸÐ»ÑĸÐºÑĤÑĸ":2304,"Ð¸ÐµÐ²":2305,"ĠÐ°Ð¹Ð¼Ð°ÒĽ":2306,"ĠÐ¼Ð°ÒĽÐ°Ð»":2307,"ĠÐ±Ó©Ð»ÑĸÐ½":2308,"ÑĪÐµÐº":2309,"Ð±ÑĢ":2310,"ĠÐ±Ð°Ð¹ÒĽÐ°Ñĥ":2311,"ĠÑĥÐ°ÒĽÑĭÑĤÑĤÐ°":2312,"ĠÐĳÑĸÐ»ÑĸÐ¼":2313,"ĠÐ±ÐµÑĢÐ´Ñĸ":2314,"Ð°ÒĵÐ°Ð½Ð´Ð°":2315,"ĠÐ¶Ð°Ð»Òĵ":2316,"ĠÑģÐ°Ð¹Ð»":2317,"Ð±ÐµÐ½":2318,"ĠÐ±Ð°ÑģÐ¿":2319,"Ñŀ":2320,"ĠÐºÐ¾ÑĢÐ¿Ð¾ÑĢÐ°ÑĨÐ¸ÑıÑģÑĭÐ½Ð´Ð°":2321,"ĠÒĽÐ°Ð»Ð°ÑģÑĭÐ½Ð´Ð°":2322,"ĠÒĽÐ°Ð·Ð°Ð½":2323,"ĠÐ¼Ð°Ð»":2324,"ĠÐ´ÐµÑĢ":2325,"Ð¶ÐµÑĤ":2326,"ĠÐ°Ð·Ð°Ð¼Ð°ÑĤÑĤÐ°ÑĢ":2327,"ĠÐ±ÐµÐ»ÑģÐµÐ½Ð´Ñĸ":2328,"ÑĭÒĽÑĤÑĭÒĽ":2329,"ĠÒĽÐ°ÑĤÑĭÑģÑĥ":2330,"11":2331,"ĠÑĥÓĻ":2332,"ĠÒĽÑĭÐ»Ð¼":2333,"ĠÒĽÐ°ÑĢÐ°ÑĪÐ°":2334,"ÑģÑĤÐµÐ¼":2335,"ĠÑĢÐµÑģÐ¿ÑĥÐ±Ð»Ð¸ÐºÐ°Ð»ÑĭÒĽ":2336,"ÒĽÑĭÑĢ":2337,"ÑĭÑģÑĭÐ½":2338,"ed":2339,"Ð°ÒĵÐ°Ð½Ð´Ñĭ":2340,"ĠÑĢÐµÐ´Ð°":2341,"Ð¾ÑĦ":2342,"ĠÒĽÐ°ÑĢÐ°Ð¿":2343,"ĠÐ°ÑĤÐ°Ð¿":2344,"ĠÐºÐµÑģ":2345,"Ð¸ÑĨÐ¸Ñı":2346,"ÑĸÐ³ÑĸÑĤ":2347,"ÐµÑģÑĤÐ¸":2348,"ĠÐºÐ°Ð·Ð°ÑħÑģÐºÐ¾Ð¼":2349,"Ð¹ÑĤÐºÐµÐ½Ñĸ":2350,"Ð»Ð°Ð¿":2351,"ĠÐ°Ð²ÑĤ":2352,"ĠÐķÐ³ÐµÑĢ":2353,"ĠÐ¸Ð½ÑĦ":2354,"ÑĥÑĢÐ½Ð°Ð»":2355,"Ð°Ð»ÑĭÐ¿":2356,"ĠÐ¾ÑĢÐ½Ð°Ð»Ð°ÑģÒĽÐ°Ð½":2357,"ĠÑĪÑĸÐ»":2358,"ÑĭÒĵÑĭÑģ":2359,"Ð»ÑĭÒĵÑĭÐ½":2360,"ÑĤÐµÐ±":2361,"ĠÓ©ÑĤÑĸÐ½ÑĸÑĪ":2362,"ĠÑĤÐµÐ³ÑĸÐ½":2363,"Ð°Ð»Ð°ÑĢÑĭÐ½ÑĭÒ£":2364,"Ġ30":2365,"ĠÑĤÐµÐ¼":2366,"Ð´Ð°Ð¹Ð´Ñĭ":2367,"50":2368,"ĠÐķÒ£":2369,"Ð¸ÑĢÐµÐºÑĤÐ¾ÑĢ":2370,"ĠÐºÐ¾Ð¼Ð¼ÑĥÐ½Ð°Ð»Ð´ÑĭÒĽ":2371,"Ð¸ÑıÑģÑĭÐ½ÑĭÒ£":2372,"ĠÑģÐ°ÑĥÐ´Ð°":2373,"ÑĤÐ°ÑĢÑĭÐ½ÑĭÒ£":2374,"ĠÒĽÐ°ÒĵÐ¸Ð´":2375,"Ð½Ð´Ñĸ":2376,"ÑĤÐ°ÑĨÐ¸Ñı":2377,"Ð°ÑĥÑĭÑĢ":2378,"ÑĤÐµÑĢÐ½":2379,"ĠÓ©ÐºÑĸÐ»Ð´ÐµÑĢÑĸÐ½":2380,"ĠÒ¯Ð·Ð´ÑĸÐº":2381,"ĠÐµÐ½Ð´Ñĸ":2382,"ĠÑħÐ°Ð½":2383,"ĠÐ±Ò±Ð¹ÑĢ":2384,"ĠÐ¶ÐµÐ»ÑĤÐ¾ÒĽÑģÐ°Ð½":2385,"ÐķÐ»":2386,"ÐĲÐł":2387,"ĠÐ°ÑĤÒĽÐ°ÑĢÑĥÑĪÑĭ":2388,"ĠÐ¶ÐµÒ£ÑĸÐ»":2389,"ik":2390,"Ò±ÑĢÑĤ":2391,"ÑĤÑĸÐ»Ð³ÐµÐ½":2392,"ĠÐ±Ð¾Ð»Ñĥ":2393,"Ð¶ÑĭÐ¼":2394,"ÑĭÒĵÑĭÐ¿":2395,"ĠÐ¶Ñĥ":2396,"ĠÐ¡ÑĭÐ±Ð°Ð¹Ð»Ð°Ñģ":2397,"ĠÐ½Ð°ÑĥÑĢÑĭÐ·":2398,"ÐµÑĤÐµÑĢÐ¸Ð½Ð°ÑĢ":2399,"ĠÐ¼Ñĥ":2400,"ÑĪÑĸÐº":2401,"ĠÑĥÑĩ":2402,"ĠÐµÑĤÑĸÐ¿":2403,"ÐºÒ¯Ð¹ÐµÐº":2404,"ĠÑĤÐ°Ð»ÒĽÑĭÐ»":2405,"ÐµÐºÑĨÐ¸Ñı":2406,"ĠÐ¸Ð½Ð²":2407,"ĠÒĽÒ±Ð¶Ð°ÑĤ":2408,"Ġ100":2409,"Ð»ÐµÑĢÐ´Ñĸ":2410,"ÑĤÐ°Ð¹Ð´Ñĭ":2411,"ĠÐŀÑĤÐ°Ð½":2412,"ÒĽÐ°ÑĤ":2413,"ÑĸÑĤ":2414,"ĠÒ±ÑģÑĤÐ°Ð·":2415,"Ð»ÐµÑĢÐ´ÑĸÒ£":2416,"ÐµÐ»ÐµÑĢÑĸÐ½ÑĸÒ£":2417,"ĠÒĽÒ±ÑĢÑĭÐ»ÑĭÐ¼":2418,"Ð´ÑĸÐ³ÑĸÐ½ÑĸÒ£":2419,"Ð´ÐµÑĢÐ³Ðµ":2420,"ĠÒĽÑĭÐ·Ð¼ÐµÑĤÑĤÑĸ":2421,"ĠÐŀÐ»Ð°ÑĢ":2422,"tt":2423,"ĠÐ°Ð½ÑĭÒĽÑĤÐ°Ñĥ":2424,"ĠÐºÐµÑĤÑĤÑĸ":2425,"ÑıÑĢ":2426,"Ð¼Ð¸Ð½":2427,"ĠÒĽÐ¾ÑĢÑĭÑĤÑĭÐ½Ð´ÑĭÐ»Ð°ÑĢÑĭ":2428,"ĠÑģÐ¾Ò£ÒĵÑĭ":2429,"ĠÐ¼ÐµÒ£":2430,"Ð¾Ð»ÑĮ":2431,"ĠÐ¼Ð»Ð½":2432,"ĠÐ¾ÑĢÑĭÐ½Ð±Ð°ÑģÐ°ÑĢ":2433,"ĠÐºÓ©Ð¿ÑĤÐµÐ³ÐµÐ½":2434,"ÑĦÐµÑĢÐµÐ½":2435,"Ð°Ð»Ð°Ð¹":2436,"ĠÐ¶Ò±":2437,"ÑĭÑĤÐ°Ð¹":2438,"ĠÐ°Ð½ÑĭÒĽÑĤÐ°Ð¼Ð°ÑģÑĭ":2439,"iÐ½iÒ£":2440,"Ð°ÑĢÐ´ÑĭÒ£":2441,"ĠÐ½ÐµÐ³ÑĸÐ·ÑĸÐ½Ð´Ðµ":2442,"ĠÐ¶ÐµÑĢÐ´Ðµ":2443,"ÐµÐºÑģ":2444,"ĠÐ¶Ð°ÑģÐ°Ð»ÒĵÐ°Ð½":2445,"ĠÐľÒ±Ð½":2446,"ĠÐºÐµÐ¹Ð±ÑĸÑĢ":2447,"ĠÑĤÑĭÒ£":2448,"ĠÑĢÐµÑģÑĥÑĢ":2449,"ĠÐĲÐ»Ð»Ð°":2450,"ĠÓ©Ð½ÑĸÐ¼":2451,"ÐĳÑĸÑĢ":2452,"ÑĪÑĭÒĽ":2453,"ĠÐ°ÑĢÐ°Ð»":2454,"ĠÐļÐ¾Ð½":2455,".,":2456,"ĠÑĤÒ¯ÑģÑĸÑĢ":2457,"ĠÐ±ÑĸÑĢÐ»ÐµÑģ":2458,"Â».":2459,"ĠÐ¾ÐºÑĢÑĥÐ³":2460,"Ð°Ð¹ÑĭÐ¼":2461,"ĠÑĤÐµÑħÐ½Ð¸ÐºÐ°Ð»ÑĭÒĽ":2462,"ÑĢÐµÐº":2463,"ĠÑĤÐ°ÑĢÐ°Ð¿":2464,"tion":2465,"ĠÑıÐ·Ñĭ":2466,"ĠÑĤÒ¯Ð·":2467,"Ġ2013":2468,"ĠÐºÓ©ÑĢÑģÐµÑĤÑĸÐ»Ð³ÐµÐ½":2469,"ĠâĢ¢":2470,"ĠÐºÐµÐ·Ð´ÐµÑģÑĥ":2471,"ÑĭÐ»Ñĭ":2472,"ĠÐ¼Ð¾Ð½Ð¸ÑĤÐ¾ÑĢ":2473,"ĠÐ±ÑİÐ´Ð¶ÐµÑĤ":2474,"ĠÐ¶Ð°ÑģÐ°Ð¿":2475,"Ð¸ÑĤÐµÑĤÑĸÐ½ÑĸÒ£":2476,"ÑĤÑĢÐ°ÑĤÐµÐ³":2477,"ĠÑĸÑģÑĤÐµÑĢ":2478,"ĠÐ¿ÑģÐ¸Ñħ":2479,"ĠÐ¼Ð°ÒĽÑģÐ°ÑĤÑĭ":2480,"18":2481,"ĠÒĽÐ°Ð»ÑĭÐ¿ÑĤÐ°Ñģ":2482,"Ð¾ÑģÑĤÐ°Ð½Ð°Ð¹":2483,"ĠÐ¶Ð°ÒĵÐ´Ð°Ð¹Ð»Ð°ÑĢ":2484,"ĠÑĤÓ©Ð»ÐµÐ¼":2485,"ÐµÑĢÐ»ÑĸÐº":2486,"ĠÐµÐ¼Ð´ÐµÑĥ":2487,"Ð°Ð½Ð°":2488,"ĠÐºÐµÐ»ÑĸÑģÑĸÐ¼":2489,"ĠÑĤÐ¾Ð±":2490,"ĠÐ¾Ð½Ð´Ð°":2491,"ĠÐ¾ÑĢÑĭÑģ":2492,"Ð¸ÑĤÐ°ÑĢ":2493,"om":2494,"ĠÐ¸Ð³ÐµÑĢ":2495,"Ð»Ð°Ð½Ð´ÑĭÑĢÑĥ":2496,"ĠÐ±Ð°ÒĵÐ°Ð»Ð°Ñĥ":2497,"ÒĵÑĭÑĪ":2498,"ÐĳÑĸÐ·":2499,"ÑĸÑģÑĸÐ½":2500,"Ó©Ð·Ñĸ":2501,"ĠÐĸÒ±Ð¼ÑĭÑģ":2502,"ĠÒĽÐ°Ð·Ð°ÒĽÑģÑĤÐ°Ð½Ð´ÑĭÒĽ":2503,"ĠÐ°Ð±":2504,"ĠÑĤÓĻÐ¶ÑĸÑĢÐ¸Ð±":2505,"ĠÐ´Ð¸ÑĢÐµÐºÑĤÐ¾ÑĢ":2506,"ĠÑĪÐµÑĤÐµÐ»":2507,"ĠÐ¶Ð¾Ð»Ð°ÑĥÑĪÑĭÐ»Ð°ÑĢ":2508,"ÑĭÐ»Ð°Ð¹":2509,"ÐºÑĸÑģÑĤÐ°Ð½":2510,"ĠÓĺÐ±":2511,"ĠÓĻÐ¹ÐµÐ»":2512,"ĠÒĽÐ°Ð±ÑĸÐ»":2513,"ÐµÐ´Ð¶":2514,"ĠÑĸÑģÑĤÐµÑĢÑĸ":2515,"Ð¼Ð°ÑĤ":2516,"Ð´ÑĸÐ¼":2517,"ĠÐ¾ÑĢÑĭÐ½Ð±Ð°ÑģÐ°ÑĢÑĭ":2518,"ÐµÑĦÐ¾Ð½":2519,"ĠÐ¾ÑģÑĭÐ½Ð´Ð°Ð¹":2520,"ĠÐµÑĢÐµÐ¶":2521,"ĠÒĽÐ¾Ð·ÒĵÐ°Ð»":2522,"ĠÑĤÒ±ÑĢÐ°Ð´Ñĭ":2523,"ĠÐºÐµÑĪÐµÐ½":2524,"ÐĲÒļ":2525,"ÐµÐ³ÑĸÐ·":2526,"ÑĤÑĸÐ³Ñĸ":2527,"ĠÒĵÐ°Ð»ÑĭÐ¼":2528,"ĠÑģÐ°Ð±":2529,"ĠÐĳÒ±":2530,"ĠÐĸÐµÑĢ":2531,"ÐµÐ¹Ð½ÐµÑĤ":2532,"ĠÐ¼Ð¾Ð»":2533,"ÒĵÑĭÑģÑĤÐ°Ñĥ":2534,"ÐºÐ¾Ð½Ð¾Ð¼Ð¸ÐºÐ°Ð»ÑĭÒĽ":2535,"Ð°Ð½Ð´":2536,"Ð°Ð»ÑĭÑģ":2537,"Ð°Ð¸":2538,"ĠÐ¼ÓĻÐ»ÑĸÐ¼ÐµÑĤ":2539,"Ð¸Ð½Ð°":2540,"ĠÑĤÒ±ÑĢÐ°ÑĤÑĭÐ½":2541,"ĠÐ±Ð¸Ð·Ð½ÐµÑģ":2542,"ĠÐ¼Ó©Ð»ÑĪÐµÑĢ":2543,"ĠÐ°ÑģÑĤÐ°Ð¼":2544,"ĠÐ¼ÐµÒ£Ð³ÐµÑĢ":2545,"ĠÓĻÑģÐºÐµÑĢÐ¸":2546,"ĠÐ¸Ð½ÑģÑĤÐ¸ÑĤÑĥ":2547,"ÒĵÐ°Ð½Ð´Ð°":2548,"ĠÐ°Ð³ÐµÐ½ÑĤ":2549,"Ð»ÑĸÐºÑĤÑĸ":2550,"ĠÐ¡Ð¾Ð½ÑĭÐ¼ÐµÐ½":2551,"ĠÑĤÑĸÐº":2552,"ÐµÑĤÑĤÐµÑĢÑĸ":2553,"Ð´ÑĭÐ¼":2554,"ĠÓĻÑĢÑĸÐ¿":2555,"az":2556,"ĠÐ¼Ð°Ò£ÑĭÐ·Ñĭ":2557,"ur":2558,"ĠÑĪÐ°Ð¼":2559,"ĠÑģÐ°Ð»ÑĭÒĽ":2560,"ÐºÐµÑĤ":2561,"Ð°ÑģÑĭÐ½Ð°Ð½":2562,"Ð±ÑĭÑĢ":2563,"Ð°Ò£ÒĵÑĭÑģÑĤÐ°Ñĥ":2564,"ĠÐ¼ÐµÐ½ÑĸÒ£":2565,"ĠÐºÐµÐ»ÑĤÑĸÑĢ":2566,"ÒļÑĭÐ·ÑĭÐ»":2567,"ÑĭÐ¼ÑĭÐ·Ð´ÑĭÒ£":2568,"ĠÑıÒĵÐ½Ð¸":2569,"ĠÐ¸Ð´Ðµ":2570,"ĠÑĢÑĥÑħÐ°Ð½Ð¸":2571,"ĠÑĢÐ°Ñģ":2572,"le":2573,"ĠÐ±Ó©":2574,"iÐ·":2575,"ĠÐĳÐ¸":2576,"Ð¾Ð³ÑĢÐ°ÑĦÐ¸Ñı":2577,"ĠÐ¶ÑĸÐ³ÑĸÑĤ":2578,"ĠÑģÓĻÑĥÑĸÑĢ":2579,"ÐºÓĻÑģÑĸÐ¿":2580,"Ð¸ÑħÐ°ÑĤ":2581,"ĠÑģÒ±ÑĢÐ°ÒĽ":2582,"ĠÒĽÐ°Ð±ÑĭÐ»Ð´Ð°Ð½":2583,"ĠÐºÓĻÑģÑĸÐ¿Ð¾ÑĢÑĭÐ½":2584,"ĠÐŀÒĽ":2585,"Ð¾Ð¶":2586,"ĠÐ¼Ð¸Ð»Ð»":2587,"Ð½Ð¸Ðº":2588,"ĠÐ¼ÑĭÐ½Ð°":2589,"ÐŁÐ¾":2590,"Ð¡Ð¾Ð½":2591,"ÐµÐ´ÐµÐ»":2592,"ĠÐ¼Ð°Ð¼ÑĭÑĢ":2593,"ĠÐ½Ò±Ñģ":2594,"ĠÑģÐ°Ð±Ð°ÒĽÑĤÑĭÒ£":2595,"ĠÐ¶ÑĭÐ»Ð´ÑĭÒĵÑĭÐ½Ð°":2596,"ĠÐ¿Ð°ÑĢÑĤ":2597,"ĠÐ±Ð°ÑģÑĤÐ°Ð´Ñĭ":2598,"ĠÐºÓ©ÑĢÑģÐµÑĤÐºÑĸÑĪ":2599,"ĠÐ¾Ð¿ÐµÑĢ":2600,"Ð°ÑĤÑĢ":2601,"Ð¶Ð°Ð¹":2602,"ÐĺÐ½":2603,"ĠÒļÑĭÐ·ÑĭÐ»Ð¾ÑĢÐ´Ð°":2604,"ĠÑĤÒ¯Ð¹":2605,"ĠÐ¶ÑĭÐ»Ð´Ð°ÑĢÑĭ":2606,"ĠÑģÐ°ÑıÑģÐ¸":2607,"ĠÓĻÑĥ":2608,"ÑĭÑģÑĤÐ°Ð½":2609,"ÐľÐµÐ¼Ð»ÐµÐºÐµÑĤ":2610,"Ð¼ÑĸÐ·":2611,"Ð»ÐµÑĢÑĸÐ½Ðµ":2612,"ĠÑĥÑĩÐ°Ñģ":2613,"Ð¶Ð°ÑĢ":2614,"ĠÑĤÐ°ÑĢÐ¸ÑħÐ¸":2615,"ĠÐ½Ð¾ÑĢÐ¼":2616,"ĠÐ°ÑĥÐ´Ð°Ð½ÑĭÐ½ÑĭÒ£":2617,"ĠÐµÑģÐµÐ±":2618,"ĠÐ¿Ð»Ð°Ð½Ñĭ":2619,"ĠÐ¾ÒĽÐ¸":2620,"ĠÐŁÐ°Ð²Ð»Ð¾Ð´Ð°ÑĢ":2621,"Ġ2012":2622,"ÑĥÑĢÐ¾Ñĩ":2623,"ĠÑĤÓĻÑģÑĸÐ»":2624,"ÒĵÑĭÐ½ÑĭÒ£":2625,"ĠÑĤÑĢ":2626,"ĠÑĤÓĻÑĥÐµÐ»":2627,"ÑģÐ»Ð°Ð¼":2628,"ÑĥÑĢÐ¾ÑĩÐ½ÑĭÐµ":2629,"ÐµÐ¼ÑĸÐ½":2630,"ÑģÐµÐº":2631,"ÑĪÑĭÐ»ÑĭÒĵÑĭÐ½ÑĭÒ£":2632,"ÑĤÐ¿":2633,"ĠÐ´ÓĻÑĢÑĸÐ³ÐµÑĢ":2634,"Ð½ÐµÐ¼ÐµÑģÐµ":2635,"Ð°Ð¼ÑĭÐ½":2636,"ĠÐ½Ð°Ð·Ð°ÑĢ":2637,"ĠB":2638,"ĠÑĢÐµÐ³":2639,"ĠÐ°Ð¹ÒĽÑĭÐ½":2640,"Ġi":2641,"ĠÐ°ÑĪÑĭÒĽ":2642,"ĠÑĤÐ¾ÒĽÑģÐ°Ð½ÑĭÐ½Ð´Ð°ÒĵÑĭ":2643,"Ð½Ð¾Ð²Ð°ÑĨÐ¸ÑıÐ»ÑĭÒĽ":2644,"ÑĭÑģÐ°Ð»Ñĭ":2645,"ĠÐºÐ¾Ð¼Ð¿":2646,"ĠÐŁÑĢÐµÐ·Ð¸Ð´ÐµÐ½ÑĤ":2647,"ĠÐ¾ÑĢÐ°Ð¹":2648,"ĠÐĸÐ°Ñģ":2649,"ĠÒĽÑĭÐ·Ð¼ÐµÑĤÑĸÐ½":2650,"ĠÐĨÑĪ":2651,"ÑĸÑģÑĸÐ½ÑĸÒ£":2652,"Ó©Ð¿":2653,"14":2654,"ÑĥÐ°ÑĢ":2655,"ĠÐ¼ÓĻÑģÐµÐ»ÐµÐ»ÐµÑĢ":2656,"Ð¾Ð²ÑĤÑĭÒ£":2657,"ÑĦÐµÑĢÐµÐ½ÑĨÐ¸Ñı":2658,"ÐµÑı":2659,"ĠÐ°Ð»Ð°Ò£":2660,"ĠÐ°Ð»Ð°":2661,"ÐŀÑģÑĭ":2662,"ĠÑĤÐ°Ð±ÑĭÑģ":2663,"ĠÐ´ÓĻÑģÑĤ":2664,"ÑĸÐ»ÐµÑĢ":2665,"ĠÐ±Ð°ÑģÑĤÐ°Ñĥ":2666,"ĠÑģÐ°Ð»Ð°ÑģÑĭÐ½Ð´Ð°":2667,"ĠÒļÐ°ÑĢÐ¶Ñĭ":2668,"ĠÐ¶ÓĻÑĢ":2669,"ĠÑĤÐ°ÑĥÐ°ÑĢ":2670,"ĠÐ¢Ð°ÑĢ":2671,"ÑĤÑĭÑģ":2672,"ĠÒĽÐ°ÑĪ":2673,"ia":2674,"ĠÐ±Ð°ÑģÑĭÐ¼":2675,"ĠÐ¾ÑĢÑĭÐ½Ð´Ð°Ñĥ":2676,"Ð¼ÐµÐ³ÐµÐ½":2677,"ĠÒļÐ°Ð¹":2678,"ĠÑĤÐ°Ð¼Ð°ÒĽ":2679,"ĠÐļÐµÒ£":2680,"ĠÐ±Ð°ÒĵÐ´Ð°ÑĢÐ»Ð°Ð¼Ð°ÑģÑĭ":2681,"ĠÑĤÐµÐ»ÐµÑĦÐ¾Ð½":2682,"ĠÑģÑĤÐ¸":2683,"ĠÐ²ÐµÑĤÐµÑĢÐ¸Ð½Ð°ÑĢ":2684,"ĠÐ°Ð¹ÑĤÑĤÑĭ":2685,"ĠÓĻÑĢÐ±ÑĸÑĢ":2686,"ÐĲÑĥÐ´Ð°Ð½":2687,"ĠÑĪÐ°ÒĵÑĭÐ½":2688,"ĠÐºÓ©Ð»ÑĸÐº":2689,"ÑĭÐ¼ÐºÐµÐ½ÑĤ":2690,"ĠÒ¯Ð¹Ð»ÐµÑģÑĤÑĸÑĢÑĥ":2691,"Ġ2011":2692,"ĠÐ¶Ò¯Ð¹ÐµÑģÑĸ":2693,"ĠÐºÐ¾Ð»":2694,"ÑĪÐ°ÑĢÐ°Ð»Ð°ÑĢ":2695,"ĠÐ±Ð°ÑĤÑĭÑĢ":2696,"ĠÐ±Ð¾Ð»ÑģÑĭÐ½":2697,"ÐºÐ¸":2698,"ĠÑģÐ¾Ð·":2699,"ĠÐĿÒ±ÑĢÑģÒ±Ð»ÑĤÐ°Ð½":2700,"ÑĪÑĭÐ½ÑĭÒ£":2701,"ĠÑĪÑĭÒĽÑĤÑĭ":2702,"Ð´Ð°ÑĢÐ´Ð°":2703,"Ð°ÑģÑĤÐ°Ð½":2704,"ĠÑĤÐ°ÑĢÑĤÑĥ":2705,"ÑĪÑĸÐ»Ñĸ":2706,"Ð«Òļ":2707,"ÐĶÐĹ":2708,"ÓĻÑģÑĸÐ±Ð¸":2709,"ÐµÐ¼Ð¿":2710,"ĠÐºÑĸÑĪ":2711,"ĠÑĤÐ¾ÑĢ":2712,"ĠÐĳÐ°Ð¹":2713,"Ð¼Ð°ÒĵÑĭÐ½Ð´Ð°":2714,"ĠÐ£ÐĶÐĹ":2715,"ĠÑĢÐµÐ´Ð°ÐºÑĨÐ¸Ñı":2716,"ÐµÐ»ÐµÐº":2717,"Ð¸Ð´Ðµ":2718,"Ð»ÐµÑĢÑĸÐ½ÑĸÒ£":2719,"ĠÐ¶Ð°ÑĢÐ¸ÑıÐ»Ð°Ð½ÒĵÐ°Ð½":2720,"Ð¾Ð»Ð°":2721,"ĠÐ°Ð»Ð°ÑĤÑĭÐ½":2722,"ÐºÐ¾Ð¼Ð¼ÑĥÐ½Ð°Ð»Ð´ÑĭÒĽ":2723,"ÒĽÒ±Ð¶":2724,"ĠÒ±Ð·Ð°ÒĽ":2725,"ĠÑħÐ°Ð»ÑĭÒĽÑĤÑĭÒ£":2726,"ÑħÐ°Ð½Ð°":2727,"ĠÐ¶ÑĭÑĢ":2728,"ĠÒĽÐ°ÑĢÐ°":2729,"ĠÐ´ÓĻÑĢÐµÐ¶":2730,"ĠÐ·Ð¾ÑĢ":2731,"ÑĭÐ»Ñĥ":2732,"ĠÐ¶Ð°ÑģÐ°ÒĵÐ°Ð½":2733,"Ð»Ð°Ð¼ÐµÐ½ÑĤ":2734,"ĠÐĸÐ°Ò£Ð°":2735,"ÐµÐºÑĤÐµÐ¿":2736,"ĠÑĤÐ¸ÑĸÑģÑĤÑĸ":2737,"ĠÐĲÐ±Ð°Ð¹":2738,"ĠÑĤÓ©ÑĢÑĤ":2739,"ÐŁÐ¾ÑĥÑĢÐ¾ÑĩÐ½ÑĭÐµ":2740,"ĠÐ¶Ð¸Ñĸ":2741,"ĠÐ¶Ð°Ð½ÑĭÐ½Ð´Ð°ÒĵÑĭ":2742,"ĠÑĤÑĭÐ½":2743,"ĠÐ¼Ð°ÑĤÐµÐ¼Ð°ÑĤ":2744,"ĠÒĽÐ¾ÑģÐ°":2745,"ĠÐ¼ÓĻÐ»ÑĸÐ¼ÐµÑĤÑĤÐµÑĢ":2746,"ĠÐºÓ©Ð»ÐµÐ¼Ñĸ":2747,"ĠÐ°ÑģÐ°":2748,"ĠÐºÐ°Ð½":2749,"ĠÑĸÐ»":2750,"Ġ.":2751,"Ò¯Ð·":2752,"ĠÐ°ÑĢÐ°Ð»ÑĭÒĵÑĭÐ½Ð´Ð°":2753,"30":2754,"Ð°ÒĵÐ´Ð°ÑĢ":2755,"ÑĪÑĸÐ»ÐµÑĢÐ´ÑĸÒ£":2756,"ÓĻÑĥÑĸÑĢ":2757,"ĠÐĲÑģ":2758,"ĠÑįÐ½ÐµÑĢÐ³":2759,"ĠÑĤÐ°ÒĵÐ°Ð¹ÑĭÐ½Ð´Ð°Ñĥ":2760,"ĠÓ©Ð·Ð°ÑĢÐ°":2761,"ĠÐ°Ò£":2762,"ĠÐ±ÓĻÑĢÑĸ":2763,"ĠÑĪÑĸÐ»Ð´Ðµ":2764,"ĠÑĢÐµÑĤÑĤÐµÑĥ":2765,"ĠÐ±ÐµÐ·":2766,"ĠÑĪÑĭÒĵÑĭÐ¿":2767,"ĠÒĽÒ±Ð¶Ð°ÑĤÑĤÐ°ÑĢÐ´Ñĭ":2768,"Ð°ÑģÑĤÑĭ":2769,"ĠÑĪÐ°ÑĢÑĤ":2770,"ĠÐķÑĥÑĢ":2771,"ĠÐ¶ÑĥÑĢÐ½Ð°Ð»":2772,"Ò¢":2773,"ĠÐĸÐ°Ð½":2774,"Ð°Ð»Ð°Ð»ÑĭÒĽ":2775,"ĠÑģÑĭÐ½ÑĭÐ¿ÑĤÑĭÒ£":2776,"ĠÐ°Ð¿Ð¿Ð°ÑĢÐ°ÑĤÑĭÐ½ÑĭÒ£":2777,"ĠÐ·ÐµÑĢ":2778,"ĠÐ¼Ð°Ð·Ð¼Ò±Ð½":2779,"ĠÒ±Ð¼":2780,"ĠÐ¾ÑĢÑĤÐ°Ð»ÑĭÒĵÑĭÐ½Ð´Ð°":2781,"ĠÒ¯ÑĢ":2782,"ÑıÐ½":2783,"ĠÒĽÒ±Ð½Ð´Ñĭ":2784,"ĠÑĤÐ°Ð¿ÑģÑĭÑĢÐ¼":2785,"re":2786,"ĠÐµÑĤÐµÑĤÑĸÐ½":2787,"ĠÐ¼ÐµÑĢÐ·ÑĸÐ¼":2788,"ĠÒĽÐ°ÑĢÑĭÐ¼":2789,"ĠÐ¢Ð°Ð»":2790,"Ð´ÐµÐ»Ñĸ":2791,"200":2792,"ĠÐ±ÐµÑĢÑĸ":2793,"ĠÒĽÐ°Ð±ÑĭÐ»Ð´Ð°ÑĥÑĭÐ½Ð°":2794,"ĠÒ±Ð¹":2795,"ĠÐ°Ð»ÑĤÑĭÐ½":2796,"ĠÐ´ÐµÐ¿Ñĥ":2797,"ĠÐ·ÐµÐ¹Ð½ÐµÑĤ":2798,"ĠÐ¶ÑĭÐ»Ð´Ð°ÑĢÒĵÐ°":2799,"ĠÒĽÐ¾Ñİ":2800,"ÐµÐ¹ÑĤ":2801,"ÑĤÐ°ÑĢÑĭÐ½Ð°":2802,"ĠÑĤÐ°Ð¼ÑĭÐ·":2803,"ÑĭÐ¿ÑĤÑĭ":2804,"ÐµÐ¼Ð¿Ð¸Ð¾Ð½":2805,"Ð´ÑĥÑģÑĤÑĢ":2806,"ĠÒĽÐ°ÑĢÐ°ÑģÑĤÑĭÑĢ":2807,"ĠÒ±Ð»ÑĤ":2808,"ĠÒĽÒ±ÑĢÑĭÐ»ÑĭÑģÑĭ":2809,"Ð°Ð»Ð°ÑĤÑĭÐ½":2810,"ĠÓ©ÑĤÑĥ":2811,".)":2812,"ĠÑĭÐ´Ñĭ":2813,"ĠÓĻÐ»Ñĸ":2814,"ĠÐ¶Ð¾Ð»Ñĭ":2815,"Ð¸ÑĤÐµÑĤÑĸ":2816,"ĠÐ°ÒĽÑĪ":2817,"Ð±ÐµÑĤ":2818,"ĠÐ°Ð»Ð°ÑģÑĭÐ·":2819,"ĠÑĪÐµÒ£":2820,"ĠÑĤÒ¯ÑģÑĤÑĸ":2821,"ĠÐ¾Ð±ÑĬÐµÐºÑĤÑĸ":2822,"ĠÐºÐ¾Ð¼Ð¿Ð°Ð½Ð¸Ñı":2823,"ĠÐ±Ð°Ð»Ð°Ð½Ñĭ":2824,"ĠÐ¼ÑĸÐ½Ðµ":2825,"ĠÐ·Ð¸Ñı":2826,"ĠÐľÐ°ÑĢ":2827,"Ð°ÑģÓ©Ð·":2828,"ĠÑĪÐ°Ð¹":2829,"ĠÒĽÐ°ÑĤÑĤÑĭ":2830,"ĠÑĭÐ½ÑĤÑĭ":2831,"Ð¾ÑģÑĭÐ½":2832,"ĠÐļÐ¾Ð¼":2833,"il":2834,"ĠÐ±Ò±Ð·ÑĥÑĪÑĭÐ»ÑĭÒĽ":2835,"ĠÐ¶Ð°Ð¿":2836,"ÒĽÐ°ÑĪ":2837,"Ð»ÑĸÐ³ÑĸÐ½ÑĸÒ£":2838,"ÑįÐºÐ¾Ð½Ð¾Ð¼Ð¸ÐºÐ°Ð»ÑĭÒĽ":2839,"ĠÒĽÒ±ÑĢÑĥ":2840,"ĠÒĽÐ°Ð¼ÑĤÑĥÐ´Ñĭ":2841,"ĠÐ¶Ð°ÑĤÐ°Ð´Ñĭ":2842,"ĠÒļÐ°ÑĢÐ°ÒĵÐ°Ð½Ð´Ñĭ":2843,"ÑĪÑĸÐ»ÑĸÐ³Ñĸ":2844,"ĠÐ°Ð¼":2845,"ĠÐķÑģ":2846,"ĠÑģÐ¾Ð½ÑĭÐ¼ÐµÐ½":2847,"Ð°ÑĤÑĤÐ°ÑĢÑĭ":2848,"Ð°ÑĥÐ»Ñĭ":2849,"iÐ½Ðµ":2850,"ÑĭÐ»Ð°ÑĢ":2851,"16":2852,"ÐłÐ¢":2853,"ĠÐ¼Ð°Ð¹":2854,"ĠÐ³Ðµ":2855,"ÐĳÐ°Ð»":2856,"ÑĸÑģÑĤÑĸ":2857,"ĠÒĽÒ±ÒĽÑĭÒĽÑĤÑĭÒĽ":2858,"ĠÑģÐ°ÑĢÐ°Ð¿":2859,"ĠÑĪÐ°ÑĢÐ°Ð»Ð°ÑĢ":2860,"Ð¼Ð°Ð¹Ð´Ñĭ":2861,"ĠÑĪÐµÐ±":2862,"Ð´Ð°ÒĽ":2863,"ÐľÐĲ":2864,"Ġ+":2865,"ĠÒ±ÒĽ":2866,"ĠÐ´Ð¸Ð°Ð³":2867,"ÑĸÑĢÐµÑģÐµ":2868,"Ð¾ÒĵÐ°":2869,"ĠÐ¢ÑĸÐ»":2870,"ĠÓĻÐ¹ÐµÐ»Ð´ÐµÑĢ":2871,"ĠÐľÐ°ÒĽ":2872,"ÐŀÑĢ":2873,"ĠÐ°ÑĢÑĤÑĭÒĽ":2874,"ĠÑĸÑĢÑĸ":2875,"Ð°Ð±Ñĭ":2876,"Ó¨Ð·":2877,"ÑģÐ°Ð¼":2878,"ÓĻÐ¹":2879,"Ð°ÑģÑĭÐ¼ÐµÐ½":2880,"ÐµÐ»ÐµÐ¹":2881,"ÐĲÑĢ":2882,"ĠÐ¶Ò±Ð¼ÑĭÑģÑĤÐ°ÑĢÑĭ":2883,"ĠÐºÐµÐ»ÐµÑģÑĸ":2884,"ĠÐ¿ÐµÐ´Ð°Ð³Ð¾Ð³Ð¸ÐºÐ°Ð»ÑĭÒĽ":2885,"ĠÐŀÑĢÑĤ":2886,"ĠÐ¶Ð°ÑĢÑĭÒĽ":2887,"ĠÐĲÒĽÑĤÓ©Ð±Ðµ":2888,"ĠÐ°Ð²ÑĤÐ¾ÑĢ":2889,"ĠÐ¶Ð°Ò£Ð°Ð»ÑĭÒĽ":2890,"ÒļÐ°ÑĢ":2891,"ĠÐ¯":2892,"ĠÑĦÐ¾ÑĢ":2893,"Ġ50":2894,"ĠÒĽÒ±Ð¹":2895,"ĠÐĸÐ¾Ð»Ð´Ð°Ñĥ":2896,"ĠÐŁÐ°ÑĢ":2897,"ÐµÐ³ÑĸÐ½Ð´Ðµ":2898,"ĠÑĤÐ°":2899,"ĠÑĪÐµÒ£Ð±ÐµÑĢ":2900,"ĠÐŀÒ£":2901,"ĠÐ¼Ò¯Ð»":2902,"ÑĦÐ¾ÑĢÐ¼":2903,"ĠÑĤÓ©Ð»ÐµÑĥ":2904,"ĠÒĽÐ°Ð»Ð´Ñĭ":2905,"ri":2906,"ÑģÑĭÐ»Ð°Ð¹":2907,"Ð¸Ñĩ":2908,"Ð°Ð³ÐµÑĢ":2909,"ĠÐ¼Ð¾Ð¹":2910,"ĠP":2911,"ĠÐŀÐ½":2912,"ÒĵÐ°Ð´Ñĭ":2913,"ĠÐ±Ð°Ð¹ÒĽ":2914,"ÒĽÑĭÐ¼":2915,"ĠT":2916,"ĠÐ¶Ð°ÒĽÑĭÐ½":2917,"ĠÑģÐµÐ¼":2918,"ÑĥÑĢÐ³":2919,"Ð¸Ð»ÑĮ":2920,"ĠÐ¼ÐµÐ¼Ð»ÐµÐºÐµÑĤÑĤiÐº":2921,"ĠÐ±ÐµÑĢÑĸÐ¿":2922,"ĠÑģÑĸÐ»ÑĤÐµÐ¼Ðµ":2923,"ÐµÐ»ÐµÑģ":2924,"Ð»Ñı":2925,"ÑĭÑĢÑĭÐ¼":2926,"ĠÐĶÐµÐ½ÑģÐ°ÑĥÐ»ÑĭÒĽ":2927,"ĠÐ¾ÑĢÑĭÐ½Ð±Ð°ÑģÐ°ÑĢÐ»Ð°ÑĢÑĭÐ½ÑĭÒ£":2928,"ÐµÑĤÑĥ":2929,"ÑĸÐ¼Ð½ÑĸÒ£":2930,"ĠÐºÐµÐ»ÐµÑĤÑĸÐ½":2931,"ĠÒ¯Ð¼":2932,"Ġ[":2933,"ĠÐ°Ð»Ð´ÑĭÐ½Ð´Ð°":2934,"ĠÐ¶Ò¯ÑĢÐµÐº":2935,"ĠÒĽÐ°ÑĢÐ°Ñĥ":2936,"ĠÑĤÑĭÑĢ":2937,"ĠÐ¶ÐµÑĤÐµÐº":2938,"ĠÐ¼ÐµÐ¹":2939,"ĠÐ¾ÑĢÐ³Ð°Ð½Ð´Ð°ÑĢ":2940,"ĠÐ°ÑģÐ¿":2941,"ĠÒļÐ¾ÑģÑĤÐ°Ð½Ð°Ð¹":2942,"ÐµÒ£ÑĸÐ·":2943,"ĠÐ¿ÐµÑĢ":2944,"ĠÐºÓĻÑģÑĸÐ¿ÐºÐµÑĢÐ»ÑĸÐº":2945,"ĠÐ¶ÐµÐ¼ÒĽÐ¾ÑĢÐ»ÑĭÒĽÑĤÑĭÒ£":2946,"ĠÑģÑĤÑĢÐ°ÑĤÐµÐ³":2947,"ĠÑĥÓĻÐºÑĸÐ»":2948,"ĠÒļÐ¾Ð»":2949,"ÒĽÒ±ÑĢ":2950,"Ñī":2951,"ĠÐµÐ»Ð´Ñĸ":2952,"ÑĮÑİ":2953,"ÒĽÐ°Ð·":2954,"ÓĻÐ´ÐµÐ½Ð¸ÐµÑĤ":2955,"ĠÐĲÒĽÑĤÓĻÑĤÐµ":2956,"ĠÐ¸Ð½Ð²ÐµÑģÑĤÐ¸":2957,"ĠÐ¿ÑĢÐ¾ÐºÑĥÑĢ":2958,"ĠÐľÓĻÑģ":2959,"ÑĭÑĢÐ°ÒĽ":2960,"ÐµÑĥÑĸ":2961,"ĠÐºÓ©Ð»":2962,"ĠÐ¶ÑĭÐ»Ð´ÑĭÒĽ":2963,"Ð¿Ð°Ð»":2964,"ĠÐ±Ð°Ð»Ð°Ð»Ð°ÑĢÒĵÐ°":2965,"ĠÓĻÐºÑĸÐ¼Ð´ÑĸÐ³ÑĸÐ½ÑĸÒ£":2966,"ĠÒĽÑĭÑĢÐºÒ¯Ð¹ÐµÐº":2967,"at":2968,"ĠÐºÓ©ÑĢÑĸÐ¿":2969,"Ð³iÐ·":2970,"ĠÐ¼ÐµÑĢÐµÐº":2971,"ĠÒĽÐ¾ÑĢÒĵÐ°Ð»":2972,"ĠÐ¶Ð¾":2973,"ÑĤÑĭÒĵÑĭ":2974,"ĠÐºÐ°Ð·Ð°Ðº":2975,"ÐĲÒĽÐ¿Ð°ÑĢÐ°ÑĤ":2976,"15":2977,"ĠÑģÑĸÒ£":2978,"Ó©Ðº":2979,"ĠÐ±Ð°ÑıÐ½":2980,"ĠÑĤÐµÑĢÐµÒ£":2981,"Ð¸Ð¼Ð°ÑĢ":2982,"ĠÐ±Ð°ÒĵÑĭÑĤÑĤÐ°Ð»ÒĵÐ°Ð½":2983,"ĠÐ¶Ð°Ð¹Ð»Ñĭ":2984,"ĠÑģÓĻÑĥÐ»ÐµÑĤ":2985,"Ð¸ÐºÐ°ÑģÑĭ":2986,"ĠÐ¢Ò¯ÑĢÐºÑĸÑģÑĤÐ°Ð½":2987,"ĠÑĭÐ½ÑĤÑĭÐ¼Ð°ÒĽ":2988,"ĠF":2989,"ĠÐ¶Ð°Ò£Ð°ÑĢ":2990,"ĠÓ©Ð½ÑĸÐ¼Ð´ÐµÑĢ":2991,"ĠÐºÓĻÑģÑĸÐ±Ð¸":2992,"ÐķÑĢ":2993,"Ð´ÑĭÑĢÑĭÐ»ÒĵÐ°Ð½":2994,"ĠÐµÐ»Ð´ÑĸÒ£":2995,"ĠÒĽÐ°ÑĥÐ»":2996,"Ġ24":2997,"ÐĲÑģÑĤÐ°Ð½Ð°":2998,"ĠÑĤÑĸÐ·ÑĸÐ¼Ñĸ":2999,"ĠÑĩÐµÐ¼Ð¿Ð¸Ð¾Ð½":3000,"ÐµÑĤÑĸÐ½ÑĸÒ£":3001,"ĠÑıÐ·ÑĭÐºÐµ":3002,"ÐºÑĢ":3003,"ĠÐĲÐ·Ð¸Ñı":3004,"ÑĤÑĤÐ°ÑĢÑĭÐ½":3005,"2016":3006,"ĠÐ±Ð°Ð·":3007,"ĠÒļÐ¾ÑĢ":3008,"ÑĤÐµÑĢÐ½ÐµÑĤ":3009,"ĠÑģÒ±ÑĢÐ°ÒĽÑĤÐ°ÑĢ":3010,"ĠÐºÐµÐ¹ÑĸÐ½Ð³Ñĸ":3011,"ĠÐ¼Ð¾Ð½Ð¸ÑĤÐ¾ÑĢÐ¸Ð½Ð³":3012,"ĠÐ¶Ð°ÑģÑĤÐ°ÑĢ":3013,"ĠÑĤÓĻÑĢÑĤÑĸÐ±Ñĸ":3014,"ĠÐ´ÐµÐ¹":3015,"ÐµÐ³ÑĸÐ½":3016,"Ð°Ð´ÐµÐ¼":3017,"ĠÐ°Ð»ÑĭÐ½ÒĵÐ°Ð½":3018,"ĠÐ¸Ð´ÐµÑı":3019,"ÑĸÐ»Ñĸ":3020,"ĠÐ´ÐµÑģ":3021,"ĠÑĦÐ¾ÑĢÐ¼":3022,"ĠÐ¶Ð°ÑĥÐ°Ð¿ÑĤÑĭ":3023,"Ð°ÑĤÑĤÐ°ÑĢÑĭÐ½ÑĭÒ£":3024,"Ð°Ð¼Ð±ÑĭÐ»":3025,"ĠÂ»":3026,"ĠÐ¾ÑĢÑĭÐ½Ð´Ð°":3027,"ÐµÐ¼Ñĸ":3028,"ÑĥÐ´Ñĸ":3029,"ĠÒĽÐ°Ð½Ð°":3030,"ĠÑģÑĭÑĢÑĤÒĽÑĭ":3031,"Ð°Ð½Ð´ÑĭÑĢÑĥ":3032,"ĠÐ¼Ò±Ð½Ð´Ð°Ð¹":3033,"ÒĵÐ°ÑĢ":3034,"ÒĽÒ±Ð¶Ð°ÑĤ":3035,"ĠÐ±Ð°ÑĢÑĭÐ¿":3036,"ÑĭÑģÑĤÑĭÒ£":3037,"ĠÐ±Ð¾Ð»Ð¼Ð°Ð¹Ð´Ñĭ":3038,"ĠÑįÐ»ÐµÐºÑĤÑĢÐ¾Ð½Ð´ÑĭÒĽ":3039,"Ð¶ÑĭÐ»":3040,"ĠÐ¶Ð¾ÒĵÐ°ÑĢ":3041,"ĠÐ¡ÐµÑĢ":3042,"ĠÐ±Ð°":3043,"ÐĲÐ»Ð¼Ð°ÑĤÑĭ":3044,"ÐºÐµÑĢÑĸ":3045,"ĠÐ«":3046,"ĠÑĪÐ¾":3047,"ÐĲÐ¹":3048,"ÑģÑĤÐ²":3049,"ĠÐ°ÒĵÐ°ÑĪ":3050,"ÐµÑĤÑĢ":3051,"ĠÐ¶ÓĻÑĢÐ´ÐµÐ¼":3052,"ĠÐ°Ð¹ÑĭÐ½Ð´Ð°":3053,"KZ":3054,"ĠÐ°ÑĥÑĭÐ·":3055,"ĠÐºÑĸÑģÑĸ":3056,"ÑĭÐ¹ÑĭÐ¼":3057,"Ð³ÑĸÐ»ÑĸÐº":3058,"Ð³ÐµÐ´ÐµÐº":3059,"ĠÐ±Ð°Ð»Ð°Ð»Ð°ÑĢÐ´Ñĭ":3060,"ÑĸÐ¼Ð´ÑĸÐº":3061,"ĠÐ±ÐµÑĢÑĸÐ»ÐµÐ´Ñĸ":3062,"ĠÐ¡Ð¾Ð½Ð´Ð°Ð¹":3063,"ĠÑĤÓĻÑĢÑĤÑĸÐ¿":3064,"ĠÐºÐ°ÑĢÑĤ":3065,"ĠÒ±Ð»Ñĭ":3066,"Ð¾Ð»ÑĭÒĽ":3067,"ĠÓ©Ð½Ð´ÑĸÑĢÑĥ":3068,"ĠM":3069,"Ð½ÑĭÐ¹":3070,"ĠÐ¶Ð¸ÑĭÐ½":3071,"ĠÐ±Ð¾Ð»Ð°ÑĪÐ°ÒĽ":3072,"ÑĤÐµÑĢÑĸÐ½Ðµ":3073,"Ð»Ð°ÒĵÐ°Ð½":3074,"Ð¼Ð°ÒĵÑĭ":3075,"ĠÐ¶Ð¾ÑģÐ¿Ð°ÑĢÐ»Ð°Ñĥ":3076,"ÑģÑĭÐ»Ð¼Ð°Ð½":3077,"ĠÒ¯Ð»Ð³Ñĸ":3078,"ÐķÑģ":3079,"ĠÑĤÐ¾Ð¹":3080,"\",":3081,"Ð¸Ð½Ðµ":3082,"ĠÐ¼ÓĻÑĢ":3083,"ÑħÐ°Ð¼":3084,"ĠÒļÐ°Ð·Ð°ÒĽÑĪÐ°":3085,"ĠÐ¨ÑĭÒĵÑĭÑģ":3086,"ĠÐ±Ð°ÑģÐ¿Ð°ÑģÓ©Ð·":3087,"Ð°Ò»":3088,"ÑĤÑĭÐ¼":3089,"Ð¶Ð¾Ð»":3090,"ÑĭÒĽÑĤÑĭÑĢÑĥ":3091,"Ð¸ÑģÑĤÐµÑĢ":3092,"ĠÑĤÐ°ÒĽÑĭÑĢÑĭÐ¿":3093,"ĠÑģÒ±":3094,"ĠÐ¶Ð¸Ð½Ð°ÒĽ":3095,"Ð´Ð°Ð¹ÑĤÑĭÐ½":3096,"Ð°Ð»Ð°Ð¼":3097,"ÐºÑĨÐ¸Ð¾Ð½":3098,"ĠÐ±Ð¾Ð»Ð°":3099,"ĠÐ¶Ð°ÑĥÐ°Ð¿ÐºÐµÑĢ":3100,"ĠÑĤÒ¯ÑĢÑĸ":3101,"ak":3102,"ĠÓĻÐ´ÑĸÑģÑĤÐµÐ¼":3103,"ĠÐ¥Ð°Ð»ÑĭÒĽÒĽÐ°":3104,"ĠÐ¾ÑĤÐ±Ð°Ñģ":3105,"ĠÑģÓ©Ð·Ð´ÐµÑĢ":3106,"ĠÒ±ÑģÑĭÐ½Ñĥ":3107,"ĠÐľÐµÐ¼Ð»ÐµÐºÐµÑĤ":3108,"ĠD":3109,"ÐľÒ±":3110,"ĠÐ±ÐµÐ»Ð³Ñĸ":3111,"ÐľÐ°ÒĽ":3112,"Ð»Ð°Ð¼ÐµÐ½ÑĤÑĸ":3113,"Ġ27":3114,"ÑĭÒĵÐ°Ð½":3115,"ÐµÐ¼ÐµÐ¹":3116,"Ġ23":3117,"ĠÑģÐµÐºÑĸÐ»Ð´Ñĸ":3118,"ĠÐ±Ð°ÑģÑĤÐ°ÒĵÐ°Ð½":3119,"ĠÐºÓ©Ð·ÒĽÐ°ÑĢ":3120,"ĠÐºÓ©ÑĢÐ³ÐµÐ½":3121,"Ð°ÑĤÐ¸Ð²ÑĤÑĸÐº":3122,"ĠÐ±Ò¯Ð³ÑĸÐ½Ð³Ñĸ":3123,"ĠÑĢÓĻÑģ":3124,"ÓĻÑĥÐµÐ»":3125,"ĠÐĲÐ´Ð°Ð¼":3126,"ĠÐ¿ÑĢÐ¾ÑĦ":3127,"ÑĤÐµÑħÐ½":3128,"ĠÑĭÐ½ÑĤÑĭÐ¼Ð°ÒĽÑĤÐ°Ñģ":3129,"ĠÐºÐ¾Ð´":3130,"ĠÒĽÐ°Ð·ÑĸÑĢ":3131,"ÓĻÐ¼ÐµÐ»":3132,"ĠÐºÐ¾Ð½ÑĦÐµÑĢÐµÐ½ÑĨÐ¸Ñı":3133,"ÑĨÐ¸":3134,"ĠÐ´Ð¾Ð»":3135,"ÑģÑĥ":3136,"ĠÐĲÐ±":3137,"ĠÑģÐ°ÑıÑģÐ°ÑĤÑĭ":3138,"ÑĤÒ¯ÑĢÐ»Ñĸ":3139,"ĠÐµÑĤÐºÐµÐ½":3140,"ĠÑĪÐµÐºÑĤÐµÑĥ":3141,"ĠÐ³Ð¸Ð¿":3142,"Ð°ÑģÑĤ":3143,"ĠÑĦÑĥÐ½ÐºÑĨÐ¸Ñı":3144,"ĠÒĽÐ°Ð»Ð´ÑĭÑĢ":3145,"ĠÑĸÑģÑĤÐµÑĥ":3146,"Ð»ÐµÑĢÐ³Ðµ":3147,"ĠÑĤÐ°Ð±Ð¸ÒĵÐ°ÑĤ":3148,"ÐµÑģÑĸÐ·":3149,"Ð°Ð¼Ð°Ð·":3150,"ĠÐ½Ó©":3151,"ĠÐ±Ò¯ÐºÑĸÐ»":3152,"ĠÐ¸Ð½Ð´ÑĥÑģÑĤÑĢ":3153,"ÑĢÐ¾Ð¿":3154,"Ð¼Ð¾Ð»Ð°":3155,"ĠÐºÐ¾Ð¼Ð¸ÑģÑģÐ¸ÑıÑģÑĭÐ½ÑĭÒ£":3156,"ĠÑĤÓ©ÑĢÐ°ÒĵÐ°ÑģÑĭ":3157,"ĠÑĢÐµÑģÑĥÑĢÑģÑĤÐ°ÑĢ":3158,"ĠÑĤÐ°ÑģÑĭÐ¼Ð°Ð»":3159,"Ð´Ð°Ð´Ñĭ":3160,"ĠÒĽÐ°ÑĤÑĭÑģÑĥÑĪÑĭÐ»Ð°ÑĢ":3161,"ĠÐĲÒļÐ¨":3162,"ÒĵÑĭÐ½Ð´Ð°":3163,"ĠÑģÐ°ÒĽÑĤÐ°Ð½Ð´ÑĭÑĢÑĥ":3164,"ĠÒĽÐ°ÑĢÐ°Ð¼":3165,"ĠÐ±Ó©Ð»Ñĸ":3166,"ĠÐ°ÑĤÒĽÐ°ÑĢÑĭÐ»ÒĵÐ°Ð½":3167,"ĠÑģÐ°Ð»ÑĭÐ¿":3168,"ĠÐľÓĻÐ´ÐµÐ½Ð¸ÐµÑĤ":3169,"ÑĤÑĭÑĢÑĭÐ¿":3170,"ĠÓĻÑĢÐµÐºÐµÑĤ":3171,"ÒĵÑĭÑĢÑĥ":3172,"Ð¿Ð°Ð·":3173,"ĠÐ½Ð°ÑĥÒĽÐ°Ñģ":3174,"ĠÐ¶ÐµÑĢÐ³Ðµ":3175,"Ġ22":3176,"ĠÑĤÑĭÑģ":3177,"ĠÐļÐ¢":3178,"ĠÐ±Ð°ÑģÑĤÐ°Ð¼":3179,"ÑĪÑĸÐ½ÑĸÒ£":3180,"ĠÐ¶Ò±ÑĢÑĤ":3181,"ÑĪÐ°ÒĽ":3182,"ĠÐķÐ½Ð´Ñĸ":3183,"Ð´Ð°ÑĢÑĭÐ½Ð°Ð½":3184,"ĠÓ¨Ð¹ÑĤÐºÐµÐ½Ñĸ":3185,"ĠÑģÐ¾Ð¼":3186,"ÑĸÐ¼ÑĸÐ·Ð´Ñĸ":3187,"ĠÑĤÐµÐºÑģÐµÑĢÑĥ":3188,"ĠÐ¨ÑĭÐ¼ÐºÐµÐ½ÑĤ":3189,"ĠÒĽÐ¾ÑĢÒĵÐ°Ð½":3190,"ĠÐ±Ð°ÑģÑĪÑĭÐ»Ð°ÑĢÑĭÐ½ÑĭÒ£":3191,"ĠÐ¼Ð¸Ð½Ð¸ÑģÑĤÑĢÑĸÐ½ÑĸÒ£":3192,"ĠÐºÐ°Ð·Ð°ÐºÑĪÐ°":3193,"ĠÐ»Ð¸ÑĨ":3194,"ĠÐºÒ¯Ð½Ð´ÐµÐ»":3195,"ĠÐ¿ÑĢÐµÐ·Ð¸Ð´ÐµÐ½":3196,"Ġ28":3197,"ĠE":3198,"ĠÐ±ÐµÐ»Ð³ÑĸÐ»ÐµÐ½Ð³ÐµÐ½":3199,"ĠÐµÐ³ÐµÑĢ":3200,"ĠÑĤÐ¾Ð»ÑĭÒĽÑĤÑĭÑĢÑĥ":3201,"ĠÐ´ÐµÐ¿Ð°ÑĢÑĤÐ°Ð¼ÐµÐ½ÑĤÑĸ":3202,"ĠÐ±ÑİÐ´Ð¶ÐµÑĤÑĤÑĸÐº":3203,"Ð°Ð½Ð´ÑĭÒĽ":3204,"es":3205,"ĠÑĤÐ°Ð±Ð¸ÒĵÐ¸":3206,"ĠÐ°Ð¹Ð½Ð°Ð»ÑĭÑģ":3207,"ÐĳÒ¯Ð³ÑĸÐ½":3208,"ĠÒĽÐ¾Ñı":3209,"ĠÐ¶Ò¯ÑĢÑĸÐ¿":3210,"ĠÐĳÐ°ÑĢÐ»ÑĭÒĽ":3211,"ĠÐ¶Ð°ÒĵÑĭÐ½Ð°Ð½":3212,"ĠÐ±Ð°ÑģÑĪÑĭÐ»ÑĭÒĵÑĭÐ½ÑĭÒ£":3213,"ĠÑĤÐ°Ð½Ñĭ":3214,"Ð°ÑħÐ°Ð±":3215,"Ð´ÑĭÒĵÑĭÐ½":3216,"ÑĪÑĭÐ»Ð°ÑĢÐ´ÑĭÒ£":3217,"ÐµÐ»ÐµÑĢÐ´ÑĸÒ£":3218,"ÐĸÐ°Ò£":3219,"ĠÑįÐºÑģ":3220,"ĠÐ´ÑĸÐ½Ð¸":3221,"ĠÑĥÐ°ÒĽÑĭ":3222,"iÐ¿":3223,"ĠÒĵÐ¸Ð¼Ð°ÑĢ":3224,"ĠÑģÐ¾ÒĽ":3225,"Ð°Ð´Ð¸":3226,"ĠÐ´Ð°ÑıÑĢ":3227,"ÐŀÐ±Ð»":3228,"ÐĻ":3229,"ĠÑģÐ°Ð¹Ð»Ð°Ñĥ":3230,"Ð¼Ð°Ð¹ÑĤÑĭÐ½":3231,"ĠÐ±ÓĻÑģ":3232,"ÓĻÐ¼ÐµÐ»ÐµÑĤÐºÐµ":3233,"ĠÐ±iÑĢ":3234,"ĠÑĥÑĩÐ°ÑģÐº":3235,"57":3236,"ĠÐĸÐ°Ð»Ð¿Ñĭ":3237,"Ð°ÑĢÐ´":3238,"ÑĤÒĽÐ°Ð½":3239,"ĠIV":3240,"ĠÐ±Ð°ÑĥÑĭÑĢ":3241,"ĠÑĭÒĽÐ¿Ð°Ð»":3242,"Ð´ÐµÐ³ÐµÐ½":3243,"ĠÐºÑĸÐ¼":3244,"ĠÒĽÐ°Ð¼ÒĽÐ¾ÑĢ":3245,"ĠÐ°ÑĤÐ°Ð»ÒĵÐ°Ð½":3246,"ĠÒļÑĭÑĤÐ°Ð¹":3247,"ĠÑģÐ°Ð¿Ð°ÑģÑĭÐ½":3248,"ĠÑĤÒ¯ÑģÑĸÐ¿":3249,"ĠÐĲÐ»Ð°Ð¹Ð´Ð°":3250,"Ð¾ÐºÑģ":3251,"ĠÑĤÐ°Ò£Ð´Ð°":3252,"ĠÐ°Ð´Ð°Ð¼Ð´Ð°ÑĢÐ´ÑĭÒ£":3253,"ĠÐ°ÒĽÑĪÐ°":3254,"ĠÒĽÐ°Ð·Ð°ÒĽÑĪÐ°":3255,"ĠÑĤÐ¾Ð»Ð¼Ð°ÒĵÐ°Ð½":3256,"Ð¿ÑĢ":3257,"ĠÑģÑĥÑĢÐµÑĤ":3258,"im":3259,"ĠÐµÐ»Ð´ÐµÑĢ":3260,"ĠÐ°ÒĽÐ¿Ð°Ð½":3261,"ĠÐĲÑĥ":3262,"Ð¼Ð°Ð»":3263,"ĠÑĤÐ°ÑĢÐ¸ÑħÑĭ":3264,"ĠÐ¼ÑĸÐ½ÐµÐ·":3265,"ĠÐ·Ð°ÑĤÑĤÐ°ÑĢ":3266,"Ð´ÑĭÒĽÑĤÐ°ÑĢ":3267,"ÑĤÐ°Ð»ÑĭÐ¿":3268,"Ð°ÑģÑģ":3269,"Ð³ÑĸÑĢ":3270,"ĠÒĽÐ¾Ð»Ð¶ÐµÑĤ":3271,"ĠÑĤÒ¯Ð½":3272,"Ð½Ð¾ÑģÑĤ":3273,"ÒĵÐ°Ð¼Ð±":3274,"ĠÒ±ÑģÑĭÐ½ÑĭÑģ":3275,"ĠÐºÒ¯Ð»":3276,"ĠÑĤÑĸÑĢÐºÐµÐ»Ð³ÐµÐ½":3277,"Ġ26":3278,"ĠÒĽÐ¾Ð»Ð´Ð°Ð½ÑĭÑģÒĽÐ°":3279,"ÐµÐ´Ð¸":3280,"ĠÐºÑĢ":3281,"ÑĭÐ½Ñĭ":3282,"Ò£ÑĸÑĢ":3283,"ĠÒĽÐ¾Ð½Ð°ÒĽ":3284,"Ð¸Ð¼Ð¿Ð¸":3285,"ĠÑĤÑĭÐ¹ÑĭÐ¼":3286,"ÑĥÑĸÐ½Ðµ":3287,"ĠÑĤÓĻÑĢÐ±Ð¸Ðµ":3288,"ÑĭÐ½Ð°Ð´Ñĭ":3289,"ĠÒ±ÑĢÐ¿Ð°ÒĽ":3290,"Ð´Ð°ÑĢÐ¼ÐµÐ½":3291,"ĠÐ¼Ò±ÒĵÐ°Ð»ÑĸÐ¼Ð´ÐµÑĢ":3292,"ÒĽÑĭÑĪ":3293,"ĠÐķÐºÑĸ":3294,"ĠÐľÐ°Ò£ÒĵÑĭÑģÑĤÐ°Ñĥ":3295,"ĠÐĨÐĨÐĨ":3296,"ĠÐ´ÓĻÐ»ÐµÐ»":3297,"ĠÑĦÐ¸Ð·":3298,"ÐµÐ»ÐµÐ³ÐµÐ½":3299,"Ð¨Ð¡":3300,"Ð±Ð°ÑģÑĭÐ½ÑĭÒ£":3301,"ĠÐ´ÐµÐ½Ðµ":3302,"ÑĤÐ°Ð½Ñĥ":3303,"ĠÑĤÑĸÐºÐµÐ»ÐµÐ¹":3304,"ĠÐŀÐ»Ð°ÑĢÐ´ÑĭÒ£":3305,"ĠÐºÐµÐ·ÐµÐº":3306,"ĠÓ©ÐºÑĸÐ»Ð´ÐµÑĢÑĸ":3307,"ĠÑĤÐµÐ·":3308,"ĠÐ±Ð°ÑĢÐ»ÑĭÒĵÑĭ":3309,"ÑĢÐ°ÒĽ":3310,"ĠÐ°ÑĢÒĽ":3311,"ĠÐ¿Ð°Ð¹Ð´Ð°Ð»Ð°Ð½ÑĥÒĵÐ°":3312,"ĠÓĻÑĢÑĤÒ¯ÑĢÐ»Ñĸ":3313,"ĠÐ¾ÑĢÐ³Ð°Ð½Ð´Ð°ÑĢÐ´ÑĭÒ£":3314,"ĠÐ³ÑĢÐ°Ð½":3315,"ĠÐ¼ÓĻÑģÐ»":3316,"ÐºÓ©Ð»":3317,"Ð±ÐµÑģ":3318,"Ð¾ÑģÑĤ":3319,"ĠÑĤÑĸÐ¿ÑĤÑĸ":3320,"ĠÓ©Ð·ÑĸÐ½Ðµ":3321,"13":3322,"ĠÓ©Ò£Ð´ÐµÑĥ":3323,"Ð³ÑĸÐ»ÐµÑĢ":3324,"ĠÑģÐ°Ð»Ð°":3325,".âĢĶ":3326,"ĠÐľÐłÐ¢":3327,"Ð³ÑĸÐ»Ñĸ":3328,"ĠÐ¾ÒĽÑĭÐ¿":3329,"Ð°Ð½ÑĭÑĪ":3330,"ĠÑģÓĻÑĤ":3331,"ĠÑĤÒ±ÑĢÑĭÐ¿":3332,"ĠÑįÑĤ":3333,"ĠÐ¼Ð¸Ð»Ð»Ð¸Ð¾Ð½":3334,"05":3335,"ĠÐ¶Ð°Ò£ÒĵÑĭÑĢÑĥ":3336,"ĠÑģÑĥÐ±ÑĬÐµÐºÑĤÑĸ":3337,");":3338,"Ð´Ð°Ð»ÒĵÐ°Ð½":3339,"Ð´Ð¸Ð´Ð°":3340,"ĠÐ¡Ð¾":3341,"ĠÐ¶Ð°ÑģÑĤÐ°ÒĵÑĭ":3342,"ĠÐ±Ðµ":3343,"ĠÓĺÐ¹":3344,"ma":3345,"ĠÐ¶Ð¸Ð½Ð°ÒĵÑĭ":3346,"ĠÒļÑĭÑĢ":3347,"........":3348,"ĠÐ°ÑĢÑħ":3349,"ĠÒĽÐ°ÑĥÑĭÐ¼":3350,"ĠÐµÐ»ÑĸÐ¼ÑĸÐ·":3351,"ĠÐĸÐ¨Ð¡":3352,"ĠÐ°Ð¶":3353,"Ð´Ð°Ð½Ñĥ":3354,"ĠÐ¼ÐµÐºÑĤÐµÐ±":3355,"ĠÐ¶Ð°ÑĤÑĤÑĭ":3356,"ÑĤÐ°ÑĤÐ¸ÑģÑĤ":3357,"ĠÑĪÐ°ÑĪ":3358,"Ð·Ð±":3359,"%-":3360,"ĠÐ¶Ð¾Ð±Ð°ÑģÑĭ":3361,"ĠÒĽÐ°Ð¹ÑĭÑĢ":3362,"Ð»ÐµÐ¿":3363,"ĠÐµÑĤÑĤÑĸ":3364,"ĠÐ¥Ð°Ð»ÑĭÒĽÐ°ÑĢÐ°Ð»ÑĭÒĽ":3365,"ĠÑģÐµÐ½ÑĸÐ¼":3366,"ĠÐ¼Ò¯Ð´":3367,"ĠÑĪÐ°Ð»":3368,"ĠÓĻÑĢÑĸÐ¿ÑĤÐµÑģ":3369,"Ð°Ð¹ÑĤÑĥ":3370,"ĠÒĽÒ±ÑĢÐ°Ð¹Ð´Ñĭ":3371,"ĠÑĤÒ±Ð»ÒĵÐ°":3372,"Ð»ÑĸÐºÑĤÑĸÒ£":3373,"ĠÓĻÐºÑĸÐ¼Ð´ÑĸÐ³Ñĸ":3374,"ÑĭÒĵÑĭÐ¼ÐµÐ½":3375,"ĠÑĤÒ¯ÑģÑĸÐ½ÑĸÐº":3376,"ĠÐ±Ð¾Ð»Ð°ÑĢ":3377,"ĠÐµÑĢÐµÐºÑĪÐµÐ»ÑĸÐº":3378,"ÒĽÐ°ÑĤÑĭÐ½Ð°Ñģ":3379,"ĠÐºÓ©Ð¼ÐµÐºÑĤÐµÑģ":3380,"ÐµÑĤÐ¸ÐºÐ°":3381,"Ð±Ð°Ð¿":3382,"Ð³ÑĸÐ¼ÐµÐ½":3383,"ÐĳÐ°Ñģ":3384,"Ð°ÑĨÐ¸ÑıÐ»Ð°ÑĢ":3385,"ĠÐ°Ð¹ÑĭÐ¿":3386,"ĠÒ®ÐºÑĸÐ¼ÐµÑĤ":3387,"ĠÑģÐ°Ð»Ñĥ":3388,"ĠÐļÒ¯Ð½":3389,"ĠÐļÓĻÑģÑĸÐ¿":3390,"ĠÐºÓ©Ð·Ð´ÐµÐ»Ð³ÐµÐ½":3391,"ĠÐ°ÑĤÑĭ":3392,"ĠÒĽÐ°ÑĥÑĸÐ¿ÑģÑĸÐ·Ð´ÑĸÐº":3393,"ĠÐ¿Ð°Ð¹Ð´":3394,"ĠÐ°Ð½Ð°":3395,"ĠÓ©ÑĤÑĸÐ¿":3396,"Ð°ÐºÑĤÐ¸ÐºÐ°Ð»ÑĭÒĽ":3397,"ĠÒ±ÑģÑĤÐ°Ð½":3398,"ĠÐ¾ÑĤÐ°Ð½":3399,"Ð¸ÑıÑģÑĭÐ½":3400,"ĠÐ½ÓĻÑĤÐ¸Ð¶ÐµÑģÑĸÐ½Ð´Ðµ":3401,"ĠÐºÐµÒ£ÐµÐ¹":3402,"Ò±Ð»Ð´Ñĭ":3403,"ĠÑĤÐ°Ð¼ÑĭÑĢ":3404,"ĠÑĪÑĭÒĵÐ°ÑĢÐ¼":3405,"edia":3406,"ĠÐĨÑĪÐºÑĸ":3407,"ÂŃÂŃ":3408,"ÑĭÒ£ÒĵÐ°Ð¹":3409,"ÒļÐ°Ð»Ð°Ð»ÑĭÒĽ":3410,"ĠÐ¼Ð°ÑĪ":3411,"000":3412,"Ð»Ð¾Ð¼":3413,"ĠÑģÐ°Ð»ÑĭÑģÑĤÑĭÑĢ":3414,"ĠÐµÐ»ÑĸÐ¼ÑĸÐ·Ð´ÑĸÒ£":3415,"ÐºÑĤ":3416,"Ð°Ð½ÑĤ":3417,"ĠÑħÐ¸Ð¼":3418,"ÓĻÑĢÐµÐº":3419,"ĠÑĤÐ°Ò£Ð´Ð°Ñĥ":3420,"//":3421,"ĠÐ¼ÑĸÐ½Ð´ÐµÑĤ":3422,"ĠÐŀÑĢÑĤÐ°Ð»ÑĭÒĽ":3423,"ÐµÑĤÑĤÐµÑĢÑĸÐ½":3424,"ÑĤÐ°Ð¹ÑĤÑĭÐ½":3425,"Ð½Ð°Ð¼Ð°":3426,"ĠÐ´Ò¯Ð½Ð¸Ðµ":3427,"ÒĵÐ°Ð½Ñĭ":3428,"ĠÐºÓ©ÑĢÐºÐµÐ¼":3429,"ĠÐºÑĥÓĻ":3430,"ĠÑĦÐ¾ÑĢÑĥÐ¼":3431,"ÑħÐ¸":3432,"ĠÓ©ÑĤÐµÐ´Ñĸ":3433,"ĠÒĽÐ°ÒĵÐ¸Ð´Ð°Ð»Ð°ÑĢÑĭÐ½":3434,"ou":3435,"ĠÐ°ÐºÑĤÑĸÐ»ÐµÑĢÑĸÐ½":3436,"ĠÐ±ÑĸÑĢÐµÑĥ":3437,"ĠÐ¼Ð°Ò£":3438,"ĠÐ¶Ð°Ð·Ñĥ":3439,"ĠÑĦÐ°ÐºÑĤÐ¾ÑĢ":3440,"ĠÓĻÐº":3441,"ĠÂ":3442,"ÑģÑĭÐ¼ÐµÐ½":3443,"ĠÐ´Ð¸ÑĢÐµÐºÑĤÐ¾ÑĢÑĭ":3444,"ÑĥÐ´ÑĸÒ£":3445,"Ð¸ÑģÑĤÑĸÐº":3446,"ĠÐµÑĢÑĤÐµ":3447,"ĠÐķÒ£Ð±ÐµÐº":3448,"Ð¥Ð°Ð»ÑĭÒĽ":3449,"ĠÒĽÐ¾Ð»Ð¶ÐµÑĤÑĸÐ¼Ð´Ñĸ":3450,"Ð¿ÑĸÐ½":3451,"Ð»ÑĭÒĽÑĤÐ°ÑĢ":3452,"ÑĢÐ´":3453,"ĠÒ¯ÐºÑĸÐ¼":3454,"ĠÐ§":3455,"ĠÐ¶ÐµÑĤÐºÐµÐ½":3456,"ĠÐ¼ÐµÐ·":3457,"ĠÐºÐµÑĢÑĸ":3458,"ÑĥÐ»ÑĮÑĤ":3459,"ĠÑģÐ¾Ð½ÑĭÒ£":3460,"ĠÑĪÐ°ÒĵÑĭÐ¼":3461,"ĠÐĲÑģÑĤÐ°Ð½":3462,"ĠÐ°ÑĥÑĭÑģ":3463,"ĠÐ¼Ò±ÑģÑĭÐ»Ð¼Ð°Ð½":3464,"Ð°Ð´ÑĢ":3465,"ÐºÐ¾":3466,"ĠÑĤÐ°Ð¹":3467,"ĠÑĪÐ°Ð±":3468,"Ð°Ð½Ð´Ð°":3469,"ÓĻÑĢÑĸ":3470,"ĠÐµÑģÑĤ":3471,"ĠÑĭÐ´ÑĭÑģ":3472,"ĠÐ°Ð´Ð°Ð¼ÒĵÐ°":3473,"ÑĥÐ´Ðµ":3474,"ĠÑĤÓĻÐ½":3475,"Ð³ÐµÐ»":3476,"ĠÑħÐ°Ð±Ð°ÑĢÐ»Ð°Ð¼Ð°":3477,"ĠÐ¾ÑĤÐ±Ð°ÑģÑĭ":3478,"ĠÐ°Ð¹ÑĤÑĥÑĭÐ½ÑĪÐ°":3479,"ĠÐ¼ÐµÐ½ÑĪÑĸÐº":3480,"ĠÐ¶Ð°Ð·ÑĭÐ¿":3481,"Ð¼ÐµÐ¹ÑĤÑĸÐ½":3482,"ĠÑĪÐ°ÑĢÑĤÑĤÐ°ÑĢ":3483,"ĠÑĤÒ±ÑĢÐ¼":3484,"Ġh":3485,"ĠÐºÓ©ÑĢÑģÐµÑĤÐµÐ´Ñĸ":3486,"ĠÐ»Ð¸ÑĨÐµÐ½":3487,"ĠÒĽÐ°ÑĢÐ°ÒĵÐ°Ð½Ð´Ð°":3488,"ĠÑĪÑĭÒĵÐ°ÑĢÐ¼Ð°ÑĪÑĭÐ»ÑĭÒĽ":3489,"ĠÐ¼Ð¸":3490,"ĠÒ±Ð¶ÑĭÐ¼":3491,"ĠÑĤÑĸÐ»ÑĸÐ½":3492,"ĠÐºÒ¯Ð½Ð³Ðµ":3493,"ĠÐ±ÑĭÐ»Ð°Ð¹":3494,"ĠÒ±Ñı":3495,"ĠÐ¶Ð°ÒĽÑģÐ°ÑĢ":3496,"ĠÐ°ÑģÑĭÑĢÑĭÐ»Ð°Ð´Ñĭ":3497,"ĠÒĽÐ°Ð»Ð¿":3498,"ĠÐ°Ð¹ÑĤÑĭÐ»":3499,"ĠÒ¯Ð¼ÑĸÑĤ":3500,"ĠÐ°ÒĵÑĭÐ¼":3501,"ĠÐ°ÑģÑĭÑĢÐ°ÑĤÑĭÐ½":3502,"ĠÑĤÐ¾Ð½":3503,"Ó©Ò£Ð³":3504,"ĠÐ¼Ð»ÑĢÐ´":3505,"ĠÐ±Ð°ÒĵÐ´Ð°ÑĢÐ»Ð°Ð¼Ð°":3506,"ĠÐ¼Ð¸Ð½Ð¸ÑģÑĤÑĢÐ»ÑĸÐ³Ñĸ":3507,"ĠÐ¾Ð»Ð°ÑĢÒĵÐ°":3508,"Ð´iÒ£":3509,"ÑĤÐµÐ¹":3510,"ĠÐ¸Ð½ÑģÐ¿":3511,"Ð±ÑĬÐµÐº":3512,"Ġ29":3513,"Ð°Ð½ÒĵÐ°Ð½":3514,"ĠÑĤÒ±Ð»ÒĵÐ°Ð»Ð°ÑĢ":3515,"ÒĽÐ¾ÒĵÐ°":3516,"ĠÐ¶Ð°ÑģÒĽÐ°":3517,"ĠÐ±Ð°ÑĢÐ°":3518,"ĠÐ¼Ò¯Ð¼ÐºÑĸÐ½Ð´ÑĸÐ³Ñĸ":3519,"ĠÐ´ÐµÐ¿Ð°ÑĢÑĤÐ°Ð¼ÐµÐ½ÑĤ":3520,"ation":3521,"Ð¸ÑıÒĵÐ°":3522,"ĠÐŁÑĢ":3523,"ĠÐ°Ð¿Ð¿Ð°ÑĢÐ°ÑĤÑĭÐ½Ð´Ð°":3524,"ĠÐ°ÒĵÑĭÐ»":3525,"ÑĸÐ»ÑĸÑģ":3526,"ĠÐĲÑĤ":3527,"Ð¸Ð±Ðµ":3528,"ĠÑĪÑĭÑĢ":3529,"Ð°ÒĵÑĭÐ½Ð°":3530,"Ġs":3531,"ĠÒĽÐ°ÒĽ":3532,"ÑħÐ¼ÐµÑĤ":3533,"ÐµÐ´i":3534,"ĠÐ¿ÑĢÐ¾ÑĨÐµÑģ":3535,"ĠÐ±ÑĢ":3536,"ÑĭÒ£ÑĭÐ·Ð´Ñĭ":3537,"ĠÑģÐµÐ·ÑĸÐ¼":3538,"ĠÐºÓ©Ð¼":3539,"Ð°Ð»Ð»":3540,"ĠÐ¿ÑĢÐ¾ÐºÑĥÑĢÐ°ÑĤÑĥÑĢ":3541,"Ð°Ð¹ÑĭÒĽ":3542,"ĠÒļÐ¾ÒĵÐ°Ð¼":3543,"ĠÑĤÒ¯ÑģÑĸÐ½Ð´ÑĸÑĢ":3544,"ÐľÓĻ":3545,"ÐľÐµÐ½":3546,"ĠÐ½ÐµÑģ":3547,"ĠÐºÐµÐ½":3548,"Ð¿ÐµÐº":3549,"ĠÐ°Ð»ÒĵÐ°ÑĪ":3550,"ĠÐ¶ÑĭÐ»Ð´Ð°ÑĢ":3551,"ÑĭÐ½ÑĭÐ¿":3552,"ÑĸÐ»ÑĥÑĸ":3553,"ĠÐ´Ò¯Ð½Ð¸ÐµÐ³Ðµ":3554,"ÑģÑĭÒ£":3555,"ĠÐĸÐ¾Òĵ":3556,"ĠÓĻÐ´ÐµÑĤ":3557,"Ð»ÐµÐ´Ð¶":3558,"ĠG":3559,"ÐµÑĤiÐ½":3560,"ÑĭÐ¼Ð°":3561,"ÐķÐ³ÐµÑĢ":3562,"Ð»Ðµ":3563,"ĠÒ®Ð¹":3564,"ĠÐ·ÑĥÐ±":3565,"ÑĤÐ¸Ð²ÑĤÑĸ":3566,"ĠÐºÐ°Ð½Ð´Ð¸Ð´Ð°":3567,"ĠÓĻÐ·ÑĸÑĢÐ»ÐµÑĥ":3568,"Ð°ÑĤÑĮ":3569,"ĠÓĻÐ´ÑĸÑģ":3570,"Ð°ÒĽÑĭÐ¼":3571,"ĠÐ¶Ð°ÒĵÐ´Ð°Ð¹ÑĭÐ½Ð°":3572,"Ð±Ð°ÑĢ":3573,"ĠÐ¢ÐµÐº":3574,"ĠÐ°ÐºÐ°Ð´ÐµÐ¼":3575,"ĠÒĽÑĭÑģÒĽÐ°":3576,"ĠÒ¯Ð»ÐµÑģ":3577,"Ð¸Ð´ÐµÐ¾":3578,"Ð°ÑĤÐ°":3579,"ĠÒ¯Ð¹ÑĢÐµÐ½":3580,"Ó©Ð»ÑĸÐº":3581,"ĠÐµÐ½Ð³ÑĸÐ·ÑĸÐ»ÐµÐ´Ñĸ":3582,"ÑĤÒ±":3583,"ĠÒĽÒ±ÑĢÑĭÐ»ÒĵÐ°Ð½":3584,"ĠÐ·ÐµÐ¹Ð½ÐµÑĤÐ°ÒĽÑĭ":3585,"ĠÐ±Ð¸Ð»":3586,"ĠÑģÐµÐ±ÐµÐ±Ñĸ":3587,"ĠÐ¾ÑĢÐ½Ñĭ":3588,"ĠÑĪÑĭÒĵÑĭÐ½":3589,"ĠÑģÐ¸Ð½":3590,"ĠÐļÓ©ÑĢ":3591,"Ð´Ð¸Ð½":3592,"ĠÑĤÒ¯ÑģÐµÐ´Ñĸ":3593,"Ð±Ð»ÐµÐ¼":3594,"ÑĸÐ½ÑĪÐµ":3595,"Ð·ÑĭÑĢ":3596,"ĠÑĪÐµÒ£Ð±ÐµÑĢÑĸÐ½Ð´Ðµ":3597,"ÑĪÐ°ÒĵÐ°Ð½":3598,"ÐķÐł":3599,"Ð±Ð°Ð»":3600,"ĠÑĤÑĢÐ°Ð½":3601,"ĠÐ±Ð¸ÑĭÐ»":3602,"ĠÑĤÑĸÐ»Ð´ÐµÑĢÐ´Ñĸ":3603,"ÐµÐºÑĤÑĸÒ£":3604,"ĠÐ¶Ò¯Ð¹ÐµÑģÑĸÐ½":3605,"ÐĲÐĽ":3606,"Ð¸ÑĤÐ°ÑĢÐ»ÑĭÒĽ":3607,"ĠÐļÐ¾ÑĢ":3608,"Ð°ÑĤÑĭÐ½ÑĭÒ£":3609,"ĠÐ±ÐµÑĢÑĸÐ»Ð´Ñĸ":3610,"ĠÐºÐ¾Ð½ÑĨ":3611,"Ð°Ð»Ð°ÑĢÑĭÐ½Ð°":3612,"ĠÐļÓ©Ðº":3613,"ÐĳÑĸÐ»ÑĸÐ¼":3614,"Ð¿Ð°":3615,"ĠÒĽÐ°ÒĵÐ°Ð·":3616,"ĠÐ°ÒĵÐ°":3617,"ĠÐ¢Ó©":3618,"ĠÐľÐ°ÑĤ":3619,"ĠÒļÐ°Ð·Ð°ÒĽÑģÑĤÐ°Ð½Ð´Ð°":3620,"ĠÐ´Ð°Ð¼ÑĥÑĭÐ½Ð°":3621,"Ð°Ð±Ð¸Òĵ":3622,"ĠÑĭÐ½ÑĤÑĭÐ¼Ð°ÒĽÑĤÐ°ÑģÑĤÑĭÒĽ":3623,"ĠÐ±Ð°Ð»Ð°Ð»Ð°ÑĢÐ´ÑĭÒ£":3624,"Ð¸Ð½Ð¸ÑģÑĤÑĢ":3625,"ĠÐºÐµÐ¿ÑĸÐ»":3626,"ÒļÐł":3627,"ĠÓ©Ð»ÑĪ":3628,"ĠÒ±Ð½":3629,"ÒĽÑĥ":3630,"2015":3631,"ĠÒĽÐ¾Ð¹ÒĵÐ°Ð½":3632,"ĠÑĢÐµÑģÐ¿ÑĥÐ±Ð»Ð¸Ðº":3633,"ÒĵÐ°Ð¼Ð±Ð°ÑĢ":3634,"24":3635,"ĠÒĽÒ±ÑĢÐ¼ÐµÑĤ":3636,"ĠÒ±ÑĪÑĭÑĢ":3637,"ĠÐ¶Ò±Ð¼ÑĭÑģÑĤÐ°ÑĢÑĭÐ½":3638,"ĠÐ¼ÐµÐºÐµÐ¼ÐµÐ»ÐµÑĢ":3639,"ĠÐ¶Ð°Ð·ÑĭÐ»ÒĵÐ°Ð½":3640,"ĠÐµÑĪÐºÑĸÐ¼":3641,"ĠÒ¯ÑĪÑĸÐ½ÑĪÑĸ":3642,"ĠÓ©Ð½Ð´ÑĸÑĢÑĸÑģ":3643,"ĠÒĽÐ°Ð´Ð°Ð¼":3644,"ĠÐĸÐ°Ð¼Ð±ÑĭÐ»":3645,"ÑģÐºÐ¸Ð¹":3646,"ĠÐ¾Ð¹Ð½":3647,"Ð±Ð°Ð½":3648,"ĠÐ¼ÐµÑħÐ°Ð½":3649,"ĠÐ¶ÑĭÐ½":3650,"Ð»Ð°Ð¹Ð½":3651,"ĠÐ´Ð°ÑĥÑĭÑģ":3652,"172":3653,"ĠÐ±Ò±ÑĢÑĭÐ½ÒĵÑĭ":3654,"ĠÒļÐ°Ð·ÑĸÑĢÐ³Ñĸ":3655,"ĠÐºÐ»Ð°ÑģÑģÐŁÐ¾ÑĥÑĢÐ¾ÑĩÐ½ÑĭÐµ":3656,"ÐĸÐ°Ñģ":3657,"ĠÐ¡Ð¾Ð»ÑĤÒ¯ÑģÑĤÑĸÐº":3658,"ĠÐ¢ÓĻÑĥÐµÐ»":3659,"ÐºÐ¾Ð½":3660,"ww":3661,"ĠÐ¶Ð¾Ñİ":3662,"Ð»ÐµÑĢÐ´Ðµ":3663,"ĠÐ±Ð°Ð»Ð°Ð½ÑĭÒ£":3664,"ĠÐºÐ°ÑĢ":3665,"ĠÐ¾ÒĽÑĥÑĪÑĭÐ»Ð°ÑĢÐ´ÑĭÒ£":3666,"ĠÐ¶Ð°Ð½ÑĥÐ°ÑĢ":3667,"ĠÐ±Ð°Ð¿":3668,"?Â»":3669,"Ð°ÒĵÐ´Ð°ÑĢÐ»Ð°Ð¼":3670,"ĠÐ°ÑĤÐ°Ñĥ":3671,"ĠÒĽÐ°Ð´Ð°":3672,"el":3673,"ĠÐºÓ©ÑĢÑĸÐ½ÐµÐ´Ñĸ":3674,"ĠÐºÐ¾Ð¼Ð¼ÐµÑĢ":3675,"ĠÓĻÐ»Ð´Ðµ":3676,"ÑĸÐ¼Ð´ÐµÑĥ":3677,"ĠÑģÒ¯ÑĤ":3678,"ĠÐ¼Ð°ÒĽÑģ":3679,"ĠÐ°Ð¹ÑĤÐ°":3680,"ĠÐ±Ð°ÒĵÐ°":3681,"Ð³ÑĢ":3682,"Ð¸Ð¿Ð»Ð¾Ð¼":3683,"ĠÐ¼Ò±Ð½Ð°Ð¹":3684,"ĠÐ´Ð°ÑĢ":3685,"ĠÐĳÑĸÐ·Ð´ÑĸÒ£":3686,"ĠÐ¡ÐµÐ¼ÐµÐ¹":3687,"ĠÐºÑĥÑĢÑģ":3688,"ÑĪi":3689,"ĠÐºÐ¸Ð½":3690,"ĠÐ¼ÓĻÑģÐµÐ»Ðµ":3691,"ĠÒĽÒ±Ð±":3692,"ĠÐ¶ÐµÑĤÑĸÑģÑĤÑĸÐº":3693,"ĠÐĳÐ°ÑĤÑĭÑģ":3694,"Ġ21":3695,"ÒļÑĭÐ·ÑĭÐ»ÒĽÐ¾ÒĵÐ°":3696,"ÑĭÒ£ÑĭÐ·ÒĵÐ°":3697,"ĠÐ¶ÐµÐ´ÐµÐ»":3698,"!Â»":3699,"Ð´ÐµÑĢÑĸÐ½Ðµ":3700,"ĠÑĤÐ°Ð»Ð´Ð°ÑĥÑĭÐ½ÑĭÒ£":3701,"ÑĪÑĭÐ»ÑĭÒĵÑĭÐ½":3702,"ĠÐŀÒ£ÑĤÒ¯ÑģÑĤÑĸÐº":3703,"ĠÐºÐµÐ·Ð´ÐµÑģÑĤÑĸ":3704,"ĠÒĽÑĭÐ·Ð¼ÐµÑĤÑĸÐ½ÑĸÒ£":3705,"ĠÐĲÐ·Ð°Ð¼":3706,"ĠÐºÓ©Ð·Ñĸ":3707,"ĠÐ¼ÐµÐºÑĤÐµÐ¿ÑĤÐµÑĢ":3708,"ĠÑģÐµÐ¼Ð¸Ð½Ð°ÑĢ":3709,"Ġ40":3710,"://":3711,"ttp":3712,"ĠÐºÓ©ÑĢÐ¼":3713,"Ð°ÑĤÒĽÐ°Ð½":3714,"ĠÐ°ÒĽÐ¿Ð°ÑĢ":3715,"ĠÒ±Ð¹ÑĭÐ¼ÑĭÐ½ÑĭÒ£":3716,"ĠÑģÐ°Ð»ÑĤÐ°Ð½":3717,"ĠÑģÐ°Ð¿Ð°ÑĢ":3718,"ĠÐ±ÑĸÐ»Ñĥ":3719,"ĠÑĤÓĻ":3720,"ĠÐºÐ¾":3721,"Ð°Ð¹ÑĭÐ½Ð´Ð°":3722,"Ð¶Ð°ÒĽÑĤÑĭ":3723,"Ð±Ð°Ð±":3724,"Ð¿Ð»Ð°Ð½":3725,"ĠÒĽÐ°Ð±ÑĭÐ»Ð´Ð°ÑĥÐ´ÑĭÒ£":3726,"ĠÑĤÒ±ÑĤÑĭÐ½":3727,"Ò±Ð»Ð´ÑĭÐ·":3728,"ĠÐ¡Ð°Ñĥ":3729,"ĠÐ¶Ò±Ð¼ÑĭÑģÑĭ":3730,"Ò¯Ñģ":3731,"ÒĽÒ±Ð»":3732,"ĠÐ¶Ò¯Ð¹ÐµÑģÑĸÐ½ÑĸÒ£":3733,"ĠÐ±Ó©Ð»ÑĸÐ¼ÑĪ":3734,"ĠÒĽÐ°Ð¹ÑĤÐ°Ð»":3735,"ĠÒĽÐ°Ð¹ÑĤÐ°ÑĢ":3736,"ĠÓĻÐ»ÐµÐ¼Ð´ÑĸÐº":3737,"ĠÐ¼Ð°ÒĵÐ°Ð½":3738,"ĠÓ©Ð·ÐµÐ½":3739,"ÑĮÐµÑĢ":3740,"Ð°Ð»ÑĭÒĵÑĭÐ½ÑĭÒ£":3741,"ĠÑĤÒ±ÑĢÒĵÑĭ":3742,"ĠÐ°ÑĢÑĤÑĤÑĭÑĢ":3743,"Ð°Ð´ÑĭÐ¼":3744,"ĠÐ´Ð°Ð¹ÑĭÐ½Ð´Ð°Ñĥ":3745,"ĠWik":3746,"ĠÒļÑĭÐ·":3747,"ĠÒĽÐ°Ð´Ð°ÒĵÐ°Ð»":3748,"Ó©Ò£Ð³ÐµÐ»ÐµÐº":3749,"Ð°Ð´Ð°Ð½":3750,"ÑģÐ°Ò£":3751,"ĠÐĸÒ±Ð¼ÑĭÑģÐ¿ÐµÐ½":3752,"ĠÐºÐ¾Ð¼Ð¸ÑĤÐµÑĤÑĸÐ½ÑĸÒ£":3753,"ĠÐ¾Ð±Ð»ÑĭÑģÑĭÐ½Ð´Ð°":3754,"ÑĨÐ¸ÑıÐ»Ð°ÑĢ":3755,"ĠÐ¶ÐµÑĤÑĸÐ»Ð´Ñĸ":3756,"ĠÐ´Ð°Ð¼ÑĥÑĭÐ½ÑĭÒ£":3757,"ĠÐ±Ð¸ÑĸÐº":3758,"ĠÐ¢Ò±ÑĢ":3759,"Ð³ÐµÐ±ÑĢ":3760,"ĠÑĪÑĭÒĵÐ°ÑĢÑĥ":3761,"ÑĤÐ°Ò£":3762,"ĠÐľÑĭÑģÐ°Ð»Ñĭ":3763,"ĠÐ°ÒĽÑĭÐ»":3764,"ÑĸÐ¼Ðµ":3765,"ĠÑĤÐµÐ¾ÑĢ":3766,"ĠÑĢÓ©Ð»":3767,"ĠÑģÐµÑĢÑĸÐº":3768,"ĠÐ´ÓĻÑģÑĤÒ¯ÑĢ":3769,"ĠÐ±ÑĸÑĢÐ´ÐµÐ¹":3770,"ĠÑĤÑĸÐ»ÑĸÐ½Ð´Ðµ":3771,"ĠÐ¶ÐµÑĤÑĸÐ»Ð´ÑĸÑĢÑĥ":3772,"ĠÐ¿ÑĢÐ¾Ð±Ð»ÐµÐ¼":3773,"ĠÐ½Ó©Ð¼ÑĸÑĢ":3774,"ĠÐ¡ÐµÐ±":3775,"ÒļÐ°Ð¹":3776,"ĠÐ°ÒĽÐ¿Ð°ÑĢÐ°ÑĤÑĤÑĭ":3777,"ÒļÐŀ":3778,"ÒĽÒ±ÑĢÑĭÐ»ÑĭÑģ":3779,"ĠÓ©ÑĤÐºÑĸÐ·ÑĸÐ»Ð´Ñĸ":3780,"as":3781,"ĠÐµÑģÐµÐ¿ÐºÐµ":3782,"ÒĵÐ°Ð½ÑĭÒ£":3783,"Ð°ÑĥÑĢÑĭÐ·":3784,"________":3785,"ĠÑĤÐ¾":3786,"ĠÐĸÑĭÐ»":3787,"ĠÐ¶Ð°Ð¼":3788,"ĠÐºÐ¾Ð¼Ð¼Ñĥ":3789,"ĠÑĤÓĻÑĢÐ±Ð¸ÐµÐ»ÐµÑĥ":3790,"Ð´Ð°ÑĢÑĭÐ¼ÐµÐ½":3791,"7172":3792,"ĠÑĤÐ°ÒĵÐ°Ð¹ÑĭÐ½":3793,"ol":3794,"Ð°ÒĽÒĽÐ°":3795,"ĠÑĪÒ±":3796,"Ð¿ÐµÐ¹":3797,"ĠÐ¶Ò¯Ð»":3798,"ÑĭÐ¼ÑĭÐ·Ð´Ñĭ":3799,"ĠÑĢÐµÐ¶":3800,"ÑĤÑĸÐ·Ð±":3801,"ĠÐ½Ð°Ñģ":3802,"ĠÒĽÒ±ÑĤÑĤÑĭÒĽ":3803,"et":3804,"ĠÐ¼Ò±ÒĵÐ°Ð»ÑĸÐ¼":3805,"ÑĥÐ»Ñĭ":3806,"ÐĲÐ¢":3807,"ÑĤÐ°ÑĢÐ´Ð°":3808,"ĠÐļÐµÐ»":3809,"ĠÑĤÐ°ÑĢÐ°Ð¿ÑĭÐ½Ð°Ð½":3810,"ĠÒļÐ°Ð»":3811,"Ó©Ð½ÐµÑĢ":3812,"ĠÐºÒ¯Ð¼":3813,"ĠÒ°Ð»Ñĭ":3814,"ĠK":3815,"ÐµÐºÑĤÐµÑĢ":3816,"ĠÑħÐ°Ð»ÒĽÑĭÐ½ÑĭÒ£":3817,"ĠÑĪÑĭÐ½ÑĭÒĽÑĤÑĭÑĢÑĥ":3818,"ĠÐĳÒ¯Ð³ÑĸÐ½":3819,"ĠÐ¼ÐµÐºÑĤÐµÐ¿ÐºÐµ":3820,"ĠÐĲÐ²":3821,"ĠÐºÒ¯ÑĢÐ´ÐµÐ»Ñĸ":3822,"ĠÒĽÑĭÐ»":3823,"ĠÐ°Ð»ÑĥÑĪÑĭÐ»Ð°ÑĢ":3824,"ĠÐ°ÑģÑĤ":3825,"ĠÐ°ÑĥÐ¼Ð°ÒĵÑĭÐ½Ð´Ð°":3826,"ĠÒĽÒ±Ð·ÑĭÑĢ":3827,"ĠÐ¾ÒĽÐ¸Òĵ":3828,"ĠÐ°ÑĥÐ¼Ð°ÒĽ":3829,"ĠÐ°Ð´Ð°Ð¼Ð´Ñĭ":3830,"is":3831,"ĠÐ°ÑĪÑĭÐ¿":3832,"ĠÐ±Ð°ÒĽ":3833,"ĠÑįÐ»ÐµÐºÑĤÑĢÐ¾Ð½Ð´Ñĭ":3834,"ĠÐ´ÐµÐ½ÑģÐ°Ñĥ":3835,"ÐºÓĻÑģÑĸÐ¿ÑĤÑĸÐº":3836,"ĠÐ¼Ð¸Ð½Ð¸ÑģÑĤÑĢÐ»ÑĸÐ³ÑĸÐ½ÑĸÒ£":3837,"ĠÑģÑĤÐ¸ÑħÐ¸":3838,"Ð°Ð»Ð°Ð¿":3839,"ĠÐ¶ÑĥÑĭÒĽ":3840,"Ð¶ÐµÐ»":3841,"ĠÑĪÐ°ÑĢÑĤÑĭ":3842,"ÐĸÐ°Ð»Ð¿Ñĭ":3843,"Ġc":3844,"ĠÒļÐ°Ð·ÑĸÑĢ":3845,"ĠÐ¼Ò¯Ð³ÐµÐ´ÐµÐº":3846,"ĠÑĤÓĻÑĢÑĤÑĸÐ±":3847,"ĠÐ°Ð»Ð´ÑĭÐ¼ÐµÐ½":3848,"ĠÐµÑĤÑĸÐ»":3849,"ĠÐ¼Ð°ÑĤÐµÐ¼Ð°ÑĤÐ¸Ðº":3850,"ĠÐ±Ð°ÑģÑĭÐ¿":3851,"ĠÐµÐ´ÑĸÐ¼":3852,"ĠÑģÐ°Ð»ÑĭÐ½ÒĵÐ°Ð½":3853,"ĠÐ¾ÑĢÑĤÐ°ÒĽ":3854,"ÐĲÑĥÑĭÐ»":3855,"ĠÐķÑĥÑĢÐ¾Ð¿":3856,"Ð»Ð¸":3857,"ĠÐºÐµÐ´ÐµÑĢ":3858,"ĠÑģÑĭÐ·":3859,"ĠÐ¶Ð°ÒĵÐ´Ð°Ð¹Ð»Ð°ÑĢÐ´Ð°":3860,"ÑĥÑĪÑĸ":3861,"ÐĲÒĽÑĤ":3862,"ĠÒĽÐ°ÑĢÐ¶ÑĭÐ»":3863,"Ð¾ÑģÐ¾ÑĦ":3864,"ĠÐ¼Ð¾":3865,"Ð½Ð´":3866,"ĠÒ±ÒĽÑģ":3867,"Ð¶ÑĭÑĢÑĭÐ¼":3868,"ĠÐ°Ð¹ÑĤÐ°Ð´Ñĭ":3869,"ĠÐ¿Ð°":3870,"ĠÓĻÐ´ÐµÐ±Ð¸ÐµÑĤ":3871,"iÐ»iÐº":3872,"Ð´ÐµÐ´Ñĸ":3873,"ĠÐ¶ÑĭÐ»Ð´Ð°Ð¼":3874,"ÑĤÐµÐ´Ñĸ":3875,"ĠÑĤÓĻÐ¶ÑĸÑĢÐ¸Ð±Ðµ":3876,"ĠÐ·Ð°ÑĢ":3877,"ĠÐļÐ¾Ð½ÑģÑĤÐ¸ÑĤÑĥ":3878,"ĠÐ°ÒĵÑĭÐ»ÑĪÑĭÐ½":3879,"ĠÒĽÒ±Ð¿":3880,"ĠÐ¼ÑĥÐ·Ñĭ":3881,"ĠÐºÐµÐ»ÑĤÑĸÑĢÑĥ":3882,"ĠÒĽÑĭÐ»Ð¼ÑĭÑģÑĤÑĭÒĽ":3883,"ĠÐ±ÑĸÑĤÑĸÑĢ":3884,"Ġ60":3885,"ard":3886,"ÐµÑĤÐ¸ÐºÐ°Ð»ÑĭÒĽ":3887,"ĠÐ°Ð¹ÑĤÒĽÐ°Ð½Ð´Ð°":3888,"ĠÐŀÒĵÐ°Ð½":3889,"ic":3890,"ĠÐ±ÐµÐ½":3891,"Ð°Ð¶Ð°Ð¹":3892,"Ð¼ÐµÐ½ÑĤ":3893,"ĠÐ¿ÓĻÐ½ÑĸÐ½ÐµÐ½":3894,"ÐµÑģÑģÐ¸Ñı":3895,"ĠÐºÐ¾Ð¼Ð°Ð½Ð´":3896,"ÒĽÐ°ÑģÑĭ":3897,"ÑĤÑĸÐ»ÑĸÐº":3898,"ĠÐ¡Ð¾Ð½Ð´Ð°":3899,"ÐĲÐĿ":3900,"ĠÒĽÐ°ÑĤÑĭÐ½Ð°ÑģÑĤÐ°ÑĢÑĭ":3901,"ĠÐ°ÑĤÑĭÐ½":3902,"Ð¾ÑĢÑĤ":3903,"ĠÒĽÐ°Ð·Ð°ÒĽÑĤÑĭÒ£":3904,"ĠÐļÐµÒ£ÐµÑģ":3905,"ÐµÐ¼Ð°ÑĤÐ¸ÐºÐ°":3906,"ĠÐ±Ó©Ð»ÑĸÐ³Ñĸ":3907,"ÑĦÐ¸Ðº":3908,"ĠÐ¾Ð·":3909,"ĠÐ¡ÐµÐ½":3910,"ĠÐŀÑĢÐ°Ð»":3911,"ĠÐµÑĢÐºÑĸÐ½":3912,"ĠÑĪÐµÑĤÐµÐ»Ð´ÑĸÐº":3913,"ÑĭÐ»ÑĭÐ¾Ð¹":3914,"Ð»Ð°ÑĢÑĭÐ½Ð°":3915,"ĠÐ°Ð»ÒĵÐ°Ð½Ð´Ð°":3916,"ÑģÐ°ÑĤÐ°Ð¹":3917,"ÐĺÐ½Ð´ÐµÑĢ":3918,"ĠÐ¼ÐµÐ¼Ð»ÐµÐºÐµÑĤÑĤÐµÑĢ":3919,"ÑģÐµÐ¼":3920,"Ð«ÒļÐ¢ÐĲ":3921,"ĠÐ¶Ð¾Ð¹":3922,"ÑĪÑĸÐ»ÐµÑĢÑĸ":3923,"ĠÐ¼ÓĻÐ¶":3924,"ĠÓ©Ðº":3925,"ĠÐ°ÑĢÐ°Ð»Ð°Ñģ":3926,"Ð¸ÑĦÑĢ":3927,"ĠÑĤÓ©Ð¼ÐµÐ½Ð³Ñĸ":3928,"ĠÒĽÐ°ÑĥÑĸÐ¿ÑģÑĸÐ·":3929,"ĠÐ¼Ò¯Ð»ÑĸÐº":3930,"ĠÒ¯ÑĢÐ´Ñĸ":3931,"II":3932,"ĠÐµÐºÐµÑĥ":3933,"ĠÒĽÐ¾Ð¹ÑĭÐ¿":3934,"ÑĤÑĸÐ¼":3935,"ĠÑĥÓĻÐºÑĸÐ»ÐµÑĤÑĤÑĸ":3936,"ĠÉĻ":3937,"ĠÑģÓĻÐ»":3938,"Ð»ÐµÑĥÐ¼ÐµÑĤÑĤÑĸÐº":3939,"ÐķÐ¢":3940,"ÑĪÑĸÑĤ":3941,"ĠÑĤÐ°ÑģÑĭÐ¼Ð°Ð»Ð´Ð°Ñĥ":3942,"ÒĵÑĥ":3943,"ĠÐºÒ¯Ð½ÑĸÐ½Ðµ":3944,"Ġ2009":3945,"ĠÐľÒ±Ð½Ð´Ð°Ð¹":3946,"ĠÓ©ÑĤÐµÑĤÑĸÐ½":3947,"07":3948,"ĠÓ©ÑĤÐºÑĸÐ·Ð´Ñĸ":3949,"ÒĽÐ°ÑĪÐ°Ð½":3950,"ÐµÑģÑĸÐ½Ð´ÐµÐ³Ñĸ":3951,"ĠÐ¶Ò±Ð¼ÑĭÑģÒĽÐ°":3952,"ĠÐ¾ÑĢÐ½ÑĭÐ½Ð°":3953,"ÑĢÐµ":3954,"Ġ64":3955,"Ñľ":3956,"ÑĤÐ°Ð±":3957,"ĠIn":3958,"ÑĸÒ£Ð´Ñĸ":3959,"Ð»ÐµÐºÑĤÑĢÐ¾Ð½":3960,"ÐµÐ´ÑĢ":3961,"ÑĤÑĸÐ³ÑĸÐ½":3962,"ÑĥÑĤÐ±Ð¾Ð»":3963,"ĠÒĽÐ°Ð»ÑĭÐ¿ÑĤÐ°ÑģÑĤÑĭÑĢ":3964,"ĠÐ¸Ð½ÑĤÐµÑĢÐ½ÐµÑĤ":3965,"ĠÐºÐ¾Ð¼Ð¼ÐµÑĢÑĨÐ¸ÑıÐ»ÑĭÒĽ":3966,"ÑĸÐ½Ð´Ñĸ":3967,"ĠÐ±Ð¾Ð»Ð¼Ð°ÑģÐ°":3968,"ĠÐ¼Ð¸Ð½ÑĥÑĤ":3969,"ÑĸÒ£ÑĸÐ·Ð´Ñĸ":3970,"ĠÑįÐºÐ¾Ð½Ð¾Ð¼Ð¸Ðº":3971,"ÑĮÐ¼":3972,"ĠÑĤÐµÒ£ÑĸÐ·":3973,"ÑģÐ°Ð»":3974,"ÒĽÐ°ÑĤÐ°ÑĢ":3975,"ĠÐºÒ¯Ð½ÑĤÑĸÐ·Ð±":3976,"ĠÐ¡ÐµÐ±ÐµÐ±Ñĸ":3977,"ĠÑĤÐ°Ð»ÒĽÑĭÐ»Ð°Ñĥ":3978,"ĠÐĸÐ°ÒĽ":3979,"ÓĻÐºÑĸÑĢ":3980,"ĠÐ´Ð°Òĵ":3981,"Ð³ÐµÐ½Ñĸ":3982,"ĠÒĽÑĭÐ·Ð¼ÐµÑĤÑĤÐµÑĢÐ´Ñĸ":3983,"ĠÑħÐ°Ð±Ð°ÑĢÐ»Ð°Ð½Ð´ÑĭÑĢÑĥ":3984,"ÓĻÑĢÐ±Ð¸":3985,"ÑĭÐ¼Ñĭ":3986,"ĠÐĺÑģÐ»Ð°Ð¼":3987,"ÐµÐºÑĸ":3988,"ĠÐ¶Ð°ÑĢÐ¸ÑıÐ»Ð°Ð½":3989,"ve":3990,"ĠÐ¶Ò±Ð¼ÑĭÑģÑĭÐ½":3991,"ĠÐ¶ÐµÐºÐµÐ»ÐµÐ³ÐµÐ½":3992,"ĠÐ´Ð¸Ñģ":3993,"ĠÐ°Ð¼Ð°Ð½":3994,"ĠÐķÐ»Ð±Ð°ÑģÑĭ":3995,"ĠÐļÐµÐ¹":3996,"ĠÐĲÑĥÑĭÐ»":3997,"ĠÐ±ÐµÑĢÑĥÐ³Ðµ":3998,"Ð°Ð¼Ð±ÐµÑĤ":3999,"ĠÐ¾ÑĤÑĭÑĢÐ°Ð´Ñĭ":4000,"ĠÑĢÐµÐ³Ð»Ð°Ð¼ÐµÐ½ÑĤÑĸ":4001,"ÐµÐ´Ð¸ÑĨÐ¸Ð½":4002,"Ð«ÐĿ":4003,"ÐºÐ¸Ð½":4004,"Ð³ÑĸÐ»ÐµÑĢÑĸ":4005,"Ð´ÑĭÒĽÒĽÐ°":4006,"ÑĸÐ½Ñĸ":4007,"ÑĸÑĢÐµÐº":4008,"ÒĽÐ°Ð½Ð´Ð°Ð¹":4009,"ÑĢÐ¾Ð¼":4010,"Ð¯":4011,"ÐľÐľ":4012,"ĠÐŀÐ¼":4013,"ĠÒ±ÒĵÑĭÐ¼":4014,"ĠÐ°ÑĪÑĭÐ»Ð´Ñĭ":4015,"Ð°ÑĤÒĽÐ°":4016,"ĠÐĨV":4017,"ĠÐºÑĸÑĤÐ°Ð¿ÑħÐ°Ð½":4018,"ÑĸÐ¼Ð´Ðµ":4019,"ÑĥÑĪÑĭÐ»Ð°ÑĢÐ´ÑĭÒ£":4020,"ĠÐºÐ¾Ð»Ð»ÐµÐ´Ð¶":4021,"ĠÐ¶ÐµÑĤÐºÑĸÐ»":4022,"ĠÒĽÐ°Ð»ÑĭÐ¿ÑĤÑĭ":4023,"ĠIII":4024,"ĠÐµÑĤÐ¿":4025,"ĠX":4026,"ÑģÑĭÒĽ":4027,"ÑĢÐ¾Ñģ":4028,"ĠÐ´Ð°Ð¼ÑĥÑĭ":4029,"ĠÐ°ÑģÑĭÐ»":4030,"22":4031,"ĠÐ¶Ð°ÒĵÐ´Ð°Ð¹Ñĭ":4032,"Ð´ÐµÐ¹Ð´Ñĸ":4033,"ĠÐ¶Ð°ÑģÐ°ÑĥÒĵÐ°":4034,"Ð»ÑĭÒĵÑĭÐ½Ð°":4035,"ĠÐ±Ð°ÑģÑĭÐ»ÑĭÐ¼":4036,"ĠÒĽÒ±ÒĽÑĭÒĽÑĤÐ°ÑĢ":4037,"ÐµÐ¼ÐµÑĤ":4038,"ĠÐºÒ¯Ð½Ð´ÐµÑĢÑĸ":4039,"ÐľÐ°ÑĤ":4040,"ĠÐĳÐµÐ»":4041,"ĠÐ¶ÐµÑĤÐºÑĸÐ·Ñĥ":4042,"iÑģ":4043,"ĠÐ¸Ð½ÑģÐ¿ÐµÐºÑĨÐ¸Ñı":4044,"ÑģÑĭÐ»Ð°Ð¹ÑĪÐ°":4045,"ÑĨÐµÐ½":4046,"ĠÐ¾ÒĽÑĭÑĢ":4047,"Ð°ÒĵÑĭÐ·":4048,"ĠÑĤÐ°ÒĽÑĭÑĢÑĭÐ±ÑĭÐ½Ð´Ð°":4049,"ĠÐŀÐ½Ñĭ":4050,"ĠÐ¸Ð½Ð´ÑĥÑģÑĤÑĢÐ¸ÑıÐ»ÑĭÒĽ":4051,"ĠÐ±Ð°ÑģÑĭÐ½":4052,"ĠÐ¶Ð°Ò£ÒĵÑĭÑĢ":4053,"ĠÐ±ÑĸÑĢÐ´ÐµÐ½":4054,"Ð°Ð»Ð°ÑĢÑĭÐ½Ð´Ð°":4055,"ĠÐĳÐµÑĢ":4056,"Ð±Ò±":4057,"ĠÑĤÐ¾Ð»ÑĭÒĽÑĤÑĭÑĢÑĥÐ»Ð°ÑĢ":4058,"Ð´ÐµÑĢÐ´Ðµ":4059,"ĠÐ¼ÐµÑĢÐ·ÑĸÐ¼Ð´Ñĸ":4060,"ĠÐ¾ÑĢÐ³Ð°Ð½Ð´Ð°ÑĢÑĭÐ½ÑĭÒ£":4061,"ÑĤÐ°ÑĥÒĵÐ°":4062,"Ð¡Ð¾Ð½ÑĭÐ¼ÐµÐ½":4063,"ĠÑĥÐ°ÒĽÑĭÑĤÑĭ":4064,"ĠÐļÓ©Ð¿":4065,"ĠÑħÐ°Ð»ÒĽÑĭÐ½Ð°":4066,"ĠÒĽÐ°ÑĢÐ°Ð¼Ð°ÑģÑĤÐ°Ð½":4067,"Ð¸ÑıÐ´Ð°":4068,"ĠÑĤÐ°ÒĽÑĭÑĢÑĭÐ±Ñĭ":4069,"ĠÑĸÑģÑĸ":4070,"ĠÐ±ÐµÑĢÑĥÑĪÑĸ":4071,"ĠÐ±Ð°Ð»Ð°ÑģÑĭ":4072,"ĠÐ±Ó©Ð»ÐµÐº":4073,"ĠÐ±Ò±Ð¹ÑĭÐ¼":4074,"ĠÑĤÒ±Ð¶ÑĭÑĢÑĭÐ¼":4075,"ĠÐ¼Ð°ÑħÐ°Ð±":4076,"ĠÐ½ÑĭÒĵ":4077,"ĠÐ¿ÓĻ":4078,"ĠÑģÐ°ÒĽÑĤÐ°Ð»":4079,"ĠÐłÐµÑģÐ¿ÑĥÐ±Ð»Ð¸ÐºÐ°Ð»ÑĭÒĽ":4080,"ÐµÐ´Ð¸ÑĤ":4081,"ĠÑĤÐµÐ°ÑĤÑĢ":4082,"ĠÐ±Ð¾":4083,"ĠÐ±Ð¾Ð»Ð¶":4084,"ĠÐ´Ð¾Ñģ":4085,"ĠÐ¢Ð°Ð»Ð´Ð°Ñĥ":4086,"ĠÒĽÐ¾Ð¹Ð´Ñĭ":4087,"ĠÐ¼ÐµÑĤÑĢ":4088,"Ð¸ÑĢÑĥÑĢÐ³":4089,"Ġ70":4090,"ĠÐŃÐ½ÐµÑĢÐ³":4091,"ĠÒĽÐ°ÑĢÐ°Ð¶Ð°ÑĤÑĤÐ°ÑĢÑĭÐ½ÑĭÒ£":4092,"Ð»Ð°ÑĤ":4093,"ĠÐºÒ¯Ð½Ð½ÐµÐ½":4094,"Ð»Ñİ":4095,"Ġ757":4096,"ĠÐ¼Ð°ÑĢÐ°Ð¿":4097,"ĠÐ¼Ò±ÒĽ":4098,"ĠÑĤÒ¯ÑĢÐ»ÐµÑĢÑĸ":4099,"ĠÐ°Ð²ÑĤÐ¾Ðº":4100,"ĠÐºÓ©ÑĢÑģÐµÑĤÐµÑĤÑĸÐ½":4101,"ĠÓĻÑģÑĸÑĢÐµÑģÐµ":4102,"ĠÓ©ÑĢÑĤ":4103,"ĠÐ±Ð¾Ð»Ð¼Ð°ÒĵÐ°Ð½":4104,"Ð´ÐµÐ¼Ñĸ":4105,"ĠÑĤÐµÐ¼ÑĸÑĢ":4106,"ÐĸÒ±Ð¼":4107,"ĠÐ°ÒĵÐ·":4108,"ĠÒ¯Ð´ÐµÑĢ":4109,"ÐµÐ»ÐµÑĢÑĸÐ½Ðµ":4110,"Ġa":4111,"ĠÐ´Ð¾":4112,"ĠÑĤÐ°Ð·Ð°":4113,"Ð¸Ð¼Ð¿ÑĤÐ¾Ð¼":4114,"ÐµÑĤÑĤÐµÑĢÐ´Ñĸ":4115,"Ġ2010":4116,"ĠÓ©Ð·ÐµÐºÑĤÑĸ":4117,"ĠÒĽÑĭÐ·Ð¼ÐµÑĤÐºÐµÑĢÐ»ÐµÑĢÑĸ":4118,"ĠÐ´Ð°ÒĵÐ´Ñĭ":4119,"ĠÐ´ÐµÐ»":4120,"ĠÐ¼ÓĻÑĤÑĸÐ½":4121,"ĠÑĤÐ°Ð½ÑĭÐ¼Ð°Ð»":4122,"ÑĥÐ´":4123,"ĠÐŀÐ¹":4124,"ĠÒĽÐ¾ÑģÐ¿":4125,"21":4126,"Ð¼Ð°Ñģ":4127,"ĠÐ°Ð»Ð¼Ð°Ð¹Ð´Ñĭ":4128,"ĠÐ¾ÑĢÐ³Ð°Ð½Ð½ÑĭÒ£":4129,"ĠÐ´Ð¸Ð¿Ð»Ð¾Ð¼":4130,"ÑĤÐ°Ð½Ñĭ":4131,"ĠÐºÐ°Ð¿":4132,"ÑĤÐµÑħÐ½Ð¸ÐºÐ°Ð»ÑĭÒĽ":4133,"ĠÐ¸Ð½ÑģÑĤÐ¸ÑĤÑĥÑĤ":4134,"ĠÐ¶Ð°Ð¼Ð°Ð½":4135,"ÐµÑģÑģÐ¾ÑĢ":4136,"Ġ:":4137,"Ð´ÑĭÑĢÑĭÐ¿":4138,"Ð¡Ð¾Ð»":4139,"Ð°ÑĦÐµÐ´ÑĢ":4140,"ĠÐ¶Ð°ÑģÐ°Ð»":4141,"ĠÐ±Ð°ÑģÑĪÑĭÐ»ÑĭÒĵÑĭ":4142,"ĠÐ±ÑĸÐ·Ð³Ðµ":4143,"it":4144,"ĠÑģÐ¾ÒĵÑĭÑģ":4145,"ĠR":4146,"Ò°Ð»":4147,"ĠÐºÒ¯Ð·":4148,"ÐĿÐ°Ð·Ð°ÑĢÐ±Ð°ÐµÐ²":4149,"Ð³ÐµÑĢÑĸ":4150,"ĠÐ¡Ó©Ð¹":4151,"ĠÐ·Ð¸ÑıÐ½":4152,"ĠÐ¶Ð¾Ð±Ð°":4153,"40":4154,"ÑĤÐµÑĢÐ¼ÐµÐ½":4155,"ĠÐ°ÑĥÑĭÑģÑĤÑĭÑĢ":4156,"ĠÐ±Ð°ÑģÑĭÐ½Ð´Ð°":4157,"ĠÐ±Ð°ÑĢÐ°Ð´Ñĭ":4158,"ĠÐĸÐµÑĤ":4159,"ĠÒĽÐ°Ð¹ÑĢÐ°ÑĤ":4160,"ÑĸÐ·Ð´Ñĸ":4161,"ĠÐĳÐ°ÑĢ":4162,"ĠÐ²ÐµÑĤÐµÑĢÐ¸Ð½Ð°ÑĢÐ¸Ñı":4163,"ĠÐ¾ÒĽÑĭÑĢÐ¼Ð°Ð½":4164,"ĠÑģÑĥÐ±":4165,"ĠÑĪÐ°Ò£":4166,"ÐµÐ¹ÑĸÐº":4167,"ĠÐ¼ÑĭÑģ":4168,"Ð¾Ð»Ñİ":4169,"ĠÐºÓ©Ð±ÐµÐ¹":4170,"aÒĽ":4171,"ĠÑĤÑĭÒĵÑĭ":4172,"ÒĵÐ°Ð¼":4173,"Ð¾Ð³ÑĢÐ°ÑĦÐ¸ÑıÐ»ÑĭÒĽ":4174,"Ð¶ÐµÐº":4175,"ĠÓ©ÑģÑĸÑĢ":4176,"ĠÒĽÐ¾Ð»Ð´Ð°Ð½ÑĭÐ»Ð°Ð´Ñĭ":4177,"ĠÒļÐ°Ð½":4178,"ĠÐ´ÓĻÑĥÑĸÑĢ":4179,"ĠÒĽÒ±ÒĽÑĭÒĽÑĤÐ°ÑĢÑĭÐ½":4180,"ĠÐ±ÑĥÑĭÐ½":4181,"ÑĪÐ°Ð¼Ð°":4182,"ÑģÐ°Ð¹":4183,"ra":4184,"ĠÑĪÐ°Ð¿":4185,"ĠÓĺÑģ":4186,"ĠÓĻÐ´ÐµÐ±Ð¸ÐµÑĤÑĸ":4187,"ÐµÐ´Ð¾Ð¼":4188,"ĠÒĽÐ°Ð¼ÑĤÐ¸":4189,"ĠÐ¿ÑĢÐµ":4190,"ĠÐ·Ð°ÒĽÑĭÐ¼":4191,"ĠÒĽÐ¾Ð»ÒĵÐ°":4192,"Ò¯Ð¹ÑĢÐµÐº":4193,"Ð´Ð°Ð³ÐµÑĢ":4194,"ÑĢÐ¾ÑĦ":4195,"ĠÐµÐº":4196,"ĠÐ°ÑģÑĤÐ°Ð½":4197,"ÐºÐµÐ¹":4198,"ĠÐ½ÐµÐ¼":4199,"ĠÐ±ÐµÐºÑĸÑĤÑĸÐ»Ð³ÐµÐ½":4200,"ÐµÐ´ÐµÑĢ":4201,"ĠÐ¢Ò¯ÑĢÐº":4202,"ÑĥÐ·":4203,"ĠÐĲÐĿ":4204,"ĠÑģÐ°Ð¹ÑĤÑĭ":4205,"ÑĤÐ¸ÑĦÐ¸Ðº":4206,"ĠÐºÐµÑĤÐµÐ´Ñĸ":4207,"ÑĤÐ°Ð¶":4208,"ÑĸÑģÐºÐµ":4209,"ĠÐ°Ð»ÒĽ":4210,"ÑĤÑĥÒĵÐ°":4211,"ĠÐĵÐµÑĢ":4212,"Ð¸Ð´Ð°":4213,"Ð¶ÐµÐ½":4214,"Ð¸Ð½Ð½Ð¾Ð²Ð°ÑĨÐ¸ÑıÐ»ÑĭÒĽ":4215,"ĠÐ¶Ó©Ð½Ð´ÐµÑĥ":4216,"ÑĭÑĪÑĤÑĭ":4217,"ĠÒļÑĥ":4218,"ÑĤÑĸÐ½ÑĪÑĸ":4219,"Ð¸ÐµÑĤ":4220,"Ð¸Ð·Ð°":4221,"ĠÐµÑģÐºÐµÑĢÑĤ":4222,"Ð´Ð°Ð¼Ð°":4223,"Ð°ÑĨÐ¸ÑıÑģÑĭ":4224,"ĠÒĽÒ±ÒĽÑĭÒĵÑĭ":4225,"ĠÑĤÐµÑģ":4226,"ÑĢÐ°ÑĦ":4227,"ĠÑĪÐµÐ±ÐµÑĢ":4228,"ĠÐ¾ÒĽÑĥÒĵÐ°":4229,"ĠÑģÐµÐ½ÑĸÐ¼Ð´Ñĸ":4230,"ÐļÐŀ":4231,".-":4232,"ĠÓ©ÑģÑĸÐ¼Ð´ÑĸÐº":4233,"ÐµÐ³ÑĸÐ·Ð³Ñĸ":4234,"ĠÐ¶Ð°Ð»ÒĵÑĭÐ·":4235,"ĠÑĤÐ°Ð½Ñĥ":4236,"Ð´Ð°Ð½Ð´ÑĭÑĢÑĥ":4237,"ĠÒĽÐ°Ð»Ð°Ð´Ñĭ":4238,"ĠÐºÐµÑĥ":4239,"ip":4240,"ro":4241,"Ġp":4242,"ĠÐ¾ÑĢÐ³Ð°Ð½Ð´Ð°ÑĢÑĭ":4243,"ÐĺÑģÐ°ÑĤÐ°Ð¹":4244,"Ð»Ð°ÑĥÒĵÐ°":4245,"ĠÐ¸Ð³ÐµÑĢÑĸÐ»Ñĥ":4246,"ĠÐºÓ©ÑĢÑģÐµÑĤÑĥÐ³Ðµ":4247,"ĠÐ°Ð¹ÑĤÑĭÐ»ÒĵÐ°Ð½":4248,"ĠÐµÑģÐµÐ±ÑĸÐ½ÐµÐ½":4249,"ĠÐºÑĸÑĢÑĸÑģ":4250,"ĠÑģÑĸÐ·Ð´ÑĸÒ£":4251,"ĠÐ¶Ð°ÑģÐ°Ð¹Ð´Ñĭ":4252,"Ð£ÐĶ":4253,"ÒĽÑĭÐ·Ñĭ":4254,"ĠÒ¯ÑģÑĤÐµÐ»":4255,"ĠÐ¨Ð°ÑĢ":4256,"ÐµÑĢÑĤÑĤÐµÑĥ":4257,"ĠÐ¾ÑĤÑĭÑĢÑĭÑģÑĭ":4258,"ĠÑģÑĤÐ°ÑĤÐ¸ÑģÑĤ":4259,"23":4260,"ĠÒĽÐ°Ð±ÑĸÐ»ÐµÑĤÑĤÑĸ":4261,"ĠÐºÒ¯Ð½ÑĸÐ½ÐµÐ½":4262,"ĠÐ¼Ð¸Ðº":4263,"ĠÒĽÐ°Ð»Ð¿ÑĭÐ½Ð°":4264,"ĠÐ±ÐµÑĢÐµ":4265,"ÐµÐ¼ÑĮÐµÑĢ":4266,"ĠÐ½Ð°ÑģÐ¸ÑħÐ°ÑĤ":4267,"ĠÐĳÐ¾Ð»":4268,"ĠÐ¿ÓĻÐ½Ñĸ":4269,"ĠÑģÐ¾Ð½Ð´ÑĭÒĽÑĤÐ°Ð½":4270,"ĠÐ°Ð¹ÑĤÐ°ÑĢ":4271,"ĠÐµÑģÐºÐµ":4272,"ĠÑĪÑĭÒĵÐ°Ð´Ñĭ":4273,"ĠÐ°ÑĢÒĽÐ°ÑģÑĭÐ½Ð´Ð°":4274,"Ð°Ð»Ñİ":4275,"Ð°ÑĥÐ¸":4276,"ĠÐºÓ©ÑĢÑģÐµÑĤÐºÐµÐ½":4277,"ĠÐºÒ¯Ð½ÑĤÑĸÐ·Ð±ÐµÐ»ÑĸÐº":4278,"ĠÐ¶ÐµÒ£ÑĸÐ¼":4279,"ĠÐ±Ð¸Ð»ÑĸÐº":4280,"ÐµÐ³ÑĸÐ¼ÐµÐ½":4281,"ĠÐ´Ó©Ò£Ð³ÐµÐ»ÐµÐº":4282,"Ð¦":4283,"ĠÐ¡Ð°Ð¹ÑĤ":4284,"ĠÐ®":4285,"ĠÐĳÐĲ":4286,"ĠÐĿÐ°Ð·Ð°ÑĢÐ±Ð°ÐµÐ²ÑĤÑĭÒ£":4287,"ĠÐ¼Ð°ÑĤÐµÐ¼Ð°ÑĤÐ¸ÐºÐµ":4288,"Ð»Ð¸Ð½":4289,"ĠÐ¿Ð°Ð¹Ð´Ð°Ð»Ð°Ð½ÑĥÐ´Ñĭ":4290,"Ð±ÐµÐºÐ¾Ð²":4291,"ĠÑģÓ©Ð¹Ð»":4292,"ĠÑĥÐ½Ð¸Ð²ÐµÑĢÑģÐ¸ÑĤÐµÑĤ":4293,"ĠÐ¶Ð¾Ð»ÑĭÐ½":4294,"ĠÐľÐµÐ½ÑĸÒ£":4295,"ĠÐ°ÑĪÑĥ":4296,"ĠÐ¼ÐµÐºÐµÐ¼ÐµÑģÑĸÐ½Ð´Ðµ":4297,"ĠÒ¯ÑĪiÐ½":4298,"ĠÐĲÐĿÐ«ÒļÐ¢ÐĲ":4299,"ĠÐ¡ÓĻ":4300,"Ð°Ð½Ð½ÑĭÒ£":4301,"ÐĸÐµÑĢ":4302,"ĠÐ´ÐµÐ¿ÑĥÑĤ":4303,"ĠÑĪÐ°ÒĽ":4304,"Ð¼Ð°Ñĥ":4305,"ĠÐ¶Ð¾Ð»Ð¼ÐµÐ½":4306,"ÑģÑĸÒ£":4307,"ĠÑĤÒ¯ÑģÑĸÐ½Ð´ÑĸÑĢÑĥ":4308,"ĠÐĲÐĿÐ«ÒļÐ¢ÐĲÐľÐĲ":4309,"ĠÒĽÑĭÐ·ÑĭÐ»":4310,"ÒĽÐ°ÑĢÐ°Ð»ÑĭÒĽ":4311,"ĠÐ±Ð°ÑģÑĭÐ½Ð°":4312,"ÐľÐµÐºÑĤÐµÐ¿":4313,"ĠÐºÐ¾ÑĢÐ¿Ñĥ":4314,"Ġhttp":4315,"ĠÐ±ÑĸÑĢÒĽÐ°ÑĤÐ°ÑĢ":4316,"ĠÐ½ÐµÐ³Ðµ":4317,"ÑĭÐ¼ÑĭÐ·ÒĵÐ°":4318,"ĠÒļÒ±Ð»":4319,"ĠÐ´ÑĭÐ±":4320,"ĠÐ°Ð¿ÑĤÐ°":4321,"ĠÐ±Ð°Ð±":4322,"Ð³Ð°Ð»":4323,"ÐĸÐ°Ò£Ð°":4324,"ĠÐºÐµÐ»ÑĸÐ½":4325,"Ð°Ð»Ð°ÑĢÐ´Ð°":4326,"ĠÐ´Ð°Ð»":4327,"ÓĻÐ·":4328,"Ð°ÑıÒĽ":4329,"ĠÐ°Ð¶ÑĭÑĢ":4330,"ĠÐ°Ð»Ð¼Ð°Ñģ":4331,"ĠÐ¾ÒĽÑĥÑĪÑĭ":4332,"ĠÐ´ÐµÑĢÐµÐºÑĤÐµÑĢ":4333,"ĠÒ¯Ð»Ð³ÑĸÐ»ÐµÑĢÑĸ":4334,"ĠÒĽÐ°Ð»Ð°ÑģÑĭÐ½Ð´Ð°ÒĵÑĭ":4335,"ĠÐŃÐ½ÐµÑĢÐ³ÐµÑĤÐ¸ÐºÐ°":4336,"ÐµÐ¶Ò¯Ð·":4337,"Ð°ÑĤÑĤÐ°ÑĢÑĭÐ½Ð°":4338,"ÑħÐ°ÑĤ":4339,"ÑĮÑİÑĤÐµÑĢ":4340,"ÑĤÐ°ÑĢÑĭÐ½Ð´Ð°":4341,"ĠÑģÐµÑĢÑĸÐºÑĤÐµÑģ":4342,"ĠÑģÐ°Ð¿Ð°Ð»Ñĭ":4343,"ĠÑĤÐ°ÑĢÐ¼Ð°ÒĽ":4344,"ĠÑĤÑĭÒĵÑĭÐ·":4345,"ÑĸÐ¼ÑĸÐ½":4346,"Ð´ÑĸÐ³ÑĸÐ½Ðµ":4347,"ĠÒĽÐ°Ð±ÑĭÑĢ":4348,"ĠÐŁÐ°Ð¹":4349,"ĠÐµÐ³":4350,"!!":4351,"ÐµÐ³ÐµÐ¹":4352,"ĠH":4353,"ĠÒĽÑĭÐ·Ð¼ÐµÑĤÑĪÑĸÐ»ÐµÑĢ":4354,"ĠÒĽÑĭÐ·ÑĭÒĵ":4355,"ĠV":4356,"Ð»Ð°Ð¹Ð´Ñĭ":4357,"ĠÐ¾ÑĢÐ½Ð°Ð»Ð°ÑģÑĤÑĭÑĢÑĥ":4358,"ĠÑħÐ°Ð»ÒĽÑĭ":4359,"Ġ31":4360,"ĠÐ¼Ð°ÑĤÐµÑĢÐ¸Ð°Ð»Ð´Ð°ÑĢÐ´Ñĭ":4361,"ĠÑĸÑĢÑĸÐº":4362,"nd":4363,"ĠÑįÐ»ÐµÐ¼":4364,"ĠÐ´Ð¸Ð°Ð³Ð½Ð¾ÑģÑĤ":4365,"ÐµÐ´Ð¾Ð¼ÑģÑĤÐ²":4366,"ĠÐ¶Ð°Ð·Ð±Ð°":4367,"ÑĸÐ½Ð³ÐµÐ½":4368,"ĠÐ¶Ð°ÒĵÐ´Ð°Ð¹ÑĭÐ½Ð´Ð°":4369,"Ð¾ÑĪ":4370,"Ð°ÒĵÐ°ÑĪ":4371,"ĠÐ°ÑĥÐ°":4372,"ĠÐ°Ð´Ð°Ð¼Ð´Ð°ÑĢÐ´Ñĭ":4373,"ĠÐ°Ð¹ÒĽ":4374,"ĠÑĤÑĥÑĢÐ¸Ð·Ð¼":4375,"ĠÐ³ÐµÐ½":4376,"ĠÐ¢Ð°Ð±Ð¸Òĵ":4377,"ĠÑĤÓĻÑĥÐµÐ»ÑģÑĸÐ·":4378,"ĠÒ±Ð¹ÑĭÐ¼Ð´Ð°ÑĢÐ´ÑĭÒ£":4379,"ĠÑħÐ°Ð»ÑĭÒĽÒĽÐ°":4380,"ĠÐ¾ÑĢÑĤÐ°Ð»ÑĭÒĵÑĭÐ½ÑĭÒ£":4381,"ĠÐ¼Ð°Ð³":4382,"ÐķÒ£":4383,"ĠÑĤÑĭÑĢÑĭÑģ":4384,"ÑĤÐµÐ±Ñĸ":4385,"Ð°ÒĵÐ°Ð¹":4386,"ĠÐ¿Ð¾Ð»Ð¸ÑĨÐ¸Ñı":4387,"Ð¡Ðł":4388,"ĠÐ¼ÐµÐ¼Ð»ÐµÐºÐµÑĤÑĤÑĸÒ£":4389,"ĠÐ¶Ð°Ð·ÒĵÐ°Ð½":4390,"ĠÑĦÐ¸Ð»Ð¸Ð°Ð»":4391,"ÑĪÑĭÐ»Ð°ÑĢÒĵÐ°":4392,"ĠÐ¡Ð°ÑĢÑĭ":4393,"ĠÒĽÐ°Ð¿":4394,"ĠÑĤÑĸÐ½":4395,"ĠÐ¶Ð¾ÒĵÐ°Ð»":4396,"Ġo":4397,"ĠÒ®ÑĪ":4398,"ĠÐ¾ÑĢÐ½Ð°Ð»Ð°ÑģÑĥÒĵÐ°":4399,"ĠÑĤÐ°ÑĥÑĭÐ¿":4400,"ĠÒĽÐ°ÑĤÑĭÑģÑĭÐ¿":4401,"ÑĪÐ°Ð»ÑĭÒĽ":4402,"ĠÒĽÐ°ÑĢÐ°Ð¿Ð°Ð¹ÑĭÐ¼":4403,"ĠÐ¼Ð°ÑĪÐ¸Ð½":4404,"ÒĵÑĭÐ»Ð°ÑĢ":4405,"ĠÑģÒ±Ð»":4406,"Ð°Ð»Ð¸":4407,"ĠÐĵÒ¯Ð»":4408,"ĠÐ¢Ó©ÑĢ":4409,"ĠÐ¼ÓĻÑģÐµÐ»ÐµÑģÑĸ":4410,"ÑģÐ°Ò£ÑĭÐ·":4411,"ĠÒ±Ð¹ÑĭÐ¼Ð´Ð°ÑĢÑĭÐ½Ð°":4412,"ĠÑģÐ¸Ð¼Ð¿ÑĤÐ¾Ð¼":4413,"ĠÒĽÐ¾Ð¹ÑĭÐ»ÒĵÐ°Ð½":4414,"ĠÐ´ÐµÒ£Ð³ÐµÐ¹ÑĸÐ½":4415,"ĠÐ¾ÒĽÐ¸ÒĵÐ°":4416,"ĠÑĤÐ¸Ð³ÑĸÐ·":4417,"Ð¸ÑıÐ»Ð°ÑĢ":4418,"ĠÒ³":4419,"ĠÐºÑĸÑĪÐºÐµÐ½":4420,"ĠÐ°ÑĢÐ½Ð°ÑĥÐ»Ñĭ":4421,"ÑĸÐºÑĤÑĸÑĢ":4422,"ĠÑĦÐ¸Ð»Ð¾ÑģÐ¾ÑĦ":4423,"ĠÐ¼ÐµÐºÑĤÐµÐ±Ñĸ":4424,"ĠÐ´Ð¾Ðº":4425,"ĠÐµÑĤÑĥÐ³Ðµ":4426,"ĠÒ±ÑģÑĤÐ°Ð¿":4427,"ĠÑįÐºÐ¾Ð»Ð¾Ð³Ð¸ÑıÐ»ÑĭÒĽ":4428,"ÑĭÑĢÐ°Ñĥ":4429,"ĠÑĤÐµÑĢÐ¼Ð¸Ð½":4430,"ĠÑģÑĤÐ°Ð½Ð´Ð°ÑĢÑĤÑĤÐ°ÑĢÑĭÐ½":4431,"ÐµÐ´Ðµ":4432,"ĠÒĽÒ±Ð¼":4433,"ĠÑĸÑģÑĤÐµÐ¹Ð´Ñĸ":4434,"ÒĵÐ°ÒĽ":4435,"ĠÐ¾Ð»ÐµÐ½":4436,"ĠÐļÐ°Ð·":4437,"Ð»ÑĭÒĽÑĤÑĭ":4438,"Ð»Ð°Ð½ÑĭÒ£":4439,"Ð¸ÑĤÐ°Ð»":4440,"ĠÐºÒ¯ÑĪÐµÐ¹":4441,"ĠÐ¼Ð°Ð¼Ð°Ð½Ð´ÑĭÒĽ":4442,"ĠÓĻÐ´ÑĸÑģÑĤÐµÑĢ":4443,"ĠÑĤÒ¯ÑĢÑĸÐ½Ð´Ðµ":4444,"Ð³ÑĸÑĪ":4445,"Ð¸Ð¼Ð¿Ð¸Ð°Ð´Ð°":4446,"ĠÐ±Ð°Ð»Ð°Ð±Ð°ÒĽ":4447,"ĠÐºÐ»ÑĥÐ±":4448,"ĠÑĦÑĥÑĤÐ±Ð¾Ð»":4449,"ĠÒļÐ°Ð·ÐĲÒĽÐ¿Ð°ÑĢÐ°ÑĤ":4450,"ĠÑĤÐµÑħÐ½Ð¾Ð»Ð¾Ð³Ð¸ÑıÐ»Ð°ÑĢ":4451,"ÐºÐ»Ð°Ñģ":4452,"ÑģÑĤÑĢÑĥ":4453,"Ð·Ð°ÑĤ":4454,"ĠÐ°Ð»Ð´Ð°ÒĵÑĭ":4455,"Ð¿ÑĸÑĢ":4456,"ĠÑĢÐ°Ð´Ð¸":4457,"ÑĪÑĸÑĢ":4458,"ÒĵÑĭÐ½Ð°Ð½":4459,"ĠÓĻÐ´ÑĸÑģÑĤÐµÐ¼ÐµÐ»ÑĸÐº":4460,"ĠÐ¶ÐµÑĤÑĤÑĸ":4461,"Ð±Ð°ÒĽ":4462,"ac":4463,"ĠÐĲÑħÐ¼ÐµÑĤ":4464,"ĠÐ¢ÑĸÐ»Ð´ÐµÑĢÐ´Ñĸ":4465,"ĠÓ©Ð·ÑĸÐ½Ð´ÑĸÐº":4466,"ĠÐ°Ð·Ð°Ð¼Ð°ÑĤ":4467,"ĠÐ¡Ð°Ð±Ð°ÒĽ":4468,"ĠÐºÐµÐ½ÑĤ":4469,"ĠÐ¼Ð°ÑĢÐ°Ð¿Ð°ÑĤ":4470,"ÐµÐ½Ð´Ñĸ":4471,"ĠÐ´ÓĻÐ¼":4472,"27":4473,"ĠÑģÐ¾ÑĢ":4474,"Ð¾ÑĤÐ¾":4475,"ĠÐĲÐ¼Ð°Ð½":4476,"Ð»ÑĸÐ³ÑĸÐ½Ðµ":4477,"ĠÓĻÐ´ÐµÐ¼Ñĸ":4478,"Ò¯ÑĪ":4479,"ĠÐºÐµÑĤÑĸÐ¿":4480,"28":4481,"ĠÒĽÐ¾ÑģÒĽÐ°Ð½":4482,"ĠÐºÓ©ÑĢÑģ":4483,"ĠÐ°Ð·Ð°Ð¼Ð°ÑĤÑĤÐ°ÑĢÐ´ÑĭÒ£":4484,"ĠÐ´Ð°Ð¼ÑĭÑĤÑĥÒĵÐ°":4485,"ÓĻÑĥÐ»ÐµÑĤ":4486,"ĠÐ°Ð»ÒĵÑĭÑģ":4487,"ÒĽÑĭÐ¼Ð´Ñĭ":4488,"ĠÐ³Ð°Ð·ÐµÑĤÑĸ":4489,"ĠÐ±ÐµÐ»Ð³ÑĸÐ»ÐµÑĢ":4490,"Ġm":4491,"ĠÐ¿Ðµ":4492,"ĠÐĲÒĽÐ¼Ð¾Ð»Ð°":4493,"ÓĻÐ´Ñĸ":4494,"ĠÑĤÐ°Ð·":4495,"Ò£ÒĵÑĭÑĪ":4496,"Ð°ÑĪÐ°ÑĢ":4497,"ĠÐ°ÑĥÑĢÑĥÑħÐ°Ð½":4498,"Ġ2020":4499,"ĠÐ¡ÑĭÑĢ":4500,"ĠÒĽÑĭÑĪ":4501,"ÑĭÐ½Ð´Ð°ÒĵÐ°Ð½":4502,"ĠÐºÐ°Ð±":4503,"Ð¾Ð²ÐºÐ°":4504,"ĠÑĤÐ°Ðº":4505,"ÑĪÑĭÐ»Ð°ÑĢÑĭ":4506,"ĠÒĽÒ±Ð±ÑĭÐ»ÑĭÑģ":4507,"ÑģÑĤÑĸ":4508,"Ð½Ð¾Ð·":4509,"ÐµÐ³ÑĸÐ½Ðµ":4510,"ĠÐºÐµÐ·ÐµÒ£Ð´Ðµ":4511,"ĠÑĢÐµÑģÑĸÐ¼Ð´ÐµÑĥ":4512,"ward":4513,"ĠÐ¶Ð¾ÒĵÐ°ÑĢÒĵÑĭ":4514,"ĠÐ±Ñĥ":4515,"Ð¡ÐŁ":4516,"us":4517,"ĠÑĤÒ¯Ð¿":4518,"ĠÐ¯ÒĵÐ½Ð¸":4519,"ÑĭÒĽÑĤÑĭÒ£":4520,"ĠÐ´ÐµÒ£Ð³ÐµÐ¹Ð´Ðµ":4521,"ĠÐ¾Ð½Ð»Ð°Ð¹Ð½":4522,"ÑĸÑĤÐ°Ð¿":4523,"Ò±ÑĢÑĭÐ»ÑĭÐ¼":4524,"ĠÑģÐ°Ð»ÒĵÐ°Ð½":4525,"Ð±ÑĸÑĤ":4526,"ĠÐºÓĻÑģÑĸÐ¿ÑĤÑĸÐº":4527,"ĠÐŁÑĢÐµÐ·Ð¸Ð´ÐµÐ½ÑĤÑĸÐ½ÑĸÒ£":4528,"ĠÐŀÑĢÑĤÐ°":4529,"ĠL":4530,"ĠÐ¼ÐµÐ½Ñĸ":4531,"ĠÐ°ÑģÑĭÑĢÐ°Ð¿":4532,"Ð¸Ð°Ð»Ñĭ":4533,"ĠÑĤÑĢÐ°Ð½Ñģ":4534,"ĠÐ°Ð²ÑĤÐ¾ÐºÓ©Ð»ÑĸÐº":4535,"ĠÑĦÐ°ÐºÑĥÐ»ÑĮÑĤ":4536,"ÑĥÐ°Ð½":4537,"ĠÐºÐ¾Ð½Ñģ":4538,"ĠÐĲÑĥÐ´Ð°Ð½":4539,"Ð·Ð°":4540,"ĠÐ¾ÑĢÑĤÐ°ÑĪÐ°":4541,"ĠÐļÐ°ÑĢ":4542,"Ð¿Ð¾ÑĢÑĤÑĤÑĭÒĽ":4543,"ÐºÐ°ÑģÑĭ":4544,"ĠÐ°ÑĥÐ´Ð°Ð½ÑĭÐ½Ð´Ð°":4545,"ÑĭÒĵÑĭÐ½Ð´Ð°":4546,"ĠÒĽÐ¸Ñı":4547,"ĠÐ¼ÐµÒ£Ð³ÐµÑĢÑĥ":4548,"ÑĩÐµÐ½":4549,"ĠÐµÑģÐµÐ±Ñĸ":4550,"ĠÐ´Ð°Ð¹ÑĭÐ½Ð´ÑĭÒĽ":4551,"Ð¾ÑģÐº":4552,"ĠÐ°Ð³ÐµÐ½ÑĤÑĤÑĸÐ³Ñĸ":4553,"ĠÐĲÐ»Ð»Ð°Ò»":4554,"ÑĤÑĭÐ½Ð°Ð½":4555,"ĠÐ°ÒĽÑĪÐ°Ð»Ð°Ð¹":4556,"Ð±ÐµÐ¹":4557,"ÑĭÐ¼Ð´ÑĭÒĽ":4558,"ĠÑĪÐµÑĪÑĥ":4559,"ÑĸÐ±ÐµÐº":4560,"ĠÐ¶Ð°ÑģÐ°Ð´Ñĭ":4561,"ĠÐºÐ°ÑĦÐµÐ´ÑĢ":4562,"ÒĵÑĭÐ¿":4563,"ĠÐ¡Ð¾ÑģÑĭÐ½":4564,"Ð¡ÑĸÐ·":4565,"ĠÑįÑĤÐ½":4566,"Ð¸ÑıÐ½Ñĭ":4567,"ÑĤÐµÐ»Ð³ÐµÐ½":4568,"ĠÐµÑģÑĤÑĸ":4569,"ĠÐļÓĻÑģÑĸÐ¿ÐºÐµÑĢÐ»ÑĸÐº":4570,"ĠÐľÑĥ":4571,"ent":4572,"Ó©ÑģÐ¿":4573,"ĠÒ¯Ð½ÐµÐ¼Ñĸ":4574,"ĠÐĸÐµÒ£":4575,"ĠÐ±Ó©Ð»Ð¼":4576,"ĠÐºÐ¾Ð¼Ð¸ÑĤÐµÑĤÑĸ":4577,"Ð¼ÐµÑĤÑĤÑĸÒ£":4578,"ĠÐ¶Ò±Ð¼Ñģ":4579,"Ð¡Ð°Ð¹ÑĤ":4580,"ĠÐ±Ð°ÑģÒĽ":4581,"Ð»ÐºÐµÐ½":4582,"ÐĨÐĨ":4583,"ĠÐ²ÐµÐ´Ð¾Ð¼ÑģÑĤÐ²":4584,"ĠÓ©ÑĢÐºÐµÐ½":4585,"Ð°ÑĥÑĭÐ½":4586,"ĠÒĵÐ°ÑģÑĭÑĢÐ´ÑĭÒ£":4587,"ÑĤÑĸÐ»Ð´Ñĸ":4588,"ĠÐºÓĻÑģÑĸÐ¿ÐºÐµÑĢÐ»ÐµÑĢ":4589,"Ð¸ÑıÑĤ":4590,"ĠÐ±ÐµÑĢÐ¼":4591,"ÐĿÒ±ÑĢÑģÒ±Ð»ÑĤÐ°Ð½":4592,"ÑĨÐ¸ÑıÑģÑĭ":4593,"ĠÐºÐµÐ·Ð´ÐµÑģÐµÐ´Ñĸ":4594,"ĠÐ·Ð°Ð»":4595,"ĠÐµÑģÐºÐµÑĢÑĤÐºÑĸÑĪ":4596,"ĠÐ½Ð°Ð¼Ð°Ð·":4597,"ĠÑģÓ©Ð·Ñĸ":4598,"ĠÒĽÐ¾ÑĢÑĪÐ°ÒĵÐ°Ð½":4599,"oo":4600,"Ò±Ð»ÑĭÐ½ÑĭÒ£":4601,"ĠÐ±Ð°ÑģÒĽÐ°ÑĢÐ¼Ð°":4602,"ÐµÑĥÐ³Ðµ":4603,"ĠÑĪÐµÐºÑĤÐµÑĥÐ»Ñĸ":4604,"ÑĭÐ»Ð°":4605,"ĠÑģÐ¾Ò£ÑĭÐ½Ð´Ð°":4606,"ĠÑģÑĸÒ£ÑĸÑĢ":4607,"199":4608,"ĠÐ±Ð»":4609,"ĠÑĦÐ°ÐºÑĤÑĸ":4610,"ĠÐ¶Ð°ÑĢÐ°ÒĽ":4611,"ÑģÐºÐµÐ¼ÐµÐ½":4612,"ĠÒĽÐ°ÑĢÒĽÑĭÐ½":4613,"ĠÐ±Ð°ÑģÑĤÐ°Ð¿ÒĽÑĭ":4614,"ĠÐ¼Ð°Ð¼Ð°Ð½Ð´Ð°ÑĢ":4615,"ĠÐ³Ò¯Ð»":4616,"ĠÒĽÐ°Ð±ÑĭÐ½":4617,"ĠÑĤiÑĢ":4618,"Ð»Ð°Ð½ÑĭÐ¿":4619,"ĠÐĳÒ¯":4620,"ĠÒ±ÑģÑĭÐ½Ð°":4621,"ĠÐĳÐµÐº":4622,"ĠÐ¶ÑĭÐ»Ð´Ð°":4623,"ĠÐ¾Ð¿ÐµÑĢÐ°ÑĨÐ¸Ñı":4624,"ĠÐ¢Ò±":4625,"ÑĤÒĽÐ°ÑĢ":4626,"ĠÐ±Ò±Ð¹ÑĢÑĭÒĵÑĭÐ½Ð°":4627,"ĠÐ¼ÓĻÑĢÑĤÐµÐ±":4628,"ĠÐ±Ð¾ÑģÑĤÐ°Ð½":4629,"ĠÒĽÐ°Ð´Ð°ÒĵÐ°Ð»Ð°Ñĥ":4630,"Ó©ÑģÐ¿ÑĸÑĢ":4631,"ĠÐ±Ð°ÒĵÑĭÐ½":4632,"ĠÑģÓ©Ð¹Ð»ÐµÐ¼":4633,"Ð°Ð»ÒĵÐ°ÑĪÒĽÑĭ":4634,"Ð±ÐµÐºÑģÑĤÐ°Ð½":4635,"ĠÐ¶Ò¯ÑĢÐµÑĤÑĸÐ½":4636,"ĠÒĽÐ°ÑĤÐ°Ò£":4637,"ÑĭÑģÑĤÐ°ÒĵÑĭ":4638,"ĠÐ´ÐµÑĢÐ±ÐµÑģ":4639,"Ġb":4640,"ĠÑĦÑĥÐ½ÐºÑĨÐ¸Ð¾Ð½":4641,"ĠÑģÐ°ÑĤ":4642,"ĠÐºÐµÐ¿ÑĸÐ»Ð´ÑĸÐº":4643,"ĠÒĽÑĭÐ·Ð¼ÐµÑĤÑĸÐ½Ðµ":4644,"um":4645,"ĠÐĸÐ°Ð·":4646,"ĠÐ±ÑĸÑĢÐ°Ð·":4647,"ÐºÑģ":4648,"Ð¼Ð°Ð»Ñĭ":4649,"ĠÐ±ÐµÑĢÑĸÐ»ÐµÑĤÑĸÐ½":4650,"ĠÓĺÐ»ÐµÐ¼":4651,"ĠÒ¯Ð»ÐµÑģÑĸ":4652,"ÑĥÐ¼ÐµÐ½":4653,"ĠÐ¶Ð¾ÑģÐ¿Ð°ÑĢÐ»Ð°ÑĢÑĭÐ½ÑĭÒ£":4654,"ĠÓ©Ð·Ð³ÐµÑĢÑĸÑģ":4655,"Ð¸Ð²ÑĤÑĸ":4656,"Ð°Ð»Ð°Ð½":4657,"ĠÑģÐ°Ð»Ð´Ð°ÑĢÑĭÐ½Ð°Ð½":4658,"ÑĤÐµÐ½ÑĪÐµ":4659,"ĠÐ°ÑĢÐ¼Ð°Ð½":4660,"ÐµÐ³ÐµÐ½Ð¼ÐµÐ½":4661,"ĠÐ±ÐµÑĢÑĥÐ´ÑĸÒ£":4662,"ĠÑĤÐµÑħÐ½Ð¸Ðº":4663,"Ġ35":4664,"ĠÐ±ÑİÐ´Ð¶ÐµÑĤÑĸ":4665,"ÐµÐ¼ÑĸÑĢ":4666,"ĠÐ¶Ð°ÑģÑĭÑĢ":4667,"ĠÐ¶Ð°ÑĤÐ°ÑĤÑĭÐ½":4668,"Ð°Ð»ÑĮÐ´Ñĭ":4669,"Ð¼ÐµÐ´":4670,"ĠÓ©Ð·Ð³ÐµÑĢÑĤÑĥ":4671,"ÑĪÐµÑĤ":4672,"ĠÐ¸Ð½Ð½Ð¾Ð²Ð°ÑĨÐ¸ÑıÐ»ÑĭÒĽ":4673,"ĠÐ¶Ð°Ð»ÒĵÐ°ÑģÑĤÑĭÑĢ":4674,"ĠÑĤÒ¯Ð±":4675,"ĠÓ©Ð½ÑĸÐ¼Ð´Ñĸ":4676,"ÑĤÐ¾Ð¼Ð°ÑĤ":4677,"ĠÒ¯Ð¹Ð³Ðµ":4678,"ĠÐ¼ÑĭÐ½Ð°Ð´Ð°Ð¹":4679,"ĠÐ²ÐµÑĤÐµÑĢÐ¸Ð½Ð°ÑĢÐ¸ÑıÐ»ÑĭÒĽ":4680,"ĠÒļÐ°Ñģ":4681,"ĠÒĽÐ°Ð·ÑĭÐ½":4682,"ĠÐºÐ°Ð´ÑĢ":4683,"ÑĢÐ°ÒĽÒ±ÑĢÑĭÐ»ÑĭÐ¼":4684,"ĠÑĤÒ±ÒĽÑĭÐ¼":4685,"ĠÐ·ÑĥÐ±Ð¾Ð²":4686,"ĠÒ¯ÑģÑĤÑĸÐ½Ðµ":4687,"Ð¾Ð³ÐµÐ½":4688,"ĠÐĿÐ°ÑĥÑĢÑĭÐ·":4689,"Ð¿ÐµÑĢÐ°ÑĤÑĥÑĢ":4690,"ĠÐ¶Ð°Ð·Ð±":4691,"ĠÐ¼Ò±ÒĵÐ°Ð»ÑĸÐ¼Ñĸ":4692,"ĠÐĶÐ¶":4693,"ĠÑĤÐ°Ð±ÑĭÐ»Ð°ÑĤÑĭÐ½":4694,"ĠÐºÓ©ÑĪÐµÑģÑĸ":4695,"ĠÐµÒ£Ð±Ðµ":4696,"Ð¸Ð´Ñĭ":4697,"ĠÐ°ÑĥÑĢÑĥÐ´ÑĭÒ£":4698,"ĠÐºÐ¸ÑĸÐ¼":4699,"ĠÐ±Ð°ÒĽÑĭÑĤ":4700,"ĠÐ¼ÐµÑĪÑĸÑĤ":4701,"ĠÐ°Ð»Ð³ÐµÐ±ÑĢ":4702,"Ð³ÐµÑĢÑĪÑĸÐ»ÑĸÐº":4703,"ĠÐĵÐµÑĢÐ¼Ð°Ð½":4704,"ĠÐ¸ÐµÑģÑĸ":4705,"Ð¸ÑĢÑĥ":4706,"ĠÑĤÐµÑĢÑĸ":4707,"ĠÐ¼Ð°ÑħÐ°Ð±Ð±Ð°ÑĤ":4708,"ÐºÐ°Ñĩ":4709,"ĠÑĤÑĥÑĭÐ½":4710,"ÐµÐ»ÐµÐ½Ñĥ":4711,"ĠÐ¶Ò±Ð»Ð´ÑĭÐ·":4712,"ĠÐ¿Ð¾ÑĪ":4713,"ĠÐºÓ©Ð·Ð³Ðµ":4714,"ÐºÐµÐ»Ð³ÐµÐ½":4715,"iÐ½Ð´ÐµÐ³i":4716,"Ġ198":4717,"ÒļÐ°Ð·ÑĸÑĢÐ³Ñĸ":4718,"Ð°Ð¼Ð°Ð»":4719,"ĠÑĤÐ°ÑĢÑĤÑĭÐ¿":4720,"ĠÓĺÐ´Ñĸ":4721,"ĠÐ¼Ð¸Ð½Ð¸ÑģÑĤÑĢÑĸ":4722,"ÐķÐ»Ð±Ð°ÑģÑĭ":4723,"ĠÑģÐ°ÑĥÐ°Ð»":4724,"ĠÐĸÐŀ":4725,"ĠÐºÐµÒ£ÐµÑģÑĸÐ½ÑĸÒ£":4726,"ĠÐ¿Ð°Ð»":4727,"ĠÐºÐ»Ð¸Ð½":4728,"ĠÐ¼Ð°ÒĵÑĭÐ½":4729,"ĠÐºÐ¾Ð¼Ð¼ÑĥÐ½Ð¸Ðº":4730,"ÐºÐµÑĤÐ¸Ð½Ð³":4731,"ÐĲÐ¡":4732,"Ð°ÑģÑĤÐ°ÑĢ":4733,"ÐºÐµÑĢÑĤÑĥ":4734,"ĠÐ¶Ò¯ÑĢÐ³ÑĸÐ·ÑĸÐ»ÐµÐ´Ñĸ":4735,"ĠÑĤÐµÑĢÑĢ":4736,"ĠÒĽÑĭÐ·Ð¼ÐµÑĤÐºÐµÑĢ":4737,"Ò£ÑĭÐ·":4738,"ĠÐ¿ÑĢÐµÐ·Ð¸Ð´ÐµÐ½ÑĤÑĸ":4739,"ĠÐ°Ð¼Ð°Ð»":4740,"ĠÐ¡Ð¾Ð´Ð°Ð½":4741,"ĠÑĦÐ¸Ð»ÑĮÐ¼":4742,"ÐĳÐ¾Ð»":4743,"ĠÒ±ÑģÑĭÐ½ÑĭÑģÑĤÐ°ÑĢ":4744,"Ð°ÑĥÐ´Ð°Ð½":4745,"ÐºÐ¾Ð½Ð¾Ð¼Ð¸ÐºÐ°":4746,"ĠÒĽÐ°Ð±ÑĭÐ»Ð´Ð°Ð´Ñĭ":4747,"ĠÐ¶Ð°ÑģÐ°ÒĽ":4748,"ÑĭÐ»Ð¼Ð°Ð»Ñĭ":4749,"ĠÒĽÑĭÐ·Ð¼ÐµÑĤÑĤÐµÑĢÐ´ÑĸÒ£":4750,"ĠÑĤÐ°ÒĵÐ´ÑĭÑĢ":4751,"ĠÐ¡ÐµÑĢÑĸÐº":4752,"ĠÐĺÐ¼":4753,"Ð¿Ð°ÒĽÑĤÐ°ÑĢ":4754,"ÑĮÑı":4755,"ĠÐµÐºÐµÐ½Ð´ÑĸÐ³ÑĸÐ½":4756,"ĠÑģÐ°Ð»Ð°ÑģÑĭ":4757,"Ð»ÑĭÒĽÒĽÐ°":4758,"ĠÐ¶ÐµÒ£ÑĸÐ»Ð´ÐµÑĤ":4759,"Ð°ÑĥÑĭÑĤ":4760,"ĠÐ¡Ð°ÑĢ":4761,"ÑĤÐ¸ÐºÐ°Ð»ÑĭÒĽ":4762,"ĠÐ¿Ð¾ÑĢÑĤÐ°Ð»":4763,"ĠÑģÒ±ÑĢÐ°Ð¿":4764,"ĠÓĺÑĥ":4765,"Ð¾Ò£ÒĵÑĭ":4766,"ĠÐĸÐ°Ð»":4767,"ĠÐ¤ÑĢÐ°Ð½":4768,"Ð»iÐº":4769,"ĠÑģÐ°Òĵ":4770,"ĠÓ©Ð·Ð´ÐµÑĢÑĸÐ½ÑĸÒ£":4771,"ĠÓ©Ð¹ÑĤÐºÐµÐ½Ñĸ":4772,"ĠÒļÐ¾Ñģ":4773,"ĠÐ±Ð°ÒĵÑĭÑĤÑĭ":4774,"ÐµÑĢÐ²":4775,"ÐºÐ»Ð°ÑģÒĽÐ°":4776,"ÐºÐ°ÑĩÐ°ÑĤÑĮ":4777,"ĠÐ²ÐµÐ±":4778,"ĠÒĽÐ¾Ð»Ð´Ð°Ð½ÑĭÐ»ÑĥÑĭ":4779,"Ð±Ð°ÐµÐ²Ð°":4780,"ĠÒĽÒ±ÑĢÐ°Ð´Ñĭ":4781,"ĠÐ°ÑĢÑħÐ¸Ð²":4782,"ĠÑĤÑĸÐ»ÑĪÑĸÑģÑĸ":4783,"ĠÑįÐºÑģÐ¿Ð¾ÑĢÑĤ":4784,"ĠÐºÐµÒ£ÐµÑģÑĸ":4785,"ĠÐºÒ¯Ð½Ð´ÐµÐ»ÐµÐºÑĤÑĸ":4786,"ĠÒĽÑĥÑĭÑģÑĭÐ½ÑĭÒ£":4787,"ĠÐ¼ÓĻÑģÐ»Ð¸ÑħÐ°ÑĤ":4788,"ÑĤÐ¾ÑĢÑĭ":4789,"ÑģÑĭÐ»ÑĭÒĽ":4790,"ĠÑģÐ°Ð»Ð´Ñĭ":4791,"ĠÑģÐ°Ð½Ð°Ð»Ð°Ð´Ñĭ":4792,"ĠÒ¯ÑģÑĤÑĸÐ½Ð´Ðµ":4793,"ĠÐ±ÑĸÑĢÐ»ÑĸÐº":4794,"ĠÓĻÐ»ÐµÑĥÐ¼ÐµÑĤ":4795,"ĠÐ¡ÑĭÑĢÑĤ":4796,"ÑĸÐ¿Ð±Ð¸":4797,"ÐĲÐĹ":4798,"ay":4799,"Ð°ÑĢÐ¼Ð°":4800,"Ð³Ð°":4801,"ĠÐ±Ð¾ÐºÑģ":4802,"ĠÒĽÐ°Ð»Ð°Ð½ÑĭÒ£":4803,"ĠÐ¾ÑĢÐ½Ð°Ð»Ð°ÑģÑĤÑĭÑĢ":4804,"ĠÐ°Ð»ÑĤÑĭ":4805,"ĠÐ¼ÐµÑħÐ°Ð½Ð¸Ð·Ð¼":4806,"Ò±ÑĢÑĭÐ½":4807,"ĠÐ±Ð°ÑģÑĪÑĭÐ»ÑĭÒĵÑĭÐ¼ÐµÐ½":4808,"Ð´ÑĭÑĢÒĵÐ°Ð½":4809,"ĠÒĽÒ±Ð¶Ð°ÑĤÑĤÐ°Ð¼Ð°":4810,"ĠÑħÐ°Ð»ÑĭÒĽÑĤÑĭ":4811,"ĠÐ°ÑĪÑĭ":4812,"ĠÑģÐ¾Ð´Ð°Ð½":4813,"ÑĤÑĸÐ³ÑĸÐ½ÑĸÒ£":4814,"ĠÐ±Ð°Ð»ÑĭÒĽ":4815,"ÒĵÑĭÑģÑĭ":4816,"ĠÑģÐ°Ð»ÑĭÐ½Ð°Ð´Ñĭ":4817,"ĠÒĽÐ°ÑĤÑĭÑģÒĽÐ°Ð½":4818,"ĠÒĽÐ¾ÑĢÒĵÐ°Ð»ÒĵÐ°Ð½":4819,"ĠÑįÐ»ÐµÐ¼ÐµÐ½ÑĤ":4820,"Ð´Ð°ÑģÑĤÑĭÒĽ":4821,"ÐķÐĿ":4822,"ĠÐ½ÐµÐ³ÑĸÐ·Ð´ÐµÐ»Ð³ÐµÐ½":4823,"Ð°ÑıÑģÐ¸":4824,"ÑĸÐ¼ÑĸÐ·Ð³Ðµ":4825,"Ġk":4826,"2014":4827,"ĠÐļÐµÐ½":4828,"ew":4829,"Ð½Ð°Ñı":4830,"ÑĸÑģÑĸÐ½Ðµ":4831,"Ð¸ÑĢÐµÐº":4832,"ÐļÓĻÐ¼ÐµÐ»ÐµÑĤÐºÐµ":4833,"ĠÐ¼ÐµÐ·Ð³ÑĸÐ»":4834,"ĠÒ¯Ð»Ð³ÐµÑĢ":4835,"ÑĨÐ¸Ð¿":4836,"Ð¸Ð¼Ð°":4837,"ÐľÓĻÑĤÑĸÐ½":4838,"06":4839,"ĠÐŁÐ°ÑĢÐ»Ð°Ð¼ÐµÐ½ÑĤ":4840,"Ð¸ÑıÐ´Ð°ÒĵÑĭ":4841,"ÑĭÑģÑĭÐ¼ÐµÐ½":4842,"ĠÑģÐµÐºÑĤÐ¾ÑĢ":4843,"ĠÐ±Ó©Ð»ÑĸÐ½Ð³ÐµÐ½":4844,"ĠÑĤÐ¸ÐµÑģ":4845,"ĠÓĻÐºÑĸÐ¼Ð´ÐµÑĢÑĸÐ½ÑĸÒ£":4846,"ĠÐ±Ð°ÒĽÑĭÐ»Ð°ÑĥÑĭ":4847,"Ð°ÑħÐ¼ÐµÑĤ":4848,"Ð»ÐµÐ½Ð³ÐµÐ½":4849,"Ð´iÐº":4850,"ĠÐ¼ÐµÐ´Ð¸ÑĨÐ¸Ð½Ð°":4851,"ĠÒĽÒ±ÑĢÐ°Ð»Ð´Ð°ÑĢÑĭ":4852,"ĠÐ°Ð»ÒĵÐ°":4853,"Ð°ÑıÑĥ":4854,"ĠÐ¶Ð°ÑĢÑĤÑĭÐ¶ÑĭÐ»Ð´ÑĭÒĵÑĭÐ½Ð´Ð°":4855,"Ð¶Ð°Ñģ":4856,"ĠÐ¾Ð±ÑĬÐµÐº":4857,"he":4858,"ĠÐ¿ÑĸÑģ":4859,"ĠÐ´ÐµÐ¿Ð°ÑĢÑĤÐ°Ð¼ÐµÐ½ÑĤÑĸÐ½ÑĸÒ£":4860,"ĠÒĽÐ°ÑĢÑĭÐ·":4861,"ÐļÐ¾Ð½":4862,"ĠÐ°Ð»Ð´ÑĭÒ£":4863,"ĠÐ±ÑĸÐ»ÑĸÐºÑĤÑĸÐ»ÑĸÐ³ÑĸÐ½":4864,"Ð°Ð½Ð°ÑģÑĭÐ½ÑĭÒ£":4865,"ĠÒĽÑĭÐ·ÑĭÒĽ":4866,"ĠÐ±Ð°ÑģÒĽÐ°ÑĢÐ¼Ð°ÑģÑĭÐ½Ð´Ð°":4867,"ĠÒ¯Ð¹Ð´Ðµ":4868,"ÑĸÐ¼ÑĸÐ·Ð´Ðµ":4869,"ĠÑĤÐ°ÒĵÐ°Ð¼":4870,"ĠÒĽÐ°ÑĤÑĭÑģÑĥÑĭÐ¼ÐµÐ½":4871,"ÐµÑħ":4872,"ĠÒĽÐ°Ð¼ÒĽÐ¾ÑĢÐ»ÑĭÒĵÑĭÐ½":4873,"ÑģÓ©Ð·":4874,"ing":4875,"ĠÐµÑģÐµÐ¿ÑĤÐµÑĥ":4876,"ĠÐľÓĻ":4877,"ĠÑĪÑĭÒĵÐ°ÑĢÑĭÐ¿":4878,"ĠÐ±Ò±ÒĽÐ°ÑĢÐ°Ð»ÑĭÒĽ":4879,"ĠÐ½ÐµÐ³ÑĸÐ·Ñĸ":4880,"ĠÐ±Ð°ÑģÑĤÐ°ÑĥÑĭÑĪ":4881,"ÑĭÑģÑĤÐ°":4882,"ĠÐ±Ð°ÑģÑĪÑĭÐ»Ð°ÑĢÑĭ":4883,"ĠÐļÓ©Ð·":4884,"ĠÐ±Ð¾Ð¿":4885,"ĠÐ¶Ð°Ò£Ð°Ð»ÑĭÒĽÑĤÐ°ÑĢ":4886,"ĠÑĪÐµÑĪÑĸÐ¼Ð´ÐµÑĢ":4887,"ĠÐ¶ÑĭÐ»ÒĽÑĭ":4888,"ĠÐ¶ÐµÑĤÑĸ":4889,"ÐµÑĢÐ»Ñĸ":4890,"Ð´Ð°ÑĢÐ´Ð°Ð½":4891,"ĠÐ¿ÑĢÐ¾ÑĦÐµÑģÑģÐ¾ÑĢ":4892,"ĠÐ¾ÐºÑĢÑĥÐ³ÑĤÐµÑĢ":4893,"Ð°ÑĤÑĭÐ½Ð´Ð°":4894,"ĠÒĽÐ°ÑĢÐ¶ÑĭÐ»ÑĭÒĽ":4895,"ĠÒĽÐ°ÑĢÐ¶ÑĭÐ»Ð°Ð½Ð´ÑĭÑĢÑĥ":4896,"ĠÒĽÐ°ÑĢÐ°Ð¶Ð°ÑĤ":4897,"29":4898,"Ð¼Ð¾":4899,"ĠÐ¸Ð½ÑĦÑĢÐ°ÒĽÒ±ÑĢÑĭÐ»ÑĭÐ¼":4900,"ĠÐ¾ÒĽÑĭ":4901,"ĠÑĤÐµÐ³Ñĸ":4902,"ĠÒļÒ±Ð´Ð°Ð¹":4903,"Ġn":4904,"ĠÐ¾Ð¹Ð»Ð°Ñĥ":4905,"Ð³iÐ½":4906,"ĠÐ¿Ð°Ð¹Ð´Ð°Ð»Ñĭ":4907,"ĠÐ´ÓĻÑģÑĤÒ¯ÑĢÐ»Ñĸ":4908,"ĠÒĽÑĭÐ¼ÑĭÐ·Ð´Ñĭ":4909,"ĠÐ±ÑĸÑĢÑĭÒ£ÒĵÐ°Ð¹":4910,"ÑĢÐµÐ·ÐµÐ½":4911,"ĠÐ±Ð¾Ð»ÒĵÐ°Ð½Ð´ÑĭÒĽÑĤÐ°Ð½":4912,"ĠÒ±ÑģÑĭÐ½Ð°Ð´Ñĭ":4913,"ÑĥÐ»Ð°ÑĢ":4914,"ÑģÐ¸Ð´":4915,"ĠÓĻÒ£Ð³ÑĸÐ¼Ðµ":4916,"ĠÑĢÐµÐ·":4917,"Ð¿Ð°Ð¹Ð´Ñĭ":4918,"ÐŀÐ»":4919,"ĠÐºÓ©ÑĢÑģÐµÑĤÑĸÐ¿":4920,"ĠÑĤÓĻÑĥÐµÐºÐµÐ»Ð´ÐµÑĢÑĸÐ½ÑĸÒ£":4921,"ÒĽÐ¾Ð»":4922,"ĠÐºÓ©Ð¿ÑĪÑĸÐ»ÑĸÐº":4923,"ĠÑĥÐ°ÒĽÑĭÑĤÑĪÐ°":4924,"ÐŀÑĢÑĤÐ°":4925,"ĠÐ±Ó©Ð»ÑĸÐº":4926,"ĠÐ¡Ð°Ð¹":4927,"ĠÒĽÐ°Ð±ÑĭÐ»Ð´Ð°Ð½ÒĵÐ°Ð½":4928,"Ð¸Ð½Ð³Ñĸ":4929,"ĠÐ½ÓĻÑĤÐ¸Ð¶ÐµÑģÑĸ":4930,"ĠÓĻÐ»Ð³Ñĸ":4931,"ĠÒĽÒ±Ð½Ñĭ":4932,"ĠÑĥÐ½Ð¸Ð²ÐµÑĢÑģÐ¸ÑĤÐµÑĤÑĸÐ½ÑĸÒ£":4933,"ĠÑĤÐµÑħÐ½Ð¾Ð»Ð¾Ð³Ð¸ÑıÐ»ÑĭÒĽ":4934,"ĠÐ±ÑĸÐ»Ð³ÐµÐ½":4935,"ĠÒĽÐ°Ð¼ÒĽÐ¾ÑĢÐ»ÑĭÒĵÑĭÐ½ÑģÑĭÐ·":4936,"ĠÐ»Ð°ÑĤÑĭÐ½":4937,"Ð¾ÐºÑĢÐ°ÑĤ":4938,"ĠÑĤÐ°Ð¿ÒĽÐ°Ð½":4939,"ĠÓ©Ð½Ð´ÑĸÑĢÑĸÑģÑĤÑĸÐº":4940,"aly":4941,"ÓĻÑĢÐ±Ð¸Ðµ":4942,"ĠÒļÒ±Ð¿":4943,"Ð»Ð°Ð´Ñĭ":4944,"ÐĳÑĸÐ·Ð´ÑĸÒ£":4945,"ĠÐ¸Ð½Ð²ÐµÑģÑĤÐ¸ÑĨÐ¸ÑıÐ»ÑĭÒĽ":4946,"ÒĵÐ°Ð»Ð¸":4947,"Ð¼ÑĭÑĪ":4948,"ĠÐĲÑı":4949,"ĠÐļÐµÐ·":4950,"Ð°Ð½Ð¾Ð²":4951,"?!":4952,"ÐĲÑĥÐ´Ð°Ð½Ð´ÑĭÒĽ":4953,"ÑĤÐ°ÑĥÑĭÑĪ":4954,"ĠÓĻÐºÐµ":4955,"Ð±Ò±Ð»":4956,"ĠÐ¿Ð¾ÑĢÐ½Ð¾":4957,"ĠÐ´Ð°Ð¼ÑĭÑĤÑĥÐ´ÑĭÒ£":4958,"Ð´ÑĸÐ³ÑĸÐ½ÐµÐ½":4959,"ĠÐŀÐ±Ð»":4960,"ĠÐ°Ð·ÑĭÒĽ":4961,"ĠÐ¾Ò£Ð°Ð¹":4962,"ĠÐĲÒĽÐ¿Ð°ÑĢÐ°ÑĤ":4963,"ĠÐļÐľÐľ":4964,"Ð·Ð´ÑĸÐº":4965,"ÐĨÐļ":4966,"ÑģÐ°Ð¼Ð±Ð»":4967,"Ð¾ÑĢÒĵÐ°Ð½":4968,"Ð°Ð²Ð»":4969,"ĠÐľÒ±ÑħÐ°Ð¼":4970,"ĠÐ½Ð¾Ð¼":4971,"ĠÑĤÐµÐ¼Ð¿ÐµÑĢÐ°ÑĤÑĥÑĢ":4972,"Ò£Ð³ÑĸÐ»ÑĸÐº":4973,"ĠÐĸÐ°ÑĢÐ±":4974,"ĠÐ°ÑģÑĤÑĭ":4975,"ĠÐľÓĻÐ¶":4976,"ĠÐ°Ð´Ð°Ð¼Ð´Ð°ÑĢÒĵÐ°":4977,"31":4978,"ĠÑĤÒ±ÑĤÐ°Ñģ":4979,"Ð±Ð°Òĵ":4980,"ĠÑģÐ°ÑĤÑĥ":4981,"ĠÐ°Ð»ÑĥÐ´Ñĭ":4982,"ĠÐ½ÓĻÑĢÑģÐµ":4983,"ÑĸÐ½ÐµÑģÐµ":4984,"ĠÐ±Ð°ÑģÑĤÐ°Ð»Ð°Ð´Ñĭ":4985,"Ð°Ð±Ð°Ð¹":4986,"ĠÐ¼Ò¯ÑĪÐµÑģÑĸ":4987,"ĠÐºÓ©ÑĢÑģÐµÑĤÑĤÑĸ":4988,"ÑĸÒ£ÑĸÐ·Ð³Ðµ":4989,"Ð°ÑĤÑĤÐ°ÑĢÐ´ÑĭÒ£":4990,"ĠÐ´ÐµÐ¼Ð°Ð»ÑĭÑģ":4991,"Ð°ÑĤÐ°Ñĥ":4992,"ĠÒĽÑĭÐ¼":4993,"ÑĥÑĸÐ½":4994,"ĠÐ¸Ð¼Ð°Ð½":4995,"ÑĢÐ°":4996,"Ð»ÑĭÐ¼":4997,"ÐķÐļ":4998,"Ġ01":4999,"ĠÐ¸ÑĤ":5000,"ĠÑĸÑģÑĤÐµÐ¹ÑĤÑĸÐ½":5001,"ÑĥÑħÐ°Ð½Ð¸":5002,"Ò¯Ðº":5003,"ĠÑĤÐ¾Ð»Ñĭ":5004,"ĠÑĤÐ¾Ð»ÒĵÐ°Ð½":5005,"op":5006,"ĠÐ°Ð¹ÑĢ":5007,"Ó¨ÑĢ":5008,"ÑģÑĤÐ°":5009,"ĠÐ¶Ò±Ð¼ÑģÐ°ÒĽ":5010,"ĠÐ°ÑģÑĭÐ¿":5011,"ĠÐ±ÐµÑĤÑĸÐ½":5012,"ĠÐµÑĪÒĽÐ°Ð½Ð´Ð°Ð¹":5013,"Ð°ÑģÑĭÒ£":5014,"ĠÐ±ÐµÐ»Ð³ÑĸÐ»ÐµÑĢÑĸ":5015,"ĠÐºÓ©ÑĪÑĸÑĢÐ¼":5016,"ĠÐľÒ¯":5017,"Ð´ÑĭÑĢÐ°ÑĤÑĭÐ½":5018,"ĠÐ°Ð»Ð´ÑĭÐ½Ð°":5019,"ĠÐ¼Ð°Ð·Ð¼Ò±Ð½ÑĭÐ½":5020,"ĠÐ¶Ð°Ò£Ð°ÑĢÑĤÑĥ":5021,"ĠÐĲÐ½ÑĭÒĽ":5022,"ĠÑĤÐµÑĢÐ³Ðµ":5023,"ÐµÑģÐº":5024,"ĠÒĽÒ±ÒĽÑĭÒĽÑĤÐ°ÑĢÑĭ":5025,"ÐµÑħÐ½":5026,"ĠÐ±Ð¾Ð»ÑĥÒĵÐ°":5027,"ĠÑĤÑĥÑĭÐ½Ð´Ñĭ":5028,"Â©":5029,"Ġd":5030,"ÐµÑĢÐ¼ÐµÐ½":5031,"Ð³iÐ»":5032,"26":5033,"ĠÑĤÑĥÑĢÐ°":5034,"stan":5035,"ĠÐ¢Ó©Ð»":5036,"Ð°ÑĤÑĤÐ°Ð½":5037,"ÓĻÐº":5038,"ĠÐŀÐ½Ð´Ð°":5039,"ĠÐ±Ð°ÑģÑĭ":5040,"ĠÑĤÒ±ÑĢÒĵÑĭÐ´Ð°Ð½":5041,"ÑĤÐµÐº":5042,"].":5043,"ĠÐĲÐ·":5044,"ĠÐ¾ÑĢÐ¼Ð°Ð½":5045,"ĠÐ±iÐ»":5046,"ÑĥÐº":5047,"ĠÐ±Ð°ÑģÑĪÑĭ":5048,"ĠÒĽÐ°Ð½ÑĪÐ°":5049,"ĠÐ·Ð°Ð¼Ð°Ð½Ð°ÑĥÐ¸":5050,"ĠÐµÐ½Ð³ÑĸÐ·ÑĸÐ»Ð´Ñĸ":5051,"ĠÐ½Ð°ÑĢÑĭÒĽ":5052,"ĠÐķÐ»Ð±Ð°ÑģÑĭÐ½ÑĭÒ£":5053,"ĠÑĨÐ¸ÑĦÑĢ":5054,"ĠÑĤÐ¾ÒĽÑģÐ°Ð½ÒĵÐ°":5055,"ÑģÑĤÐ°Ð·":5056,"ĠÐĲÐ»ÑĤÑĭÐ½":5057,"ÐµÑģÑĤÐ¸Ð²":5058,"ĠÐºÓĻ":5059,"ĠÐ¿ÑĢÐ¾ÐºÑĥÑĢÐ°ÑĤÑĥÑĢÐ°ÑģÑĭ":5060,"Ð»ÐµÑĢÑĸÐ½Ð´Ðµ":5061,"ĠÑĪÓĻÐºÑĸÑĢ":5062,"ĠÐ°Ð´Ð°Ð»":5063,"ĠÑįÐ¿":5064,"ĠÑĢÐµÑĦÐµÑĢ":5065,"ĠÒĽÑĭÐ·Ð¼ÐµÑĤÑĤÑĸÒ£":5066,"ĠÐ´Ò¯":5067,"ĠÐ¶Ð¾Ð±Ð°ÑģÑĭÐ½":5068,"ĠÐµÑĢÐµÑģ":5069,"ĠÐ¶Ð¾ÑĢ":5070,"ĠÑģÐ°ÑĥÐ°ÑĤ":5071,"ĠÐ²Ð°Ð»Ñİ":5072,"ĠÑĢÐµÐ¶Ð¸Ð¼":5073,"ĠÐµÑĢÐµÐºÑĪÐµÐ»Ñĸ":5074,"ĠÐ¾ÑĢÑĤÐ°ÒĵÐ°":5075,"har":5076,"ÐľÐ°ÒĽÐ°ÑĤ":5077,"Ð°Ð½Ñģ":5078,"ĠÑģÒ±ÑĢÐ°Ð½ÑĭÑģ":5079,"ĠÐ¼Ð°Ñģ":5080,"ĠÐ°ÑĤÐ°Ð»Ð°Ð´Ñĭ":5081,"Ġ55":5082,"Ð·Ð¸ÑıÑģÑĭ":5083,"ÑĤÑĤÐ°ÑĢÐ´Ñĭ":5084,"ĠÐľÐµÐºÑĤÐµÐ¿":5085,"ĠÑħÐ°Ð±Ð°ÑĢÐ»Ð°Ð´Ñĭ":5086,"Ð°Ð±Ð¸":5087,"ĠÐµÑģÐµ":5088,"ĠÐºÐ¾Ð¼Ð¿Ð°Ð½Ð¸ÑıÑģÑĭ":5089,"ĠÒĽÒ±ÑĢÐ°Ð¼Ñĭ":5090,"aq":5091,"ÑĪÐµÑĤÐ°Ñĥ":5092,"ĠÑĢÐµÐ²":5093,"ÑĤÑĤÐ°ÑĢÐ´ÑĭÒ£":5094,"ĠÐ»Ð¾Ð³":5095,"mail":5096,"ati":5097,"ĠÐºÑĸÑĪÑĸ":5098,"ĠÐ°Ð¹Ð¼Ð°Òĵ":5099,"ÐĲÐ´Ð°Ð¼":5100,"ĠÐ¢Ð°ÑĢÐ°Ð·":5101,"ÐµÑģÑĸÒ£":5102,"ĠÒ±ÑģÑĭÐ½ÑĭÐ»ÒĵÐ°Ð½":5103,"ĠÐ´Ð¸Ð°Ð³Ð½Ð¾Ð·":5104,"ĠÒĽÑĭÐ·ÑĭÒĽÑĤÑĭ":5105,"ĠÓ©Ð»ÐµÒ£Ð´ÐµÑĢ":5106,"ĠÒĽÐ°ÑĥÑĸÐ¿ÑĤÑĸ":5107,"ĠÐ¾Ð¹Ð»Ð°Ð¹":5108,"ĠÑĤÐµÐ½":5109,"ĠÐºÐ°Ð±Ð¸Ð½":5110,"ĠÑĸÑģÑĸÐº":5111,"ĠÑĪÐ°Ð±ÑĥÑĭÐ»":5112,"ĠÒĽÐ°Ð»Ð°Ð¼":5113,"ĠÒ±Ð¹ÑĭÐ¼Ð´Ð°ÑĢ":5114,"ÐµÐ¶Ò¯Ð·ÑĸÐ»ÑĸÐº":5115,"ĠÑĸÑĪÑĸÐ½Ð´ÐµÐ³Ñĸ":5116,"ĠÒĽÐ¾Ò£":5117,"ĠÐ¶ÐµÐ»Ñĸ":5118,"ĠÐ¡Ñĥ":5119,"Ð°ÑĤÐ°ÑĢ":5120,"ĠÐºÓ©ÑĪÑĸÑĢÑĥ":5121,"ĠÐ¶Ð°Ð±Ð´ÑĭÒĽÑĤÐ°Ñĥ":5122,"ĠÑĤÑĸ":5123,"ĠÑħÐ°ÑĤÑĤÐ°Ð¼":5124,"--":5125,"ĠÐ±Ð°ÒĵÐ´Ð°ÑĢÐ»Ð°Ð¼Ð°ÑģÑĭÐ½ÑĭÒ£":5126,"ĠÐĳÑĸÑĢÑĸÐ½ÑĪÑĸ":5127,"ĠÐ¼ÐµÑĤÐ°Ð»Ð»":5128,"ĠÒ±Ð¹ÑĭÐ¼Ð´Ð°ÑĢÑĭÐ½Ð´Ð°":5129,"ĠÐľÐµÑĢ":5130,"ĠÐ´ÐµÒ£Ð³ÐµÐ¹Ð´ÐµÐ³Ñĸ":5131,"ĠÐ¢Ð°Ð±Ð¸ÒĵÐ¸":5132,"ÑĸÐ¼ÑĸÐ½Ðµ":5133,"ĠÒĽÐ°ÑĤÑĭÑģÑĥÒĵÐ°":5134,"ĠÐ¿Ð¾ÑĢÑĤ":5135,"ĠÑĤÐµÑĢÑĸÑģ":5136,"ĠÐ¸Ð¼Ð¿Ð»Ð°Ð½":5137,"ĠÐ¼ÐµÐ¼":5138,"ĠÐ°Ð²ÑĤÐ¾Ð±":5139,"ĠÐ¶Ð¾ÑģÐ¿Ð°ÑĢÑĭÐ½ÑĭÒ£":5140,"ĠÐ½Ò±ÑģÒĽÐ°Ñĥ":5141,"ÐĸÑĭÐ»ÑĭÐ¾Ð¹":5142,"ĠÐ¶Ð°ÑĤÑĤÑĭÒĵÑĥ":5143,"ĠÐ±Ð°ÒĵÐ´Ð°ÑĢÐ»Ð°Ð¼Ð°ÑģÑĭÐ½":5144,"ĠÑĪÐ°ÑĢÐ°":5145,"ĠÑĤÐ¸ÐµÑģÑĸÐ»Ñĸ":5146,"ĠÑĪÐ¸Ðº":5147,"ĠÐºÐ¾Ð´ÐµÐºÑģ":5148,"ĠÐµÐ½Ð³ÑĸÐ·ÑĸÐ»Ð³ÐµÐ½":5149,"ĠÐ¼ÐµÑĢÐ·ÑĸÐ¼Ñĸ":5150,"ĠÐºÑĸÑģ":5151,"ĠÐ±Ð°Ð¹ÒĽÐ°Ð»Ð°Ð´Ñĭ":5152,"ÐĨÐľ":5153,"ĠÒĽÒ±ÑĢÐ°Ð¼ÑĭÐ½Ð°":5154,"ĠÐ±ÑĸÐ»Ð´ÑĸÑĢÐµÐ´Ñĸ":5155,"ons":5156,"ĠÑĢÑĥÑħ":5157,"Ð´ÐµÑĢÑĸÐ¼ÐµÐ½":5158,"ĠÐ¶Ò±Ð¼ÑĭÑģÑĭÐ½Ð°":5159,"ĠÐ·ÐµÑĢÑĤÑĤÐµÑĥÐ»ÐµÑĢ":5160,"ÑĤÐ°ÑĤÑĭ":5161,"ĠÐ¶ÐµÐ»ÑĤÐ¾ÒĽÑģÐ°Ð½Ð´Ð°ÒĵÑĭ":5162,"ĠÐ±Ð°ÑģÑĭÐ½Ð°Ð½":5163,"ĠÐ¼ÐµÐºÑĤÐµÐ±ÑĸÐ½ÑĸÒ£":5164,"ĠÒļÐ°Ð·Ð°ÒĽÑģÑĤÐ°Ð½Ð´Ð°ÒĵÑĭ":5165,"ĠÑģÐ°":5166,"ĠÒĽÑĭÐ·Ð¼ÐµÑĤÐºÐµ":5167,"ĠÐ°ÑģÑĭÑĢÑĥÒĵÐ°":5168,"ĠÐºÓ©Ð¼ÐµÐ³ÑĸÐ¼ÐµÐ½":5169,"ĠÑģÐ°Ð¼":5170,"Ð¢ÐĲÐĿ":5171,"ĠÐ¸Ð½Ð¶ÐµÐ½":5172,"ĠÐľÓĻÑģÐµÐ»ÐµÐ½":5173,"ĠÒĽÑĭÐ·Ð¼ÐµÑĤÐºÐµÑĢÐ»ÐµÑĢÐ´ÑĸÒ£":5174,"ÑĸÐ½ÑĸÐ¿":5175,"ĠÒ£":5176,"ĠÐ±Ð¾ÑĢ":5177,"ĠÑĸÑģÑĤÐµÐ¿":5178,"ĠÐ³Ð°Ð·ÐµÑĤ":5179,"ÑĥÐ¼Ð°Ð½":5180,"ĠÐ°ÐºÑĨÐ¸Ð¾Ð½":5181,"ĠÐĸÐ¾Ð»Ð°ÑĥÑĪÑĭÐ»Ð°ÑĢ":5182,"ÒĽÐ°Ð»":5183,"Ð´ÑĭÑĢÐ°Ð´Ñĭ":5184,"ĠÒĽÑĥÐ°Ð½ÑĭÑĪ":5185,"ĠÒ¯ÑģÑĤÐµÐ¼":5186,"Ð±Ò±Ð´Ð°Ð½":5187,"ĠÐ¢Ð¾ÑĢ":5188,"ĠÑģÐ°Ð»ÑĤ":5189,"ĠÑĤÐ°Ð¿ÑģÑĭÑĢÑĭÑģ":5190,"ĠÐ»Ð°ÑĥÐ°Ð·ÑĭÐ¼ÑĭÐ½Ð°":5191,"Ġ196":5192,"ÑĭÐ¼Ð½ÑĭÒ£":5193,"Ð¢Ò¯ÑĢ":5194,"ĠÑĤÐ¾Ð±Ñĭ":5195,"Ð¿ÑĭÐ½":5196,"ÓĻÑģÑĤ":5197,"ĠÐĲÒĽÑĤÐ°Ò£":5198,"ĠÐ¶Ò±ÒĽ":5199,"ÐĲÒĽÑĤÓ©Ð±Ðµ":5200,"ÑĸÐ½Ð´ÐµÐ¹":5201,"ĠÐ¶Ð¾Ð±Ð°Ð»Ð°ÑĢ":5202,"ĠÐ¶Ð°Ð¹ÑĭÐ½Ð´Ð°":5203,"ĠÐ¿Ð°Ð¹ÑĭÐ·ÒĵÐ°":5204,"ĠÐ½ÑĭÒĵÐ°Ð¹ÑĤÑĥ":5205,"am":5206,"ĠÑĤÓ©Ð·":5207,"ĠÐĲÑĤÐ°":5208,"ĠÐ±ÑĸÐ»ÑĸÐ¼Ð´Ñĸ":5209,"ĠÐ°Ð»ÑĥÑĪÑĭ":5210,"ĠÐĲÒĽÑĤÐ°Ò£ÐºÐµÑĢ":5211,"ĠÐ¼iÐ½":5212,"ĠÐ¼Ð¾Ð´ÐµÐ»":5213,"ĠÒļÐ°Ñĥ":5214,"ĠÒĽÐ¾Ð»Ð´Ð°Ð½ÑĥÒĵÐ°":5215,"ĠÐºÐ¾Ð½ÐºÑĥÑĢ":5216,"Ð°ÑĢÒĵÑĭ":5217,"Ð±ÐµÐ»":5218,"ĠÑģÐ°Ð»Ð°ÑģÑĭÐ½ÑĭÒ£":5219,"ĠÑģÑĤÐ°Ð½Ð´Ð°ÑĢÑĤ":5220,"ĠÐ¶ÐµÑĢÐ´ÐµÐ½":5221,"ÐķÑģÐºÐµÑĢÑĤÑĥ":5222,"ĠÐ»Ð°ÑĥÐ°Ð·ÑĭÐ¼Ð´Ñĭ":5223,"Â®":5224,"ĠÑĢÐµÐ³Ð»Ð°Ð¼ÐµÐ½ÑĤ":5225,"ĠÐ´ÐµÒ£Ð³ÐµÐ¹Ñĸ":5226,"ÐµÑĤÑĤÐµÑĢÐ´ÑĸÒ£":5227,"ÑĢÐµÐ·ÐµÐ½ÑĤÐ°ÑĨÐ¸Ñı":5228,"Ð³ÐµÑĢÐ»ÑĸÐº":5229,"ĠÐºÐ¾Ð¼Ð¿ÑĮÑİÑĤÐµÑĢ":5230,"ĠÐĶÐµÐ³ÐµÐ½Ð¼ÐµÐ½":5231,"ĠÐ±Ð¾Ð¹ÑĭÐ½Ð´Ð°":5232,"ĠÐºÐµÐ·ÑĸÐ½Ð´ÐµÐ³Ñĸ":5233,"ĠÑĸÑĢÑĸÐºÑĤÐµÑĥ":5234,"ĠÑĤÐ°ÒĵÐ°Ð¹ÑĭÐ½Ð´Ð°Ð»":5235,"ĠÐºÐ¼":5236,"2020":5237,"ĠÐ¶Ð°ÑĥÑĭÐ½":5238,"ĠÐ½Ò±ÑģÒĽ":5239,"ĠÐ¶ÐµÑĤÑĸÐ¿":5240,"ĠÑģÐµÑĢÑĤÐ¸ÑĦÐ¸Ðº":5241,"Ð°ÑĤÑĭÐ»ÒĵÐ°Ð½":5242,"ÐĶÐĲ":5243,"ĠÐ±ÐµÑĢÑĥÑĪÑĸÐ½ÑĸÒ£":5244,"Ò±ÒĽÑĭÒĽÑĤÑĭÒĽ":5245,"ÑĨÐ¸Ð°Ð»":5246,"ĠÐ°Ð»ÑĭÐ½":5247,"ĠÐµÐ»Ð³Ðµ":5248,"ĠÐ°Ð»ÑĭÑģ":5249,"ÑįÐ½":5250,"ĠÐ¿Ð¾Ñį":5251,"Ð°Ð»ÑĭÒĵÑĭÐ½Ð´Ð°ÒĵÑĭ":5252,"ÑĤÐ°Ð½ÑĭÒ£":5253,"ĠÐ¶Ò¯ÑĢÐµÐ´Ñĸ":5254,"ĠÑĪÐ¾Ð»":5255,"ĠÐ´Ð¾Ð¿":5256,"ĠÐ°Ð½Ð°Ð»":5257,"ĠÑĤÑĸÐ»ÐµÐº":5258,"Ð¿Ð°Ð»Ñĭ":5259,"ĠÐºÐµÐ»Ð³ÐµÐ½Ð´Ðµ":5260,"ĠÐ±Ð°ÑĢÑĭÐ½ÑĪÐ°":5261,"Ð°Ð´Ð°ÒĵÑĭ":5262,"ÐµÐ»ÐµÑĢÐ³Ðµ":5263,"ĠÐļÐµÑģÑĤ":5264,"ĠÑĤÐµÒ£Ð³ÐµÐ³Ðµ":5265,"ĠÐ¦":5266,"35":5267,"ĠÐ±Ó©Ð»ÑĪÐµÐº":5268,"45":5269,"ĠÒĽÐ¾ÑģÑĭÐ¿":5270,"ĠCom":5271,"Ð¼Ð¾Ð½":5272,"ĠÑģÑĥÐ±ÑģÐ¸Ð´":5273,"ĠÐ¼Ð°ÑĤÐµÑĢÐ¸Ð°Ð»Ð´Ð°ÑĢ":5274,"ĠÒĽÐ°Ð»ÑĭÒ£":5275,"ĠÑĤÐ°Ð»Ð°Ð¹":5276,"ĠÓĻÐ»ÐµÐ¼Ð´ÐµÐ³Ñĸ":5277,"ĠÒĽÐ¾ÑģÑĥ":5278,"ÑĪÐ°ÑĢÐ°":5279,"ĠÐ´Ð°Ò£":5280,"ÑĭÐ»ÑĭÐ¼Ð¸":5281,"ĠÒĽÒ±ÑĢÑĭÐ»Ð´Ñĭ":5282,"ĠÐ¶Ð°ÒĵÑĭ":5283,"ĠÑħÐ°ÑĤÑĪÑĭÑģÑĭ":5284,"Ð¸Ð½Ð½ÑĸÒ£":5285,"ÒļÐ°Ð·Ð°ÒĽÑģÑĤÐ°Ð½Ð½ÑĭÒ£":5286,"ĠÓĻÐ·":5287,"ĠÐļÐ¾Ð´":5288,"77":5289,"ÐµÐ´ÐµÐ½":5290,"ĠÐ±Ð°ÑģÑĤÐ°Ð»Ð´Ñĭ":5291,"ĠÐ¼ÓĻÐ¼":5292,"ĠÑģÑĤÑĢÐ°ÑĤÐµÐ³Ð¸ÑıÐ»ÑĭÒĽ":5293,"ĠÐ¶ÐµÒ£ÑĸÐ¼Ð¿Ð°Ð·":5294,"Ð°Ð¿Ð°ÑĢ":5295,"ĠÐ´Ð¾Ð¼":5296,"ĠÒĽÐ°Ð¹ÑĤÑĭÑģ":5297,"ĠÐĳÐ°Ð»Ð°Ð»Ð°ÑĢ":5298,"ĠÐ¼Ð°Ð¼Ð°Ð½Ð´Ð°Ð½":5299,"ÑĤÑĭÒĵÑĭÐ½":5300,"ĠÐĶÑĸÐ½":5301,"ĠÑĤÑĭÐ¼":5302,"ĠÐ°ÑĥÐ´":5303,"ĠÐ½Ð°ÑĪÐ°ÑĢ":5304,"80":5305,"ĠÑįÐºÑģÐ¿":5306,"ĠÐ¶Ò¯Ð³ÑĸÑĢ":5307,"Ð»Ð°ÑĢÑĭÐ½Ð´Ð°":5308,"ĠÐĸÒ¯ÑĢ":5309,"ĠÑģÒ±Ñħ":5310,"ÑĪÑĸÐ»ÑĸÐ³ÑĸÐ½ÑĸÒ£":5311,"Ġhttps":5312,"ĠÐ¾ÑĢÑĭÐ½Ð´Ð°ÑĢÑĭ":5313,"ĠÐ¸ÐµÐ»ÐµÐ½":5314,"ĠÐ¡Ð¾Ð½ÑĭÒ£":5315,"Ð°Ð½Ñĥ":5316,"ĠÐ¾ÑĢÑĭÐ½Ð´Ñĭ":5317,"ĠÑĤÐ°Ð»Ð´Ð°ÑĥÑĭ":5318,"Ð½Ð°ÑĤ":5319,"ĠÑĤÑĭÒ£Ð´Ð°Ñĥ":5320,"Ð¿Ð°Ðº":5321,"ĠÒĽÐ°ÑĤÑĭÐ½":5322,"ĠÑĤÑĭÐ½ÑĭÑģ":5323,"ĠÐ¼ÑĥÐ·ÑĭÐº":5324,"ĠÐ°Ð¹Ð½Ð°Ð»Ð´Ñĭ":5325,"ĠÐ°ÑĥÐ·":5326,"ĠÓ¨ÑģÐºÐµÐ¼ÐµÐ½":5327,"ĠÐ¼Ó©Ð»ÑĪÐµÑĢÑĸ":5328,"ĠÐ·Ð°ÑĢÐ´Ð°Ð¿":5329,"ĠÐ°ÑģÑĭÑĢÐ°Ð´Ñĭ":5330,"ĠÑĦÐ¸Ð»Ð¸Ð°Ð»Ñĭ":5331,"ĠÑģÑĤ":5332,"ĠÑĤÐµÑĢÐ°Ð¿":5333,"ÑĪÐ°ÑĢÑĥÐ°":5334,"ĠÐºÓ©Ð·ÒĽÐ°ÑĢÐ°Ñģ":5335,"Ð¸ÑĤÐ°ÑĢÐ¸ÑıÐ»ÑĭÒĽ":5336,"Ð°ÑĢÑĤÑĥ":5337,"ĠÒ±ÒĽÑģÐ°Ñģ":5338,"Ðºi":5339,"ĠÐ°Ð»Ð´ÑĭÐ½Ð´Ð°ÒĵÑĭ":5340,"ĠÑģÓ©Ð¹Ð»ÐµÑĥ":5341,"Ð°ÑĤÑĤÐ°Ñĥ":5342,"ĠÐºÐµÑĤÑĥ":5343,"ÓĺÑĢ":5344,"Ġtur":5345,"Ð»Ð¸Ðº":5346,"ĠÐ±Ð°ÑģÑĤÐ°Ð»":5347,"ĠÐ¸ÑģÐ»Ð°Ð¼":5348,"Ð°Ð¼ÑĭÐ·Ð´ÑĭÒ£":5349,"ĠÑĤÒ¯ÑģÐµÑĤÑĸÐ½":5350,"Ð´ÑĭÒĽÑĤÑĭ":5351,"Ð»Ð¾ÑĢ":5352,"ÐĸÒ±Ð¼ÑĭÑģ":5353,"ĠÐ¶ÉĻ":5354,"ĠÐĲÐº":5355,"ĠÑĤÑĸÐ·Ð±":5356,"Ð´ÐµÑĢÑĸÐ½Ð´Ðµ":5357,"ĠÓ¨Ð·Ð±ÐµÐºÑģÑĤÐ°Ð½":5358,"ĠÑĭÑģÑĤÑĭÒĽ":5359,"Al":5360,"ÐºÐ¾Ð²":5361,"ÐµÑĢÐ¸Ð°Ð»Ð´Ð°ÑĢÐ´Ñĭ":5362,"ÑĸÐºÑģÑĸÐ·":5363,"ĠÑģÐ°Ð»Ð¼Ð°ÒĽ":5364,"ÑģÐ°ÑĤÑĭÐ½":5365,"ĠÐļÐµÑģÑĤÐµÑģÑĸ":5366,"ĠÐ¼ÑĸÐ½Ð´ÐµÑĤÑĤÐµÑĢÑĸ":5367,"ĠÐ°ÑĢÐ´Ð°Ð³ÐµÑĢ":5368,"ĠÓ©Ò£ÑĸÑĢÐ»ÑĸÐº":5369,"ĠÐ´Ð°Ð¼ÑĭÒĵÐ°Ð½":5370,"ĠÐ¶Ð°ÒĵÑĭÐ¼":5371,"ĠÒĽÒ±Ð»Ð°ÒĽ":5372,"ĠÓ©Ð·ÑĸÐ½Ð´Ðµ":5373,"ĠÑĤÐ°ÑĢÐ°ÑĤÑĥ":5374,"ĠÐºÑĸÐ½":5375,"ĠÐŁÑĢÐµÐ¼ÑĮÐµÑĢ":5376,"ÑĤÐµÐ»ÐµÐ´Ñĸ":5377,"ÑĤÒ±Ð·":5378,"ÑģÐ¿Ð°Ð½":5379,"Ð´ÑĭÐ½":5380,"ĠÐ¢ÑĸÐ¿ÑĤÑĸ":5381,"Ð»i":5382,"ĠÑĤÐ¾Ð½Ð½Ð°":5383,"Ð»ÑĭÒĽÑĤÑĭÒ£":5384,"ĠÐ¢Ð°Òĵ":5385,"bu":5386,"ÐĳÐ¾Ð»Ð°ÑĪÐ°ÒĽ":5387,"04":5388,"Ð¸Ð¾":5389,"ÑĢÐµÑģ":5390,"ÐļÓ©Ð¿":5391,"Ð·ÐµÐ¹":5392,"em":5393,"ĠÒĽÐ°Ð´ÑĸÑĢ":5394,"ĠÑģÑĸÐ·Ð³Ðµ":5395,"ĠÐ¿ÑĸÑĪ":5396,"ÑģÑĭÐ½Ð´Ð°ÒĵÑĭ":5397,"ĠÓ©ÑģÑĸÐ¿":5398,"ĠÑģÐ°Ð»ÑĭÑģÑĤÑĭÑĢÒĵÐ°Ð½Ð´Ð°":5399,"ĠÒĽÐ¾ÒĵÐ°Ð¼Ð½ÑĭÒ£":5400,"ĠÐĳÐ°Ð½Ðº":5401,"ĠÐĲÐ»Ð»Ð°Ð½ÑĭÒ£":5402,"ĠÐ¿ÑĢÐ¸Ð½":5403,"ĠÐ½ÐµÑģÐ¸Ðµ":5404,"ĠÐ¿Ð°ÑĢÑĤÐ¸Ñı":5405,"ĠÐ±Ò±ÒĵÐ°Ð½":5406,"ĠÒĽÑĭÑģÒĽÐ°ÑĢ":5407,"Ð°ÐºÑĤÐµÑĢ":5408,"ÐµÐ´Ð¸ÑĨÐ¸Ð½Ð°Ð»ÑĭÒĽ":5409,"ĠÐ¼Ò¯ÑĪÐµÐ»ÐµÑĢÑĸ":5410,"ĠÐ´Ð°ÑıÑĢÐ»Ð°Ñĥ":5411,"ÑĥÑĢÐµÑĤ":5412,"Ð¸Ð·Ð°ÑĨÐ¸Ñı":5413,"ĠÐĶÒ¯Ð½Ð¸":5414,"ad":5415,"ĠÐ½Ð°Ð½":5416,"ĠÐ¶Ð¾ÑģÐ¿Ð°ÑĢÑĭÐ½":5417,"ĠÑĤÐ¾ÑĢÑģÑĭÒĽ":5418,"ÑĪÐ°Ñĥ":5419,"ĠÐľÐ°ÒĽÐ°Ð»":5420,"ĠÑĤÒ±Ð»ÒĵÐ°Ð½ÑĭÒ£":5421,"ĠÐ±Ð¾Ð»ÒĵÐ°Ð½Ñĭ":5422,"ĠÑĪÓ©Ð¿":5423,"ĠÑĭÐ»":5424,"ÑģÑĤÐ°Ð½Ð¾Ð²ÐºÐ°":5425,"Ð»ÑĭÒĵÑĭÐ½ÑĭÒ£":5426,"ÐµÐºÐµÐ³Ðµ":5427,"ĠÑĪÑĭÒĵÑĥ":5428,"ĠÐºÓ©ÐºÐ¿Ð°ÑĢ":5429,"ÑĸÑģÑĥ":5430,"Ð¶Ð°Ð¹Ñĭ":5431,"ĠÓĻÑĢÑĸÐ¿ÑĤÐµÑģÑĤÑĸÐº":5432,"ĠÐ±ÓĻÑĢÑĸÐ½":5433,"ĠÐ¶Ð°ÑģÓ©ÑģÐ¿ÑĸÑĢ":5434,"ĠÑĪÑĭÒĵÑĭÑģ":5435,"ĠÒĽÑĭÐ»Ð¼ÑĭÑģ":5436,"ÐµÑĤÑĢÐ¾Ð¿":5437,"ÑĤÐµÑģÑĤ":5438,"ÑĭÒ£Ð´Ñĭ":5439,"ĠÐ¶Ð°Ò»":5440,"ĠÐ°ÐºÑĨÐ¸Ñı":5441,"ÑĭÐ¼Ð´Ð°":5442,"ĠÐ°Ð½ÑĤÐ¸":5443,"Ð°Ð»ÑĭÒĽÑĤÐ°ÑĢ":5444,"ĠÐ¶Ð°Ò£ÒĵÑĭÑĢÑĤÑĥ":5445,"ĠÐ±ÐµÐ»Ð³iÐ»":5446,"ÐĳÒ±":5447,"Ð»ÐµÐºÑĤÑĢÐ¾Ð½Ð´ÑĭÒĽ":5448,"ĠÐ¿Ð°Ð¹ÑĭÐ·Ñĭ":5449,"ĠÑģÐ¸":5450,"ĠÒĽÐ¾Ð»Ð°Ð¹Ð»Ñĭ":5451,"ĠÐ£ÑģÑĤÐ°Ð½Ð¾Ð²ÐºÐ°":5452,"ĠÓ©ÑģÑĥÑĸ":5453,"Ð´ÑĢÐ¾Ð¼":5454,"Ð¿Ð»Ð°ÑĤ":5455,"ĠÑĤÐ°Ð½ÑĭÑģÑĤÑĭÑĢ":5456,"ĠÐ¿ÑĢÐµÐ¿Ð°ÑĢ":5457,"ĠÐ°ÑĥÑĭÐ»Ñĭ":5458,"ĠÑģÑĸÐ»ÑĤÐµÐ¼":5459,"ĠÐĸÐµÐ»":5460,"ch":5461,"ÑĤÑĤÐ°ÑĢÒĵÐ°":5462,"Ð´ÑĢÐ¾Ð»ÑĭÒĽ":5463,"ĠÒĽÐ¾Ð¹ÑĭÐ»Ð°ÑĤÑĭÐ½":5464,"âĢĿ,":5465,"Ð¸ÑıÑĢ":5466,"ĠÐºÐµÐ·ÐµÒ£Ñĸ":5467,"ĠÐĶÐµÐ¼":5468,"ĠÑĢÐµÐº":5469,"Ġ80":5470,"Ð¼ÑĥÐ½":5471,"ĠÓ©ÑĤÐºÑĸÐ·ÑĸÐ»ÐµÑĤÑĸÐ½":5472,"Ð³ÐµÐ½Ð´Ðµ":5473,"Ð°Ð¼Ð´Ñĭ":5474,"ÒļÐ°Ð»Ð°":5475,"ĠÐ¶Ð°Ð¼Ð±Ð°Ñģ":5476,"ĠÐĸÓĻÐ½Ðµ":5477,"ĠÐ»Ð¸Ð¼":5478,"ÐµÐ½ÑĤÐ³ÐµÐ½":5479,"ĠÑĦÑĥÐ½ÐºÑĨÐ¸Ð¾Ð½Ð°Ð»Ð´ÑĭÒĽ":5480,"ĠÐ°ÒĽÑĭÑĢ":5481,"ĠÐ½Ð¾ÑĢÐ¼Ð°ÑĤÐ¸Ð²ÑĤÑĸÐº":5482,"ÐµÐ»ÐµÐ¿":5483,"ĠÐ±ÑİÐ´Ð¶ÐµÑĤÑĤÐµÐ½":5484,"ĠÐ¿Ð°ÑĤÐ¾Ð»Ð¾Ð³Ð¸Ñı":5485,"Ð¸ÐºÐ»":5486,"Ġ36":5487,"ĠiÑģ":5488,"ĠÐľÑĸÐ½Ðµ":5489,"Ð±Ð½":5490,"ĠÐµÐºÐµÐ½Ñĸ":5491,"ĠÒĽÐ¾Ð¹Ð½":5492,"Ð¼Ð°ÑģÑĭ":5493,"ÐµÐ²Ð°":5494,"ĠÐľÒ±Ð½Ð´Ð°":5495,"Ð»Ð°ÑĢÐ´Ð°":5496,"ÑĤÒ±ÑĢ":5497,"ÑģÑĭÐ½ÑĭÐ¿":5498,"ĠÐ±Ð¾Ð»ÑĥÑĭÐ½Ð°":5499,"ĠÐĲÒĽÑĤÐ°Ñĥ":5500,"ĠÐºÐµÐ¹Ð´Ðµ":5501,"ĠÐ´ÐµÐ¼Ð°Ð»":5502,"ÑĢÐ¾Ð½":5503,"co":5504,"ĠÑĤÐ¾ÒĵÑĭÐ·":5505,"ĠÒĽÐ°Ð½Ð°ÒĵÐ°ÑĤ":5506,"ĠÐľÒ±Ñħ":5507,"ĠÓĻÐ¶":5508,"ĠÓĺÑĢÐ¸Ð½Ðµ":5509,"ĠÐºÑĸÑĪÐºÐµÐ½ÑĤÐ°Ð¹":5510,"ÑĸÑģÑĤÑĸÒ£":5511,"ĠÐµÑģÐµÐ¿ÑĤÑĸ":5512,"ĠÐ¶ÐµÑĢÑĸ":5513,"ĠÐ¾ÑĤÐ°Ð½Ð´ÑĭÒĽ":5514,"ÐºÓ©ÑĢ":5515,"ĠÓĻÐ±":5516,"ÐµÐ·Ð¾Ð²":5517,"ĠÐ°ÒĵÑĭÐ¼Ð´Ð°ÒĵÑĭ":5518,"ĠÐĲÐ»Ð°ÑĪ":5519,"ĠÐ±Ð°ÑģÑĤÐ°Ð»ÒĵÐ°Ð½":5520,"ÐµÑĤÑĢÐ¾Ð¿Ð°Ð²Ð»":5521,"ĠÐ±Ð°Ñĥ":5522,"ĠÒĽÐ°ÑģÐ¸ÐµÑĤÑĤÑĸ":5523,"ĠÐºÐµÒ£ÑĸÐ½ÐµÐ½":5524,"ĠÒĽÒ±Ð¿Ð¸Ñı":5525,"ĠÐŀÐ´Ð°Ð½":5526,"ĠÐºÑĸÐ»":5527,"ÐĸÐµÐºÐµ":5528,"ÐľÐ¸Ð½Ð¸ÑģÑĤÑĢ":5529,"Ð¥Ð°Ð»ÑĭÒĽÐ°ÑĢÐ°Ð»ÑĭÒĽ":5530,"ĠÐ±Ð°ÑģÑĪÑĭÐ»ÑĭÒĽ":5531,"ÐĲÐ»ÑĤÑĭÐ½":5532,"Ð°ÑĤÑĭÐ½ÑĭÐ½":5533,"ĠÑĤÐµÑģÑĤ":5534,"ĠÐ·Ð°ÑĤ":5535,"ĠÐ¶ÐµÑĤÐ¿":5536,"ĠÐ¼Ò¯ÑĪÐµ":5537,"ews":5538,"ĠÒĽÒ±ÑĢÐ°Ð¼ÑĭÐ½Ð´Ð°":5539,"ĠÐ¼ÓĻÑģÐµÐ»ÐµÐ»ÐµÑĢÐ´Ñĸ":5540,"ĠÐ¼ÓĻÐ½Ñĸ":5541,"Ð°ÑĤÐ¸Ð²ÑĤÑĸ":5542,"Ġ90":5543,"ĠÐ±ÑĸÑĢÑĸÐ½":5544,"ĠÐºÓ©Ð»ÐµÒ£":5545,"ĠÐ±ÓĻÑģÐµÐº":5546,"ĠÑĪÐ°ÑĢÐ°Ð»Ð°ÑĢÑĭ":5547,"ÐľÐµÐ½ÑĸÒ£":5548,"ĠÐ´ÐµÐ¿ÑĥÑĤÐ°ÑĤÑĭ":5549,"Ġturaly":5550,"ĠÒĽÐ°Ð±ÑĭÑĢÒĵ":5551,"ĠÐ¿ÑĢÐ¾Ð³ÑĢ":5552,"ĠÐºÒ¯Ð½Ð´Ðµ":5553,"ĠÐ´ÐµÐ³ÐµÐ½ÑĸÐ¼ÑĸÐ·":5554,"ĠÐµÑģÐºÐµÑĢÑĤÑĥ":5555,"ĠÐ¼Ð°ÑĤÐµÑĢÐ¸Ð°Ð»Ð´ÑĭÒĽ":5556,"ĠÐĲÑģÑĤÐ°Ð½Ð°Ð´Ð°":5557,"ĠÐ¶Ð°ÒĽÑģÐ°ÑĢÑĤÑĥ":5558,"ÑĭÐ¼ÑĭÐ·Ð´Ð°":5559,"ĠÐºÐµÐ¹ÑĸÐ¿":5560,"ĠÐ¶ÓĻÑĢÐ´ÐµÐ¼Ð´ÐµÑģ":5561,"ÒĽÐ¾Ñģ":5562,"ĠÐŀÑģÑĭÐ½Ð´Ð°Ð¹":5563,"ÑĤÑĭÐ»ÑĭÒĵÑĭÐ½":5564,"ĠÓĻÐ´ÐµÐ¿":5565,"ĠÐ½ÐµÐ³ÑĸÐ·ÑĸÐ½ÐµÐ½":5566,"ĠÐ»Ð¸ÑĨÐµÐ½Ð·Ð¸ÑıÑģÑĭ":5567,"ĠÐºÐ¾ÑĢÐ¿ÑĥÑģÑĭÐ½ÑĭÒ£":5568,"ÒĽÐ°Ð¹Ñģ":5569,"ĠÑĤÑĥÒĵÑĭÐ·":5570,"ĠÑĤÒ±ÑĢÒĵÑĭÐ½Ð´Ð°ÑĢÑĭÐ½ÑĭÒ£":5571,"ĠÐµÐºÐµÐ½Ð´ÑĸÐ³Ñĸ":5572,"ĠÐ¶Ð°Ð¿Ð¿Ð°Ð¹":5573,"ound":5574,"Ð¸ÑĢÐ¾Ð²":5575,"ĠÒļÐ°ÑĢÐ°ÑĪÐ°":5576,"ÐµÑģÑĸÐ¼ÐµÐ½":5577,"ĠÐ¾ÑĢÐ½ÑĭÐ½":5578,"ĠÐľÓĻÑģÐºÐµÑĥ":5579,"ĠÓĻÐºiÐ¼":5580,"ÐµÐ´Ð°Ð³Ð¾Ð³Ð¸ÐºÐ°Ð»ÑĭÒĽ":5581,"ĠComm":5582,"ĠÓ©ÑĤÐºÑĸÐ·ÑĸÐ»Ð³ÐµÐ½":5583,"ÑģÑĤÑĢÑĥÐºÑĨÐ¸Ñı":5584,"ĠÐµÐ¼Ð´ÐµÐ»":5585,"ipedia":5586,"ĠÑģÒ±Ð»Ñĥ":5587,"ĠÐŀÑģÑĭÒĵÐ°Ð½":5588,"Ð±Ð°ÑģÑĤÒ±Ð·":5589,"ĠÐ±ÐµÑģÐ¿Ð»Ð°ÑĤ":5590,"ĠÐ±Ð°ÑģÑĤÐ°Ð¹Ð´Ñĭ":5591,"Ð°ÑĢÐ¸":5592,"ĠÐĲÑĢÐ°Ð»":5593,"ĠÐ¶ÉĻÐ½Ðµ":5594,"ĠÐ±ÑĸÐ»ÑĸÐºÑĤÑĸÐ»ÑĸÐº":5595,"ĠÑģÓĻÑĥÑĸÑĢÐ´ÐµÐ³Ñĸ":5596,"ag":5597,"ĠÑĪÐµÐºÐ°ÑĢ":5598,"ÐµÑģÑĤÐµÐ½":5599,"ĠÑĤÓĻÑĢÑĸÐ·Ð´Ñĸ":5600,"ĠÐ°Ð½ÑĭÒĽÑĤÐ°ÑĥÒĵÐ°":5601,"ike":5602,"ĠÐ¶Ó©Ð½iÐ½Ð´ÐµÐ³i":5603,"ÑĸÑĪÑĸ":5604,"iÐ»Ð³ÐµÐ½":5605,"Ð´Ð°Ð½ÑĭÒ£":5606,"ĠÑģÐ°Ð¹ÑĤÑĤÑĭ":5607,"Ð½ÐµÐº":5608,"ĠÑĢÐµÐ°Ðº":5609,"ĠÑĭÑĢ":5610,"ÐĳÐ¸":5611,"ÐĸÐµÑĤ":5612,"ĠÐ¡ÑĸÐ·Ð´ÑĸÒ£":5613,"ĠÐ¼Ð°Ð·Ð¼Ò±Ð½Ñĭ":5614,"Ð¾ÑģÐºÐ¾Ð¿":5615,"ative":5616,"Ġ2007":5617,"ĠÐ±Ó©Ð»Ñĥ":5618,"ÐºÑĥÐ»":5619,"ĠÑĸÐ·Ð´ÐµÐ½":5620,"hare":5621,"Ð¾Ñħ":5622,"ov":5623,"ÑĥÒĵÐ°Ð½":5624,"Ð°Ð½ÑĭÐ¿":5625,"ÑĥÑĪÑĸÐ»ÐµÑĢ":5626,"ĠÑħÐ¸ÑĢÑĥÑĢÐ³":5627,"ĠÑĤÐ°ÑģÑĤÐ°Ð¿":5628,"ĠÐ°Ð»Ð¼Ð°Ð¹ÑĤÑĭÐ½":5629,"ĠÐ¶Ð¸Ð½Ð°Ð»ÑĭÑģ":5630,"ÑĭÐ¼ÑĪ":5631,"ĠÒ¯Ð¹Ð´ÑĸÒ£":5632,"ĠÓ©Ð·ÑĸÒ£":5633,"Ð°ÑĥÑĪÑĭ":5634,"ĠÐ¶Ò¯Ð¹Ðµ":5635,"Ð°ÑĢÐ½":5636,"ÑĤÐ°Ð½Ð´ÑĭÑĢÑĥÐ´Ñĭ":5637,"ĠÒļÑĭÑĢÒĵÑĭÐ·":5638,"ÒĵÒ±ÑĢ":5639,"Ð°Ð»ÒĽÑĭ":5640,"ĠÐļÐ¾Ð½ÑģÑĤÐ¸ÑĤÑĥÑĨÐ¸Ñı":5641,"Ð¶Ð°Ñĥ":5642,"ÑĥÑĢÐ°":5643,"ĠÐºÐµÑĪÐµÐ½Ð´Ñĸ":5644,"ĠÐºÑĥÓĻÐ»":5645,"ÒĽÐ°Ð»Ð°":5646,"Share":5647,"ĠÑĤÐ°ÐºÐ¿Ð°Ðº":5648,"Ð³Ð¸":5649,"ĠÐ½ÑĭÑģÐ°Ð½Ñĭ":5650,"ĠÐ°ÑĥÐ¼Ð°Òĵ":5651,"ĠÐºÐµÐ»ÑĸÑģÐµÑģÑĸÐ·":5652,"ĠÐ±Ó©Ð»ÑĸÐ¿":5653,"ĠÐ°ÑĥÑĢÑĥÐ»Ð°ÑĢ":5654,"03":5655,"ĠÒĽÒ±Ð½Ð´ÑĭÐ»ÑĭÒĽ":5656,"ĠÐ±ÐµÐ¹Ð±ÑĸÑĤ":5657,"ÑģÑĤÐµÑĢÑĸ":5658,"Ó©Ð·ÐµÐ½":5659,"ĠÐŁÐ°Ð¹ÒĵÐ°Ð¼Ð±Ð°ÑĢ":5660,"ĠZ":5661,"ĠÑĪÐ°Ð¼Ð°Ð¼ÐµÐ½":5662,"ĠÐ¾ÒĽÑĭÒĵÐ°Ð½":5663,"ĠÒ¯Ð¹ÑĢÐµÑĤ":5664,"ĠÐ¶Ð°ÑģÐ°Ð¹":5665,"Ð·Ð°ÒĽ":5666,"ÑģÐµÐ½Ð±Ñĸ":5667,"ĠÑħÐ°Ð´":5668,"ĠÑĤÓ©Ð»ÐµÐ½":5669,"ĠÐ¼Ð¾Ð¹ÑĭÐ½":5670,"ĠÓ©Ð·ÑĸÒ£ÑĸÐ·":5671,"ĠÐ¶Ò¯Ð¹ÐµÐ»ÐµÑĢ":5672,"ĠÑĤÐ°Ð½ÑĭÑģÑĤÑĭÑĢÑĥ":5673,"Ð°ÑĪÐ°ÒĵÑĭ":5674,"ĠÐĳÒ¯Ð³ÑĸÐ½Ð³Ñĸ":5675,"ĠÐ¶ÐµÑĤÑĸÑģ":5676,"ĠÐ¼Ò¯Ð´Ð´":5677,"Ð°ÑĢÑĭÑĪ":5678,"ĠÐ¶Ð¸ÑĭÑĢ":5679,"ĠÓĻÐ»ÐµÐ¼Ð½ÑĸÒ£":5680,"ĠÐ±Ó©Ð»ÑĸÐ¼ÑĸÐ½Ð´Ðµ":5681,"ĠÒĽÐ¾ÑıÐ´Ñĭ":5682,"ÐĲÐ½":5683,"ÑĥÑĪÑĭÐ½ÑĭÒ£":5684,"ĠÐ±ÐµÐ¹ÑĸÐ¼":5685,"ĠÑĤÑĸÑĢÑĪÑĸÐ»ÑĸÐº":5686,"ĠÐ±Ó©Ð»ÑĸÐ½ÐµÐ´Ñĸ":5687,"ĠÑĪÐ¸ÐºÑĸÐ·":5688,"ÑĤÑĭÐ»ÑĭÐ¿":5689,"ĠÑģÐ¾Ð½Ð´Ð°":5690,"Ð°Ð´ÑĭÑĢ":5691,"ĠÐ°Ð¹Ð½Ð°Ð»ÑĭÐ¿":5692,"ĠÐ¿ÑĢÐµÐ·Ð¸Ð´ÐµÐ½ÑĤ":5693,"ĠÑĤÒ¯Ð·ÐµÑĤÑĥ":5694,"ĠÐ¼Ð°Ð¼":5695,"Ð°Ð·Ð¸Ñı":5696,"ĠÐºÓ©ÑĪÑĸÑĢÑĸÐ¿":5697,"\".":5698,"32":5699,"ĠÑįÐ½ÐµÑĢÐ³Ð¸Ñı":5700,"ĠÑģÓĻÑĤÑĤÑĸ":5701,"ÑĪÐ°Ð»ÑĭÒĽÑĤÑĭ":5702,"ĠÐ¸Ð½Ð²ÐµÑģÑĤÐ¸ÑĨÐ¸Ñı":5703,"ÐĳÐĲ":5704,"Ġ#":5705,"ÒĽÐ°Ð»ÑĭÒĽ":5706,"ĠÐ±ÐµÑģÐ¿Ð»Ð°ÑĤÐ½Ð¾":5707,"ĠÐ±ÑĸÑĤÐºÐµÐ½":5708,"ĠÑģÐµÐ»":5709,"ĠÑĤÓĻÑĢÐ±Ð¸ÐµÐ»ÐµÐ½Ñĥ":5710,"ĠÐļÑĸÑĤÐ°Ð¿":5711,"ÐºÑĸÐ½ÑĸÑĪ":5712,"ĠÐ¶Ð°ÑĤÒĽÑĭÐ·":5713,"Ð´ÐµÐ±Ð¸":5714,"ĠÒĽÑĭÐ·Ð¼ÐµÑĤÑĸÐ½Ð´ÐµÐ³Ñĸ":5715,"ĠÒĽÐ°Ð»ÑĭÐ¿ÑĤÐ°ÑģÒĽÐ°Ð½":5716,"ĠÐ¿ÑĢÐ¾ÑĦÐ¸Ð»":5717,"ĠÐ¡ÑĤÐ¾Ð¼Ð°ÑĤ":5718,"ĠÐļÐµÐ¹ÑĸÐ½":5719,"ĠÐºÒ¯ÑĪÑĸ":5720,"ĠÑĥÐ½Ð¸Ð²ÐµÑĢÑģÐ¸ÑĤÐµÑĤÑĸ":5721,"ÑĤÑĭÐ¼Ð´Ñĭ":5722,"ĠÐ±Ð¾Ð»ÑģÐ°ÒĽ":5723,"ĠÑĢÐµÑĤÑĤÐµ":5724,"ĠÐ±ÑĸÐ»Ð´ÑĸÑĢÐ´Ñĸ":5725,"ÑĭÐ¼Ð½Ð°Ð½":5726,"ĠÐµÑĢÑĤÐµÒ£":5727,"ÒĵÐ°Ð¿":5728,"ĠÐ¢Ð°ÑĢÐ¸Ñħ":5729,"ĠÐ°Ð»Ð´ÑĭÒ£ÒĵÑĭ":5730,"ĠÑģÐ°ÒĽÑĤÐ°Ð¿":5731,"ĠÐ±Ò¯Ð³ÑĸÐ½Ð´Ðµ":5732,"ĠÐĸÐ¾ÒĵÐ°ÑĢÒĵÑĭ":5733,"ÑĭÐ½ÑĪÑĭ":5734,"ĠÒĽÐ¾Ð»ÑĭÐ½Ð°Ð½":5735,"ĠÑģÐ¸Ð½Ð´ÑĢÐ¾Ð¼":5736,"ĠÑĪÑĥ":5737,"ĠÒĽÐ¾ÑģÑĭÐ»ÒĵÐ°Ð½":5738,"Ð¾Ò£ÑĭÑĢ":5739,"AR":5740,"ĠÑģÐ¾ÒĵÐ°Ð½":5741,"Ð°ÒĽÑĤÐ°Ð½":5742,"ÑģÑĤÐµÐ¼ÐµÐ»ÑĸÐº":5743,"ÐľÐ°Ò£ÒĵÑĭÑģÑĤÐ°Ñĥ":5744,"ĠÓ¨Ð¼ÑĸÑĢ":5745,"ÐµÑĤÑĸÐ½Ðµ":5746,"ĠÑĪÒ±ÒĵÑĭÐ»":5747,"ĠÐ±ÑĸÐ»ÐµÑĤÑĸÐ½":5748,"ÐļÓ©Ðº":5749,"ĠÑģÐºÐ°ÑĩÐ°ÑĤÑĮ":5750,"ĠÓĻÐ»ÑĸÐ¿Ð±Ð¸":5751,"ĠÑĤÓ©Ð¼ÐµÐ½Ð´ÐµÑĤ":5752,"ÑĭÒĽÑĪÐ°":5753,"ĠÐ¶Ò¯Ð¹ÐµÐ»Ñĸ":5754,"ĠÒ®Ð»ÐºÐµÐ½":5755,"ĠÐ¶ÐµÑĤÐºÑĸÐ·Ð´Ñĸ":5756,"ĠÑĤÐ¾ÒĽÑĤÐ°ÑĤ":5757,"ĠÐ¼Ð¸Ð»Ð»Ð¸":5758,"Ð·Ð°Ð»":5759,"ĠCre":5760,"ĠÐ¸Ð½ÑĦÐµÐºÑĨÐ¸Ñı":5761,"ĠÒĽÐ°ÑĤÐ°ÑĢÑĭÐ½Ð°":5762,"ĠÐ¶Ð°ÑĢÐ½":5763,"ĠÐĳÒ±ÒĵÐ°Ð½":5764,"Ð½Ð¸ÑĢ":5765,"ĠÐºÓ©Ð¼ÑĸÑĢ":5766,"ĠÐŃÐºÐ¾Ð½Ð¾Ð¼Ð¸ÐºÐ°":5767,"ĠÑĸÐ·Ð´ÐµÑĥ":5768,"ĠÑģÒ¯Ð¹ÐµÐ½":5769,"ĠÐĸÐ¾ÒĵÐ°ÑĢÑĭ":5770,"ĠÐºÐµÐ´ÐµÑĢÐ³Ñĸ":5771,"ĠÒĽÐ°Ð¼ÑĤÐ¸Ð´Ñĭ":5772,"ĠÐ¾Ð¿":5773,"Ð»ÑĭÒĽÑĤÐ°Ð¹":5774,"Ð»ÐµÑĢÐ¼ÐµÐ½":5775,"ĠÐ¢Ò¯ÑĢÐºÐ¸Ñı":5776,"ĠÐ°ÑĥÒĽÑĭÐ¼Ð´Ñĭ":5777,"ÒļÑĭÐ·ÑĭÐ»Ð¾ÑĢÐ´Ð°":5778,"ĠÐ¢ÐµÑĢ":5779,"ĠÒĽÐ¾ÑĢÑĭÐ½Ð°Ð½":5780,"ĠÒ±ÑģÑĤÐ°Ð·Ð´Ð°ÑĢ":5781,"ĠÐµÒ£Ð±ÐµÐ³Ñĸ":5782,"ĠÒĽÐ°ÑĢÑĥ":5783,"ĠÒļÐ¾Ð»Ð´Ð°Ð½Ñĥ":5784,"ĠÐ¶Ò±Ð¼ÑĭÑģÑĤÐ°ÑĢÐ´Ñĭ":5785,"ĠÒļÐ¾ÒĵÐ°Ð¼Ð´ÑĭÒĽ":5786,"ĠÑģÐ°ÑıÑģÐ°ÑĤÑĭÐ¼ÐµÐ½":5787,"ĠÐ°ÑĤÑĤÐ°Ð½":5788,"ĠÑħÐ¸Ð¼Ð¸Ñı":5789,"ribu":5790,"ĠÐ¶Ò¯Ð»Ð´Ðµ":5791,"Ð±Ò¯ÑĢ":5792,"ĠÐ°Ð¹Ð½Ð°Ð»ÒĵÐ°Ð½":5793,"ĠÐ°ÑĤÒĽÐ°ÑĢÒĵÐ°Ð½":5794,"UR":5795,"ÐĿÐµÐ³ÑĸÐ·Ð³Ñĸ":5796,"ÐľÐ°ÑĤÐµÐ¼Ð°ÑĤÐ¸ÐºÐ°":5797,"oundation":5798,"ĠÑģÐµÐ±ÐµÐ¿ÑĤÑĸ":5799,"ĠÐĳÐĲÒļ":5800,"Ð°ÑģÐ¿":5801,"Ð¿Ñĸ":5802,"ĠCommons":5803,"Ġ(Â«":5804,"ÒĽÐ°Ð¹ÑĤÐ°":5805,"ĠÒĵÐ°Ð»ÑĭÐ¼Ð´Ð°ÑĢ":5806,"ĠÐ±ÑĸÑĢÐ»ÐµÑģÑĸÐ¿":5807,"Ð¢Ð°ÑĢ":5808,"ĠÐ°Ð¹ÒĽÑĭÐ½Ð´Ð°Ñĥ":5809,"ĠÐºÓĻÐ¼ÐµÐ»ÐµÑĤÐºÐµ":5810,"ĠÐµÑģÐµÐ³Ðµ":5811,"ĠÐ±ÑĸÑĢÐ»ÐµÑģÑĤÑĸÐº":5812,"ĠÐ¾Ð¹Ð»":5813,"Ð¾Ð¼ÐµÑĤÑĢ":5814,"ĠÐ°ÐºÑĤÐ¸Ð²":5815,"ĠÒ¯Ð¹ÑĢÐµÑĤÑĥ":5816,"ĠCreative":5817,"ĠÐĸÐ°ÑģÑĤÐ°ÑĢ":5818,"ÒĽÐ°ÒĽ":5819,"Ð´Ð¾":5820,"ĠÑĤÐ°ÒĽÐ¿Ð°ÒĽ":5821,"ĠÐ½ÓĻÑĢÑģ":5822,"Ð´Ð¾Ð½":5823,"ĠÐ¶ÑĥÑĢÐ½Ð°Ð»Ð¸ÑģÑĤ":5824,"Ð¼Ð°Ð´Ñĭ":5825,"ĠÐ±Ð¾Ð»Ð°ÑĪÐ°ÒĵÑĭ":5826,"ĠÐ°ÑĥÐ¼Ð°ÒĽÑĤÑĭÒĽ":5827,"ribution":5828,"ĠÐ±ÐµÑĢÑĸÐ»":5829,"198":5830,"ÐºÒ¯Ð¹Ñĸ":5831,"ĠÑĢÐµÑĦÐ¾ÑĢÐ¼":5832,"ĠAtt":5833,"ĠÐºÐ¾Ð½ÐºÑĥÑĢÑģÑĤÑĭÒĽ":5834,"ĠInc":5835,"ĠÐ°ÑģÑĤÑĭÐ½Ð´Ð°":5836,"ĠÐŀÑĤ":5837,"ĠÐ¶ÐµÑĤÑĸÐ¼":5838,"Ð½Ð¾Ðµ":5839,"ĠAttribution":5840,"ÑĭÐ¼ÑĭÐ½":5841,"ĠÐºÒ¯Ð½Ð´ÐµÐ»ÑĸÐºÑĤÑĸ":5842,"ĠÑĤÒ±ÑĢÒĵÑĭÐ½Ð´Ð°ÑĢÑĭ":5843,"ĠÑħÐ°Ð±Ð°ÑĢÐ»Ð°Ñģ":5844,"ĠÒĽÐ°ÑĥÐ»ÑĭÑģÑĭÐ½Ð°":5845,"Ð´Ð°ÑĤ":5846,"ÑĢÐ¾Ó©Ð½ÐµÑĢ":5847,"Ð°ÑģÑĤÑĢ":5848,"ĠÐ¼Ð°ÑĢÐºÐ°ÑģÑĭ":5849,"ĠÐ¶Ò¯ÑĢÐ³ÑĸÐ·ÑĥÐ³Ðµ":5850,"ĠÒĽÐ°Ð»Ð´ÑĭÒĽ":5851,"www":5852,"ÑĭÐ±Ñĭ":5853,"ĠÐ±Ð°ÒĵÐ°ÑģÑĭ":5854,"ĠÐ¡Ð°Ð»":5855,"ĠÐ¸Ð¼Ð°Ð¼":5856,"Ð¸ÑıÐ»Ñĭ":5857,"ĠÐ¼Ð°Ð³Ð¸ÑģÑĤÑĢ":5858,"ĠÑĪÑĭÐ½Ð°Ð¹Ñĭ":5859,"ĠÐºÐ»Ð¸Ð½Ð¸ÐºÐ°Ð»ÑĭÒĽ":5860,"Alike":5861,"Ð°Ð±ÑĭÐ½":5862,"ShareAlike":5863,"ĠÑģÐ¾Ð·ÑĭÐ»Ð¼Ð°Ð»Ñĭ":5864,"ĠÐ±ÑĸÐ»ÑĥÐ³Ðµ":5865,"com":5866,"ĠÑĪÓĻÐºÑĸÑĢÑĤ":5867,"ĠÓĺÑģÑĸÑĢÐµÑģÐµ":5868,"ĠÒĽÐ¸Ð¼ÑĭÐ»":5869,"ĠÐ¼Ò¯Ð¼ÐºÑĸÐ½Ð´ÑĸÐºÑĤÐµÑĢÑĸ":5870,"ÐŀÒĽ":5871,"ĠJ":5872,"ĠÐķÐºÑĸÐ½ÑĪÑĸ":5873,"ÐĲÒĽÐ¼Ð¾Ð»Ð°":5874,"ĠÑĢÐµÐ²Ð¾Ð»Ñİ":5875,"Ð¿Ð»ÐµÑĢ":5876,"ĠÑħÐ°Ð±Ð°ÑĢÐ´Ð°ÑĢ":5877,"ĠÐ¶Ð°ÑĤÑĭÐ¿":5878,"Ð¾Ð³Ð¾":5879,"ĠÒĽÐ°Ð·Ð°":5880,"ĠÐ±Ð¾Ñı":5881,"ĠÒĽÒ±Ñģ":5882,"ĠÐ°Ð»Ð´ÑĭÐ¼":5883,"ÐºÐµÒ£":5884,"ĠÐ¶Ð°ÑĢÐ¸ÑıÐ»Ð°ÒĵÐ°Ð½":5885,"ĠÐ²Ð¸Ð´ÐµÐ¾":5886,"ÒļÒ±":5887,"ĠÐ¼ÑĭÒ£Ð½Ð°Ð½":5888,"ĠÒĽÑĭÑĪÒĽÑĭÐ»":5889,"ĠÒĽÒ±Ð¶Ð°ÑĤÑĤÐ°ÑĢÐ´ÑĭÒ£":5890,"ĠÑģÐ°Ð½Ð°ÑĤ":5891,"ĠÑģÐ°Ð½Ð°ÑĤÑĤÐ°ÑĢÑĭÐ½Ð°":5892,"ĠÒ®ÐºÑĸÐ¼ÐµÑĤÑĸÐ½ÑĸÒ£":5893,"ÒĽÐ°ÑĢÐ°":5894,"ĠÐ¿ÑĢÐ¸Ð½ÑĨÐ¸Ð¿":5895,"ĠÐ´Ò±":5896,"ĠÑĤÐ°Ð±Ð°":5897,"ĠÐ¶ÑĭÐ»Ñĥ":5898,"ÐµÐ³ÑĸÐ½ÑĸÒ£":5899,"ĠÐºÐ°Ð¿Ð¸ÑĤÐ°Ð»":5900,"ĠÐ°Ð½ÑĭÒĽÑĤÐ°Ð»ÒĵÐ°Ð½":5901,"ĠÓ©ÑĤÐµÑĥ":5902,"ĠÒĽÐ¾ÑĪ":5903,"02":5904,"ÒĽÐ°Ð·Ð°Ð½":5905,"ĠÑģÑĥÐ±ÑģÐ¸Ð´Ð¸Ñı":5906,"Ð±ÐµÐºÐ¾Ð²Ð°":5907,"ÑĤÒ¯Ð»ÑĸÐº":5908,"ĠFoundation":5909,"Ð¼ÐµÑģ":5910,"ĠÑħÐ°Ð±Ð°ÑĢÐ»Ð°ÒĵÐ°Ð½":5911,"ĠÑĸÑĢÐ³":5912,"ĠÓĻÐ»ÐµÑĥÐ¼ÐµÑĤÑĤiÐº":5913,"ĠÐ±Ð°Ð»Ð°ÒĵÐ°":5914,"ĠÐºÓ©ÑĤÐµÑĢÑĸÐ¿":5915,"ĠÓ©Ð·ÑĸÐ¼":5916,"ĠÐ¿Ð°Ð½":5917,"ĠÐ¼ÐµÐ½ÐµÐ´Ð¶":5918,"ĠÒļÐ°Ð·Ð°Ð½":5919,"ĠÐ¶Ð°ÑĥÐ°Ð¿ÐºÐµÑĢÑĪÑĸÐ»ÑĸÐº":5920,"Ð¡Ð¾Ð½Ð´Ð°Ð¹":5921,"ĠÐ¼Ð¸ÐºÑĢÐ¾":5922,"ĠÐºÐµÑĢÐµÐ¼ÐµÑĤ":5923,"ĠÐ´ÐµÑĤ":5924,"ĠÐ¸Ð¼Ð¿Ð»Ð°Ð½ÑĤ":5925,"ĠÑĤÓĻÑĢÑĤÑĸÐ±ÑĸÐ½":5926,"ĠÒĽÑĭÐ·Ð¼ÐµÑĤÐºÐµÑĢÐ»ÐµÑĢÑĸÐ½ÑĸÒ£":5927,"ĠÐºÑĸÑĤÐ°Ð±":5928,"ĠÐ¢ÓĻÐ¶":5929,"ÐĶÐĵ":5930,"ĠÐ¶Ð°ÑĤÒĽÐ°Ð½ÑĭÐ½":5931,"ĠÐ½Ò±ÑĢ":5932,"ĠÑĦÐ¾ÑĤ":5933,"ĠÒĵÐ°Ð»Ð°Ð¼":5934,"ĠÒĽÐ°Ð±ÑĭÐ»Ð´Ð°ÒĵÐ°Ð½":5935,"ĠÐ¾ÑĤÑĭÑĢÐ´Ñĭ":5936,"Ð°ÑģÑĭÐ¿":5937,"ĠÐ°ÑĤÑĭÐ½Ð°Ð½":5938,"ĠÐĳÐµÐ¹Ð½":5939,"ĠÐ°ÑĤÐ°ÑĥÑĭ":5940,"ĠÐ°ÑĥÐ»":5941,"ĠÑĪÑĭÒĵÐ°ÑĤÑĭÐ½":5942,"ter":5943,"Ġf":5944,"ÐļÓ©":5945,"ĠÒĽÑĭÐ¼Ð±Ð°ÑĤ":5946,"................":5947,"ĠÐ¤ÑĢÐ°Ð½ÑĨÐ¸Ñı":5948,"ĠÐĲÐ²ÑĤÐ¾ÑĢ":5949,"ÐµÐ½ÑĤÑĢ":5950,"ĠÐ»Ð¸ÑĨÐµÐ½Ð·Ð¸Ñı":5951,"Ð°Ð¿ÑĤÑĭ":5952,"ĠÐ°ÑĤÐ°Ð»":5953,"ĠÑĤÐ°Ð»Ð°Ð¿ÑĤÐ°ÑĢ":5954,"ĠÑģÒ±Ð¹":5955,"ĠÑĤÐ¾Ð»ÑĤÑĭÑĢ":5956,"Ð»Ð°Ð¹Ð´":5957,"ĠÐºÐ¾Ð½ÑĤ":5958,"ÓĻÐ»ÐµÑĥ":5959,"ÑģÐ°Ð¼Ð±Ð»ÐµÑı":5960,"ĠÒ¯Ð¹ÑĸÐ½Ðµ":5961,"ĠÐ¶Ð¾Ð»ÑĭÐ½Ð´Ð°":5962,"ĠÐ¼Ð°ÒĽÑĤÐ°Ð½":5963,"ĠÒļÒ±Ð¿Ð¸ÑıÐ»ÑĭÒĽ":5964,"Ð«Ò¢":5965,"ĠÒĽÒ±ÑĤÒĽÐ°ÑĢ":5966,"Ð¾ÑĤÑĤÑĭÒĽ":5967,"Ð¸ÐµÐ½ÑĤ":5968,"ÐµÐ¹ÑĤÐ¾Ð¹":5969,"ĠÐ¶ÐµÑĤÐºÑĸÐ»ÑĸÐºÑĤÑĸ":5970,"ĠÒ±Ð¼ÑĭÑĤ":5971,"ĠÓ©Ð·Ð´ÐµÑĢÑĸ":5972,"ÐľÐĶ":5973,"ĠÓĻÐ´ÐµÑĤÑĤÐµ":5974,"ĠÐ°Ð¹ÑĭÑĢÐ¼Ð°":5975,"ĠÒĽÐ¾ÑģÐ¿Ð°ÒĵÐ°Ð½Ð´Ð°":5976,"imedia":5977,"ĠWikipedia":5978,"ĠÐºÐµÐ·ÐµÒ£ÑĸÐ½Ð´Ðµ":5979,"ĠÓ©Ð½ÐµÑĢÑĸ":5980,"ĠÐ¡Ð°Ð½":5981,"Ð¢Ò±ÑĢ":5982,"ĠÐ±ÑĸÐ»Ð¼ÐµÐ¹":5983,"Ð¿Ð»ÐµÑĢÐ¾Ð³ÑĢÐ°ÑĦÐ¸Ñı":5984,"ĠÐ¾Ò£ÑĤÒ¯ÑģÑĤÑĸÐº":5985,"ĠÐ°Ñħ":5986,"ĠWikimedia":5987,"ĠÐ¾ÒĽÑĭÑĤÑĥÒĵÐ°":5988,"ĠÒĽÐ°ÑĢÐ°ÑģÑĤÑĭ":5989,"ĠÑĪÐ°ÑĢÑĥ":5990,"ÐĸÐ°ÑĢ":5991,"ĠÑĤÒ¯Ð»ÐµÐº":5992,"Ð£ÐĶÐĶÐĵ":5993,"ĠÐ¿ÐµÑĢÑģ":5994,"Ð´ÑĸÐºÑĤÑĸ":5995,"Ġ000":5996,"ĠÐ¼Ð°Ðº":5997,"ĠÐĳÐµÐ¹":5998,"ĠÒĽÐ¾Ð¹Ð¼Ð°Ð¹":5999,"ĠÐ¶Ð¾Ð±Ð°Ð»Ð°ÑĢÑĭÐ½":6000,"ĠÑĩÐµÐ¼Ð¿Ð¸Ð¾Ð½Ñĭ":6001,"ÐĸÑĭÐ»":6002,"ĠÐ¶Ò¯ÑĢÐ³iÐ·":6003,"ĠÑĭÐ½ÑĤÐ°Ð»":6004,"ĠÐºÐµÐ»ÑģÐµ":6005,"ĠÂ·":6006,"ĠÐµÑĤÐ¿ÐµÐ¹ÑĤÑĸÐ½":6007,"Ð¶Ñĸ":6008,"Ð¶ÐµÐ»Ð³Ñĸ":6009,"ĠÐ¼ÑĭÒĽÑĤÑĭ":6010,"ĠÑĤÒ±ÑĢÐ°":6011,"Ó¨ÑĢÐ»ÐµÑĥ":6012,"ĠÐ±ÑĸÐ»ÐµÐ´Ñĸ":6013,"ĠÐµÑĢÐº":6014,"ĠÐ´Ð»Ñı":6015,"ĠÐķÑĥÑĢÐ¾Ð¿Ð°":6016,"34":6017,"Ò±ÑĢÐ°ÑĤ":6018,"ĠÓ©ÐºÑĸÐ»Ñĸ":6019,"Ð´ÑĭÒĽÑĤÑĭÒ£":6020,"ÐµÑĢÐ»ÐµÑĢ":6021,"ĠÐ¶Ð¾Ð»Ð´Ð°Ñĥ":6022,"ĠÐ¶Ð¾Ð±Ð°Ð»Ð°ÑĢÐ´Ñĭ":6023,"ĠÐĲÐ¹ÑĤ":6024,"ĠÑĭÒĽÑĤÐ¸":6025,"ĠÑĤÒ¯ÑĢÐ»ÐµÑĢÑĸÐ½":6026,"ĠÐ¿Ð°ÑĢÐ°ÒĽ":6027,"ÑģÑĭÐ½Ð°Ð½":6028,"ĠÐ°ÑģÒĽÐ°Ð½":6029,"ĠÐ¼ÐµÐ¹ÑĢÐ°Ð¼":6030,"ĠÐ¢ÐµÐ¼ÑĸÑĢ":6031,"ĠÐµÑģÐºÐµÑĢÐµ":6032,"ĠÑĸÑĪÑĸÐ½ÐµÐ½":6033,"ÐĨÐĿ":6034,"ĠÑĤÑĸÐ»Ð´Ñĸ":6035,"ÑĤÑĭÐ»Ð´Ñĭ":6036,"ĠÐºÓ©Ð»ÐµÐ¼ÑĸÐ½Ð´Ðµ":6037,"ĠÐ¶Ð°Ð·Ð±Ð°ÑĪÐ°":6038,"ĠÐ°Ð¹ÑĭÐ½ÑĭÒ£":6039,"ĠÑĪÑĭÒ£":6040,"ĠÐ¶Ð°Ð·ÑĥÑĪÑĭ":6041,"ÑģÑĤÐµ":6042,"ĠÒ¯Ð¹Ñĸ":6043,"Ð°Ð¿Ð¾Ð½":6044,"ĠÐ±ÐµÑĢÐ¼ÐµÐ¹Ð´Ñĸ":6045,"ĠÓĺÐºÑĸÐ¼":6046,"ĠÑĦÐµÑĢ":6047,"Ð°Ð»Ð°ÑĢÐ¼ÐµÐ½":6048,"Ð¸Ð¼Ð½":6049,"ĠÐĲÐ¼ÐµÑĢ":6050,"ĠÐĳÐ°ÒĽÑĭÑĤ":6051,"ĠÑģÓ©Ð·ÑĸÐ½":6052,"ĠÑģÐµÑĢÐ²":6053,"ĠÐ´ÐµÐ³ÐµÐ½Ð´Ðµ":6054,"Ò£ÑĸÐ·":6055,"id":6056,"âĢľ":6057,"ĠÐ°Ð¹Ð»ÑĭÒĽ":6058,"ĠÐĳÐ°ÑģÒĽÐ°ÑĢ":6059,"ĠÐĶÓĻÐ»":6060,"ĠÒĽÐ¾ÑĢÑĤÑĭÐ½Ð´Ñĭ":6061,"ĠÒ±ÑģÑĭÐ½Ð´Ñĭ":6062,"ĠÑģÐ°ÑĤÑĭ":6063,"ĠÐºÓ©ÑĢÑģÐµÑĤÑĸÐ»ÐµÐ´Ñĸ":6064,"ĠÑģÐ¸Ð¿Ð°ÑĤÑĤÐ°Ð¼":6065,"ĠÑģÐµÐ¿":6066,"ĠÐ¼ÓĻÐ¶Ð±Ò¯ÑĢ":6067,"ĠÒĽÑĭÐ·Ð´Ð°ÑĢ":6068,"ĠÒ±Ð¹ÑĭÒĽ":6069,"ĠÑĤÐµÐ»Ðµ":6070,"ĠÐµÐ»ÐµÑĥ":6071,"70":6072,"ĠÐ¼ÓĻÑģÐ»Ð¸Ñħ":6073,"ÐµÐºÐºÐµ":6074,"ĠÐ±Ð°Ð»Ð°Ð±Ð°ÒĽÑĪÐ°":6075,"ÑĢÐ°Ð´":6076,"ĠÓ©Ð¼ÑĸÑĢÑĸ":6077,"Ð¸ÐºÐ°Ð½ÑĭÒ£":6078,"ĠÐ°Ð¹ÑĤÐ°ÑĢÐ»ÑĭÒĽÑĤÐ°Ð¹":6079,"ĠÑĪÒ¯":6080,"ĠÐºÓ©Ð±ÑĸÐ½ÐµÑģÐµ":6081,"ĠÐ½ÐµÐ³iÐ·":6082,"ÑĤÐµÑĢÐ´Ðµ":6083,"ĠÐļÑĢ":6084,"ĠÐºÐµÑĪÑĸÑĢ":6085,"ĠÐ¼Ð¸Ð»Ð»Ð¸Ð°ÑĢÐ´":6086,"ĠÐŃÐº":6087,"ĠÐºÒ¯ÑĤÑĸÐ¿":6088,"ÑĤÐµÑĢÑĸÐ¼ÐµÐ½":6089,"ĠÐ±ÑĸÑĢÐ¶Ð¾Ð»":6090,"Ð¡Ð«":6091,"ĠÐºÑĸÑĢÑĸÐ¿":6092,"ĠÐ±ÑĸÑĢÐ»ÐµÑģÐºÐµÐ½":6093,"Ð¿ÑĢÐ°ÐºÑĤÐ¸ÐºÐ°Ð»ÑĭÒĽ":6094,"ĠÑĤÐ°Ð»Ð´Ð°ÑĥÐ´ÑĭÒ£":6095,"ÑĸÐ¼Ð´ÐµÑĢÑĸÐ½":6096,"Ó©Ð·ÐµÐº":6097,"ÑĤÑĭÐ»Ð°Ð´Ñĭ":6098,"ÐŀÐ±Ð»ÑĭÑģÑĤÑĭÒĽ":6099,"IV":6100,"ĠÓĻÐ±Ð´ÐµÐ½":6101,"ĠÑĤÒ±ÑĢÒĵÑĭÑģ":6102,"ĠÐ¸Ð½ÑĤÐµÑĢ":6103,"ĠÑĤÐ¾Ð·":6104,"Ð°Ð±Ð°ÐµÐ²":6105,"ĠÐ¶Ð°ÑģÐ°Ð»Ð°Ð´Ñĭ":6106,"Ð¿ÐµÑĥ":6107,"ĠÑģÑĥÑģÑĭÐ½":6108,"ĠÐ¡Ð¿Ð¾ÑĢÑĤ":6109,"ĠÐ±Ð°ÒĵÐ´Ð°ÑĢÐ»Ð°Ð¼Ð°Ð»Ð°ÑĢÑĭ":6110,"ĠÒĽÐ¾Ð»ÑĭÐ½Ð°":6111,"ĠÐ¼ÑĥÐ·ÐµÐ¹":6112,"ĠÑģÒ±ÑħÐ±Ð°ÑĤ":6113,"ĠÐŀÑģÑĭÐ»Ð°Ð¹ÑĪÐ°":6114,"ÐĸÐ°Ð½":6115,"ÑĤÐ¾Ð½":6116,"ĠÐºÓ©ÑĢÐ´Ñĸ":6117,"ĠÑģÐ¾ÑģÑĭÐ½":6118,"ĠÐ±Ð°ÒĵÐ°Ð»Ñĭ":6119,"ĠÐ½Ð¸ÐµÑĤ":6120,"ĠÐ¢Ð°Ò£":6121,"ĠÐĶÐ¾Ñģ":6122,"Ð¾ÒĵÐ°Ð¹":6123,"ĠÐ¼Ò±ÒĽÑĤÐ°Ð¶":6124,"ĠÒļÐ°Ð·Ð°ÒĽÑģÑĤÐ°Ð½Ð´ÑĭÒĽ":6125,"ĠÐ¶Ð¸Ð½Ð°Ð¿":6126,"ĠÐºÑĥÓĻÐ»ÑĸÐº":6127,"ĠÒĽÒ±ÑĢÑĭÐ»ÑĭÐ¼Ñĭ":6128,"ĠÑĦÐµÑģÑĤÐ¸Ð²":6129,"ĠÑģÐ¸ÑĢÐµÐº":6130,"ĠÐ°ÑĢÐ°Ð»ÑĭÒĵÑĭÐ½Ð´Ð°ÒĵÑĭ":6131,"ĠÐ¼Ò¯ÑĪÐµÐ»ÐµÑĢÑĸÐ½ÑĸÒ£":6132,"ĠÐ±ÑĸÑĤÑĸÑĢÐ³ÐµÐ½":6133,"Ð°ÐºÑĤÐ¾ÑĢ":6134,"ĠÓ©Ð½ÐµÑĢÐºÓĻÑģÑĸÐ¿ÑĤÑĸÐº":6135,"ĠÐ±ÑİÑĢÐ¾Ñģ":6136,"ÑĢÐ¸ÑĤÐ°Ð½":6137,"ĠÒĽÐ°ÒĵÐ¸Ð´Ð°":6138,"ÓĻÐ»ÐµÑĥÐ¼ÐµÑĤÑĤÑĸÐº":6139,"Ð²ÐµÑģÑĤÐ¸":6140,"ĠÐ¶Ð°ÑĢÐ°ÑĤÑĭÐ»":6141,"ĠÐ¤ÐµÐ´ÐµÑĢ":6142,"ĠÐ·ÐµÑĢÐµÐ½":6143,"ÒļÑĭÐ·":6144,"ĠÐľÐ¸Ð½Ð¸ÑģÑĤÑĢ":6145,"ĠÐ¶Ò¯Ð³ÑĸÐ½":6146,"ĠÑĤÐ°Ð»Ð°Ð¿ÑĤÐ°ÑĢÑĭÐ½Ð°":6147,"ÒļÐ°Ð¹ÑĭÑĢ":6148,"ĠÐ¼ÐµÐ¹ÑĸÑĢ":6149,"ĠÐķÐ½":6150,"ĠÒĽÐ¾Ð¶":6151,"Ð¼Ð°Ð»Ð°ÑĢ":6152,"Ð·Ð°Ð½":6153,"ĠÐłÐµÑģÐ¿ÑĥÐ±Ð»Ð¸ÐºÐ°ÑģÑĭÐ½Ð´Ð°":6154,"Ð¸Ð½Ð°Ð»":6155,"ĠÐ±Ð°ÑĢÒĵÐ°Ð½":6156,"Ġ2008":6157,"ĠÓĻÐ´ÑĸÐ»":6158,"ĠÒĽÒ±Ð¹ÑĭÐ¿":6159,"ĠÓ©Ð»ÑĸÐ¼":6160,"lo":6161,"ĠÐµÐ»ÑĸÐ¼ÑĸÐ·Ð´Ðµ":6162,"ĠÑĪÐ°ÑĢÐ°Ð»Ð°ÑĢÑĭÐ½":6163,"ĠÐ¼Ð°ÑĤÐµÐ¼Ð°ÑĤÐ¸ÐºÐ°":6164,"ÐĳÐ°Ð¹":6165,"Ð°ÒĽÐ°Ð½":6166,"ru":6167,"ĠÐ³ÐµÐº":6168,"Ò°Ð»ÑĤÑĤÑĭÒĽ":6169,"Ġ2006":6170,"Ð±ÐµÐ¹Ð´Ñĸ":6171,"Ð°ÑĤÐ¸ÐºÐ°":6172,"ÐŁÐ°Ð²Ð»Ð¾Ð´Ð°ÑĢ":6173,"ĠÐ±Ð°ÒĵÐ°Ð¼":6174,"ÓĻÑģÑĤÒ¯ÑĢ":6175,"ĠÐ´ÑĸÑĢ":6176,"ĠÐ³Ð¸Ð¿ÐµÑĢÑģ":6177,"ĠÐ±Ó©Ð»ÑĸÑģ":6178,"ĠÓĺÐ´ÐµÐ¿":6179,"ĠÓ©Ð»ÑĪÐµÐ¼":6180,"ÑĭÐ¼Ð´Ð°ÑĢ":6181,"ÑĤÐ°Ò£ÑĭÐ·":6182,"ĠÐ¶Ð°Ð·Ð°Ð´Ñĭ":6183,"ĠÐ°ÑĥÑĢÑĥÑĭ":6184,"Ð¿Ò±Ð»":6185,"ĠÐ±ÐµÑĢÑĥÐ´Ñĸ":6186,"ĠÐµÑģÑĸÐ¼":6187,"Ð°ÒĵÑĭÐ½Ð´Ð°":6188,"ĠÑĤÐµÑĢÐµÐ·":6189,"ĠÐºÓ©ÑĪÑĥ":6190,"ÑĤÐµÐ½ÑĸÒ£":6191,"ĠÐ´Ð°Ð¹ÑĭÐ½Ð´Ð°":6192,"ĠÐ¶ÑĭÐ»ÑĭÐ½Ð°":6193,"ĠÐ¶Ò±Ð¼ÑĭÑģÑĤÑĭ":6194,"ÐļÐµÒ£":6195,"ĠÐĲÐ½ÑĭÒĽÑĤÐ°Ð¼Ð°":6196,"ĠÐķÐºÑĸÐ±Ð°ÑģÑĤÒ±Ð·":6197,"ĠÐ°Ð»Ð³ÐµÐ±ÑĢÐµ":6198,"ĠÐĳÐ¸ÑĭÐ»":6199,"ĠÐºÐ²":6200,"ĠÐµÑĢÐµÐºÑĪÐµÐ»ÑĸÐºÑĤÐµÑĢÑĸ":6201,"ĠÐ¢ÓĻÑĥÐµÐ»ÑģÑĸÐ·Ð´ÑĸÐº":6202,"ĠÐºÐµÑĤÐµÐ¹ÑĸÐº":6203,"ĠÑĤÒ±ÑĤ":6204,"ĠÓ¨Ð»":6205,"Ð¾ÑĢÐ´":6206,"ĠÐ¿ÑģÐ¸ÑħÐ¾Ð»Ð¾Ð³Ð¸ÑıÐ»ÑĭÒĽ":6207,"ĠÐ¶ÐµÐ»ÑĸÐ»ÐµÑĢ":6208,"ÐºÑĢÐ°Ð¸":6209,"ÑĤÐ°ÐµÐ²":6210,"ĠÑĤÐµÑħÐ½Ð¸ÐºÐ°":6211,"ĠÐ¼ÐµÐ´Ð¸":6212,"ĠÐºÑĸÑĢÐµÐ´Ñĸ":6213,"Ġ500":6214,"Ð¾Ð·Ð¸ÑĨÐ¸Ñı":6215,"ÑĸÐ»ÑĥÐ´Ðµ":6216,"ĠÐ³Ð¸Ð¿ÐµÑĢÑģÑĸÐ»":6217,"ĠÑĤÒ¯ÑĢÑĸÐº":6218,"ÑģÑĤÑĸÐº":6219,"ĠÑĤÓĻÑĢÑĤÑĸÐ¿Ð¿ÐµÐ½":6220,"ÐļÐµÐ·":6221,"ĠÑĤÐµÑĢÑĢÐ¾ÑĢ":6222,"Ð¾Ð¼Ð±":6223,"ÑĸÐ¼Ð´ÑĸÐ»ÑĸÐº":6224,"ĠÐ´Ð°Ð¹ÑĭÐ½Ð´Ð°Ð»":6225,"Ð°Ð»ÑĭÒĵÑĭÐ½":6226,"ĠÒĽÐ°ÑĤÐµÑĢÐ»Ñĸ":6227,"ĠÑħÐ¸Ð¼Ð¸ÑıÐ»ÑĭÒĽ":6228,"Ġ?":6229,"ĠÐ±Ò¯Ð¹ÑĢÐµÐº":6230,"ĠÑĤÒ±Ò£ÒĵÑĭÑĪ":6231,"ÐļÐµÐ»":6232,"ĠÐ¶Ð¾ÒĵÐ°ÑĢÑĭÐ»":6233,"60":6234,"ĠÑĤÓ©ÑĢÑĤÑĸÐ½ÑĪÑĸ":6235,"ÑĭÐ½Ð½ÑĭÒ£":6236,"ĠÐ±ÑĸÑĢÐ´Ðµ":6237,"ĠÒ³ÓĻÐ¼":6238,"33":6239,"ĠÐ±Ð¾Ð»ÒĵÐ°Ð½Ð´Ð°":6240,"ĠÐ±Ò¯Ð»":6241,"ĠÐ¨Ð°Ð»":6242,"ÓĻÑĢÑĸÐ¼":6243,"ĠÐ°ÑĢÑĭÐ·":6244,"ĠÐĲÑĥÑĢ":6245,"Ð°ÑĤÑĤÐ°ÑĢÑĭÐ½":6246,"ĠÐ¶Ð°ÑģÐ°ÑĢ":6247,"ĠÐ¶Ð°Ð»ÒĵÐ°Ð½":6248,"ÑĭÐ»ÑĤÑĭÑĢ":6249,"ĠÑģÑĭÐ½Ð´Ñĭ":6250,"ĠÐ°Ð½ÑĭÒĽÑĤÐ°Ð»Ð°Ð´Ñĭ":6251,"ÑģÑĭÐ·Ð´Ð°Ð½Ð´ÑĭÑĢÑĥ":6252,"ĠÐ°ÑģÐ¿Ð°Ð½":6253,"ĠÐ¢ÓĻÑĥÐµÐ»ÑģÑĸÐ·":6254,"ĠÐ¶Ð°Ð±ÑĭÐ»":6255,"ĠÒĽÐ¾ÑģÐ°Ð»ÒĽÑĭ":6256,"Ð¶Ð°Ð½Ð¾Ð²":6257,"ĠÑĤÐµÐ¿":6258,"ĠÑģÐ¼":6259,"ĠÑģÒ±ÑĢÐ°ÒĽÑĤÐ°ÑĢÑĭ":6260,"ĠÐ¶Ð°ÑĢÐ¸ÑıÐ»Ð°Ñĥ":6261,"ĠÐºÐ¾Ð½ÐºÑĥÑĢÑģÑĭÐ½Ð°":6262,"ĠÐ¼ÐµÑĢÐµÐ¹ÑĤÐ¾Ð¹":6263,"ÒĽÐ°Ð½Ñĭ":6264,"ÑĭÑĢÑĤÒĽÐ°":6265,"Ð°ÑĤÐµÐ³Ð¾ÑĢ":6266,"ĠÐľÐ°Ñħ":6267,"ĠÐŁÐµÑĤÑĢÐ¾Ð¿Ð°Ð²Ð»":6268,"ĠÐºÐµÑĤÐµÑĤÑĸÐ½":6269,"Ð¼Ð¸Ð½Ð¸ÑģÑĤÑĢ":6270,"ĠÑģÐ°Ð»ÑĤÐ°Ð½Ð°ÑĤÑĤÑĭ":6271,"ĠÑĤÒ±ÑĢÐ´Ñĭ":6272,"ĠÒĽÒ±ÑĢÐ°Ð»Ñĭ":6273,"Ð¸ÑĢÐ°":6274,"ÑĤiÒ£":6275,"ĠÐµÐ´ÑĸÐº":6276,"ĠÐ±ÑİÑĢÐ¾ÑģÑĭÐ½ÑĭÒ£":6277,"ĠÐºÐµÐ·ÐµÐºÑĤÑĸ":6278,"ĠÐ¾ÑĢÑĭÐ½Ð´Ð°Ð»ÑĭÑģÑĭ":6279,"ĠÑĭÑģ":6280,"ĠÐ¶Ð°ÒĵÐ´Ð°Ð¹ÒĵÐ°":6281,"ÑĨÐ¸ÐµÐ½ÑĤ":6282,"ĠÐ±Ð¾Ð¹ÑĭÐ½Ð°":6283,"Ð¾Ð½Ñĭ":6284,"ÑģÐ°ÑıÑģÐ¸":6285,"ĠÐ¼ÑĭÑģÐ°Ð»":6286,"ĠÒļÐ°Ð·Ð°ÒĽÑģÑĤÐ°Ð½ÒĵÐ°":6287,"ĠÑĤÐ¸Ð¿":6288,"ĠÐ¾Ð¹ÑĭÐ½Ð´Ð°ÑĢ":6289,"ĠÐ´Ò¯ÑĢ":6290,"ĠÓĻÐ´ÑĸÑģÑĸ":6291,"ÑĤÐµÐ·":6292,"ĠÑĤÐ¾Ð±ÑĭÐ½ÑĭÒ£":6293,"ÑĤÑĸÐ»ÐµÑĥ":6294,"ÑĥÑĭÐ¼ÐµÐ½":6295,"ĠÐ°Ð·Ð°Ð¹":6296,"ĠÐ¶Ð°Ð½Ð°ÑĢ":6297,"ĠÐ°Ð¹ÑĭÑĢÑĭÐ»ÒĵÐ°Ð½":6298,"ÐºiÐ½":6299,"Ġ194":6300,"ĠÐºÓ©ÐºÑĤÐµÐ¼":6301,"ĠÓ©ÑĤÑĸÐ½ÑĸÑĪÑĤÐµÑĢÑĸÐ½":6302,"ĠÐ±Ó©Ð»ÑĸÐ³ÑĸÐ½Ð´Ðµ":6303,"ĠÒĽÒ±Ð½ÑĭÐ½":6304,"ÒĵÐ°Ð»Ð¸ÐµÐ²":6305,"ĠÐµÐºÑĸÐ½":6306,"ĠÒĽÐ°ÑģÐ¸ÐµÑĤÑĸ":6307,"ĠÑĤÐ¾Ð»Ð¼Ð°ÒĵÐ°Ð½Ð´Ð°ÑĢÐ´ÑĭÒ£":6308,"ĠÓĻÑĥÐ»":6309,"ÑĪÐ°ÑĢÑĥÐ°ÑĪÑĭÐ»ÑĭÒĽ":6310,"ĠÐ¶Ð°ÑģÑĥÑĪ":6311,"ĠÐŃÐļ":6312,"ĠÐĳÐ°Ð»Ð°":6313,"ĠÐĳÒ±Ð´Ð°Ð½":6314,"Ð³ÐµÐ¹":6315,"ĠÐļÐµÑĢ":6316,"ĠÐ¶ÑĸÐ±ÐµÑĢÑĥ":6317,"ÐľÒ±Ð½":6318,"ÐµÐ»ÐµÐ½Ð³ÐµÐ½":6319,"ĠÐ±Ð»Ð¾Ð³":6320,"ÐµÑģÑĤÐ¾ÑĢ":6321,"ÑģÑĸÐ½Ðµ":6322,"Ð¶Ð°Ð»":6323,"ĠÐ°ÑĥÑĭÑĢÑģÑĭÐ½":6324,"ĠÑĦÐ¾ÑĢÑĥÐ¼Ñĭ":6325,"ĠÓĻÒ£Ð³ÑĸÐ¼ÐµÐ»ÐµÑģ":6326,"ĠÑģÐ°Ð»ÑĭÐ½":6327,"Ð°ÒĵÐ´Ð°ÑĢÐ»Ð°Ð¼Ð°":6328,"ÑĭÐ½Ð´ÑĭÒĵÑĭ":6329,"ĠÑĤÑĭÐ½ÑĭÑĪ":6330,"ĠÐĵÐµ":6331,"ĠÑģÓĻÐ½":6332,"ÐµÐºÑĤÐµÐ½":6333,"ĠÑģÐ°Ð¿Ð°ÑģÑĭ":6334,"ĠÐ±Ð¾Ð»Ð¶Ð°Ð¼":6335,"Ð»Ð°ÑĢÐ¼ÐµÐ½":6336,"Ġ45":6337,"ĠÐ¶Ð°ÒĵÐ´Ð°Ð¹ÑĭÐ½":6338,"ĠÑĤÐ¾Ð¼":6339,"ÑħÐ°Ð½Ð¾Ð²":6340,"Ð¢ÑĸÐ»":6341,"ĠÐ¶Ð°ÑĢÑĭÑģ":6342,"ĠÐºÓ©Ð»ÐµÐ¼ÑĸÐ½":6343,"ĠÐŀÐ»Ð¸Ð¼Ð¿Ð¸Ð°Ð´Ð°":6344,"ĠÑĪÑĭÒĵÐ°":6345,"ĠÐ·Ð°ÑĥÑĭÑĤ":6346,"ÐĶÐµÐ½":6347,"ĠÐ¼ÑĸÐ½Ð´ÐµÑĤÑĤÐµÑĢ":6348,"Ð¾Ð½ÐµÐ½ÑĤ":6349,"ÐĿÐ°Ð·Ð°ÑĢÐ±Ð°ÐµÐ²ÑĤÑĭÒ£":6350,"ĠÐºÓ©Ð½Ðµ":6351,"ĠÐ°ÑĤÐ°Ð»Ð°ÑĤÑĭÐ½":6352,"Ð±ÑĭÐ·":6353,"ÐłÑĥÑħÐ°Ð½Ð¸":6354,"ĠÑĤÑĥÑĢÐ½Ð¸ÑĢ":6355,"Ð¶Ð°ÑĢÑĤÑĭ":6356,"ĠÐ¶Ð¸Ð½Ð°ÒĽÑĤÐ°Ñĥ":6357,"ĠAward":6358,"ĠÐºÐ¾Ð¼Ð¸ÑģÑģÐ¸ÑıÐ½ÑĭÒ£":6359,"ĠÐŀÒĽÑĥÑĪÑĭÐ»Ð°ÑĢ":6360,"ĠÐ¶ÑĭÐ½ÑĭÑģÑĤÑĭÒĽ":6361,"ÐķÐľ":6362,"ĠÐ·ÐµÑĢÑĤÑħÐ°Ð½":6363,"ÑĸÑģÑĸÐ½Ð´Ðµ":6364,"ÑĤÑĭÒĽÑĤÑĭ":6365,"ÑĦÑĢ":6366,"ĠÓ©Ð»ÑĤÑĸÑĢ":6367,"ĠÐ½Ð°ÒĵÑĭÐ·":6368,"ĠÐ¾Ð¹ÑĭÐ¼":6369,"ĠÐºÓĻÑģÑĸÐ¿ÐºÐµÑĢ":6370,"and":6371,"ĠÐ°ÑģÐ¿Ð°Ð¿":6372,"ĠÐºÐµÒ£ÐµÐ¹ÑĤÑĥ":6373,"ĠÐ¼Ò¯Ð¼":6374,"ĠÐµÑģÐºÑĸ":6375,"ÐķÒ£Ð±ÐµÐº":6376,"ĠÐ±Ð¸ÑĢ":6377,"ĠÑĪÐ°ÒĽÑĭÑĢÑĭÐ¼":6378,"ĠÐ¾ÑĢÐ½Ð°ÑĤÑĥ":6379,"ĠU":6380,"ĠÑĥÐ½Ð¸Ð²ÐµÑĢÑģÐ¸ÑĤ":6381,"ĠÐĳÑĸÐ»":6382,"ĠÒļÒ±ÑĢÐ°Ð½":6383,"ĠÐ°Ð·Ð°Ð¹ÑĤÑĥ":6384,"ĠÐ¾ÑĤÑĭÑĢÐ¼ÑĭÐ·":6385,"ĠÒĽÑĭÐ·Ñĭ":6386,"ĠÐ°Ð½ÑĭÒĽÑĤÐ°Ð»Ð´Ñĭ":6387,"ĠÑģÑĤÐ°":6388,"ĠÐ±ÑĸÑĢÐ¶Ð¾Ð»ÒĵÑĭ":6389,"ĠÐĲÐ½Ð°":6390,"ĠÐºÓĻÑģ":6391,"ĠÐ½ÐµÑģÐ¸":6392,"ĠÑĤÑĸÑĢÑĸ":6393,"ĠÐ¶Ð°ÑĥÐ°Ð¿ÐºÐµÑĢÑĪÑĸÐ»ÑĸÐ³Ñĸ":6394,"ĠÑĤÐ¾Ð»ÑĭÒĽÑĤÐ°Ð¹":6395,"ĠÐĹÐ°Ò£ÑĭÐ¼ÐµÐ½":6396,"ĠÐ¶Ð°ÑĢÐ½Ð°Ð¼Ð°":6397,"ĠÐ±Ð°Ð·Ð°ÑģÑĭÐ½Ð´Ð°":6398,"ÑĭÒĽÑĤÐ°ÑĢ":6399,"ap":6400,"ĠÐ¾ÑģÑĭÐ»Ð°Ð¹":6401,"ÐĲÐ·":6402,"ĠÐ°Ò£ÒĵÐ°ÑĢ":6403,"ĠÐĸÓĻÐ½":6404,"Ð¸Ð¿ÐµÐ´":6405,"ĠÐºÒ¯ÑĪÑĤÑĸ":6406,"ĠÑģÐ°ÑĢÑĭ":6407,"ĠÐ¶Ð¸Ð½Ð°Ñĥ":6408,"ĠÑĤÐ°Ð¼Ð°ÒĽÑĤÐ°Ð½Ð´ÑĭÑĢÑĥÐ´Ñĭ":6409,"ĠÐ°ÒĽÐ¿Ð°ÑĢÐ°ÑĤÑĤÐ°ÑĢ":6410,"ĠÐ±Ð¾Ð»Ð¼Ð°ÒĽ":6411,"ĠÐ¾ÐºÑĢÑĥÐ³ÑĸÐ½ÑĸÒ£":6412,"ĠÐ¡ÑĤÐ¾Ð¼Ð°ÑĤÐ¾Ð»Ð¾Ð³Ð¸Ñı":6413,"ĠÐ¾Ð¼":6414,"ĠÒĽÒ±Ð¶Ð°ÑĤÑĤÐ°Ð¼":6415,"ĠÐ´ÐµÑģÐµ":6416,"ĠÐµÐ»Ñĸ":6417,"ÑĭÐ¼Ð´ÑĭÐ»ÑĭÒĽ":6418,"ĠÐ³Ð¸Ð¿ÐµÑĢÑģÑĸÐ»ÑĤÐµÐ¼Ðµ":6419,"Ð°ÑĤÑĤÐ°":6420,"ÐµÐºÐµÐ½":6421,"ĠÐ¼ÐµÐºÑĤÐµÐ¿ÑĤÑĸÒ£":6422,"ĠÐ£Ð½Ð¸Ð²ÐµÑĢÑģ":6423,"ĠÑĤÒ¯ÑģÑĥ":6424,"ĠÐ¼Ð°Ð¼Ð°Ð½Ð´ÑĭÒĵÑĭ":6425,"ĠÐ°ÑĢÑħÐ¸Ð²ÑĤÐµÑĢ":6426,"ÓĺÐ»ÐµÑĥÐ¼ÐµÑĤÑĤÑĸÐº":6427,"Ð°Ð»Ð´ÑĭÒĽÐ¾ÑĢÒĵÐ°Ð½":6428,"ĠÐĶÐ¸":6429,"ĠÐ¶Ð¸Ð½Ð°Ð»":6430,"ĠÐºÓĻÑģÑĸÐ¿Ð¾ÑĢ":6431,"Ð±ÐµÑĥ":6432,"Ð°Ð¼ÐµÑĢ":6433,"ĠÒĽÒ±Ð±ÑĭÑĢ":6434,"ĠÑĤÒ±ÑĢÒĵÑĭÐ½Ð´Ð°ÑĢ":6435,"ÑĭÒ£Ð´Ð°ÑĢ":6436,"ĠÐ³ÑĢÐ°ÑĦ":6437,"ĠÐºÐµÐ»ÑĸÑģÑĸÐ¼Ñĸ":6438,"ĠÐºÒ¯Ð¼ÑĸÑģ":6439,"ĠÐ¿Ð¾ÑĢÑĤÐ°Ð»Ñĭ":6440,"ÑĤÑĭÐ»Ð°Ð¹":6441,"ĠO":6442,"Ó©ÐºÐµÐ¹":6443,"ĠÐ±Ð°ÑĤÑĭÑģ":6444,"ĠÐľÑĥÐ·Ñĭ":6445,"ĠÑĤÐ¾Ð»ÑĭÒĵÑĭÐ¼ÐµÐ½":6446,"Ð°ÑģÒĽÐ°Ð½":6447,"ĠÑĤÐ¾ÒĽÑĤÐ°":6448,"ÑĸÑģÑĸÐ½ÑĪÐµ":6449,"ĠÐ°ÑĥÑĭÐ»ÑĭÐ½Ð´Ð°":6450,"ĠÐ¾Ð·ÑĭÒĽ":6451,"ÑĭÐ»ÑĥÑĭÐ½Ð°":6452,"ÑģÑĤÐ°ÑĢÑĭ":6453,"ĠÐ¨ÑĭÐ½":6454,"ĠÐ¿Ð°ÑĢÑĤÐ¸ÑıÑģÑĭ":6455,"ĠÐ¸Ð½ÑģÑĤÐ¸ÑĤÑĥÑĤÑĭ":6456,"ĠÐ¿ÑĢÐ°ÐºÑĤ":6457,"Ð¿Ð°ÒĵÐ°Ð½":6458,"ÐĲÐ±Ð°Ð¹":6459,"ÓĻÑĢÐµÐºÐµÑĤ":6460,"ĠÐŁÐµÑĢ":6461,"ĠÑģÓ©Ð¹Ð»ÐµÑģ":6462,"67":6463,"ĠÒ±ÑĢÐ¿":6464,"ÑģÑĤiÐº":6465,"ÑģÐ¾Ð½":6466,"ĠÒ±Ð»ÒĵÐ°Ð¹":6467,"ÒĽÐ°Ð½ÑĭÒ£":6468,"ĠSt":6469,"ĠÑĤÐ°ÒĽÑĭÑĢÑĭÐ±ÑĭÐ½Ð´Ð°ÒĵÑĭ":6470,"ÑĭÑģÑĤÐ°Ð½Ñĥ":6471,"ĠÑĦÐ¸Ð·Ð¸ÐºÐ°":6472,"ĠÑįÐºÐ¾Ð½Ð¾Ð¼Ð¸ÐºÐ°ÒĵÐ°":6473,"Ð¿ÑĢÐ¾":6474,"Ġ34":6475,"ÐĸÐ¾Òĵ":6476,"ĠÑĸÑģÑĸÐ½":6477,"ÐľÐµÐºÑĤÐµÐ¿ÐºÐµ":6478,"ĠÐ°ÑĥÑĭÑģÑĤÑĭÑĢÑĥ":6479,"ĠÐ¶Ð°Ò»Ð°Ð½Ð´ÑĭÒĽ":6480,"ĠÓ©Ð¼ÑĸÑĢÐ³Ðµ":6481,"ĠÐ¶ÐµÑĤÐµÐºÑĪÑĸÑģÑĸ":6482,"ĠÓĺÐ»ÐµÑĥÐ¼ÐµÑĤÑĤÑĸÐº":6483,"ĠÐ¢Ð°Ñĥ":6484,"Ð«ÐĽ":6485,"ĠÑĢÐ¾Ð¼":6486,"ĠÑĤÑĥÑĭÐ½Ð´Ð°ÒĵÐ°Ð½":6487,"ÐļÓĻÑģÑĸÐ¿":6488,"ĠÒĽÐ°Ð¼ÑĤÑĭÐ»ÒĵÐ°Ð½":6489,"ÐľÒ¯":6490,"ĠÐ°Ò£ÑĭÐ·":6491,"ĠÐ¿Ð°Ð¹Ð´Ð°Ð»Ð°Ð½Ð°":6492,"ĠÑģÑĤÑĥÐ´ÐµÐ½ÑĤÑĤÐµÑĢ":6493,"ĠÐ·Ð°Ò£ÑģÑĭÐ·":6494,"Ð°Ð´Ð°Ð¼":6495,"Ð·ÐµÑĢÑĤÑĤÐµÑĥ":6496,"ĠÐĶÐµÐ½Ðµ":6497,"ĠÐ°Ð¹ÑĭÐ½Ð°":6498,"Ò°Ò°":6499,"ĠÐ½ÐµÐ³ÑĸÐ·Ð´ÐµÑĢÑĸ":6500,"ĠÐ°Ð¹ÑĢÑĭÒĽÑĪÐ°":6501,"ĠÑĥÑĢ":6502,"ĠÐºÐ°ÑĢÑĤÐ°ÑģÑĭ":6503,"ĠÐ¼Ð°Ð¼Ð°Ð½Ð´Ð°Ð½Ð´ÑĭÑĢÑĭÐ»ÒĵÐ°Ð½":6504,"ĠÐ°ÒĵÐ°Ð¼":6505,"ĠÐ³ÑĢÐ°Ð½ÑĤÑĭÐ½":6506,"ĠÐ´ÐµÐº":6507,"ĠÓĻÑĢÐµÐºÐµÑĤÑĤÐµÑĢ":6508,"ÑİÑĢ":6509,"ĠÐºÓ©ÑĪÐ±Ð°Ñģ":6510,"ĠÐ¸Ð½ÑģÑĤÐ¸ÑĤÑĥÑĤÑĭÐ½ÑĭÒ£":6511,"ĠÐ°ÒĽÑĭÐ»Ñĭ":6512,"ĠÐºÓ©ÑĤÐµÑĢÑĥ":6513,"ĠÐ°ÑĥÐ¼Ð°ÒĵÑĭ":6514,"Ð¾Ð¿ÐµÐ´":6515,"ĠÐµÑĤÑĸÐ»Ð³ÐµÐ½":6516,"Ð¼Ð°Ð½ÑĭÒ£":6517,"ĠÒ±ÑģÑĭÐ½ÒĵÐ°Ð½":6518,"ĠÐ¿ÓĻÑĤÐµÑĢ":6519,"Ð°ÑĢÐ¸Ð¹":6520,"ÑĤÐµÐ¹Ð´Ñĸ":6521,"ÐļÓ©ÑĢ":6522,"ĠÑĸÐ·Ð´ÐµÐ¿":6523,"ÑģÑĤÑĭÒĽ":6524,"ÐºiÐ·":6525,"ĠÐĺÑĢÐ°Ð½":6526,"Ð¸ÐµÐ»Ñĸ":6527,"Ð°Ð½Ð°Ð»Ð°ÑĢÒĵÐ°":6528,"ĠÐ±iÐ»iÐ¼":6529,"ĠÒĽÐ°ÑĢÑģÑĭÐ»":6530,"ĠÑģÐ¾Ð»Ð°Ð¹":6531,"ĠÑĤÐµÒ£Ð³ÐµÐ½Ñĸ":6532,"ĠÐ¡Ó©Ð¹ÑĤÑĸÐ¿":6533,"ĠÐ¶ÐµÒ£ÑĸÐ»Ð´ÐµÑĤÑĸÐ»Ð³ÐµÐ½":6534,"ĠÑĤÐ°Ð±ÑĭÑģÑĤÑĭ":6535,"ĠÐ·Ð°Ò£Ð½Ð°Ð¼Ð°Ð»ÑĭÒĽ":6536,"Ð±Ð°ÐµÐ²ÑĤÑĭÒ£":6537,"ĠÑģÐ°ÑĥÐ°ÑĤÑĤÑĭÐ»ÑĭÒĵÑĭÐ½":6538,"ĠÐ±ÐµÑĢÑĥÑĪÑĸÐ»ÐµÑĢ":6539,"ĠÐ°Ð¿Ð°ÑĢ":6540,"ĠÑĤÓĻÑĥÐµÐ»ÑģÑĸÐ·Ð´ÑĸÐº":6541,"ĠÐ¶Ð°":6542,"ĠÐŁÐ¾Ð»":6543,"ĠÑģÐµÐ³ÑĸÐ·":6544,"Ð´ÑĸÐºÑĤÐµÐ½":6545,"ĠÒĽÐ°Ð¶ÐµÑĤÑĤÑĸÐ»ÑĸÐº":6546,"ĠÑĤÐ¸ÑĸÐ¼Ð´ÑĸÐ»ÑĸÐ³ÑĸÐ½":6547,"ÑĸÐ¼Ð´ÐµÑĢÐ´Ñĸ":6548,"ĠÑĤÐ°ÑĢÐ¼Ð°ÒĽÑĪ":6549,"Ð»Ñĥ":6550,"ĠÐºÐµÑĥÐ´Ðµ":6551,"ĠÑģÐ¿Ð¾ÑĢÑĤÑĤÑĭÒĽ":6552,"ĠÑĤÐ°ÑĢÐ°ÑĤ":6553,"Ð¸ÒĵÐ°":6554,"ĠÐºÓ©ÑĢÐµÑĢÐ¼ÐµÐ½":6555,"Ð¼ÐµÒ£":6556,"Ð»Ð°ÑĢÐ´Ð°Ð½":6557,"ĠÑĤÐ°Ð±Ñĥ":6558,"ĠÐ¡ÑĭÑĢÑĤÒĽÑĭ":6559,"ĠÐ±Ð¾Ð»ÒĵÐ°Ð½ÑĭÐ½":6560,"ĠÐ±Ð¸ÑĭÐ»ÒĵÑĭ":6561,"ĠÐ²Ð¸ÑĢÑĥ":6562,"ĠÒ®ÐºÑĸÐ¼":6563,"ĠÑĤÓĻÑĤÑĤÑĸ":6564,"ÐºÐµÑģÑĸ":6565,"ĠÐ°Ð»Ð¼Ð°ÒĵÐ°Ð½":6566,"ĠÑĤÐ°Ð¼Ð°ÑĪÐ°":6567,"ĠÐ¡Ò¯":6568,"ÑĪÐ°ÑĢÑĤ":6569,"ĠÐ´Ð¾Ð»Ð»Ð°ÑĢÒĵÐ°":6570,"ÑĨÐ¸ÑĤ":6571,"ĠÐ±Ð°ÑģÑĤÐ°Ð¼Ð°ÑģÑĭ":6572,"Ð½Ò±Ñģ":6573,"ĠÒĽÐ°Ð»Ð°Ð»Ð°ÑĢ":6574,"ĠÑĤÓ©Ñģ":6575,"ĠÐ¼ÐµÐºÑĤÐµÐ¿ÑĤÐµÑĢÐ´ÐµÐ³Ñĸ":6576,"ĠÑĤÒ¯ÑĢÐºÑĸ":6577,"ĠÐľÒ¯Ð¼ÐºÑĸÐ½":6578,"38":6579,"iÐ»iÐºÑĤi":6580,"ĠÐ°Ð»ÑĥÑĪÑĭÐ½ÑĭÒ£":6581,"Ò°Ðŀ":6582,"ĠÑĤÒ±Ð»ÒĵÐ°Ð»Ð°ÑĢÒĵÐ°":6583,"ÐµÑĤÑĸÐ½ÐµÐ½":6584,"ĠÓĻÐºÐµÐ»ÐµÐ´Ñĸ":6585,"ĠÐ¿Ð¾ÑĪÑĤÐ°":6586,"ĠÑģÐ°Ð½Ð´ÑĭÒĽ":6587,"ÑģÑĤÐ°Ð½Ð½ÑĭÒ£":6588,"ĠÐ¼ÑĸÐ½Ð´ÐµÑĤÑĤÐµÐ¼":6589,"Ð³ÐµÑĢÐ»ÐµÑĢ":6590,"Ð»Ð°ÑģÑĤ":6591,"ĠÐ¶Ð°ÑģÐ°Ð¹ÑĤÑĭÐ½":6592,"ĠÐ°ÑĢÐ°Ð±":6593,"ĠÐ¶Ò¯Ð¹ÐµÑģÑĸÐ½Ð´Ðµ":6594,"37":6595,"Ð½ÐµÑĥ":6596,"ĠÐ°ÑĤÑĤÐµÑģÑĤ":6597,"ĠÒļÐ°ÑĢÐ°":6598,"ÒĽÐ°Ð·ÒĵÐ°Ð½":6599,"ÐµÐ½Ð¸Ðµ":6600,"ĠÒ±ÑģÑĤÐ°Ñĥ":6601,"ÑĸÐºÐºÐµÐ½":6602,"ĠÐ¶Ò¯Ð·ÑĸÐ½Ð´Ðµ":6603,"ĠÐ±Ò±Ð·ÑĭÐ»Ñĥ":6604,"ĠÑģÓ©Ð·Ð´Ñĸ":6605,"ĠÒļÒ±Ð½Ð°Ð½":6606,"ĠÐ½ÑĭÑģÐ°Ð½ÑĭÐ½Ð´Ð°":6607,"ĠÐ¼ÓĻÑģÐµÐ»ÐµÑģÑĸÐ½":6608,"ĠÐ¾ÑĤÐ±Ð°ÑģÑĭÐ»Ð°ÑĢ":6609,"ĠÐ¾ÑĢÑĭÐ½ÒĵÐ°":6610,"ĠÐ¶Ð°Ð»Ð°ÒĽ":6611,"ĠÐ¼ÑĭÐ½":6612,"Ð´Ð°Ð¹ÑĭÐ¼":6613,"ĠÐ¼ÐµÑĢÐ·iÐ¼":6614,"ĠÐĳÒ¯Ð³ÑĸÐ½Ð´Ðµ":6615,"ÒĽÐ°Ð·Ð°ÒĽ":6616,"ĠÑĤÐ°ÑĤÑĥ":6617,"ÑĥÑĭÐ½ÑĭÒ£":6618,"Ð¡ÐŁÐŀ":6619,"08":6620,"ĠÓ©ÑĤÐºÑĸÐ·ÐµÐ´Ñĸ":6621,"ĠÐ¶ÑĭÐ»Ð¶ÑĭÐ¼":6622,"ĠÐ¶Ð°ÑģÐ°Ð»Ð°ÑĤÑĭÐ½":6623,"ĠÐ³ÑĢÐ°Ð¼":6624,"ĠÒĽÐ°Ð¹Ð´Ð°":6625,"ĠÐºÓ©ÑĢÑĸÐ½ÑĸÑģ":6626,"ĠÓĻÑģÐµÑĢÑĸ":6627,"ÐŀÐł":6628,"Ð¸ÑģÑģ":6629,"ĠÐºÒ¯Ð½Ð´Ñĸ":6630,"ĠÒĽÒ±Ð·ÑĭÑĢÐµÑĤÑĤÑĸ":6631,"ÐºÓ©Ð·":6632,"ĠÐĳÐ°ÑģÒĽÐ°":6633,"ÑĪÑĸÐ»ÑĸÐ³ÑĸÐ½":6634,"ĠÒļÐ°ÑĪ":6635,"ĠÐŀÒĽÑĥ":6636,"ĠÐ±ÑĸÑĢÑĸÐºÑĤÑĸÑĢ":6637,"Ð¼Ð°Ð½Ñĭ":6638,"ĠÐ´ÓĻÐ½":6639,"Ġ197":6640,"ĠÐĨÑģ":6641,"ĠÑĤÒ¯Ð¹ÑĸÐ½":6642,"ĠÒĽÐ°ÑĤÑĭÑģÐ°Ð´Ñĭ":6643,"ĠÐºÓ©ÑĢÑĥ":6644,"ĠÐ±ÐµÐ»Ð³ÑĸÐ»ÐµÑĥ":6645,"ĠÐ¼Ò±Ð½Ð´Ð°":6646,"ĠÐºÑĢÐµÐ´Ð¸ÑĤ":6647,"ĠÐļÓ©ÐºÑĪÐµÑĤÐ°Ñĥ":6648,"ĠÐ¼Ð°ÒĽÐ°Ð»Ð°":6649,"ĠÐ°ÑĢÐ½Ð°Ð¿":6650,"ĠÑģÐ°ÑħÐ½":6651,"Ð°Ð¹Ð¼ÑĭÐ·":6652,"Ġâ":6653,"Ð³Ò¯Ð»":6654,"ĠÑĪÑĸÑĢ":6655,"ĠÐĸÐ°Ò£Ð°Ó©Ð·ÐµÐ½":6656,"ĠÒĽÐ°ÑĢÒĽÑĭÐ½Ð´Ñĭ":6657,"ĠÑĤÐ°ÒĽÐ¿Ð°ÒĽÑĤÐ°ÑĢ":6658,"Ð°ÑĢÑĥÑģ":6659,"ĠÐ½Ð¾":6660,"ĠÐ¾Ð±":6661,"ĠÐ±Ð°ÒĵÑĭÑĤÑĤÐ°":6662,"ĠÑĪÐµÑĪÑĸÐ¼Ñĸ":6663,"ÑĭÒĽÒĽÐ°":6664,"ĠÐ¾ÑĢÐ³Ð°Ð½Ð¸Ð·Ð¼":6665,"ÑĤÑĭÐ·":6666,"Ð¸Ð»Ð¸":6667,"ĠÐ¼Ò¯Ð»Ð´ÐµÐ¼":6668,"Ð»Ð¾Ð²":6669,"ĠÑĤÒ±ÑĢÐ¼ÑĭÑģ":6670,"ĠÐĸÐµÐºÐµ":6671,"ĠÑĢÐµÐ´Ð°Ðº":6672,"ÑĤÑĭÒ£ÑĭÐ·":6673,"ÐĳÐ°ÑĢÐ»ÑĭÒĽ":6674,"ĠÐ´Ð°Ð½":6675,"ÐºÐµÑĢÐ¸":6676,"ĠÑģÐ¾Ð»ÑĤÒ¯ÑģÑĤÑĸÐº":6677,"ĠÐ±ÐµÑĤÑĸÐ½Ðµ":6678,"ĠÐ¿ÑģÐ¸ÑħÐ¾Ð»Ð¾Ð³Ð¸Ñı":6679,"ĠÐ¼ÑĸÐ½Ð´ÐµÑĤÑĸ":6680,"ĠÑģÒ¯ÑĢÑĥ":6681,"ÐµÐ·ÒĽÐ°Ð·ÒĵÐ°Ð½":6682,"ĠÐ°ÑıÒĽÑĤÐ°Ð»ÒĵÐ°Ð½":6683,"ÑĤÐ¾":6684,"ÑĤÑĸÐ»Ñĸ":6685,"ĠÑĪÐµÐ±ÐµÑĢÐ»ÑĸÐº":6686,"ĠÐ¼ÐµÒ£Ð³ÐµÑĢÑĥÑĪÑĸÑģÑĸ":6687,"ĠÑĤÐµÑħÐ½Ð¾Ð»Ð¾Ð³Ð¸ÑıÐ»Ð°ÑĢÐ´Ñĭ":6688,"Ð°Ð»ÑĭÒĵÑĭÐ½Ð°":6689,"Ð³Ð°Ð·":6690,"un":6691,"ĠÐ¼ÓĻÐ»ÑĸÐ¼Ð´ÐµÐ´Ñĸ":6692,"ĠÐ¶Ð°ÑģÑĤÐ°ÑĢÐ´ÑĭÒ£":6693,"ĠÐ±Ò±Ð»ÑĪÑĭÒĽ":6694,"ĠÐĸÐ¸":6695,"Ð¾Ð¶Ð°":6696,"ÑĥÐ¼Ð°Ð½Ð¸ÑĤÐ°ÑĢÐ»ÑĭÒĽ":6697,"Ð±ÑĸÑĢÐµÐº":6698,"ÓĻÐ»Ñĸ":6699,"ĠÐ´ÐµÐ¹ÑĤÑĸÐ½":6700,"ÐĶÐķ":6701,"ÓĻÑĤ":6702,"ÐŁÐ¾ÑĢ":6703,"ÒĽÒ±Ð¼":6704,"Ð¸ÑĩÐµÑģÐº":6705,"ÓĻÐ¼ÑĸÐ·":6706,"09":6707,"Ð°Ð»Ñĸ":6708,"ĠÒ±Ð¹ÑĭÐ¼Ð´Ð°ÑĢÑĭÐ½ÑĭÒ£":6709,"36":6710,"ĠÐºÐµÐ·Ð´ÐµÐ³Ñĸ":6711,"Ð´ÐµÐ¹ÑĤÑĸÐ½":6712,"ĠÐ¶ÐµÑĤÐµÐºÑĪÑĸ":6713,"ĠÐºÑĸÑģÑĸÐ»ÐµÑĢ":6714,"ĠÐ±Ð°ÒĵÐ´Ð°ÑĢÐ»Ð°Ð¼Ð°Ð»Ð°ÑĢÑĭÐ½":6715,"ĠÑĤÓ©Ð¼ÐµÐ½Ð´ÐµÑĥ":6716,"ĠÐļÐµÐ¹Ð±ÑĸÑĢ":6717,"Ð¾Ð¿Ð¾Ð»":6718,"ĠÐ¼ÓĻÑģÐµÐ»ÐµÐ½Ñĸ":6719,"ĠÐ´Ð°Ð¼ÑĥÐ´ÑĭÒ£":6720,"ĠÐºÓ©ÑĤÐµÑĢÐ¼":6721,"ĠÑģÐ°Ð¹ÑĤÑĭÐ½Ð´Ð°":6722,"ss":6723,"Ġ37":6724,"ĠÑĤÒ¯ÑģÑĸÐ½Ñĥ":6725,"ĠÑģÐº":6726,"ĠÓ©ÑģÐºÐµÐ½":6727,"ĠÒĽÐ°ÑĢÐ°ÑĪ":6728,"Ð¼Ð°ÑĢ":6729,"ĠÐºÐ¾Ð½ÑĨÐµÑĢÑĤ":6730,"ĠÐµÑĢÐµÐºÑĪÐµÐ»ÑĸÐ³Ñĸ":6731,"ĠÐ¶Ð°ÑĢÑĤÑĭÐ¶ÑĭÐ»Ð´ÑĭÒĵÑĭ":6732,"ĠÑģÓĻÐ±Ð¸":6733,"ĠÐ±ÐµÐ»Ð³ÑĸÑģÑĸ":6734,"ĠÐºÐ°ÑĤÐµÐ³Ð¾ÑĢ":6735,"ĠÐ´ÑĭÐ±ÑĭÑģ":6736,"ÓĺÐ¹":6737,"ĠÐµÐ»Ð´ÐµÑĢÐ´ÑĸÒ£":6738,"ĠÐ¿Ð°ÑĤÑĢÐ¸":6739,"ĠÐ½Ð°ÑģÐ¸ÑħÐ°ÑĤÑĤÐ°Ñĥ":6740,"ÐºÐµÑģÑĸÐ½ÑĸÒ£":6741,"Ġe":6742,"ĠÒĽÐ¾Ð»Ð´Ð°Ð½ÑĭÐ»Ð°ÑĤÑĭÐ½":6743,"ĠÐ¿Ð°ÑĤÐ¾Ð»Ð¾Ð³Ð¸ÑıÐ»ÑĭÒĽ":6744,"ĠÐ´Ò¯ÐºÐµÐ½":6745,"ĠÐ¶ÑĸÐº":6746,"ĠÐ±ÐµÐ·ÑĸÐ½ÑĸÒ£":6747,"Ð³ÑĸÐ½Ð´ÐµÐ³Ñĸ":6748,"Ð¼ÑĭÑģ":6749,"ÑĤÑĸÒ£ÑĸÐ·":6750,"Ð¿ÐµÐ¹Ð´Ñĸ":6751,"ĠÐ½Ð°Ð¼":6752,"ÐļÐ¾Ð¼":6753,"ĠÐ½ÐµÐ³ÑĸÐ·ÑĸÐ½":6754,"ĠÑĤÓ©ÑĤÐµÐ½ÑĪÐµ":6755,"ĠÐ¾ÑģÑĭÐ½":6756,"ĠÓĻÐ¹Ð³ÑĸÐ»Ñĸ":6757,"Ð¶Ð°Ð·":6758,"ĠÒĽÐ°Ð¹ÑĢÐ°ÑĤÐºÐµÑĢÑĸ":6759,"ĠÐ¨ÐµÑĤ":6760,"Ð´ÓĻÑģÑĤÒ¯ÑĢ":6761,"ĠÑĥÑĩÐ°ÑģÐºÐµÐ»ÐµÑĢÑĸÐ½":6762,"ĠÐ¾Ð¹Ð»Ð°Ð¿":6763,"âĢ¦âĢ¦":6764,"ÑĤÐ°ÑĢÐ¼Ð°Òĵ":6765,"ĠÒĽÑĥÐ°ÑĤ":6766,"Ð³ÑĸÐ¼":6767,"ĠÒ¯Ð¹Ð»ÐµÑĢ":6768,"ĠÐ¾ÑĢÑĤÐ°ÑģÑĭÐ½Ð´Ð°":6769,"ÑģÑĸÐ½ÑĸÒ£":6770,"ĠÐ°ÑħÑĥ":6771,"ĠÐ¶Ð°ÒĵÑĭÐ½Ð´Ð°":6772,"ĠÑĤÓ©Ð¼ÐµÐ½Ð´ÐµÐ³Ñĸ":6773,"ĠÒĽÐ°ÑĤÑĭ":6774,"ÒĽÑĭÑĤÑĥ":6775,"ĠÐĸÐ¾Ð»Ð´Ð°ÑĥÑĭ":6776,"Ð°Ð¼ÐµÑĤÑĢ":6777,"ĠÐ¿ÑĢÐµÐ·ÐµÐ½ÑĤÐ°ÑĨÐ¸Ñı":6778,"Ð¼Ð°ÒĵÑĭÐ½":6779,"ĠÑģÓ©Ð½":6780,"ĠÒ¯Ð¹ÑĸÑĢ":6781,"ĠÐºÐ¾Ð½ÑģÑĥÐ»ÑĮ":6782,"ĠÐļÐ¡Ðł":6783,"Ð±Ð°ÑģÑĭÐ½":6784,"ĠÐ·Ð°ÑĤÑĤÐ°ÑĢÐ´Ñĭ":6785,"ĠÒ±ÑģÑĭÐ½Ð°Ð¼ÑĭÐ·":6786,"ĠÐºÐ¾Ð´ÐµÐº":6787,"ĠÑģÐ°Ð»ÑĥÒĵÐ°":6788,"ĠÐ¼ÓĻÐ¼ÑĸÐ»":6789,"ĠÐ¼Ó©Ð»ÑĪÐµÑĢÐ´Ðµ":6790,"ĠÐ¢Ð°ÒĵÑĭ":6791,"ĠÐ´ÐµÐ¹iÐ½":6792,"Ð¼ÓĻÐ´ÐµÐ½Ð¸":6793,"ĠÑĤÐ¾Ð¿ÒĽÐ°":6794,"ÑĤÐ°Ð¼ÑĭÐ·":6795,"ĠÐ¶Ð¾Ð»ÒĵÐ°":6796,"ĠÑĪÐº":6797,"ĠÐµÑĢÑĸ":6798,"ÑĤÐ°ÒĽ":6799,"Ð´Ð°ÒĵÑĭÐ½ÑĭÒ£":6800,"ĠÐºÐµÐ·ÐµÐ³ÑĸÐ½Ð´Ðµ":6801,"ĠÐ±Ð¾Ð»Ð¼Ð°ÑĥÑĭ":6802,"ĠÐĲÑģÑģÐ°Ð¼Ð±Ð»ÐµÑı":6803,"ĠÐĸÓĻ":6804,"ĠÑĦÐ¸Ð·Ð¸ÐºÐ°Ð»ÑĭÒĽ":6805,"ĠÑĤÐ°ÑĢÑĤÒĽÐ°Ð½":6806,"ĠÐ¡Ò±Ð»ÑĤÐ°Ð½":6807,"ĠÐ´Ð¸Ð·":6808,"Ð¡ÑĭÑĢ":6809,"ĠÐ±ÐµÐ»Ð³ÑĸÐ»ÐµÐ½":6810,"ĠÐµÑģÑĸÐº":6811,"ĠÐ°Ð»Ð°Ð¼ÑĭÐ·":6812,"ĠÐ°ÑĢÐ°Ð´Ð°":6813,"ĠÑĤÒ¯Ð³ÐµÐ»":6814,"ĠÐ¶Ð°ÑģÐ°Ð»Ð´Ñĭ":6815,"ĠÒĽÒ±ÒĽÑĭÐ»Ñĭ":6816,"ĠÐµÐ»ÐµÑĥÐ»Ñĸ":6817,"CO":6818,"ĠÑĸÑģÑĤÐµÐ³ÐµÐ½":6819,"ĠÑģÐ°Ð»Ð°Ð´Ñĭ":6820,"ĠÐ°ÑĪÑĭÐ»ÒĵÐ°Ð½":6821,"ÑĢÐ°Ð·":6822,"ĠÑĭÒ£":6823,"ĠÐ°Ð³ÐµÐ½ÑĤÑĤÑĸÐ³ÑĸÐ½ÑĸÒ£":6824,"ÑĢÑĸ":6825,"ÑĤÐ¸ÑħÐ°Ð½":6826,"ĠÐ¡Ð¾Ò£ÒĵÑĭ":6827,"ĠÐ°Ð¹ÑĭÑĢÐ±Ð°Ñģ":6828,"ĠÐ°ÐºÑĨÐ¸Ð¾Ð½ÐµÑĢÐ»ÑĸÐº":6829,"ĠÑĤÓĻÑĢÐ±Ð¸ÐµÐ»ÐµÐ½ÑĥÑĪÑĸÐ»ÐµÑĢÐ´ÑĸÒ£":6830,"ĠÐ¶Ð°ÑģÓ©ÑģÐ¿ÑĸÑĢÑĸÐ¼Ð´ÐµÑĢ":6831,"ÒĽÐ¾Ð¹":6832,"ÑĤÐ°ÑĢÐ¼ÐµÐ½":6833,"ĠÐ°ÑĢÑĤÑĤÑĭÑĢÑĥÒĵÐ°":6834,"ĠÓ©Ð½ÑĸÐ¼Ð´ÐµÑĢÑĸÐ½":6835,"Ð±ÐµÑĢÐ³ÐµÐ½":6836,"ĠÐ±Ð°ÑĢÑĪÐ°":6837,"ĠÐ±ÐµÐºi":6838,"ÒĽÑĭÐ¿":6839,"ĠÑĤÐ°Ð·Ð°ÑĢ":6840,"ĠÐ°Ð¹ÑĤÑĥÒĵÐ°":6841,"ĠÒĽÐ¾Ð»Ð´Ð°Ð½ÑĭÑģÑĤÐ°ÒĵÑĭ":6842,"ĠÐ±ÑĸÐ»ÑĸÐ¼Ñĸ":6843,"ĠÐłÐµÑģÐµÐ¹Ð´ÑĸÒ£":6844,"ÑĤÐµÒ£Ðµ":6845,"ÐĸÐ¾Ð»":6846,"ÑĨÐµÐ½Ð°ÑĢÐ¸Ð¹":6847,"ÐķÑĢÐºÑĸÐ½":6848,"ĠÒ¯Ð½ÐµÐ¼":6849,"ĠÐµÐ»ÑĸÐ½ÑĸÒ£":6850,"ĠÑĤÑĢÐµÐ½":6851,"ĠÐ°ÑģÒĽÑĭÐ½":6852,"ÑĥÑħ":6853,"ĠÓ©ÑĤÐºÑĸÑĢ":6854,"ĠÐ¢Ð¾Ð»":6855,"ĠÑģÐµÑģÑģÐ¸Ñı":6856,"ÑģÑĭÒĽÑĤÑĭ":6857,"ĠÑĤÒ±Ð¼":6858,"av":6859,"ĠÐ¥Ð°Ð±Ð°ÑĢ":6860,"ĠÐ±Ð°ÒĵÑĭÑĤÑĤÐ°ÒĵÑĭ":6861,"ĠÑģÐ¾ÑĤÒĽÐ°":6862,"ĠÐ°ÑĤÐ°Ð½Ð´Ñĭ":6863,"ĠÐ±Ò±Ð´Ð°Ð½":6864,"ĠÓĻÐºÐµÐ»ÑĸÐ¿":6865,"ĠÑģÑĭÐ¿":6866,"ĠÑģÓĻÑĥÐ»":6867,"ĠÑħÐ°Ð±Ð°ÑĢÐ»Ð°Ð¼Ð°Ð»Ð°ÑĢ":6868,"ĠÑĢÐµÑģÐ¿ÑĥÐ±Ð»Ð¸ÐºÐ°":6869,"ĠÐľÒ±Ð½ÑĭÒ£":6870,"ĠÐºÑĸÑĢÑĸÑģÑĤÐµÑĢ":6871,"ĠÑĤÓ©Ð»ÐµÐ¼Ð´Ñĸ":6872,"Ð´ÓĻÑĢ":6873,"ÑĦÐ¾ÑĢ":6874,"ĠÓ©Ð½ÐµÑĢÐºÓĻÑģÑĸÐ¿":6875,"Ð°ÑĨÐ¸ÑıÑģÑĭÐ½ÑĭÒ£":6876,"Ð¾ÑģÑĭ":6877,"ĠÐµÐ½Ð³iÐ·":6878,"ĠÐ°ÑĤÒĽÐ°ÑĢÑĥ":6879,"ÐŀÒ£":6880,"ĠÐ¶Ð¾ÑģÐ¿Ð°ÑĢÑĭÐ½Ð°":6881,"ĠÐ°Ð¹Ð½":6882,"Ð°ÑħÑģÑĤÐ°Ð½":6883,"ĠÐ¾Ð¹Ð»Ð°Ð¹Ð¼ÑĭÐ½":6884,"ĠÐ°Ð½Ð³":6885,"Ò°Ð»Ñĭ":6886,"Ð¤Ð°ÑĢ":6887,"ÑĤiÐ»ÐµÑĢ":6888,"ĠÐ¾ÒĽÑĥÑĪÑĭÐ»Ð°ÑĢÑĭ":6889,"Ġ300":6890,"ĠÒĽÐ°ÑĪÐ°Ð½":6891,"ĠÐ°Ð¿Ð¿Ð°ÑĢÐ°ÑĤÑĭÐ½Ð°":6892,"ÐŁÐ°ÑĢ":6893,"ÑģÐ¾":6894,"ÐºÐµÑĢÐ»ÐµÑĢÐ´ÑĸÒ£":6895,"ĠÐºÓ©ÑĢÑĸÐ½ÑĸÑģÑĤÐµÑĢ":6896,"ĠÐ¡Ð°Ñı":6897,"ĠÐ¶ÐµÑĤÐµÐ´Ñĸ":6898,"Ð°ÒĵÑĭÐ½Ð°Ð½":6899,"ĠÓ¨ÑĤÐºÐµÐ½":6900,"ĠÐµÑĢÑĸÐºÑĤÑĸ":6901,"Ð°Ð»Ð°Ð½ÑĭÒ£":6902,"Ð¸Ð¾Ð»Ð¾Ð³Ð¸ÑıÐ»ÑĭÒĽ":6903,"ĠÐ¶ÐµÑĢÐ»ÐµÑĢÐ´Ðµ":6904,"Ð±Ð°ÑģÐ°ÑĢ":6905,"ĠÐºÐµÐ·Ð´ÐµÑģÐµÑĤÑĸÐ½":6906,"ĠÑĤÐ°ÑĢÐ¸ÑħÑĭÐ½":6907,"ĠÐ³Ð°Ð·ÐµÑĤÑĸÐ½ÑĸÒ£":6908,"ĠÐµÐ»Ð´Ðµ":6909,"ĠÐ¼Ð°Ð¼Ð°Ð½Ñĭ":6910,"ĠÐĿÓĻÑĤÐ¸Ð¶":6911,"ĠÐ±Ð°Ð¹ÒĽÐ°ÑĥÑĭÐ½ÑĭÒ£":6912,"ĠÑĪÐµÐ³":6913,"Ð´ÐµÑĢÐ´ÐµÐ½":6914,"Ð»Ð°Ò»":6915,"ĠÐ¿Ð°Ð¹ÒĵÐ°Ð¼Ð±Ð°ÑĢ":6916,"ĠÑĤÓĻÑĥÐµÐ»Ð´Ñĸ":6917,"ĠÑĤÒ±Ð¶ÑĭÑĢÑĭÐ¼Ð´Ð°Ð¼":6918,"Ð¾Ð²ÑĤÑĸÒ£":6919,"ĠÐ¢Ð°Ð»Ð´ÑĭÒĽÐ¾ÑĢÒĵÐ°Ð½":6920,"ĠÐºÓ©ÑĢÑĪÑĸ":6921,"ĠÑģÐ°Ð»Ð°ÑģÑĭÐ½":6922,"ÒļÐ¾ÑĢ":6923,"ĠÑıÐ´ÑĢÐ¾Ð»ÑĭÒĽ":6924,"ĠÐ¶ÑĸÐ±ÐµÑĢÐ´Ñĸ":6925,"ĠÐºÓ©Ð¼ÐµÐºÑĤÐµÑģÐµÐ´Ñĸ":6926,"Ð°ÑĢÑĥÑģÑĮ":6927,"ĠÐ°Ð¹Ñĭ":6928,"ĠÐ¶Ð¸ÑĭÑĢÐ¼Ð°":6929,"ĠÐ°Ð¹ÑĭÐ¿Ð¿Ò±Ð»":6930,"ĠÐ°Ð´":6931,"ĠÑĤÐ¾Ð»ÑĭÒĽÑĤÑĭÑĢ":6932,"ĠÒļÒ±ÑĢÐ¼ÐµÑĤÑĤÑĸ":6933,"ĠÐ¢ÐµÑħÐ½":6934,"ĠÒ±Ð¹ÑĭÐ¼Ñĭ":6935,"ĠÑĤÑĸÐ»ÑĸÐ½Ð´ÐµÐ³Ñĸ":6936,"ĠÐ±ÓĻÑģÐµÐºÐµÐ»ÐµÑģ":6937,"ĠÐ¾ÑĢÑĭÐ½Ð´Ð°Ð»ÑĥÑĭ":6938,"ÒĽÒ±ÒĽÑĭÒĽÑĤÑĭÒĽ":6939,"ĠÒĽÐ°Ð¹Ð½":6940,"ÐµÐ¼ÒĽÐ¾ÑĢÐ»ÑĭÒĽ":6941,"ĠÑĤÓ©Ò£ÑĸÑĢ":6942,"ĠÑģÐ¾Ò£ÑĭÐ½Ð°":6943,"ĠÐ¼ÓĻÐ´ÐµÐ½Ð¸ÐµÑĤÑĸ":6944,"ĠÒĽÑĭÑĤÐ°Ð¹":6945,"ĠÑĤÑĸÐ»ÑĸÐ½ÑĸÒ£":6946,"ĠÐ±ÐµÐ»Ð³ÑĸÑģÑĸÐ·":6947,"ĠÐ±ÓĻÑģÐµÐºÐµÐ³Ðµ":6948,"ĠÐ°ÑĢÐ°Ð»ÑĭÒĽ":6949,"ĠÐ¶Ò¯ÐºÑĤÑĸÐ»ÑĸÐº":6950,"ÐµÑģi":6951,"ĠÐĲÐ»ÐµÐº":6952,"ĠÒĽÐ¾ÒĵÐ°Ð¼Ñĭ":6953,"Ð¶ÐµÑĢ":6954,"ĠÐ»Ð°Ð¹":6955,"Ð¼Ð¸ÑĤ":6956,"ÐµÐºÑĤ":6957,"ĠÒļÒ±ÑĢÑĭÐ»ÑĭÑģ":6958,"ĠÒĵÐ°ÑĢÑĭÑĪ":6959,"ĠÒĽÐ°Ð½ÑĤ":6960,"ÐĳÒ¯Ð³ÑĸÐ½Ð³Ñĸ":6961,"ĠÐ°Ð¹Ð½Ð°Ð»ÑĭÐ¼":6962,"Ð¸Ð¼Ð¸Ñı":6963,"ĠÐ¼Ò±ÑĢÐ°Òĵ":6964,"ĠÓ©ÑĤÐºÑĸÐ·ÑĸÐ¿":6965,"Ð»ÑıÑĨÐ¸Ñı":6966,"ĠÓĻÐ·ÑĸÑĢÐ»":6967,"eb":6968,"Ð¿ÑĸÐ»":6969,"ĠÐ¶ÐµÑĢÑĸÐ½Ð´Ðµ":6970,"ĠÐ±Ð¾Ð»Ð´ÑĭÑĢ":6971,"ĠÐµÒ£Ð±":6972,"ĠÒĽÑĭÐ¼ÑĭÐ·ÒĵÐ°":6973,"ĠÑĤÐ°Ð¿ÑĤÑĭ":6974,"ĠÐ¶Ð°ÑĢÒĽÑĭÐ½":6975,"Ð±Ð°Ð»Ñĭ":6976,"ĠÐ¤Ð¸Ð·":6977,"ÑĭÑģÒĽÐ°Ð½":6978,"ĠÐ¼iÐ½Ð´ÐµÑĤ":6979,".).":6980,"ÑĤÐµÐ¹ÑĤÑĸÐ½":6981,"ĠÓĻÑĢÐ¸Ð½Ðµ":6982,"ĠÑĤÒ±ÑĢÒĵÑĭÐ½Ñĭ":6983,"ine":6984,"ĠÐ¶Ð¾Ð±Ð°ÑģÑĭÐ½ÑĭÒ£":6985,"ĠÐºÑĥÓĻÐ»Ð°Ð½":6986,"Ð»Ð°Ð²":6987,"ÑĥÐ´ÐµÐ½":6988,"ĠiÑĪ":6989,"ĠÐºÐ¾Ð¼Ð¸ÑĤÐµÑĤ":6990,"ĠÐ±ÐµÐ¹Ð½Ðµ":6991,"ĠÐ±Ó©Ð»ÑĸÐ³ÑĸÐ½":6992,"ĠÐĲÐ»Ð¼Ð°ÑĤÑĭÐ´Ð°":6993,"ĠÐºÐ¾Ð¼Ð¿Ð°Ð½Ð¸ÑıÑģÑĭÐ½ÑĭÒ£":6994,"ĠÐ°ÒĽÐ¸":6995,"ĠÐ°ÑıÒĽÑĤÐ°Ð»":6996,"ĠÐµÑĤÑĸÐ»ÐµÐ´Ñĸ":6997,"ĠÒĽÐ¾ÑĢÑĭÐ½ÑĭÒ£":6998,"ĠÐłÐµÑģÐ¿ÑĥÐ±Ð»Ð¸ÐºÐ°ÑģÑĭÐ½Ð´Ð°ÒĵÑĭ":6999,"ÑĤÐµÑĢÐ´ÐµÐ½":7000,"ĠÒĽÐ¾ÑģÑĭÐ¼ÑĪ":7001,"ĠÐķÑĢÐµÐ¶":7002,".Â»":7003,"ĠÐľÐ°Ð»":7004,"ĠÐ½ÓĻÑĤÐ¸Ð¶ÐµÐ»ÐµÑĢ":7005,"ul":7006,"Ð³ÑĸÐ¿":7007,"ĠÑĤÒ±ÑĢÐ°ÒĽ":7008,"ĠÐ°Ð±ÑĭÑĢ":7009,"ĠÑĦÐ°ÐºÑĤÑĸÑģÑĸ":7010,"ÑĪÑĸÐ»ÑĸÐºÑĤÑĸ":7011,"ĠÑĢÓĻÐ¼ÑĸÐ·":7012,"Ð°Ð¹Ð»Ð°Ñĥ":7013,"ĠÐ¾ÑĢÐ½ÑĭÐ½Ð´Ð°":7014,"ĠÓ©ÑĪÑĸÑĢ":7015,"ÑĭÐ»Ð¼ÑĭÑģÑĤÑĭÒĽ":7016,"ĠÐ±Ð°ÐºÑĤÐµÑĢ":7017,"ĠÐ¿Ð°Ð¹Ð´Ð°Ð»Ð°Ð½ÑĭÐ»ÑĥÑĭ":7018,"ĠÐ¼ÓĻÑĢÑĤÐµ":7019,"ĠÒĽÐ°Ð±ÑĭÐ½Ñĥ":7020,"ĠÐ±Ð¾Ð»Ð´ÑĭÐ¼":7021,"ĠÒļÐ°ÑģÑĭÐ¼":7022,"ĠÐ°Ð·Ð°Ð¼Ð°ÑĤÑĭ":7023,"ĠÐ±Ò¯ÑĢ":7024,"ut":7025,"ÐĲÒ¢":7026,"ĠÑģÐ¾Ð½Ñĭ":7027,"ĠÒĽÒ±ÒĽÑĭÒĵÑĭÐ½":7028,"ĠÐĳÐ°ÑĥÑĭÑĢ":7029,"Ð´ÑĭÒĵÑĭÐ½Ð°Ð½":7030,"ÑĸÑĭÐ·":7031,"Ð°ÑģÑĥ":7032,"ĠÐ¨ÑĭÒ£":7033,"ĠÐĸÐ°ÑĢÐ±Ð¸Ð¼Ð°":7034,"ĠÑĢÐµÐ²Ð¾Ð»ÑİÑĨÐ¸Ñı":7035,"Ġof":7036,"ĠÐĲÑĤÐ°Ð»ÒĵÐ°Ð½":7037,"ĠÐŁÑĢÐ¾":7038,"ÑģÑĤÐ°ÑĢÐ´Ñĭ":7039,"ĠÑģÐ°Ð¹ÑĭÐ½ÒĵÑĭ":7040,"ĠÐ±ÐµÐ´ÐµÐ»":7041,"ĠÒĽÑĭÐ·Ð¼ÐµÑĤÑĪÑĸÐ»ÐµÑĢÑĸ":7042,"ĠÐĺÐ½ÑĤÐµÑĢÐ½ÐµÑĤ":7043,"ĠÑĤÓĻÑĢÑĤi":7044,"Ð¾Ð±Ð»":7045,"ĠÒĽÐ°ÑĢÐ°ÒĵÐ°Ð½":7046,"ĠÐ¶Ò±Ð¼ÑĭÑģÑĭÐ½ÑĭÒ£":7047,"Ð¡ÐµÐ½":7048,"ĠÐ±Ó©Ð»ÑĸÐ¼ÑĸÐ½Ð´ÐµÐ³Ñĸ":7049,"ĠÐ¸Ð½Ð²ÐµÑģÑĤÐ¾ÑĢ":7050,"Ð°Ð»Ð¸ÐµÐ²":7051,"Ð¶Ò±Ð¼":7052,"ĠÐ¾ÑĤÑĭÑĢÑĭÑģÑĭÐ½Ð´Ð°":7053,"ĠÑĤÐ¾Ð¿ÑĭÑĢÐ°ÒĽ":7054,"Ð»Ð°Ð´":7055,"Ð±ÑĸÑĢÑĸÐ½Ðµ":7056,"ĠÐºÐµÒ£ÐµÐ¹ÑĤÑĸÐ»Ð³ÐµÐ½":7057,"ĠÑĤÒ±ÑĢÒĵÑĭÑģÑĭÐ½Ð°Ð½":7058,"Ð¼ÐµÐ´Ñĸ":7059,"ĠÑįÐºÑģÑĤÑĢ":7060,"ÑĥÑĩ":7061,"ĠÐºÓ©ÑĢÑģÐµÑĤÐµ":7062,"ÐŀÐ±Ð»ÑĭÑģ":7063,"ÓĻÐ·ÑĸÐº":7064,"ĠÐ¾Ð´Ð°ÒĽ":7065,"ĠÐ°Ð»ÑĭÐ½Ð´Ñĭ":7066,"ĠÐ¡Ò¯Ð¹":7067,"Ð°ÑĤÐ°Ð´Ñĭ":7068,"ĠÒĵÑĭÐ»ÑĭÐ¼Ð´Ð°ÑĢÑĭÐ½ÑĭÒ£":7069,"ĠÑĤÐ¾ÒĽÑĤ":7070,"ĠÐĸÐµÐ»ÑĤÐ¾ÒĽÑģÐ°Ð½":7071,"ĠÐ±Ð°Ð»Ð°Ð¼ÐµÐ½":7072,"ÑĢÐ¸Ð½":7073,"ĠÐ¼ÐµÐºÐµÐ¼Ðµ":7074,"ĠÒļÑĭÑĢÐºÒ¯Ð¹ÐµÐº":7075,"ÑĪiÐ»iÐº":7076,"ÒĽÐ¾Ò£ÑĭÑĢ":7077,"ĠÐ¢ÓĻÐ¶ÑĸÐº":7078,"ÑĢÐ¾Ó©Ð½ÐµÑĢÐºÓĻÑģÑĸÐ¿ÑĤÑĸÐº":7079,"ÐĲÑĤÐ°Ð¼":7080,"ĠÐĸÐµÑĢÐ´ÑĸÒ£":7081,"Ð¸ÐµÐ½":7082,"ÐĶÑĸÐ½":7083,"ĠÑģÐ°Ð±Ð°ÒĽÑĤÐ°ÑĢ":7084,"ĠÐĺÐ½Ð²ÐµÑģÑĤÐ¸":7085,"Ð´Ð°ÑģÑĭ":7086,"ĠÐºÐµÐ»ÑĸÑģÑģÓ©Ð·":7087,"Ð¾ÑģÑĭÐ½ÑĭÒ£":7088,"ÑĢÐµÑĤ":7089,"ÑĤÐ¸Ð·":7090,"ĠÐºÐ¾Ð¼Ð¸ÑģÑģÐ¸ÑıÑģÑĭ":7091,"ĠÐ¾ÑĤÑĭÐ½":7092,"ĠÐ¼Ò¯Ð¼ÐºiÐ½":7093,"ĠÐºÐ»Ð¸ÐµÐ½ÑĤ":7094,"ÑĦÐ¸ÑĢ":7095,"ĠÓ©Ð½ÐµÑĢÐº":7096,"ĠÐºÓ©Ð±ÑĸÑĢÐµÐº":7097,"ĠÐ¸Ð¼Ð¼ÑĥÐ½":7098,"Ð¸ÑĦÐ¸Ð½Ð³":7099,"ĠÐ¶ÐµÑĤÑĥ":7100,"ÑĭÒĵÑĭÐ½Ð´Ð°ÒĵÑĭ":7101,"ÑģÐ°ÑĢÑĭ":7102,"ĠÐĸÓĻÐ½ÑĸÐ±ÐµÐº":7103,"ĠÑįÐ½Ð´":7104,"ĠÐµÐ½Ð³ÐµÐ½":7105,"ĠÑģÐ°Ð½ÑĭÐ½":7106,"ĠÐľÐ°ÑĤÐµÑĢÐ¸Ð°Ð»Ð´Ð°ÑĢÐ´Ñĭ":7107,"ÓĺÐ»":7108,"ĠÐľÐ°Ð¹":7109,"ĠÐ±ÑĸÐ·Ð´Ñĸ":7110,"ÑģÑĸÑĢ":7111,"Ð°ÑĤÐ°ÐµÐ²":7112,"Ð°Ð½Ð°Ð»Ð°ÑĢ":7113,"ĠÐ¶Ð¸Ð½Ð°Ð»ÒĵÐ°Ð½":7114,"ĠÐºÓ©ÑĤÐµÑĢÑĸÐ»ÐµÐ´Ñĸ":7115,"ĠÐ¸Ð½ÑģÐ¿ÐµÐºÑĨÐ¸ÑıÑģÑĭ":7116,"ĠÐºÐµÐ»ÑĸÐ½ÑĪÐµÐº":7117,"ĠÐ¶Ð°ÑģÐ°ÒĽÑĤÐ°Ð»ÒĵÐ°Ð½":7118,"2013":7119,"ĠÒĽÑĭÐ·ÑĭÒĵÑĥÑĪÑĭÐ»ÑĭÒĽ":7120,"ĠÐºÐµÐ»Ñĥ":7121,"ÒĵÐ°Ð»Ñĭ":7122,"iÐ»ÐµÑĤ":7123,"ĠÐ¼ÓĻÑģÐµÐ»ÐµÐ»ÐµÑĢÑĸÐ½":7124,"________________":7125,"ĠÒļÐ°Ð¿":7126,"ĠÐ·Ð°ÑĤÑĤÐ°ÑĢÐ´ÑĭÒ£":7127,"Ġ)":7128,"Ð¨ÑĭÒĵÑĭÑģ":7129,"VI":7130,"ĠÐ¿ÑĭÑģ":7131,"ĠÑĤÒ¯Ðº":7132,"ÐķÐĴ":7133,"ĠÒĽÐ°ÑĪÑĭÒĽÑĤÑĭÒĽ":7134,"ĠÑĪÐ°ÒĽÑĭÑĢÑĭÐ¿":7135,"ÑĪÐ°Ð¼":7136,"Ò±ÒĽÑĭÒĽ":7137,"ĠÐŁÐ°ÑĢÐ»Ð°Ð¼ÐµÐ½ÑĤÑĸ":7138,"ĠÒļÐ¾ÑĢÒĵÐ°Ð½":7139,"ĠÒĽÑĭÐ·Ð¼ÐµÑĤÐºÐµÑĢÑĸ":7140,"ÐµÐ´Ð¸ÑĨÐ¸Ñı":7141,"ĠÑħÐ¾Ð»":7142,"Ð±Ð¾ÑĢ":7143,"ĠÑĤÒ±Ð·":7144,"ĠÒĽÐ¾ÑĢÒĵÐ°Ð½ÑĭÑģ":7145,"ĠÐ¨ÑĭÒĵ":7146,"ĠÐ¼Ò¯Ð³ÐµÐ´ÐµÐºÑĤÐµÑĢÐ³Ðµ":7147,"Ð°ÑĢÐ´Ñĭ":7148,"ĠÐ´Ð¾ÐºÑĤÐ¾ÑĢÑĭ":7149,"ĠÐ±Ð°ÑģÑĤÑĭÒĵÑĭ":7150,"Ð»ÑĸÐºÐºÐµ":7151,"ĠÐ¼Ð°ÑĤÐµÑĢÐ¸Ð°Ð»Ð´Ð°ÑĢÑĭÐ½":7152,"Ò±Ð¼ÑĭÑĢ":7153,"ĠÑĪÐ°ÑĢÑĪÑĭ":7154,"ĠÐľÐ°Ð½":7155,"ĠÐ¢ÓĻ":7156,"ĠÐ¼ÐµÐºÑĤÐµÐ¿ÑĤÐµ":7157,"ĠÐ¼Ð°ÑģÑģ":7158,"Ð¾Ð½ÑĭÒ£":7159,"ĠÐ¶Ð°ÒĵÐ´Ð°Ð¹Ð´Ñĭ":7160,"ÐµÐ»Ð¸":7161,"ĠÐ±ÑĸÐ»ÑĸÐ¿":7162,"ĠÑĢÒ±ÒĽÑģÐ°ÑĤÑĭ":7163,"ĠÐ±Ð¾Ð·":7164,"ÑĤÐµÑĢÐµÐº":7165,"ĠÓĻÑĥÐµ":7166,"ĠÐ¶Ð°ÒĵÐ°Ð»Ð°Ñĥ":7167,"ĠÐ¿Ð°Ð¹Ð´Ð°Ð»Ð°Ð½ÑĭÐ¿":7168,"ĠÑģÐ¸Ð¼":7169,"ĠÐ¸Ð½Ð½Ð¾Ð²":7170,"Ð±Ð°Ð¹Ð´ÑĭÒ£":7171,"ĠÐ¿Ð°ÑĨÐ¸ÐµÐ½ÑĤ":7172,"Ð¾ÑģÑĦÐµÑĢ":7173,"ÐµÐ¹ÑĸÑĤ":7174,"ĠÐ¼Ò¯Ð¼ÐºÑĸÐ½Ð´ÑĸÐ³ÑĸÐ½":7175,"ĠÑģÐ°ÒĽÑĤÐ°Ð»ÒĵÐ°Ð½":7176,"ĠÑģÑĭÐ½Ð°ÒĽ":7177,"ĠÐ´ÐµÑģÐµÐ´Ñĸ":7178,"ĠÐ¾ÑĢÐ°Ð»":7179,"ĠÐ°ÑĢÑĤÐ°Ð´Ñĭ":7180,"ĠÑĤÐµÑĢÐ³ÐµÑĥ":7181,"ÐºÐµÑģÑĸÐ½":7182,"ĠÑĤÓ©Ð½":7183,"ÐµÑĪÐµÐº":7184,"ÐĲÐ£":7185,"ĠÐ´Ð°ÒĵÐ´Ð°ÑĢ":7186,"ĠÑĢÐµÐ´Ð°ÐºÑĨÐ¸ÑıÑģÑĭ":7187,"ĠÐľÓĻÐ¶ÑĸÐ»":7188,"iÐ½ÐµÐ½":7189,"ĠÐĲÑĢÐ°Ð±":7190,"ĠÐ°Ð¹Ð¼Ð°ÒĽÑĤÑĭÒĽ":7191,"ÐºÒ¯Ð½":7192,"ĠÑģÐ°ÑĢÐ°Ð¿ÑĤÐ°Ð¼Ð°":7193,"Ð±Ð¸Ð½":7194,"ÐĺÐ¯":7195,"ĠÐ¼ÑĭÑģÐ°Ð»Ñĭ":7196,"ĠÒĽÒ±Ð´Ð°Ð¹":7197,"ÑĤÐµÑĢÑĸÐ½Ð´Ðµ":7198,"ÑĸÑģÑĤÐµÑĢÑĸ":7199,"Ð±Ð°Ð±ÑĭÐ½ÑĭÒ£":7200,"ĠÐ±ÑĸÑĢÐµÐ³ÐµÐ¹":7201,"ĠÐ¼Ð°ÑĤÐµÑĢÐ¸Ð°Ð»Ð´Ñĭ":7202,"ĠÐ¶Ò¯ÑĢÐ³ÑĸÐ·ÑĸÐ»ÑĸÐ¿":7203,"ÑĭÐ»ÑĥÑĭÐ½":7204,"ĠÐ¶Ò¯ÑĢÐ³ÑĸÐ·ÐµÐ´Ñĸ":7205,"ĠÐ½ÓĻÑĤÐ¸Ð¶Ðµ":7206,"ĠÐ¿ÑĢÐ¾ÑĨÐµÑģÑģ":7207,"Ð°ÑĤÑĭÐ½Ñĭ":7208,"ĠÑģÐ°ÒĽÑĤÐ°ÑĥÒĵÐ°":7209,"39":7210,"ĠÐ¼ÐµÑĢÐµÐºÐµ":7211,"ĠÐ°Ð¹Ð¼Ð°ÒĵÑĭ":7212,"ĠÑĪÐµÐºÐºÐµÐ½":7213,"ÑĪÑĭÐ»Ð°ÑĢÑĭÐ½ÑĭÒ£":7214,"ĠÐ±Ð°ÑĤÑĭÐ¿":7215,"ÑĸÑģÐ¿ÐµÐ½":7216,"ĠÐµÑģÐµÐ±ÑĸÐ½":7217,"ĠÐ¼ÑĸÐ½Ð´ÐµÑĤÑĸÐ½":7218,"ĠÐ¶ÐµÑĤÐºÑĸÐ»ÑĸÐºÑģÑĸÐ·":7219,"ig":7220,"ĠÓ©Ð·Ð´ÑĸÐ³ÑĸÐ½ÐµÐ½":7221,"ĠÐ¼Ò±ÑĢÐ°":7222,"ĠÒĽÒ±ÑĢÑĭÐ»ÑĭÐ¼Ð´ÑĭÒĽ":7223,"ĠÒ°Ð¹ÑĭÐ¼":7224,",-":7225,"Ġ2019":7226,"ĠÑģÑĥÒĵÐ°":7227,"ĠÐ±Ð¾Ð»Ð¼Ð°Ð¹":7228,"ĠÐµÑĢÐµÐºÑĪÐµÐ»ÐµÐ½":7229,"ĠÐ°Ð²ÑĤÐ¾ÑĢÐ»ÑĭÒĽ":7230,"ĠÓ©ÑĤÐºÑĸÐ·ÑĥÐ³Ðµ":7231,"ĠÐºÓ©ÑĤÐµÑĢÐ¼ÐµÐ»ÐµÑĥ":7232,"ĠÑĸÑĪÑĸÐ½Ðµ":7233,"ĠÐ´ÐµÑĢÐµÐºÑĤÐµÑĢÐ´Ñĸ":7234,"ĠÐļÐ¾ÑĢÐµÑı":7235,"ÑĤÐµÑĢÐ°Ð¿":7236,"ĠÐļÑĸÑĪÑĸ":7237,"Ð°ÑĤÑĭÐ½Ð°":7238,"ĠÐ¼ÓĻÐ»ÑĸÐ¼ÐµÑĤÑĤÐµÑĢÐ´Ñĸ":7239,"ÑĦÐ°":7240,"ĠÑģÑĭÐ¹Ð»ÑĭÒĽ":7241,"Ð°Ð¶Ð°Ð¹ÑĭÐ¿":7242,"ĠÐºÒ¯Ð½Ð½ÑĸÒ£":7243,"ĠÒ±ÑģÑĭÐ½ÑĭÑģÑĤÐ°ÑĢÐ´Ñĭ":7244,"ĠÐ¶Ò±ÑĢ":7245,"ĠÑģÐ°ÒĵÐ°Ð½":7246,"ÑĸÐ»Ð´ÑĸÑĢ":7247,"ÐµÑģÑĸÐ½ÐµÐ½":7248,"ÑĭÒ£ÑĭÐ·Ð´Ð°ÑĢ":7249,"ĠÐ¶Ð°ÑĢÑĤÑĭÐ»Ð°Ð¹":7250,"ÒĵÐ¾Ð»":7251,"ĠÐ¼Ò±Ð½Ñĭ":7252,"ĠÐ¿Ð°ÑĤÑĪÐ°":7253,"Ð±Ð°ÒĵÐ°Ð½":7254,"ĠÐ¶Ó©Ð½ÐµÐ»":7255,"ĠÐ¼ÐµÑĤÐ°Ð»":7256,"ÑĸÐ¼Ð½ÐµÐ½":7257,"2019":7258,"Ð°Ð¹Ð¼ÑĭÐ½":7259,"ÑıÐ´":7260,"ĠÑįÑģÑĤ":7261,"ĠÐ±ÑĸÐ»Ð´Ñĸ":7262,"ĠÐĶÐ°Ð½":7263,"ĠÐ¼Ò±ÒĵÐ°Ð»ÑĸÐ¼Ð´ÐµÑĢÐ´ÑĸÒ£":7264,"ĠÑĤÓĻÐ¶ÑĸÑĢÐ¸Ð±ÐµÑģÑĸ":7265,"ÑģÑĭÐ·Ð´ÑĭÒĽ":7266,"Ð´ÐµÑģÑĤÑĸÑĢÑĥ":7267,"ĠÒ¯ÑģÑĤÑĸ":7268,"Ò¯Ð¹ÑĸÑĢ":7269,"ĠÐ°ÑĢÑĤÑĭÐ¿":7270,"ĠÑģÐµÐ½ÑĸÒ£":7271,"ĠÑĸÑģÑĤÐµÑĥÐ³Ðµ":7272,"Ð¾ÑģÐºÐ¾Ð¿Ð¸Ñı":7273,"ĠÐ¥Ð°Ð½":7274,"ĠÐ¶Ð¾Ð±Ð°Ð½Ñĭ":7275,"ĠÐ¾ÑĢÑĭÐ½Ð´Ð°ÑĢÑĭÐ½ÑĭÒ£":7276,"ĠÑĪÑĭÒĵÐ°ÑĢÐ°Ð´Ñĭ":7277,"ĠÐ±ÑĸÐ»Ð´ÑĸÑĢÑĸÐ¿":7278,"ĠÑĸÑĪÐµÐº":7279,"ĠÐ·Ð°Ò£Ð½Ð°Ð¼Ð°ÑģÑĭÐ½Ð°":7280,"oc":7281,"ĠÐ°Ð»ÑĥÑĭ":7282,"):":7283,"ĠÐ°Ð³ÑĢ":7284,"ĠÑĤÐµÐ»ÐµÐ°ÑĢÐ½":7285,"ĠÐ°Ð¹ÑĤÑĭÑģ":7286,"Ð¸Ð¼Ð¿Ð¸Ð°Ð´":7287,"ĠÐµÑģÑĤÑĸÐ³ÐµÐ½":7288,"ĠÐ¶ÐµÒ£ÑĸÐ»Ð´ÑĸÐº":7289,"WW":7290,"Ġ2005":7291,"ĠÑĤÒ±ÑĢÑĥÒĵÐ°":7292,"ĠÐĸÐµÐ·ÒĽÐ°Ð·ÒĵÐ°Ð½":7293,"Ð½ÐµÑĤ":7294,"ĠÐºÓ©Ð¼ÐµÐºÑĤÑĸÒ£":7295,"Ð¡Ð¢":7296,"ĠÑĤÐ°ÑĢÐ°Ð»":7297,"Ð°ÑĥÐ´Ð°":7298,"ÑĭÒĵÑĭÐ½Ð°Ð½":7299,"Ó¨Ð·ÑĸÐ½":7300,"ĠÐ¼Ð¾ÑĢ":7301,"ĠÐ´ÐµÐ³ÐµÐ½Ð´Ñĸ":7302,"ĠÑĤÐ°Ð¹Ð¿":7303,"ĠÐµÑĢÐµÑģÐµÐºÑĤÐµÑĢ":7304,"sh":7305,"ĠÑģÑĥÑĭÒĽ":7306,"ĠÐĳÓ©ÐºÐµÐ¹":7307,"ĠÐ³ÐµÐ¼":7308,"Ġ%":7309,"ĠÑģÐ¿":7310,"ÐĳÐ¢":7311,"ĠÐºÑĸÑĤÐ°Ð¿ÑħÐ°Ð½Ð°":7312,"ĠÐ¼Ð°ÑĤÐµÑĢÐ¸Ð°Ð»ÑĭÐ½":7313,"ĠÑĤÐ°ÑĢÐ¸ÑĦ":7314,"Ð§":7315,"ĠIÐĨ":7316,"ĠÑĤiÑĢÐºÐµÑĥ":7317,"ÑĤÐµÑĢÐ»ÑĸÐº":7318,"ĠÑĭÐ½ÑĤÐ°Ð»Ð°Ð½Ð´ÑĭÑĢÑĥ":7319,"ĠÐ¢Ó©Ð¼ÐµÐ½":7320,"54":7321,"ÑĸÑĢÑĤ":7322,"ÐºÑĥ":7323,"ĠÑĪÐµÑĢ":7324,"ĠÒĽÐ¾Ð»ÑĭÐ½Ð´Ð°":7325,"ĠÐ¼ÑĸÐ½":7326,"ÒļÐ¾ÑģÑĤÐ°Ð½Ð°Ð¹":7327,"Ġ2025":7328,"ĠÒ±Ð¼Ñĭ":7329,"ĠÐĳÐ¸Ð»ÑĸÐº":7330,"ĠÑĪÐµÑĪÑĸÐ¼ÑĸÐ½":7331,"Ð¸Ð»ÑĮÐ¼":7332,"Ð¾ÑĤÐµÐº":7333,"ĠÐ°Ð»ÒĽÐ°Ð¿":7334,"ĠÒĽÐ¸ÑĭÐ½Ð´ÑĭÒĽ":7335,"ĠÐºÐµÐ»ÐµÑĢ":7336,"ÑģiÐ·":7337,"ÑĤÑĤÐ°ÑĢÑĭÐ½ÑĭÒ£":7338,"ĠÐºÐµÐ´ÐµÐ½":7339,"ÐĸÐ¾ÒĵÐ°ÑĢÑĭ":7340,"ĠÒĽÐ°Ð·ÑĭÐ½Ð°ÑģÑĭ":7341,"ĠÒļÐ°Ð·Ð°Ð»Ñĭ":7342,"ĠÂ©":7343,"ĠÐºÐµÐ·ÐµÐºÑĤÐµ":7344,"ÑĤÐ¸Ð¿":7345,"ĠÒĽÒ±ÑĢÐ°Ð¹ÑĤÑĭÐ½":7346,"ĠÒĽÒ±ÑĢÐ¼ÐµÑĤÑĤÑĸ":7347,"Ð¸ÑĤÑĤÑĸÐº":7348,"ĠÑĤÒ±ÒĵÑĭÑĢ":7349,"ÒĽÐ°Ð¹Ð´Ð°":7350,"ĠÐ¼ÐµÐºÐµÐ½Ð¶Ð°Ð¹":7351,"ĠÒ±Ð¹ÑĭÐ¼Ð´Ð°ÑģÑĤÑĭÑĢÑĥÑĭÐ¼ÐµÐ½":7352,"ĠÐ´Ð¾Ð»Ð»Ð°ÑĢ":7353,"ĠÒĽÐ°Ð±ÑĸÐ»ÐµÑĤÑĸÐ½":7354,"ĠÐľÒ±ÑħÐ°Ð¼Ð¼ÐµÐ´":7355,"ĠÐļÐ¾Ð´ÐµÐºÑģ":7356,"ÐķÑĢÐºÑĸÐ½ÒĽÐ°Ð»Ð°":7357,"Ò®ÑĪ":7358,"Ġ2050":7359,"ĠÐ°Ð½Ð°ÑģÑĭ":7360,"ĠÐ¶Ð°Ð±Ð´ÑĭÒĽÑĤÐ°ÑĢ":7361,"Ð°Ð»Ð°ÑĢÐ´Ð°Ð½":7362,"ĠÒĽÐ°Ð¹ÑĤÐ°Ð´Ð°Ð½":7363,"ÑĪÐ°ÑģÑĭ":7364,"ÑĸÐ³ÑĸÐ¿":7365,"ĠÐ¾ÑĢÐ°Ð¹Ð´Ð°":7366,"ĠÐ´Ð°Ð¼ÑĭÐ¿":7367,"ĠÐ¼ÐµÑĢÐµÐºÐµÐ»ÑĸÐº":7368,"Ð¶ÑĭÐ»Ð´ÑĭÒĽ":7369,"ĠÐļÒ¯":7370,"ĠÐ¶Ò¯ÑĢÐµ":7371,"ĠÑĤÒ¯ÑĢÑĸÐ½":7372,"Ð»Ð°Ð½Ñĥ":7373,"ĠÑĤÐ°ÑģÑĤÐ°Ñĥ":7374,"ĠÑĭÒ£Òĵ":7375,"ĠÐ´Ð¾Ð¼Ð±ÑĭÑĢ":7376,"Ð¼Ð°ÒĽÑĤÑĭ":7377,"ĠÑĤÐµÑģÑĤÑĸÐ»ÐµÑĥ":7378,"ĠâĢ¦":7379,"ĠÐ¼Ò±ÑĢÐ°ÒĵÐ°ÑĤ":7380,"ÐµÐ¹Ð¼ÐµÐ½":7381,"ĠÐ°Ð´Ð°Ð¼Ð³ÐµÑĢÑĪÑĸÐ»ÑĸÐº":7382,"ĠÐ±Ð¾ÐºÑģÑĪÑĭ":7383,"ĠÐºÓ©Ð·ÒĽÐ°ÑĢÐ°ÑģÑĭ":7384,"ĠÑĦÐ¸Ð»Ð¸Ð°Ð»ÑĭÐ½ÑĭÒ£":7385,"Ò¯ÑģÑĸÐ¿":7386,"ĠÐĲÐ»ÑĮ":7387,"ĠÒĽÐ°ÑĤÑĭÑģÑĥÑĪÑĭ":7388,"ĠÑģÑĥÐ¼ÐµÐ½":7389,"ĠÐ¶Ò±Ð¼ÑĭÑģÑĤÐ°ÑĢÑĭÐ½ÑĭÒ£":7390,"Ð¶ÑĭÐ½":7391,"ĠÐ¾ÑĢÑĭÐ½Ð´Ð°ÑĥÒĵÐ°":7392,"ÒĽÐ°ÑĤÑĭÐ½":7393,"ĠÐ±Ð°ÑĤÑĭÐ»":7394,"ĠÑĪÑĭÒĵÐ°ÑĢÒĵÐ°Ð½":7395,"ĠÐ±Ó©Ð»ÑĸÐ½ÑĸÐ¿":7396,"ÓĻÐ´ÑĸÑģÑĤÐµÐ¼ÐµÐ»ÑĸÐº":7397,"ÐĲÐ¹ÑĤÐ°":7398,"ÑıÑĤ":7399,"ÑĤÑĭÐ¼ÑĭÐ·":7400,"ĠÒĵÑĭÐ»ÑĭÐ¼Ð´Ð°ÑĢ":7401,"ĠÐ´Ð°ÒĽÑĭÐ»":7402,"Ð¸Ð°Ð½":7403,"ÑĭÑĢÐ·":7404,"ĠÑģÑĤÐ°ÑĤÐ¸ÑģÑĤÐ¸ÐºÐ°":7405,"2012":7406,"ĠÒĽÐ¾ÑĢÒĵÐ°Ð»ÑĥÑĭÐ½":7407,"Ð³Ñĥ":7408,"ĠÐĺÓĻ":7409,"ĠÐĳÐµÐ»Ð°ÑĢÑĥÑģÑĮ":7410,"ĠÐºÐµÐ´ÐµÐ¹":7411,"ĠÐ½ÓĻÑĢÑģÐµÐ½":7412,"ĠÐºÓ©Ð±ÑĸÐ½Ðµ":7413,"ĠÐ¶Ð°Ò£Ð°Ð´Ð°Ð½":7414,"ĠÐ±Ð°ÑģÒĽÐ°ÑĢÐ¼Ð°ÑģÑĭÐ¼ÐµÐ½":7415,"ĠÑĤÐ°ÑĢÑĤÑĥÒĵÐ°":7416,"ĠÐµÐ¼ÑĤÐ¸ÑħÐ°Ð½":7417,"ĠÐ¶Ò¯Ð¹ÐµÑģÑĸÐ½Ðµ":7418,"ÐºÑĸÐ¼ÐµÐ½":7419,"Ð¾Ð¸Ð´":7420,"Ð¾ÑĢÐ²":7421,"ĠÐĳÐ°Òĵ":7422,"ĠÑĤÐ°Ð±ÑĭÐ»ÒĵÐ°Ð½":7423,"ĠÐºÓ©ÑĢÐ½":7424,"ĠÐºÐµÐ·Ð´ÐµÑģÑĥÑĸÐ½Ðµ":7425,"ĠÐ±Ò±ÑĢÑĭÑĪ":7426,"ĠÒĽÐ°Ò£":7427,"ĠÐ¡Ð°Ð±Ð°ÒĽÑĤÑĭÒ£":7428,"ĠÑģÑĥÐ±ÑĬÐµÐº":7429,"ĠÐ¶ÑĸÐ±ÐµÑĢÐ³ÐµÐ½":7430,"ÑıÐ´Ñĭ":7431,"ĠÒĽÐ¾Ð»ÑĤÐ°Ò£":7432,"Ð¸ÐºÐ¸":7433,"ĠÐ»Ð°Ð³ÐµÑĢ":7434,"Ð´Ð°ÑģÑĤÑĭÑĢÑĥ":7435,"ĠÒ¯Ð¹ÑĸÐ½Ð´Ðµ":7436,"ĠÒ±Ð¹ÑĭÐ¼Ð´Ð°ÑĢÑĭ":7437,"iÐ»ÐµÐ´i":7438,"ĠÐ´Ð°ÑĢÑĭÐ½Ð´Ñĭ":7439,"ĠÑĪÐ°Ð¹ÒĽ":7440,"ĠÑĢÐµÑĦÐµÑĢÐ°ÑĤ":7441,"ĠÐ¾ÒĽÑĥÐ»ÑĭÒĽ":7442,"Ġ*":7443,"Ð°Ð·Ð¸ÑıÐ»ÑĭÒĽ":7444,"ĠÐ¼Ð°ÑĢÐºÐµÑĤÐ¸Ð½Ð³":7445,"ÑĤÐ¾Ð»":7446,"ĠÑĸÐ½":7447,"ĠÐ¼Ò±ÑĢÐ°Ð¶Ð°Ð¹":7448,"ÐµÑĢÐ»ÐµÐ¿":7449,"Ð¿Ð»Ð°Ð½ÑĤÐ°ÑĨÐ¸Ñı":7450,"ÐºÓ©":7451,"ĠÓĺÐ±ÑĸÐ»":7452,"ĠÐ´Ð°Ð»Ð°":7453,"ĠÓĻÐ»ÑģÑĸÐ·":7454,"ÐķÐĽ":7455,"ĠÐ¶ÐµÑĤÐºÑĸÐ·Ð³ÐµÐ½":7456,"ĠÑģÑĤÐ°ÑĤÐ¸ÑģÑĤÐ¸ÐºÐ°Ð»ÑĭÒĽ":7457,"ĠÑĢÐ¸Ð·Ð°":7458,"ĠÓĻÐ´ÑĸÑģÑĤÐµÑĢÑĸ":7459,"ĠÒĽÐ°Ð½ÑĪÐ°Ð»ÑĭÒĽÑĤÑĭ":7460,"ĠÐ¾Ð±Ð»ÑĭÑģÑĤÑĭÒ£":7461,"ot":7462,"ÑĤÐµÑĥÑĸÑĢ":7463,"ĠÑģÐµÐ·ÑĸÐ½":7464,"ĠÐ³Ó©ÑĢ":7465,"ĠÓ©Ð¼ÑĸÑĢÐ´ÑĸÒ£":7466,"ÑĤÐµÑģÐµ":7467,"Ð°ÑģÐ¿Ð¸Ð¹":7468,"ĠÒ°ÑģÑĤÐ°Ð·":7469,"ĠÐ¼Ð°Ð¼Ð°Ð½Ð´Ð°ÑĢÑĭ":7470,"ĠÐ¶Ð¾Ð»Ð´Ð°ÑĢÑĭÐ½":7471,"ĠÐ±Ð°Ð·Ð°ÑĢ":7472,"ÑĨÑĥÐ·":7473,"ĠÐĸÐ°Ð¿Ð¾Ð½":7474,"ĠÐĲÐ·Ð°Ð¼Ð°ÑĤÑĤÑĭÒĽ":7475,"ĠÑģÑĤÑĢÐ°ÑĤÐµÐ³Ð¸ÑıÑģÑĭÐ½":7476,"ĠÐ±Ð¾Ð»Ð°ÑĤÑĭÐ½ÑĭÐ½":7477,"ĠÑĤÐ°Ð¼Ð°ÑĪ":7478,"ÒĽÑĭÐ½ÑĭÒ£":7479,"ĠÐ±Ò±Ð¹":7480,"Ð¸ÑĨÐµ":7481,"ĠÐ´ÐµÐ½ÑģÐ°ÑĥÐ»ÑĭÒĵÑĭ":7482,"ĠÒ±Ð¼ÑĤÑĭÐ»":7483,"ÐĸÐµÑĤÑĸÐ¼":7484,"Ð¶ÐµÐ¹":7485,"ĠÐĺÐ¼Ð¿Ð»Ð°Ð½ÑĤÐ°ÑĨÐ¸Ñı":7486,"ĠÐ±Ð°ÑĢÑĭÑģÑĭ":7487,"ĠÐ¢Ò¯":7488,"ĠÒĽÐ°Ð¼ÑģÑĭÐ·Ð´Ð°Ð½Ð´ÑĭÑĢÑĥ":7489,"ĠÑĤÐ¾Ð»ÒĽÑĭÐ½":7490,"ĠÑĦÑĥÐ½ÐºÑĨÐ¸ÑıÐ»Ð°ÑĢÐ´Ñĭ":7491,"ÑĭÐ»ÑĥÐ´Ð°":7492,"ĠÐ´Ð¾ÑģÑĤÐ°ÑĢ":7493,"ĠÐ¶Ð°Ð»ÒĵÐ°":7494,"ÑĥÑģÑĤÐ°ÑĢ":7495,"ÐµÑĤÑĸÐ½ÑĸÐ½":7496,"ĠÑģÑĤÐ°Ð½Ð´Ð°ÑĢÑĤÑĭÐ½":7497,"iÐ½ÑĪi":7498,"Ð¡ÐµÑĢ":7499,"ÐŀÐ½ÑĭÒ£":7500,"ĠÐºÓ©ÑĪÐµ":7501,"ÒĽÐ¾Ð½":7502,"ĠÑģÒ¯Ð¹ÐµÐº":7503,"ĠÑĤÓ©ÑĢÐ°ÒĵÐ°ÑģÑĭÐ½ÑĭÒ£":7504,"ĠÐĳÒ°Ò°":7505,"ĠÐ±Ð°ÑģÐ¿Ð°Ð½":7506,"ÐĳÑĸÐ»":7507,"ÐµÑĪÐµÐ¼":7508,"ĠÐ¾ÒĽÑĭÑĤÑĥÐ´ÑĭÒ£":7509,"ĠÐĳÒ±ÑĢÑĭÐ½":7510,"ÑĨÐ¸Ð½":7511,"iÐ½i":7512,"tar":7513,"ĠÑĪÐ°ÑĢÐ°Ð»Ð°ÑĢÐ´Ñĭ":7514,"Ð°Ð½Ð¸Ðµ":7515,"ÑĢÐµÐ½":7516,"ĠÒĽÐ¾Ð»ÑĭÐ¼ÐµÐ½":7517,"ĠÑĤÐ°Ð»Ð°Ð½":7518,"ÐĳÒ¯":7519,"ĠÐºÐ¾Ð½ÐºÑĥÑĢÑģÒĽÐ°":7520,"ÑĪÑĭÐ½Ñĭ":7521,"ĠÐ¡Ð¾ÑĤ":7522,"ĠÐ°ÑĤÒĽÐ°ÑĢÐ°Ð´Ñĭ":7523,"ÑĪÐ°Ð½ÑĭÒ£":7524,"ĠÑĪÐ°ÑĢÑĥÐ°ÑĪÑĭÐ»ÑĭÒĵÑĭÐ½":7525,"Ð°Ñİ":7526,"ÐĸÒ¯ÑĢ":7527,"ÐĨÑĪ":7528,"ĠÑĤÐ°Ð½ÑĭÐ¼":7529,"ĠÓĻÐ½ÑĪÑĸ":7530,"ĠÐ°ÑĤÐ°Ð»Ð¼ÑĭÑĪ":7531,"Ð¾Ð¿ÐµÑĢ":7532,"Ð¸ÐµÑĤÑĤÑĸ":7533,"ĠÒĽÐ¾Ð½ÑĭÑģ":7534,"ĠÑĤÓ©ÑģÐµÐº":7535,"ÑĤÑĭÐ»ÑĭÒĵÑĭ":7536,"Ġ95":7537,"ÑĩÐµÐ½ÐºÐ¾":7538,"48":7539,"ĠÐ¼Ð¾Ð´":7540,"ĠÐºÐµÐ´ÐµÑĢÐ³ÑĸÐ»ÐµÑĢ":7541,"Ð°ÑĢÑĭÐ½":7542,"Ð¡Ð°Ð±Ð°ÒĽ":7543,"ĠÐ¸Ð·":7544,"ĠÐµÑĪÒĽÐ°ÑĪÐ°Ð½":7545,"ÑĤÐ°Ð»ÑĮ":7546,"ÑĭÑĢÑĭÐ¿":7547,"Ð´ÐµÑĢÐ¼ÐµÐ½":7548,"ĠÐ¶Ð¾ÒĵÐ°ÑĢÑĭÐ´Ð°":7549,"ĠÐ¶Ò¯ÑĢÐ³ÑĸÐ·ÑĸÐ»Ð´Ñĸ":7550,"Ð´Ð°Ð½ÒĵÐ°Ð½":7551,"ĠÐĲÐ»Ð»":7552,"ĠÒĽÒ±ÑĤÑĤÑĭÒĽÑĤÐ°Ñĥ":7553,"Ð¸ÑĨÐµÐ¹":7554,"ĠÒļÐ°Ð»Ð°":7555,"ĠÒĽÐ¸ÑĭÐ½Ð´ÑĭÒĽÑĤÐ°ÑĢ":7556,"ĠÒĽÐ°ÑģÐ¸ÐµÑĤ":7557,"ÑĢÐ¾Ð·":7558,"Ð¡Ò°":7559,"Ð¾Ð²Ð°Ð½ÑĭÒ£":7560,"ĠÐ°Ð±ÑĭÑĢÐ¾Ð¹":7561,"ĠÓ¨Ð½":7562,"ĠÐ¶Ð°ÑĢÑĭÐ¼":7563,"Ð½Ð°Ð¹Ñĭ":7564,"ÐºÐµÑĢÐ»ÐµÑĢÑĸ":7565,"ĠÐ°ÒĵÐ°Ð¹ÑĭÐ½":7566,"Ġ2000":7567,"ĠÒĽÑĭ":7568,"Ð°Ð²Ðº":7569,"ĠÑĥÐ°ÒĽÑĭÑĤÑĭÐ½Ð´Ð°":7570,"ĠÒĽÐ°ÑĢÐ°ÑĪÐ°Ð´Ð°":7571,"ĠÐ¢Ó©ÑĢÐ°Òĵ":7572,"ĠÐ°Ð»Ð¿":7573,"Ð°ÑģÐ°Ð½":7574,"ĠÐ¡ÓĻÑĥÑĸÑĢ":7575,"ĠÐ¿ÑĸÑģÑĸÑĢ":7576,"ĠÒļÑĭÐ·Ð¼ÐµÑĤ":7577,"ĠÐĲÐ±ÑĭÐ»Ð°Ð¹":7578,"ĠÐ±Ð°ÒĵÐ°Ð»":7579,"ĠÐ¿Ð°Ð»Ð°ÑĤ":7580,"ÒĵÒ±ÑĢÐ»ÑĭÐ¼":7581,"ĠÐ¶Ð°ÑģÐ°Ð¼":7582,"ĠÒĽÑĭÐ¼ÑĭÐ·Ñĭ":7583,"ĠÐ±Ò±Ð¹ÑĢÑĭÒĵÑĭÐ¼ÐµÐ½":7584,"ĠÐ¿Ð°ÑĢÑĭÐ·":7585,"Ð°Ð»ÑĤÑĥ":7586,"ĠÑĥÓĻÐºÑĸÐ»Ñĸ":7587,"ĠÐ±Ð°ÒĵÐ´Ð°ÑĢÐ»Ð°Ð¼Ð°Ð»ÑĭÒĽ":7588,"ĠÑĪÑĸÐ»Ð´ÐµÐ´ÐµÐ³Ñĸ":7589,"ub":7590,"ĠÐĵÐµÑĢÐ¼Ð°Ð½Ð¸Ñı":7591,"staz":7592,"ĠÐ¶Ò¯Ð¹ÐµÑģÑĸÐ½Ð´ÐµÐ³Ñĸ":7593,"ĠÐºÓ©ÑĢÑĸÐ½ÑĸÑģÑĸ":7594,"ĠÐ¶Ð°Ð»ÒĵÐ°ÑģÑĤÑĭÑĢÑĥ":7595,"ÒļÐ°Ð·Ð°ÒĽÑģÑĤÐ°Ð½Ð´Ð°":7596,"ĠÐ¶ÓĻ":7597,"ĠÑľ":7598,"ĠÐ¾Ò£ÑĤ":7599,"Ð°ÑıÒĵÑĭ":7600,"ĠÐ¼Ò±Ð·":7601,"ÑĭÒ£Ð°":7602,"ĠÑĭÒĽÑĤÐ¸Ð¼Ð°Ð»":7603,"ĠÒĽÒ±ÑĢÐ°Ð¼ÑĭÐ½ÑĭÒ£":7604,"ÐµÐ²ÑĢ":7605,"Ò»Ð°ÑĢ":7606,"100":7607,"ĠÑģÑĤÑĢ":7608,"ĠÐ¶Ð°Ð½ÑĢ":7609,"ĠÐ±ÑĸÐ»ÐµÐ¼":7610,"ĠÑģÐ°Ð½Ð°ÑĤÑĤÐ°ÒĵÑĭ":7611,"ĠÒ±Ð¹ÑĭÐ¼Ð´Ð°ÑģÑĤÑĭÑĢÑĭÐ»Ð´Ñĭ":7612,"ÐĲÐ»ÑĤÐ°Ð¹":7613,"ĠÓĻÑģÐµÑĢÑĸÐ½":7614,"Ð´ÐµÐ±Ð¸ÐµÑĤ":7615,"ÐłÐµÑģÐµÐ¹":7616,"ĠÐ¸Ð½ÑĤÐµÐ»":7617,"ĠÒĽÐ°ÑģÐ¸ÐµÑĤÑĤÐµÑĢ":7618,"ĠÐºÑĸÑģÑĸÐ½ÑĸÒ£":7619,"ÐµÑĪÐµÐ»ÑĸÐº":7620,"ĠÐ±Ð°ÒĵÐ°Ð½":7621,"ĠÐĲÒĽÐ¿Ð°Ð½":7622,"ĠÑĤÐ°Ð±ÑĥÒĵÐ°":7623,"Ð³ÑĸÐ»ÑĸÐ³Ñĸ":7624,"Ð¤Ð°ÑĢÐ°Ð±Ð¸":7625,"ĠÐľÐ°ÑĤÐµÐ¼Ð°ÑĤÐ¸ÐºÐ°":7626,"ĠÑĪÓ©Ð»":7627,"Ġ1993":7628,"ĠÐ°Ð½ÑĭÒĽÑĤÐ°Ð¹Ð´Ñĭ":7629,"ĠÓĺÐ½":7630,"Â²":7631,"ÑĭÐ»ÑĤÐ°Ð½":7632,"ĠÐ¾ÑĢÑĤÐ°Ð½Ñĭ":7633,"ĠÐºÐµÐ»Ð¼ÐµÐ¹Ð´Ñĸ":7634,"ĠÐºÓ©ÑĢÑĸÐ½Ð´Ñĸ":7635,"ĠÓĻÐºÑĸÐ¼Ð´ÑĸÐº":7636,"ĠÐ¶Ð°ÑģÑĭ":7637,"ĠÐ¡Ð°Ð¼":7638,"ĠÐºÐµÐ¹iÐ½":7639,"ĠÒĽÒ±ÑĢÐ°Ð»Ð´Ð°ÑĢÑĭÐ½ÑĭÒ£":7640,"ĠÒĽÒ±ÑĢÐ°Ð»Ð´Ð°ÑĢÑĭÐ½":7641,"Ð»Ð¸Ñı":7642,"ĠÒļÐ°Ð¹ÑĢÐ°ÑĤ":7643,"ĠÐ´ÐµÐ½ÑģÐ°ÑĥÐ»ÑĭÒĵÑĭÐ½Ð°":7644,"ĠÐ¼ÐµÐ´Ð°Ð»ÑĮ":7645,"ĠÐĹÐ°Ò£ÑĭÐ½ÑĭÒ£":7646,"ĠÑĤÐ°Ð»Ð°Ð¿ÑĤÐ°ÑĢÑĭÐ½":7647,"ook":7648,"ĠÑįÐºÑģÑĤÐµÑĢ":7649,"ĠÒ±Ð·Ð°ÒĽÑĤÑĭ":7650,"ĠÑģÓ©Ð·ÑģÑĸÐ·":7651,"ĠÐºÒ¯Ð½Ð´ÐµÑĢÑĸÐ½ÑĸÒ£":7652,"Ð°Ð¹ÑĤÒ±ÑĢ":7653,"Ð»Ð°Ð½Ð´":7654,"ĠÒĽÐ°ÑĤÐ°ÑĢÑĭÐ½Ð´Ð°":7655,"ĠÒ±ÑģÑĭÐ½ÑĭÐ»Ð°Ð´Ñĭ":7656,"iÐ¼ÐµÐ½":7657,"Ð²Ð°ÑĢ":7658,"ĠÒĽÑĭÐ·Ð¼ÐµÑĤÑĤÐµÑĢÑĸÐ½":7659,"Ð³ÐµÐ½ÑĸÒ£":7660,"ĠÒĽÐ°ÑĢÐ°ÑģÑĤÑĭÑĢÑĭÐ»ÒĵÐ°Ð½":7661,"ĠÑĸÑĪÑĸÐ½":7662,"ÑĤÓ©":7663,"ĠÐ°ÑĤÑĤÐµÑģÑĤÐ°ÑĤÑĤÐ°Ñĥ":7664,"ĠÐ¶Ð°Ð½ÑĥÐ°ÑĢÐ»Ð°ÑĢ":7665,"ĠÐ°Ð»Ð¼Ð°Ð´Ñĭ":7666,"ÐĲÒĽÐºÓ©Ð»":7667,"ĠÐĲÐ»ÒĵÐ°ÑĪÒĽÑĭ":7668,"ĠÑįÐ½":7669,"ĠÐĸÐĨ":7670,"ĠÐ±ÐµÑĢÐ¼ÐµÐ¹":7671,"ĠÑģÓ©Ð¹Ð»ÐµÐ³ÐµÐ½":7672,"Ð¶Ð¸":7673,"ÑĭÐ»Ð¼Ð°Ð¹Ð´Ñĭ":7674,"Ð¸ÐºÑĤÐµÑĢ":7675,"ĠÐ¾Ð½Ð´Ð°Ð¹":7676,"ÑĶ":7677,"ÑĸÐ³ÑĸÐ½":7678,"ĠÐ¶ÑĸÐ±ÐµÑĢÑĸÐ¿":7679,"ĠÐ¸Ð¼Ð¿ÐµÑĢ":7680,"ĠÑģÐ¸Ð¿Ð°ÑĤÑĤÐ°Ð»Ð°Ð´Ñĭ":7681,"Ð°ÑĥÐ°Ð¿":7682,"Ð°Ð¹Ð½":7683,"ãģ":7684,"ĠÑĤÒ±ÑĢÑĥ":7685,"ĠÐ°Ð»ÑĥÐ´ÑĭÒ£":7686,"ĠÐľÐµÐ¹":7687,"Ò±ÑĢÐ°ÒĽ":7688,"pt":7689,"ÑģÐºÐ°Ñı":7690,"ĠÐºÓ©Ð»ÐµÐ¼ÑĸÐ½ÑĸÒ£":7691,"ĠÐĸÐ°ÒĽÑģÑĭ":7692,"ht":7693,"ÑĤÑĤÑĭÒ£":7694,"ÑģÐ¼":7695,"ĠWWW":7696,"ĠÐºÐµÒ£ÑĸÑģÑĤÑĸÐº":7697,"ir":7698,"ĠÐ°ÑĤÐ°Ð¹Ð´Ñĭ":7699,"ĠÐ°ÑĥÐ´Ð°ÑĢÑĭÐ¿":7700,"ĠÐ±Ð°Ð½":7701,"ĠÐ±Ð°ÒĵÑĭÑĤÑĭÐ½Ð´Ð°":7702,"ĠÑģÑĸÒ£ÑĸÑĢÐ³ÐµÐ½":7703,"Ð³ÐµÑĢÐ´ÑĸÒ£":7704,"ĠÐ°ÒĽÐ¿Ð°ÑĢÐ°ÑĤÑĤÑĭÒ£":7705,"Ð°Ð¹ÑĤÒ±ÑĢÑģÑĭÐ½":7706,"ÑĤÐ¾ÒĽÑģÐ°Ð½ÑĭÐ½Ð´Ð°":7707,"ĠÐ»Ð°Ð¹ÑĭÒĽÑĤÑĭ":7708,"ĠÐ¶Ò±Ð¼ÑĭÑģÑĤÐ°ÑĢÐ´ÑĭÒ£":7709,"ĠÐ¶Ð°ÑĢÐ¸ÑıÐ»Ð°Ð½Ð´Ñĭ":7710,"Ð°ÒĵÑĭÐ½ÑĭÒ£":7711,"ĠÒļÐ°ÑĢÐ°ÑĤÐ°Ñĥ":7712,"ĠÑĪÐ¾ÒĵÑĭÑĢ":7713,"ĠÐ·Ð¸ÑıÐ½Ð´Ñĭ":7714,"Ð¿ÐµÐ»Ñĸ":7715,"ĠÐ¶ÐµÑĢÐ´Ñĸ":7716,"ĠÐ¼Ð¾Ð¹Ð½":7717,"ĠÒĽÐ¾ÑĢÒĵ":7718,"ĠÒ¯Ð»Ð³ÑĸÐ»ÐµÑĢÑĸÐľÐ°ÑĤÐµÐ¼Ð°ÑĤÐ¸ÐºÐ°":7719,"ĠÐ°ÑĤÐ°ÒĽÑĤÑĭ":7720,"ĠÒĽÒ±ÑĢÐ°ÑģÑĤÑĭÑĢ":7721,"ĠÑĪÓ©":7722,"ĠÐµÐ³ÑĸÐ½":7723,"ÐļÒ¯Ð½":7724,"ĠÐ¿ÑĢÐ¾ÐºÑĥÑĢÐ¾ÑĢ":7725,"ĠÑįÐºÑģÐ¿ÐµÐ´Ð¸ÑĨÐ¸Ñı":7726,"ÐĳÐ°Ð»Ð°ÒĵÐ°":7727,"Ġ38":7728,"ĠÐ¼Ð°Ð¹Ð´Ð°Ð½":7729,"ĠÓ©ÑĤÐºÑĸÐ·Ð³ÐµÐ½":7730,"paÒĽ":7731,"ĠÑģÐ°Ò£":7732,"ĠÐºÐ°Ð´":7733,"ÓĻÐ»ÐµÐ¼":7734,"Ð´ÐµÐ¼Ðµ":7735,"ĠÐ°Ð²ÑĤÐ¾ÑĢÑĭ":7736,"ĠÐļÓ©ÑĪ":7737,"ĠÐ¶Ò±Ð»":7738,"Ð±ÑĢÐ°Ð·":7739,"ĠtaÒĽ":7740,"Ð¼Ð°ÑģÑĭÐ½":7741,"Ð¿Ð°Ð¹ÑĤÑĭÐ½":7742,"ĠtaÒĽpaÒĽ":7743,"ĠÐĳÐĲÒ°Ðŀ":7744,"ĠÐ±Ð°ÑĢÐ´Ñĭ":7745,"Ð°Ð¼Ð°Ð·Ð°Ð½":7746,"ĠÐľÒ±ÑħÑĤÐ°ÑĢ":7747,"iÐ»ÐµÑĤiÐ½":7748,"ĠÒĽÐ°ÑĢÐ°ÑĪÐ°Ð´Ð°ÒĵÑĭ":7749,"ĠÐĸÐ°ÑĢÐ½Ð°Ð¼Ð°":7750,"Ð¸ÒĵÐ°ÑĪ":7751,"ĠÐĸÐ¾Ð±":7752,"ĠÑįÐºÑģÑĤÐµÑĢÐ½Ð°ÑĤ":7753,"ĠÐ°ÑĤÑĭÐ½Ð°":7754,"ĠÒĽÐ°ÑĢÑĭÐ½":7755,"Ð´ÑĥÐ»":7756,"ĠÐ»Ð°ÒĽ":7757,"ĠÐ±Ð¸Ð¾Ð»Ð¾Ð³Ð¸Ñı":7758,"ĠÐ¾ÑģÑĭÐ´Ð°Ð½":7759,"ĠÐºÑĸÑĢÐ´Ñĸ":7760,"ÐĸÐ°Ð·":7761,"ÑĤÐ°ÑĢÐ´Ð°Ð½":7762,"ĠÐ±Ð°ÑģÑĥ":7763,"ĠÓ©Ð»ÐµÒ£Ð´ÐµÑĢÑĸ":7764,"ÒĵÑĭÐ»Ñĭ":7765,"ĠÓĻÑĢÒĽÐ°Ð¹Ñģ":7766,"hy":7767,"ĠÒĽÑĭÐ·Ð¼ÐµÑĤÑĤÐµÑĢÑĸ":7768,"ÑĪÑĭÐ»ÑĭÒĵÑĭÐ½Ð°":7769,"Ġ2004":7770,"ĠÐĲÐ¼ÐµÑĢÐ¸ÐºÐ°":7771,"ĠÑģÓĻÑĤÑĤÐµ":7772,"Ð¿ÐµÐ³ÐµÐ½":7773,"ĠÓĺÐ´ÑĸÐ»ÐµÑĤ":7774,"Ð°ÒĵÐ°ÑĤÑĭ":7775,"ĠÐĺÐ½ÑĦÐ¾ÑĢÐ¼":7776,"ĠÑĥÐ°ÒĽÑĭÑĤÒĽÐ°":7777,"ĠÑģÐµÑĢÑĸÐºÑĤÐµÑģÑĤÑĸÐº":7778,"ĠÐ¿ÓĻÐ½ÑĸÐ½ÑĸÒ£":7779,"Ð¼Ð°ÑĤÐ¸ÐºÐ°Ð»ÑĭÒĽ":7780,"ĠÓĻÐºÐµÑģÑĸ":7781,"ÑĤÐ°Ð»ÑĭÒĽ":7782,"ĠÑģÑĨÐµÐ½Ð°ÑĢÐ¸Ð¹":7783,"ĠÐ¶ÐµÒ£ÑĸÐ¿":7784,"ĠÐ¿Ð°Ñģ":7785,"ĠÑĪÐ°Ð¼Ð°ÑģÑĭÐ½Ð´Ð°":7786,"ÒļÒ±ÑĢÐ¼ÐµÑĤÑĤÑĸ":7787,"ÑĤÐ°Ð»Ð°ÑĤÑĭÐ½":7788,"ĠÓĻÑĢÐ´Ð°Ð¹ÑĭÐ¼":7789,"ĠÐ°Ð»ÑĭÐ½ÑĭÐ¿":7790,"ow":7791,"ĠÐ±Ð°Ð»Ð°Ð»Ð°ÑĢÑĭ":7792,"ĠÑģÐ¾Ð¼Ð°ÑģÑĭ":7793,"ĠÐĶÐµÐ¼ÐµÐº":7794,"ĠÐ´Ð¾Ð·":7795,"ÐµÑĪÐµÐ³Ñĸ":7796,"Ð¼Ð°ÑģÐ°":7797,"azaq":7798,"ĠÒĽÐ¾Ð½Ð°ÒĽÑĤÐ°ÑĢ":7799,"ĠÐ¶Ð°ÑĤÒĽÐ°Ð½Ð´Ð°":7800,"Ð³ÐµÐ»Ð´Ñĸ":7801,"Ð¸Ð½Ð°Ð¼":7802,"ĠÐ°ÑĪÒĽÐ°Ð½":7803,"ĠÐ¼Ò¯Ð»Ð´Ðµ":7804,"ĠÑĪÐ¾ÑĤ":7805,"ĠÐĸÐĨÓ¨":7806,"ĠÐ¾ÑĢÐ½ÑĭÐ½Ð°Ð½":7807,"ĠÐ¼Ð°ÑĥÑģÑĭÐ¼ÑĭÐ½Ð´Ð°ÒĵÑĭ":7808,"ÑĭÐ¼Ð´Ð°ÒĵÑĭ":7809,"ĠÐ°ÑĤÐ°ÑĥÐ»Ñĭ":7810,"ĠÐºÓĻÑģÑĸÐ¿ÐºÐµÑĢÐ»ÑĸÐºÑĤÑĸ":7811,"ĠÐ¶Ð¾Ð±Ð°Ð»Ð°Ñĥ":7812,"ĠÐ¼ÐµÐºÐµÐ½Ð´ÐµÑĢÐ´Ðµ":7813,"Ð°ÑĢÒĵÐ°":7814,"ĠÐ¼Ó©Ð»ÑĪÐµÑĢÐ»ÐµÐ¼":7815,"ĠÑĢÐ°ÑģÑĤÐ°Ð¹ÑĤÑĭÐ½":7816,"ĠÐ¶Ð¾Ð»Ð´Ð°Ð¼Ð°":7817,"ĠÒĽÒ±ÒĽÑĭÒĽÑĤÐ°ÑĢÑĭÐ½Ð°Ð½":7818,"ĠÒĽÑĭÐ·ÑĭÒĵÑĥ":7819,"ĠÐºÓ©ÑĢÐµÐ´Ñĸ":7820,"ĠÒ¯Ð·Ð´ÑĸÐºÑģÑĸÐ·":7821,"ĠÐ¿ÑĥÐ½":7822,"ÑĭÒĵÑĭÑĢÐ°ÒĽ":7823,"ĠÒĽÐ°ÑĢÑģÐ°Ò£":7824,"ÑģÐµÑĢÐ²":7825,"ĠÒĽÐ¾Ð¹ÑĭÐ»Ð´Ñĭ":7826,"ĠÐµÐºÐµÑĥÑĸ":7827,"ĠÐ±ÑĸÐ»Ð´ÑĸÑĢÑĥ":7828,"COM":7829,"ÐĳÐ°ÒĵÐ´Ð°ÑĢÐ»Ð°Ð¼Ð°":7830,"ĠÑĤÐ°ÑĢÐ¸ÑħÑĭÐ½Ð´Ð°":7831,"55":7832,"ĠÐ±Ð¾Ð¹ÑĭÐ½Ð´Ð°ÒĵÑĭ":7833,"ĠÐ¶ÓĻÑĢÐ´ÐµÐ¼Ð´ÐµÑģÐµÑĤÑĸÐ½":7834,"ÑĤÑĸÐ½Ð´Ñĸ":7835,"ĠÐ°ÑĪÐ°":7836,"ĠÐ¶Ð°Ð·Ð´Ñĭ":7837,"ĠÐ¶Ò¯ÑĢÐ³ÑĸÐ·ÑĸÐ¿":7838,"Ð·Ð³Ñĸ":7839,"ĠÐ¶ÑĸÐ±ÐµÑĢÐµÐ´Ñĸ":7840,"ĠÐ°ÑĪÑĭÐ»Ñĥ":7841,"Ð¶ÐµÐºÐµÑĪÐµÐ»ÑĸÐº":7842,"ÑĦÐ¸ÑĨ":7843,"ÑģÐ°Ð»ÑĭÑģ":7844,"Ð°ÑĤÐ°Ð»":7845,"ĠÐ¢ÑĥÑĢ":7846,"ĠÑħÐ°Ð½Ð½ÑĭÒ£":7847,"ĠÑĢÐµÐ¹ÑĤ":7848,"ĠÐ°ÑĥÑĭÐ»ÑĭÐ½ÑĭÒ£":7849,"ĠÑĢÐµÐ·ÐµÑĢÐ²":7850,"ÐŀÐĽ":7851,"ĠÐºÓ©ÑĢÑĥÐ³Ðµ":7852,"Ð¡Ð¢ÐĲÐĿ":7853,"Ð¼Ð±":7854,"ÒļÐ°ÑĢÐ°ÒĵÐ°Ð½Ð´Ñĭ":7855,"ĠÐ°ÒĽÑĭÐ½Ð½ÑĭÒ£":7856,"ÑģÑĤi":7857,"ĠÐ¶Ð¾ÑģÐ¿Ð°ÑĢÐ»Ð°Ð½ÒĵÐ°Ð½":7858,"ĠÒĽÒ±ÑĢÑĥÒĵÐ°":7859,"Â»,-":7860,"ÐĿÒ±ÑĢÐ»Ñĭ":7861,"ĠÐºÐ¾Ð¼Ð¼ÑĥÐ½Ð¸ÐºÐ°ÑĨÐ¸ÑıÐ»Ð°ÑĢ":7862,"Ð½Ñĸ":7863,"ĠÐ³Ð¸Ð´":7864,"ĠÐ´ÓĻÑĢÑĸÐ»ÑĸÐº":7865,"ĠÓ©Ð·Ð³ÐµÑĪÐµ":7866,"ÓĺÑĥ":7867,"ÒļÐ°Ð·Ð°ÒĽÑģÑĤÐ°Ð½Ð´ÑĭÒĽ":7868,"ĠÒ±Ð¹ÑĭÐ¼Ð´Ð°ÑģÑĤÑĭÑĢÑĭÐ»ÒĵÐ°Ð½":7869,"ĠÑĢÒ±ÒĽÑģÐ°ÑĤÑģÑĭÐ·":7870,"ÑĤÑĸÐ½Ð´Ðµ":7871,"Ġl":7872,"ÑĤÐ°ÑĤÑĭÐ½":7873,"ĠÐ¥Ð¥":7874,"ĠÐ°Ð¹Ð¼Ð°ÒĵÑĭÐ½Ð´Ð°":7875,"ĠÐĵÐ¾Ð»":7876,"ĠÐļÐ¾Ð»":7877,"ĠÑĤÒ¯ÑģÑĸÐ½ÑĸÐºÑĤÐµÐ¼Ðµ":7878,"ĠÓ©ÐºÑĸÐ»Ð´ÐµÑĢÑĸÐ¼ÐµÐ½":7879,"ÐĳÑĸÑĢÑĸÐ½ÑĪÑĸ":7880,"ĠÓĺÐ±Ð´Ñĸ":7881,"ĠÐĳÐ°ÑıÐ½":7882,"ĠÑĤÐ°Ð¿ÑģÑĭÑĢÐ¼Ð°Ð»Ð°ÑĢ":7883,"Ð²ÐµÐ½":7884,"ĠÐ°Ð¹Ð´Ð°":7885,"ĠÐ¥Ð°Ð»":7886,"ĠÑĪÐ¸":7887,"ĠÐ¶Ò±Ð¿":7888,"ĠÑģÐ°ÑĢÐ°Ð¿ÑĤÐ°Ð¼":7889,"ĠÒļÑĭÑĢÒĵÑĭÐ·ÑģÑĤÐ°Ð½":7890,"ĠÐµÑĤÑĸ":7891,"ÑĤÑĤÑĸÒ£":7892,"ĠÐ¸Ð³ÑĸÐ»ÑĸÐ³Ñĸ":7893,"ĠÒĽÒ±ÑĢÐ±":7894,"ÑģÐµÒ£":7895,"Ð´ÐµÑĪÐµ":7896,"ĠÐĿÒ±ÑĢÐ»Ð°Ð½":7897,"ĠÐºÓ©Ð¿ÑĸÑĢ":7898,"ĠÐ±Ð¾Ð»ÑĥÑĭÐ½":7899,"ÐĶÐĨ":7900,"ĠÑĤÐ°Ð¿ÑģÑĭÑĢÐ¼Ð°":7901,"ĠÐºÓĻÑģÑĸÐ¿Ð¾ÑĢÑĭÐ½Ð½ÑĭÒ£":7902,"ÐľÐ£":7903,"Ð°Ð¹Ð»Ð°Ð½ÑĭÑģ":7904,"ĠÐºÐ¾ÑĢÐ¾Ð½":7905,"ĠÐºÐµÐ¼ÑĸÐ½Ð´Ðµ":7906,"ĠÐ¾Ð¿ÐµÑĢÐ°ÑĤÐ¾ÑĢ":7907,"ĠÐ¼ÐµÑĢÐ·ÑĸÐ¼Ð³Ðµ":7908,"ĠÒĽÐ°Ð¹ÑĭÑĢÑĭÐ¿":7909,"ĠÓĻÐºÐµÐ¿":7910,"ĠÒĽÐ°ÒĽÐ¿":7911,"ĠÐ°Ð½ÑĭÒĽÑĤÐ°Ð¼Ð°Ð»Ð°ÑĢ":7912,"ĠÑĪÐ¸ÐºÑĸÐ·Ð°ÑĤ":7913,"ĠÑĤÑĸÐ»ÐµÐ¹":7914,"ĠÑģÐ°ÑıÑħÐ°ÑĤ":7915,"ĠÐºÓ©Ð½":7916,"ĠÑģÑĭÐ¹Ð°ÒĽÑĭ":7917,"ÑĤÐ°Ð¼ÑĭÐ½":7918,"ĠÐ·Ð°Ð¼Ð°Ð½Ð´Ð°":7919,"ĠÑģÐµÑĢÑĸ":7920,"ÑĤÐ°ÑģÑĭÐ½Ð°":7921,"ĠÐ±ÐµÐºÑĸÑĤÐºÐµÐ½":7922,"ĠÑģÐ°ÑıÑģÐ°ÑĤÑĤÑĭ":7923,"ĠÐľÒ±Ð½Ñĭ":7924,"ĠÐ¾Ð±ÑĬÐµÐºÑĤÑĸÐ»ÐµÑĢÑĸÐ½Ðµ":7925,"ĠÑĤÐµÐ¾ÑĢÐ¸ÑıÐ»ÑĭÒĽ":7926,"ĠÑĪÑĭÒĵÐ°ÑĢÑĭÐ»ÒĵÐ°Ð½":7927,"ĠÑĤÑĸÐ·ÑĸÐ¼":7928,"ĠÐ°ÑģÑĭ":7929,"ÒĽÐ¸Ð¼ÑĭÐ»Ð´Ð°":7930,"ĠÓĺÑĢÐ±ÑĸÑĢ":7931,"ĠÑĪÐ°ÒĽÒĽÐ°Ð½":7932,"ĠÐ¡Ó©Ð·":7933,"ĠÐķÑĪ":7934,"ĠÐºÐ¸Ð½Ð¾":7935,"ÑģÐ°ÒĽÐ°Ð»":7936,"ĠÐĨI":7937,"ĠÒ±ÑģÑĤÐ°ÒĵÐ°Ð½":7938,"ÒĽÐ°Ð½Ð´Ñĭ":7939,"ĠÐ¾ÑģÑĭÒĵÐ°Ð½":7940,"Ġ1992":7941,"ÒĵÑĭÐ»ÑĪÑĭÐ½":7942,"ĠÐ¿ÑĢÐ°ÐºÑĤÐ¸ÐºÐ°Ð»ÑĭÒĽ":7943,"ĠÒĽÐ¾Ò£ÑĭÑĢ":7944,"ĠÐ¼Ð°Ð½":7945,"Ð¡Ð¾Ð»ÑĤÒ¯ÑģÑĤÑĸÐº":7946,"ÐĲÐ²":7947,"ĠÐ°ÑĤÑģÐ°Ð»ÑĭÑģ":7948,"ĠÐľÐ°Ð¼ÑĭÑĢ":7949,"ĠÑĤÐµÒ£Ð³ÐµÐ´ÐµÐ½":7950,"ĠÓ©Ð½ÑĸÐ¼Ð´ÐµÑĢÑĸ":7951,"ĠÐ¼Ò±Ð½ÑĭÒ£":7952,"ĠÑģÒ±ÑĢÐ°Ñĥ":7953,"ĠÑģÑĤÑĥÐ´ÐµÐ½ÑĤÑĤÐµÑĢÑĸ":7954,"ĠÓĻÒ£Ð³ÑĸÐ¼ÐµÐ»ÐµÑĢ":7955,"Ð°ÑĤÐ¾Ð²":7956,"ĠÒĽÐ°Ð±ÑĭÐ»Ð´Ð°Ð¹Ð´Ñĭ":7957,"ĠÐľÐ¾Ð½":7958,"ĠÐ±Ð°ÒĽÑĭÐ»Ð°ÑĥÐ´Ñĭ":7959,"ĠÑĪÑĭÑĢÑĭÑĪÑĤÑĭ":7960,"ĠÐ½Ð¾Ð¼Ð¸Ð½":7961,"ĠÑĤÒ¯ÑĢÐ»ÐµÑĢ":7962,"ĠÐ°Ð¹Ð½Ð°Ð»Ð°Ð´Ñĭ":7963,"Ð¢Ó©ÑĢ":7964,"ĠÒĵÒ±Ð¼ÑĭÑĢ":7965,"ĠÓ©ÑĤÐºÑĸÐ·ÑĸÐ»ÐµÐ´Ñĸ":7966,"ĠÓ©ÑģÑĥ":7967,"ÒļÐ°Ð·ÐĲÒĽÐ¿Ð°ÑĢÐ°ÑĤ":7968,"ĠÐĸÑĭÐ»ÑĭÐ¾Ð¹":7969,"ĠÒĽÑĭÐ·Ð¼ÐµÑĤÑĸÐ½Ð´Ðµ":7970,"ĠÒĽÑĭÑģÑĭÐ¼":7971,"ÐľÐļ":7972,"ĠÐ°Ð»ÑĥÐ°Ð½":7973,"ĠÐ¼ÑĥÐ·ÑĭÐºÐ°Ð»ÑĭÒĽ":7974,"Ġwww":7975,"ĠÐ¿ÑĢÐ¾ÑĨÐµÑģÑĸ":7976,"ĠÑģÐ°ÑĤÑĭÐ»":7977,"ÑĭÐ»Ð¼Ð°ÒĵÐ°Ð½":7978,"ÑĥÐ±Ð°":7979,"Ò¯ÐºÑĤ":7980,"os":7981,"ĠÓĻÑĥÐµÐ»Ñĸ":7982,"ÐĺÐļ":7983,"ĠÐŁÐ°ÑĤ":7984,"ĠÒĽÐ¾ÑĢÑĤÑĭÐ½Ð´ÑĭÑģÑĭÐ¼ÐµÐ½":7985,"ĠÐ¶Ò±Ð¼ÑĭÑģÑĤÐ°ÑĢÑĭÐ½Ð°":7986,"Ð°ÑģÑĤÑĢÐ¾":7987,"Ð¶Ð°Ð±":7988,"Ġ32":7989,"ĠÑĤÓ©Ð±":7990,"ĠÑģÒ¯Ð¹ÑĸÐºÑĤÑĸ":7991,"ĠÑĸÑģÑĤÐµÐ¹":7992,"ĠÐ¶ÐµÑĤÐµ":7993,"ĠÐ½ÐµÐ¼ÐµÑĢ":7994,"ĠÓ©ÑĤÐºiÐ·":7995,"ĠÐ°ÑĥÐ´Ð°ÑĢÐ¼Ð°":7996,"ĠÐ¼ÑĥÐ·ÑĭÐºÐ°":7997,"Ð´Ð°ÑĢÐ¸Ñı":7998,"ĠÑģÑĥÑĭ":7999,"ĠÑĪÐµÐ³ÑĸÐ½Ð´Ðµ":8000,"ĠÑĤÓĻÑģÑĸÐ»ÑĸÐ¼ÐµÐ½":8001,"Ð°ÑĨÐ¸ÑıÐ»Ð°Ñĥ":8002,"ÑģÐµÐ»":8003,"ĠÐºÓ©Ð¼ÐµÐºÑĤÐµÑģÐµ":8004,"ĠÐ¶ÑĭÐ»Ð¶ÑĭÐ¼Ð°Ð¹ÑĤÑĭÐ½":8005,"2050":8006,"ĠÐ°ÑĢÐ°Ð»Ð°Ð¿":8007,"Ġ39":8008,"ĠÐ·Ð°Ò£Ð½Ð°Ð¼Ð°ÑģÑĭÐ½Ð´Ð°":8009,"ĠÐ±Ð°Ð¹ÒĽÐ°ÑĥÑĭ":8010,"Ð»ÑĭÒĵÑĭÐ¼ÐµÐ½":8011,"ĠÐºÐµÐ½ÑĤÑĸ":8012,"ĠÓ©ÑĤÑĸÐ»Ñĸ":8013,"ÑĥÑĢÐ¾Ð¿":8014,"ĠÐºÓ©ÑĢÐµ":8015,"ĠÐ¢ÐµÐ»":8016,"ĠÐ±ÐµÑĢÐµÐ¼ÑĸÐ·":8017,"Ð´iÑĢÑĥ":8018,"ÐºÐµÐ»Ñĸ":8019,"ĠÐ±Ð°Ð»Ð°Ð¼":8020,"ĠÐ¢Ðĸ":8021,"ĠÑĪÐ°ÑĢÑĤÑĤÐ°ÑĢÑĭ":8022,"ĠÐºÐµÑĪÐµÐ½Ñĸ":8023,"ĠÐ±Ò±Ð¹ÑĢÑĭÒĵÑĭ":8024,"ĠÐ½ÐµÑĪÐµ":8025,"ĠÐĲÒĽÑĭÑĢ":8026,"Ð°Ð±ÐµÐº":8027,"ĠÐ¶ÐµÑĢÐ´ÑĸÒ£":8028,"ĠÑĤÑĸÐ»Ð´Ðµ":8029,"ĠÓĺÐ±Ñĥ":8030,"65":8031,"ĠÒ±Ð·ÑĭÐ½":8032,"ĠÑĤÒ¯ÑĢÑĸÐ½Ð´ÐµÐ³Ñĸ":8033,"ĠÐ´Ñĥ":8034,"ĠÒļÐ°Òĵ":8035,"Ð¢Ð£":8036,"ĠÐ°ÑĥÑĭÐ»ÑĪÐ°ÑĢÑĥÐ°ÑĪÑĭÐ»ÑĭÒĽ":8037,"ÑĨÐ¸Ð¹":8038,"ĠÑģÒ±ÑĢÐ°ÒĽÑĤÐ°ÑĢÒĵÐ°":8039,"ng":8040,"ĠÐ¶Ð°Ð·Ð°":8041,"ĠÐ±ÐµÑĢÐµÐ¼ÑĸÐ½":8042,"Ð±Ð°Ð±Ñĭ":8043,"ÑģÐ°Ð½Ð¸ÑĤÐ°ÑĢÐ¸ÑıÐ»ÑĭÒĽ":8044,"ĠÓĻÐ»ÐµÐ¼Ð³Ðµ":8045,"ĠÐ¶Ð°ÑĤÑģÐ°":8046,"!!!":8047,"ÐµÑĤÑĤÐµ":8048,"ĠÐ±Ò±Ð·ÑĭÐ»ÑĥÑĭ":8049,"ÐĲÐĹÐĲÒļ":8050,"ÑģÐ¸Ð²ÑĤÑĸ":8051,"Ġ150":8052,"ĠÑģÐ°Ð±Ð°":8053,"ĠÐ¾ÒĽÐ¸ÑĤÑĭÐ½":8054,"ĠÐ±ÑĸÑĢÑĸÐ½Ðµ":8055,"ĠÒĽÐ°Ð¹Ð´Ð°Ð½":8056,"ĠÐ±ÑĸÐ·Ð´Ðµ":8057,"Ð¿ÑĸÐ·":8058,"Ð¸ÑħÐ°Ð½":8059,"ĠÐŀÑĢÑĭÐ½":8060,"Ð¶Ò¯ÑĢ":8061,"ĠÒ¯Ð¼ÑĸÑĤÐºÐµÑĢ":8062,"ĠÐ¶Ð°Ð»ÒĵÐ°Ñģ":8063,"ÐĳÐ¸ÑĭÐ»":8064,"Ð°Ð»Ð°ÑĢÑĭÐ¼ÐµÐ½":8065,"ĠÐ¢Ð°Ð¼":8066,"ĠÒĽÒ±ÑĢÐ°Ð»Ð´Ð°ÑĢ":8067,"ĠÐ´Ð¾Ð¿Ð¿Ð»ÐµÑĢÐ¾Ð³ÑĢÐ°ÑĦÐ¸Ñı":8068,"Ð°ÑĥÑĭÐ»":8069,"ĠÐłÐ°Ñħ":8070,"ĠÒĽÐ°ÑĥÑĸÐ¿ÑģÑĸÐ·Ð´ÑĸÐ³Ñĸ":8071,"ĠÓ©Ð½ÐµÑĢÐºÓĻÑģÑĸ":8072,"ĠÐ°ÑģÒĽÐ°Ð·Ð°Ð½":8073,"Ð°Ð»ÑĮÐ´ÑĭÒĽ":8074,"ĠÐĳÐ°Ð»ÒĽÐ°ÑĪ":8075,"ĠÐ¶Ð¾Ð»ÑĭÐ¼ÐµÐ½":8076,"ĠÓ¨Ð½ÐµÑĢ":8077,"Ð´Ð¸Ðº":8078,"ĠÒĽÑĭÐ·Ð¼ÐµÑĤÑĤÑĸÐº":8079,"ĠÐ½ÐµÒĵÒ±ÑĢÐ»ÑĭÐ¼":8080,"ĠÐ´Ð°Ð¼Ñĭ":8081,"ÐŀÑĢÑĤ":8082,"ĠÐ¢Ð°Ñģ":8083,"ĠÐ¿Ð°Ð¹ÑĭÐ·ÑĭÐ½":8084,"ĠÐ¶ÑĥÑĢÐ½Ð°Ð»Ð¸ÑģÑĤÐµÑĢ":8085,"ĠÐµÑģÑĤÐµ":8086,"ÐļÐ¾Ð½ÐºÑĥÑĢÑģ":8087,"ĠÒļÐ°Ð¶":8088,"Ð¸Ð°Ð»Ð´Ñĭ":8089,"Ð´Ð¸Ð¾":8090,"ĠÐ¡Ð°ÒĵÑĭÐ½":8091,"47":8092,"ĠÐ°ÑĥÐ´Ð°ÑĢÑĥ":8093,"ĠÐ¶ÑĭÑĢÐ°Ñĥ":8094,"ĠÐ¢Ð°ÒĽÑĭÑĢ":8095,"ĠÐ¼ÑĸÐ½Ð´ÐµÑĤÑĤÐµÑĢÐ´Ñĸ":8096,"ĠÒ®ÑĪÑĸÐ½ÑĪÑĸ":8097,"ĠÐ¿ÑĢÐ¾ÑĦÐ¸Ð»Ð°ÐºÑĤ":8098,"ĠÑĤÑĸÐ»ÑĸÐ½Ðµ":8099,"ĠÐµÑĢÑĤÐµÐ³Ñĸ":8100,"ĠÑĤÒ¯ÑģÑĸÑĢÑĸÐ¿":8101,"ĠÓ©Ð¼ÑĸÑĢÑĸÐ½":8102,"ÓĺÐ»ÐµÐ¼":8103,"Ġin":8104,"Ð»ÐµÐºÑĤ":8105,"ĠÐ¶Ð°ÑģÑĭÐ»":8106,"ÑģÐµÑĤÑĸÐ»ÐµÑĤÑĸÐ½":8107,"Ð±ÑĸÑĢÑĸÐ¼ÐµÐ½":8108,"ĠÒļÐ°Ð±":8109,"Ġ553":8110,"ÑĨÐµÐ¿":8111,"Ð¸ÐºÐ¸Ð¿ÐµÐ´":8112,"ĠÑģÐ°ÑĥÐ°ÑĤÑĤÑĭ":8113,"ÑĢÐµÐºÐµÑĤ":8114,"ĠÒĽÑĭÐ¿":8115,"ĠÐ¶Ð°ÒĽÑĭÐ½Ð´Ð°":8116,"ĠÐ½ÐµÐ³ÑĸÐ·Ð´Ðµ":8117,"ĠÒĽÐ°ÒĽÑĤÑĭ":8118,"ĠÐ¸Ð±Ð½":8119,"ĠÐľÐ°ÑĢÐºÐµÑĤÐ¸Ð½Ð³":8120,"ĠÐ¶ÓĻÑĢÐ´ÐµÐ¼Ð°ÒĽÑĭ":8121,"ĠÐŀÑĢÑĭÑģ":8122,"ĠÐ·Ð°Ð¼Ð°Ð½ÒĵÑĭ":8123,"ĠÐºÐµÐ·ÐµÐºÐºÐµ":8124,"ÐķÐºÑĸÐ½ÑĪÑĸ":8125,"ĠÑĤÑĸÐ»ÑĸÐ½ÐµÐ½":8126,"ĠÓ©Ð¼ÑĸÑĢÐ´Ðµ":8127,"Ð±ÐµÐ³ÐµÐ½":8128,"ĠÐ³Ð¸Ð¿ÐµÑĢ":8129,"Ð±Ð°Ð»Ð°Ð»Ð°ÑĢÐ´Ñĭ":8130,"ÐĶÐĲÐł":8131,"ĠÑĪÑĭÐ±":8132,"ĠÐºÒ¯Ð¹ÐµÑĥ":8133,"ĠÐ±ÐµÑĤÑĸÐ½Ð´Ðµ":8134,"Ð±ÑĸÐ·":8135,"ÒĵÐ°ÑĤ":8136,"Ò±Ð½":8137,"Ð°ÒĽÐ°Ð»":8138,"ĠÐ¼Ò¯Ð»ÑĸÐºÑĤÑĸ":8139,"AN":8140,"Ð°Ð³ÐµÑĤ":8141,"ĠÐ°ÑĥÑĭÑĤ":8142,"ab":8143,"ĠÒĵÐ°ÑģÑĭÑĢÐ»Ð°ÑĢ":8144,"ĠÐ´Ð°Ð½Ð°":8145,"Ð¸ÑģÑģÐµÑĢ":8146,"ĠÒĽÐ°ÑĤÑĭÐ½Ð°ÑģÑĤÐ°ÑĢ":8147,"Ð¶Ð°Òĵ":8148,"ĠÒļÐ°Ò£ÑĤÐ°ÑĢ":8149,"ĠÒĽÒ±Ð¹Ð´Ñĭ":8150,"ĠÐ¼Ó©Ð»ÑĪÐµÑĢÑĸÐ½":8151,"azak":8152,"ÑĤÒ¯ÑĢ":8153,"Ð±Ð°Ð¹Ð´Ñĭ":8154,"ĠÑĥÑĩÐ°ÑģÐºÐµÐ»ÐµÑĢÑĸÐ½ÑĸÒ£":8155,"ĠÐ´ÐµÑĢÑĤ":8156,"Ð´ÐµÑĢÑĸÐ½ÐµÐ½":8157,"ĠÒĴÐ°Ð±":8158,"ĠÐ¶Ð°ÒĵÑĭÐ½Ð°":8159,"ÐķÐ¢Ð¢":8160,"ĠÐºÓ©Ð»ÐµÐ¼Ð´Ñĸ":8161,"ĠÐľÐ°ÑĥÑģÑĭÐ¼":8162,"III":8163,"ĠÐłÐµ":8164,"Ð·ÐµÑĢ":8165,"ĠÐ¼Ò±ÒĽÐ¸ÑıÑĤ":8166,"ĠÐºÓ©Ò£":8167,"ĠÐ½ÓĻÐ·ÑĸÐº":8168,"ĠÐ¶ÐµÐºÐ¿Ðµ":8169,"ĠÐ±ÐµÑĢÑĸÐº":8170,"Ġ2003":8171,"))":8172,"Ð°Ð»ÐµÑĢ":8173,"ers":8174,"ĠÐ¡Ò¯ÑĤ":8175,"ÐĲÐ½Ð°":8176,"ĠÐ¼Ð¾Ð½Ð¸ÑĤÐ¾ÑĢÐ¸Ð½Ð³Ñĸ":8177,"ĠÒĽÐ°Ð±ÑĭÐ»Ð´Ð°ÑĥÒĵÐ°":8178,"ĠÑĢÐµÐ°ÐºÑĨÐ¸Ñı":8179,"Ð¸ÑģÑĤÐ¸ÐºÐ°Ð»ÑĭÒĽ":8180,"2011":8181,"Ð´Ð°ÑģÑĤÐ°ÑĢ":8182,"ĠÐ±Ð°ÑģÑĤÑĭÑģÑĭ":8183,"ĠÐĳÐ°ÑĤÑĭÑĢ":8184,"ĠÒĽÐ¾Ð»Ð´Ð°Ð½Ð°":8185,"ĠÐ±Ò±Ð¹ÑĭÑĢ":8186,"ĠÐ¿Ð»Ð°Ð½":8187,"ĠÑħÐ°Ð´Ð¸Ñģ":8188,"ĠÐºÒ¯ÑĪÑĸÐ½":8189,"ĠÒĽÐ°ÑĢÑģÐ°Ò£ÑĭÐ½Ð´Ð°":8190,"ĠÐ£ÐºÑĢÐ°Ð¸":8191,"ÐµÑĢÑĤÐµÒ£":8192,"ĠÐµÐ¶ÐµÐ»Ð³Ñĸ":8193,"ĠÐ´Ð°Ð¼Ð¸Ð´Ñĭ":8194,"Ð¾ÐºÑĢÐ°ÑĤÐ¸ÑıÐ»ÑĭÒĽ":8195,"all":8196,"ĠÒ¯Ð¹Ð»ÐµÐ½":8197,"ÑĭÐ»Ð´ÑĭÑĢÑĥ":8198,"ÒĴÐĲ":8199,"ĠÐ¡Ð¸ÑĢ":8200,"ĠÐ¿ÑĸÐºÑĸÑĢÑĸ":8201,"ĠÑģÐ°ÒĵÑĭÐ½":8202,"ĠÐ½Ò¯ÐºÑĤ":8203,"Ð´ÐµÑģÑĥ":8204,"ĠÐ°ÑĥÐ´Ð°Ð½ÑĭÐ½Ð´Ð°ÒĵÑĭ":8205,"Ð¢ÐµÑĢ":8206,"ĠÐ¶Ò¯ÑĢÑĥ":8207,"69":8208,"ĠÐ´ÐµÐ»ÑĸÐ½Ð³ÐµÐ½":8209,"Ð¾Ð³ÑĢÐ°ÑĦÐ¸ÑıÑģÑĭ":8210,"Ð·Ð°Ð¹":8211,"ĠÑģÑĥÐ±ÑĬÐµÐºÑĤÑĸÐ»ÐµÑĢÑĸÐ½ÑĸÒ£":8212,"ÑĸÐ»ÑĸÐ³Ñĸ":8213,"ĠÑģÐ°Ð½ÑĭÐ½ÑĭÒ£":8214,"ÑĭÐ»ÑģÐ°":8215,"ÑĸÑģÑĤÐµÐ½":8216,"ÐµÐ³ÑĸÐ¼":8217,"Ð½Ð¾Ð¹":8218,"ÑĤÐ°Ðº":8219,"ĠÐ±Ò±Ð·ÑĭÐ»ÒĵÐ°Ð½":8220,"ĠÐ¼Ð°Ð·Ð¼Ò±Ð½ÑĭÐ½Ð°":8221,"ÑĪÐ°ÒĵÐ°Ð¹":8222,"Ð´ÐµÑĤÑĤÐµ":8223,"ÐķÐºÑĸ":8224,"ĠÐ¶Ð°ÒĽÒĽÐ°":8225,"ĠÑĪÐµÑĪÑĥÐ³Ðµ":8226,"ĠÐ¢Ò¯Ñģ":8227,"ĠÐ°Ð¹Ð´Ð°Ð½":8228,"ĠÐ¾ÑĢÑĭÐ½Ð´Ð°ÑĢ":8229,"58":8230,"ĠÐ¾ÒĽÐ¸ÒĵÐ°Ð»Ð°ÑĢ":8231,"qu":8232,"ĠÐĺÐ¼Ð°Ð½":8233,"ĠÑĢÐ°Ð¹":8234,"ĠÐ¾ÑĢÑĭÐ½Ð´Ð°Ð»ÑĥÑĭÐ½":8235,"ĠÐ¶Ð°ÑĢÐ½Ð°Ð¼":8236,"ĠÐ±Ò±Ð·Ñĥ":8237,"ĠÐºÐ¾Ð¼Ð°Ð½Ð´Ð°":8238,"ĠÐ¼ÐµÐºÐµÐ¼ÐµÐ»ÐµÑĢÑĸÐ½ÑĸÒ£":8239,"âĢ¦]":8240,"Qazaq":8241,"ĠÐľÓĻÐ¶ÑĸÐ»ÑĸÑģÑĸÐ½ÑĸÒ£":8242,"ĠÐ¶Ð°ÒĽÑĤÑĭ":8243,"ÐµÑģÐµÐ¿":8244,"Ð°ÑģÑģÐ°Ð³ÐµÑĤ":8245,"ĠÐ¾Ð¿ÐµÑĢÐ°ÑĨÐ¸ÑıÐ»Ð°ÑĢ":8246,"ĠÒĽÐ°ÑĢÐ°Ð¹Ð´Ñĭ":8247,"ĠÐ°ÑĢÑħÐµ":8248,"ĠÐĿÐµÐ³ÑĸÐ·Ð³Ñĸ":8249,"ĠÑĤÓĻÑĥÐµÐºÐµÐ»":8250,"ÑĪÑĥ":8251,"ĠÐļÐµÐ»ÐµÑģÑĸ":8252,"ĠÓ©Ð·ÑĸÐ½ÐµÐ½":8253,"Ð¸ÑıÐ½":8254,"ĠÐ¡ÑĤÐ°ÑĤÐ¸ÑģÑĤ":8255,"Ð°Ð¼Ð¼":8256,"Ð¾Ð½ÑģÑĤÑĢÑĥÐºÑĨÐ¸Ñı":8257,"ec":8258,"Ð´iÑĢ":8259,"ĠÒĵÐ°ÑģÑĭÑĢÐ´Ð°":8260,"ĠÑĸÐ»ÐµÑģ":8261,"Ð»ÐµÐºÑĤÑĢÐ¾Ð½Ð´Ñĭ":8262,"ĠÐ¶Ð°ÒĽÑģÑĭÐ»ÑĭÒĽ":8263,"ĠÑĤÐ°ÑģÑĤÐ°Ð´Ñĭ":8264,"ĠÑģÐ°Ð»ÑĭÐ¼":8265,"ĠÑģÑĥÐ´":8266,"ĠÐ°ÑĤÒĽÐ°ÑĢÐ´Ñĭ":8267,"ĠÐºÐµÐ»ÑĤÑĸÑĢÑĸÐ»Ð³ÐµÐ½":8268,"ĠÐ±Ð°ÒĽÑĭÑĤÑĤÑĭ":8269,"ĠÐłÐµÑģÐ¿ÑĥÐ±Ð»Ð¸ÐºÐ°":8270,"Ð¾Ð»Ð»Ð°":8271,"ĠÑĪÑĤÐ°ÑĤ":8272,"ĠÐ¶Ð°ÒĵÑĭÐ¼ÑģÑĭÐ·":8273,"ĠÐ¢Ð°Ð¹":8274,"ĠÐ²Ð¸ÑĨÐµ":8275,"ĠÐ°Ð½ÑĤ":8276,"ĠÓĻÑĢÒĽÐ°ÑĪÐ°Ð½":8277,"Ġ&":8278,"ĠÐ±ÐµÑĢÑĸÐ»ÑĸÐ¿":8279,"ÑģÐµÒ£ÑĸÐ·":8280,"ĠÐ°ÑĢÑĤÑĥ":8281,"ĠÑĤÒ¯Ð½Ð´Ðµ":8282,"ĠÐ¶Ò¯Ð¹ÐºÐµ":8283,"ĠÒĽÐ°Ð±ÑĭÐ»Ð´Ð°Ð½Ð´Ñĭ":8284,"ÐĵÐĨ":8285,"ĠÒ±Ð»ÑĤÑĤÑĭÒ£":8286,"ĠÐ¾ÑĤÑĭÐ·":8287,"ĠÐ¶Ð¾Ð»Ð´Ð°":8288,"ÐĲÑģÑĤÐ°Ð½":8289,"ĠÐ°Ð»Ð°Ð¹Ð´Ð°":8290,"ÑĭÒĽÒĽÐ°Ð½":8291,"ĠÐµÑĤÐºÑĸÐ·":8292,"ĠÐļÐ¾Ð½ÑģÑĤÐ¸ÑĤÑĥÑĨÐ¸ÑıÐ»ÑĭÒĽ":8293,"ĠÐµÑĤÑĥÑĸ":8294,"ĠÐ±Ð°ÑĤ":8295,"ÑĭÒĽÑĤÐ°Ð½":8296,"ĠÐµÑĪÐºÑĸÐ¼Ð³Ðµ":8297,"Ð´ÑĸÐ³ÑĸÐ½Ð´Ðµ":8298,"ÐĳÐ°ÑģÑĤÐ°ÑĥÑĭÑĪ":8299,"ĠÐĿÓĻÑĤÐ¸Ð¶ÐµÑģÑĸÐ½Ð´Ðµ":8300,"ÑĪÑĭÒĵÐ°":8301,"ĠÓĺÐ·ÑĸÑĢ":8302,"ĠÐ¾ÒĽÑĥÑĪÑĭÐ½ÑĭÒ£":8303,"ĠÑĸÑĪÑĸÐ¿":8304,"ĠÑĸÑĪÐºÐµÐ½":8305,"âĢĻ":8306,"ĠÐ¼ÑĭÒ£ÒĵÐ°":8307,"ÐŀÒ£ÑĤÒ¯ÑģÑĤÑĸÐº":8308,"ĠNUR":8309,"ĠÒļÐ¾Ð¹":8310,"ĠÐ°ÑĥÑĢÑĥÐ»Ð°ÑĢÐ´ÑĭÒ£":8311,"ĠÑĤÐ°Ð½ÑĭÐ¼Ð´ÑĭÒĽ":8312,"ĠÑģÐµÐ±ÐµÐ±":8313,"ĠÐ°Ð»ÑĥÐ´Ð°":8314,"ĠÐ¶ÑĸÐ±ÐµÑĢÑĸÐ»Ð³ÐµÐ½":8315,"Ð»Ð°ÑĢÑĭÐ¼ÐµÐ½":8316,"ĠÐĶÐ°Ð¼":8317,"ÑĤÑģÐµ":8318,"ĠÐ¾ÑĤÑĭÑĢÒĵÑĭÐ·":8319,"ĠÐ´Ð°ÑģÑĤÐ°ÑĢ":8320,"ĠÐ±ÐµÐ·Ð´ÐµÑĢÑĸÐ½ÑĸÒ£":8321,"ÐĲÑĥÑĭÐ»Ð´ÑĭÒĽ":8322,"ĠÐĲÑģÒĽÐ°ÑĢ":8323,"ĠÐ±Ð°ÑģÑĭÐ¼Ð´ÑĭÒĽ":8324,"ĠÑĤÓĻÑĢÐ±Ð¸ÐµÑģÑĸ":8325,"ÒĽÑĭÑģÑĭ":8326,"Ð¾ÑĢÐ¼Ð¾Ð½":8327,"ex":8328,"Ġ[âĢ¦]":8329,"ĠÐµÑģÐµÐ¿ÑĤÑĸÐº":8330,"ĠÑĢÓ©Ð»Ñĸ":8331,"ĠÓĻÐ·ÑĸÑĢÐ»ÐµÐ½":8332,"Ð¨ÑĭÐ¼ÐºÐµÐ½ÑĤ":8333,"ĠÑĪÑĭÒĵÐ°ÑĢÑĥÒĵÐ°":8334,"ÑĤÑĤÑĸÐº":8335,"ĠÐ°ÑĤÐ¾Ð¼":8336,"ĠÐ°ÒĽÐ¿Ð°ÑĢÐ°ÑĤÑĤÐ°ÑĢÐ´Ñĭ":8337,"ÒĽÐ°Ð±":8338,"ÑĤÐ°ÑģÑĭ":8339,"ĠÒĽÐ°Ð»Ð°ÑģÑĭÐ½Ð°":8340,"ĠÒĽÐ°Ò£ÑĤÐ°ÑĢÐ´Ð°ÒĵÑĭ":8341,"ĠÐºÓ©Ð·Ð´ÐµÐ»":8342,"ĠÐ¸Ð½Ð´ÐµÐº":8343,"ĠÓĻÐºÐµÑĤ":8344,"ĠÐ°ÑĥÐ´Ð°Ð½Ð½ÑĭÒ£":8345,"ÐĹÒļ":8346,"ÑĤÑĥÐ°Ð»Ð´Ñĭ":8347,"ĠÐ¢ÐĴ":8348,"ĠÓĻÐ»ÐµÑĥÐµÑĤÑĤÑĸ":8349,"ĠÑĤÐ¾ÑĢÑģÑĭÒĽÑĤÑĭ":8350,"ĠÐ±ÑĢÐ¸ÑĦÐ¸Ð½Ð³":8351,"ĠÓ©ÐºÑĸÐ»Ð´ÐµÑĢÑĸÐ½ÑĸÒ£":8352,"ĠÐ¼Ð¾Ð´ÐµÐ»ÑĮ":8353,"ĠÐĶÐµ":8354,"ĠÐ»Ð°ÑĥÑĢÐµ":8355,"ĠÐ°ÑĢÐ°ÒĽ":8356,"Ð´Ð°Ð»Ð°Ð´Ñĭ":8357,"ĠÐºÐµÑģÑĤÐµ":8358,"ĠÒĽÐ°Ð»ÑĤÐ°Ð½":8359,"ÐµÑĪÐµÐ»ÐµÐ½":8360,"ĠÐ¶Ð°Ð»ÑĸÑĭÐ·":8361,"ĠÐĲÒĽÑĤÓĻÑĤÐµÐ¼":8362,"ĠÐĲÒĽÑĤÓĻÑĤÐµÐ½ÑĸÒ£":8363,"ĠÐĲÒĽÑĤÐ°Ò£ÐºÐµÑĢÐ´Ñĸ":8364,"ĠÐ´Ð¸Ð°Ð»":8365,"Ð¶ÐµÐºÐµ":8366,"Ð´Ð°ÒĵÐ°":8367,"ĠÐľÒ±ÒĵÐ°Ð»":8368,"ĠÐ´ÐµÑĢÐµÑĥ":8369,"ÐĸÐ°Ð¼Ð±ÑĭÐ»":8370,"ĠÐºÐµÐ¼ÑĪÑĸÐ»ÑĸÐº":8371,"ĠÒĽÐ°Ð±ÑĸÐ»ÐµÑĤÑĸ":8372,"ĠÐ¶ÐµÒ£ÑĸÑģÐºÐµ":8373,"ĠÐĳÓ©Ð»":8374,"ĠÒĽÐ¾ÑģÑĭÐ»Ð´Ñĭ":8375,"ĠÐ¼Ò±Ò£":8376,"ÑĸÐ½Ð´ÐµÑĤÑĤÑĸ":8377,"ÐĿÐķÐ¡":8378,"Ð»ÐµÐ¹":8379,"ĠÑĤÐ°Ð»Ð°Ð±":8380,"ĠÒ±ÑģÑĭÐ½ÑĭÐ»Ð°ÑĤÑĭÐ½":8381,"ĠÐ¶Ð°ÑģÑĤÐ°Ð½":8382,"ĠÒĽÐ¾Ð½Ð´ÑĭÑĢ":8383,"ĠÐ¼ÓĻÐ´ÐµÐ½Ð¸ÐµÑĤÑĸÐ½":8384,"Ġthe":8385,"ĠÐ±Ð°ÒĵÑĭÑĤÑĤÐ°ÑĢÑĭ":8386,"ĠÑģÓĻÐ»ÐµÐ¼Ñĸ":8387,"ÐºÐµÐ·":8388,"ÑĤÒ¯ÑģÑĤiÐº":8389,"ĠÐ¶Ð°Ð½Ñĭ":8390,"ÑĤÐµÐ³ÑĢ":8391,"ĠÐ¤Ð¸Ð»":8392,"ĠÐ°ÐºÑĤÑĸÐ»ÐµÑĢÑĸÐ½Ðµ":8393,"ĠÐºÐ°ÑĦÐµÐ´ÑĢÐ°ÑģÑĭÐ½ÑĭÒ£":8394,"Ð°Ñĩ":8395,"ĠÐµÑĤÑĥÐ´Ðµ":8396,"ĠÑĤÒ±ÑĢÒĵÑĭÐ´Ð°":8397,"ĠÑĸÑĪÐµÐºÑĤÑĸÒ£":8398,"ĠÐ¢Ò±ÑĢÒĵÑĭÐ½":8399,"ÑĸÑĢÑĸÐ¿":8400,"ĠÑģÐ°Ð½Ð°":8401,"ĠÐ¼ÐµÐºÐµÐ¼ÐµÑģÑĸÐ½Ð´ÐµÐ³Ñĸ":8402,"ĠÐļÒ¯ÑĢ":8403,"ÐĳÐ°ÑĢ":8404,"Ð¼ÐµÑģÐµ":8405,"ÑģÐ°Ð½Ð´ÑĢ":8406,"ĠÐ¶Ò¯ÐºÑĤÑĸ":8407,"ÑĤÐ°Ð½Ð´ÑĭÑĢÑĭÐ»ÒĵÐ°Ð½":8408,"59":8409,"ĠÐ¢Ð¾ÒĽ":8410,"ĠÓĺÐ¼ÑĸÑĢ":8411,"Ð¸Ð½Ð¸":8412,"ĠÐĲÐ¿":8413,"ĠÐ¢Ò¯Ð½":8414,"Ð«ÐĹ":8415,"ÑįÐº":8416,"ĠÓĺÑĥÐµÐ·Ð¾Ð²":8417,"ĠÐ¶ÐµÑĢÐ»ÐµÑĢ":8418,"ĠÐºÑĥÑĢÑģÑĤÐ°ÑĢ":8419,"ĠÒĽÒ±ÑĪ":8420,"ĠÒĽÒ±ÒĽÑĭÒĵÑĭÐ½Ð°":8421,"56":8422,"ĠÒĽÒ±Ð½Ð´ÑĭÐ»ÑĭÒĽÑĤÐ°ÑĢ":8423,"ÒĽÑĭÑĤ":8424,"ÐĳÐ°Ð»Ð°Ð»Ð°ÑĢ":8425,"ĠÑĸÑģÑĤÑĸ":8426,"ÐºÐ°ÑĢ":8427,"Ġ48":8428,"ĠÐºÒ¯Ð½ÓĻ":8429,"ÑĬÐµÐ·":8430,"ĠÑĤÐ¾Ð»ÑĭÒĽÑĤÑĭÑĢÑĭÐ¿":8431,"Ð¹ÑĭÐ½":8432,"ĠÒ¯ÑĢÐ´ÑĸÑģ":8433,"ĠÒļÐ¾Ð½":8434,"Ð»ÑĮÑĤÑĢ":8435,"ĠÐ¡ÑĤÑĢÐ°ÑĤÐµÐ³":8436,"Ð·Ð¸Ð½":8437,"ÐµÑĥÐ´Ðµ":8438,"ĠÐ°ÑĢÐ°Ð¼":8439,"ĠÐ¸Ð½Ð¶ÐµÐ½ÐµÑĢÐ»ÑĸÐº":8440,"Ð±Ð°Ð¹Ð¶Ð°Ð½":8441,"Æı":8442,"ĠÒĽÑĥÐ°Ð½":8443,"ort":8444,"ĠÑģÐ°ÑĤÐ°ÑĤÑĭÐ½":8445,"ĠÐ¼Ð¾Ð½Ð¾Ð¿Ð¾Ð»":8446,"ÑģÐ¾ÑĢ":8447,"ĠÒĽÐ°ÒĵÑĭ":8448,"ĠÑģÐ°Ð·":8449,"gov":8450,"Ð»ÐµÑģÐµ":8451,"ÐµÑģÑĤÑĢ":8452,"ĠÑħÐ°Ð»ÒĽÑĭÐ½":8453,"Ð´Ð°ÒĽÑĤÑĭ":8454,"ĠÑĢÐµÐºÐ¾Ð½ÑģÑĤÑĢÑĥÐºÑĨÐ¸Ñı":8455,"ÐŀÒĽÑĥ":8456,"ĠÐľÐ¸":8457,"Ð´ÐµÑģÑĸÐ½Ðµ":8458,"ÑģÑĤÐµÐ½":8459,"ÑĢÐµÑģÑĥÑĢ":8460,"ĠÑĦÐ°Ð¹Ð»":8461,"Ò±Ñı":8462,"ĠÐĲÐ»ÑĤÐ°Ð¹":8463,"ĠÐºÓ©Ð·ÑĸÐ½":8464,"ÑħÐ¾Ð·":8465,"ĠÐ±Ò¯Ð³ÑĸÐ½Ð³Ðµ":8466,"ÑİÐ´Ð¶":8467,"ÐĸÐ°ÒĽ":8468,"ĠÑĤÓĻÑĢÐ±Ð¸ÐµÑĪ":8469,"ĠÐ°ÑĤÒĽÐ°ÑĢÐ°ÑĤÑĭÐ½":8470,"ĠÐºÓ©Ð¿ÑĪÑĸÐ»ÑĸÐ³Ñĸ":8471,"ĠÑĪÐµÐ»":8472,"ĠÐ¾Ð±Ð»ÑĭÑģÑĭÐ½Ð´Ð°ÒĵÑĭ":8473,"ĠÐºÒ¯Ð·ÐµÑĤ":8474,"ĠÑĢÐµÐ½":8475,"ĠÐ¿Ð°Ð¹Ð´Ð°Ð»Ð°Ð½ÒĵÐ°Ð½":8476,"ÑĸÐ½Ð´ÑĸÐº":8477,"ĠÑģÓ©Ð·Ð´ÐµÑĢÐ´Ñĸ":8478,"ĠÐĿÐµ":8479,"ĠÐ°ÑĤÐ°Ð¼":8480,"ĠÐļÐ¾ÑĢÐ¾Ð»ÑĮ":8481,"ĠÑĤÒ±Ð½":8482,"ĠÐºÐ¾Ð¼Ð¿Ð¾Ð½ÐµÐ½ÑĤ":8483,"Ġw":8484,"ĠÑĤÐµÑĤ":8485,"ĠÐºÓ©ÑĪÑĸÐ¿":8486,"ĠÐ¼Ð°Òĵ":8487,"Ð³ÑĸÑģÑĸ":8488,"Ð»Ð°ÑĢÑĭÐ½Ð´Ð°ÒĵÑĭ":8489,"ĠÐµÑĪÑĤÐµÒ£Ðµ":8490,"ĠÐ¾Ð¹Ð»Ð°Ð½":8491,"ÑĤÐµÐ»ÑĸÐ¿":8492,"Ð¾Ð´Ð°ÒĽ":8493,"ÑĤÑĭÑĢÒĵÐ°Ð½":8494,"ĠÐºÒ¯Ð¼ÓĻÐ½":8495,"Ð²Ð¾Ð»":8496,"ĠÐºÒ¯ÑĤÑĸÐ¼":8497,"Ð¸Ð±ÑĢ":8498,"ÑĸÐ»Ðµ":8499,"ĠÐºÐ°Ð´Ð°ÑģÑĤÑĢ":8500,"ĠÐ¼ÐµÐ½ÐµÐ½":8501,"ÒļÐļÐŀ":8502,"ĠÑĢÐµÑģÐµÐ¹":8503,"ÑĥÐ´Ð½ÑĭÐ¹":8504,"ĠÐ´ÐµÐ»ÐµÐ³":8505,"ĠÐ¶Ð°Ð´":8506,"Ð¾Ðµ":8507,"ÐºÒ¯Ð»":8508,"Ð±Ð°Ð¿ÒĽÐ°":8509,"Ð±Ò±ÑĢ":8510,"Ð´Ð°ÑĢÐ°":8511,"ĠÑĤÐ°ÑĢÐ°ÒĵÐ°Ð½":8512,"ĠÐ»Ð°Ð¹ÑĭÒĽ":8513,"ĠÐ¾ÑĤÑĭÑĢÑĭÑģÑĭÐ½Ð°":8514,"ĠÑģÐ°ÑıÑģÐ°ÑĤÑĭÐ½":8515,"ĠÑģÑĸÒ£Ð³ÐµÐ½":8516,"ĠÐºÐµÑĢÐµÐºÑĤÑĸÐ³ÑĸÐ½":8517,"ĠÐ¼ÐµÐ½ÑĪÑĸ":8518,"ÑģÐ¾ÒĽ":8519,"ĠÐ¼ÐµÐ½ÑĪÑĸÐºÐºÐµ":8520,"Ġ1998":8521,"ÐºÑĢÐµÐ´Ð¸ÑĤ":8522,"Ð¸ÑĦÐ¸Ðº":8523,"Ð¸Ð³Ð¸ÐµÐ½":8524,"Ð´ÑĸÒ£ÑĸÐ·":8525,"ÐŀÐĳ":8526,"ĠÐºÑĸÑĢÐ³ÐµÐ½":8527,"ĠÐ±Ð°ÑĢÐ»ÑĭÒĵÑĭÐ½":8528,"ÑĤÒ±ÑĤÐ°Ñģ":8529,"ĠÒĽÐ°Ð»ÑĭÐ¿ÑĤÐ°ÑģÑĤÑĭÑĢÑĥÒĵÐ°":8530,"ĠÑĢÐµÐ¿":8531,"Ð¾ÒĵÐ°Ð½":8532,"ĠÐ¶Ð°ÒĽÑģÑĭÐ»":8533,"Ð¨Ð°Ð»":8534,"Ġ647":8535,"ek":8536,"ĠÐ±Ð°ÑģÑĤÐ°Ð½":8537,"ĠÐµÑģÐµÐ¿ÑĤÐµÐ»ÐµÐ´Ñĸ":8538,"ÑĤÐ°ÑĢÐ¼Ð°ÒĽ":8539,"ĠÐľÒ±ÑĢÐ°ÑĤ":8540,"ĠÒĽÐ°Ð±ÑĭÐ»Ð´Ð°ÑĥÐ´Ñĭ":8541,"ĠÐĶÒ¯Ð½Ð¸ÐµÐ¶Ò¯Ð·ÑĸÐ»ÑĸÐº":8542,"ĠÐĳÐ°ÑĥÑĭÑĢÐ¶Ð°Ð½":8543,"ĠÐµÑģÑĸÐ¼Ñĸ":8544,"Ġ642":8545,"Ð³ÐµÐ¼ÐµÐ½":8546,"ÑĤÐ¿ÐµÑģÐµ":8547,"Ð²Ð¸Ð´ÐµÐ¾":8548,"Ð¶Ó©Ð½":8549,"Award":8550,"ĠÐ¶Ð°Ð·ÒĵÑĭ":8551,"ĠÑĢÐ°Ð·":8552,"ĠÐ´Ð¾ÐºÑĤÐ¾ÑĢ":8553,"ĠÐ¡ÑĥÑĢ":8554,"ĠÑģÐ°Ð»Ð°Ñĥ":8555,"Ð±Ð¾Ð»Ð°ÑĤ":8556,"Ġ->":8557,"Ð¼Ð°ÒĽÑĤÑĭÒĽ":8558,"ĠÑħÐ°Ð½Ð´Ñĭ":8559,"ĠÐ°ÑĥÑĢÑĥÐ»Ð°ÑĢÑĭ":8560,"ÑĸÒ£Ðµ":8561,"ĠÐ·ÓĻÑĢ":8562,"Ð¶Ð°Ò£":8563,"ĠÒĽÐ°ÑĢÐ°Ò£ÑĭÐ·":8564,"ĠÐ±Ð°ÑģÐ°":8565,"Ò¯Ð»ÐµÐ¹Ð¼ÐµÐ½":8566,"ĠXX":8567,"ĠÒ¯Ð·ÑĸÐ½Ð´Ñĸ":8568,"ĠÐ°Ð¼ÐµÑĢ":8569,"ĠÐ´ÐµÐ¼ÐµÑĥ":8570,"ĠÑĪÐ¾ÑĪ":8571,"ÒĽÒ±Ð»Ð¾Ð²":8572,"Ð¸Ð´ÐµÐ¼":8573,"Ð¾ÑĢÐ°Ð¼":8574,"ĠÐ±Ð¾Ð»Ð¼Ð°Ñģ":8575,"ĠÐĹÐ°Ò£Ñĭ":8576,"ĠÒ±ÑģÐ°ÒĽ":8577,"ĠÐķÐ¼":8578,"ĠÐ½Ð°ÑĥÑĢÑĭÐ·Ð´Ð°ÒĵÑĭ":8579,"ĠÐºÓ©Ð·Ð´ÐµÐ½":8580,"ĠÓĻÑģÐµÐ¼":8581,"ĠÐ°ÑĪÑĤÑĭ":8582,"ĠÒĽÐ¾Ð·ÒĵÐ°Ð»ÑĭÑģ":8583,"ÑħÐ¸ÑĤ":8584,"ĠÐ¶ÐµÑĢÑĸÐ½":8585,"Ò®Ð·Ð´ÑĸÐº":8586,"ÑĤÐ¸Ð¼":8587,"ĠÐ¼Ð¾Ð±Ð¸Ð»ÑĮ":8588,"ĠÐµÐ»Ð´ÐµÑĢÑĸ":8589,"ĠÑģÐ°Ð½Ð¸ÑĤÐ°ÑĢÐ»ÑĭÒĽ":8590,"ĠÐ¶Ð°ÑģÐ°Ð½Ð´Ñĭ":8591,"ĠÑģÐ°ÒĽÑĤÐ°Ð»Ð°Ð´Ñĭ":8592,"ĠÐ°ÐºÐ°Ð´ÐµÐ¼Ð¸ÑıÐ»ÑĭÒĽ":8593,"ĠÐ±Ó©Ð»ÑĸÐ¼ÑĪÐµÑģÑĸÐ½ÑĸÒ£":8594,"ĠÐŀÐ»Ð°ÑĢÐ´Ñĭ":8595,"ĠÑģÓ©Ð·Ð´ÑĸÒ£":8596,"ĠÑĤÐµÑĢÑĢÐ¾ÑĢÐ¸Ð·Ð¼":8597,"ĠÒĽÐ°Ð¹ÑĤÑĭÐ¿":8598,"ĠÒ°ÐĳÐ¢":8599,"ÑīÑĭ":8600,"ÐĿÐķÐ¡ÐļÐŀ":8601,"ĠÑĪÐ°ÑĢÑĥÐ°ÑĪÑĭÐ»ÑĭÒĵÑĭÐ½ÑĭÒ£":8602,"ĠÐ°Ð·Ð°Ð¼Ð°ÑĤÑĤÑĭ":8603,"ĠÒĽÒ±ÑĢÒĵÐ°ÒĽ":8604,"ĠÐ¶Ð¸ÑĭÐ½ÑĤÑĭÒĽ":8605,"ÐĸÐĹÒļ":8606,"Ð±Ð°Ð¹Ò±Ð»Ñĭ":8607,"ĠÐ²Ð°Ð»ÑİÑĤÐ°":8608,"ĠÐºÑĭÐ·":8609,"Ð¸ÑıÐ´Ð°Ð½":8610,"ĠÐ¸ÑĸÑģÑĸ":8611,"ĠÑĤÓĻÑĥÐ»ÑĸÐº":8612,"ĠÐ¶Ð°Ð½ÑĭÐ½Ð°Ð½":8613,"ĠÐ±ÑĸÐ»Ð´ÑĸÑĢÐ³ÐµÐ½":8614,"ĠÒĽÐ¾ÒĵÐ°Ð¼Ð´Ð°ÑģÑĤÑĭÒĽ":8615,"ÐĳÐ¾Ð»Ð°ÑĪÐ°ÒĽÒĽÐ°":8616,"ÐµÐ»ÐµÐ´Ñĸ":8617,"ĠÐ¶Ð°ÑģÑĭÐ½Ð°":8618,"Ð¾ÑĤÐ°":8619,"ĠÑħÐ°ÑĤÑĤÐ°Ð¼Ð°":8620,"ĠÒĽÐ°Ð»Ð°ÑĤÑĭÐ½":8621,"ĠÑģÐ°Ð»ÒĽÑĭÐ½":8622,"Ð¼ÐµÑĤÑĢ":8623,"ÑĨÐ¸ÐºÐ»":8624,"ĠÒĽÐ°Ð¹ÑĭÑĢÑĭÐ¼Ð´ÑĭÐ»ÑĭÒĽ":8625,"ĠÒĽÐ°Ð½Ð°ÒĵÐ°ÑĤÑĤÐ°Ð½":8626,"ĠÒĽÐ°ÒĵÐ¸Ð´Ð°Ð»Ð°ÑĢÑĭ":8627,"ĠÒĽÐ°Ð¼ÑĤÐ¸ÑĤÑĭÐ½":8628,"ĠÐ±Ð¾Ð»Ð°ÑĪÐ°ÒĽÑĤÐ°":8629,"ĠÑĤÓĻÐ¼":8630,"ĠÐ´ÓĻÑĢÐµÐ¶ÐµÑģÑĸÐ½":8631,"ĠÐ±ÑĸÐ»ÑĸÐ¼Ð½ÑĸÒ£":8632,"ĠÐ°ÒĽÑĭ":8633,"ĠÐļÐ¡ÐłÐŀ":8634,"ÐµÑĢÐ°Ð»":8635,"ĠÐ°ÑĢÐ·Ð°Ð½":8636,"ĠÐ¶ÑĭÐ»Ð´ÑĭÒĵÑĭ":8637,"ĠÐľÐ°Òĵ":8638,"ÐµÐºÑĥÐ»":8639,"ÐĲÑĥ":8640,"ĠÐµÐ³ÐµÐ¼ÐµÐ½":8641,"ĠÒĽÒ±ÑĢÑĭÐ»ÑĭÑģÑĭÐ½":8642,"ĠÐ¡Ð°ÑĢÑĭÐ°ÒĵÐ°ÑĪ":8643,"ĠÐ²ÐµÐ´Ð¾Ð¼ÑģÑĤÐ²Ð¾":8644,"ĠÒļÑĭÐ»Ð¼ÑĭÑģÑĤÑĭÒĽ":8645,"ĠÒĽÒ±ÑĢÐ±Ð°Ð½":8646,"Ð¾ÒĽÐ°Ð½":8647,"Ð±ÐµÐ¹ÑĤÑĸÐ½":8648,"ÑģÒ¯Ð¹":8649,"ĠÐ±Ð¾Ð»Ð°ÑĪÐ°ÒĽÒĽÐ°":8650,"ĠÐ°ÒĵÑĭÐ½":8651,"ÑįÐ½ÑĤÐµÑĢ":8652,"ĠÐºÑĸÑĢÐµÑĤÑĸÐ½":8653,"ĠÐ¢Ð¾Ð¿":8654,"ĠÐ¼Ð°ÑĢÐ°Ð¿Ð°ÑĤÑĤÐ°Ð»Ð´Ñĭ":8655,"ĠÐĳÒ¯Ð¹ÑĢÐµÐº":8656,"Ð´ÑĭÑĢÐ´Ñĭ":8657,"ĠÒ±ÑĪÑĭÐ¿":8658,"ĠÐ¿Ð¾ÑįÐ·Ð¸Ñı":8659,"ÐĶÐ¾Ñģ":8660,"ĠÐŀÑģÑĭÐ´Ð°Ð½":8661,"ĠÐĲÐ±Ð°Ð¹Ð´ÑĭÒ£":8662,"Ò±Ð»ÑĤÑĤÑĭÒĽ":8663,"ĠÐ´Ð¾ÑģÑĤÑĭÒĽ":8664,"Ð¶Ð°ÒĽ":8665,"ĠÐ°ÑĢÐ°":8666,"ÑĪÑĸÐ½":8667,"ĠÑĦÐ¸ÑĤ":8668,"ĠÐĺÑĤÐ°Ð»":8669,"ĠÒĽÑĭÑĢÐºÒ¯Ð¹ÐµÐºÑĤÐµ":8670,"Ð¾Ð»Ð¸ÑĤ":8671,"ĠÐºÒ¯ÑĪÐµÐ¹ÑĤÑĥ":8672,"ĠÑģÑĸÑĢ":8673,"ÑĸÐ¿ÑģÑĸÐ·Ð´ÑĸÐº":8674,"ĠÐ°Ð¹ÑĭÐ½Ð°Ð½":8675,"ĠÐĲÑĢÒĽÐ°Ð»ÑĭÒĽ":8676,"Ð¿Ð¾ÑĤÐµÐº":8677,"Ð»Ð°Ð½Ð´Ñĭ":8678,"ÑĤÐ¾ÒĽÑģÐ°Ð½ÑĭÐ½Ð°":8679,"ĠÑģÐ¸Ð¿Ð°ÑĤÑĭ":8680,"Ð°Ð½ÑĭÑģÑĭ":8681,"ĠÐ°Ð¹ÒĵÐ°":8682,"ĠÐ¼ÐµÐºÐµÐ¼ÐµÐ½ÑĸÒ£":8683,"ĠÐ¶Ò¯ÑĢÐ³ÐµÐ½Ð´Ðµ":8684,"Ð¾Ð³Ð¾ÑĢ":8685,"Ð¸Ð¼Ð¸ÑıÐ»ÑĭÒĽ":8686,"ĠÐļÐķ":8687,"ĠÐĲÑĤÐ°Ð¿":8688,"ĠÓĻÐ»ÐµÐ¼Ð´Ðµ":8689,"Ð±ÑĸÐ»":8690,"ÐĳÐ°ÑĤÑĭÑģ":8691,"ĠÑĨÐ¸ÑĦÑĢÐ»ÑĭÒĽ":8692,"ÑĤÑĭÑĢÐ°Ð´Ñĭ":8693,"ĠÐ¼ÓĻÑģÐ»Ð¸ÑħÐ°ÑĤÑĭÐ½ÑĭÒ£":8694,"ĠÐ¾Ñı":8695,"ĠÑĪÐµ":8696,"ÑĭÑĢÑĤÒĽÐ°Ð½ÑĭÒ£":8697,"ÑĪÑĸÐºÑĤÑĸ":8698,"ÐµÐºÑĤÐ¾ÑĢÑĭ":8699,"ĠÒĽÐ°Ð¹ÑĤÐ°Ð»Ð°Ð½":8700,"ĠÐ±ÑĢÐµÐºÐµÑĤ":8701,"ĠÒĽÐ¾ÑģÑĭÐ»ÑĭÐ¿":8702,"ĠÑĤÐ°Ð¼ÑĭÐ·Ð´Ð°ÒĵÑĭ":8703,"ĠÐºÐµÑĢÑĸÑģÑĸÐ½ÑĪÐµ":8704,"ĠÐµÐ»ÑĸÐ¼ÑĸÐ·Ð´ÐµÐ³Ñĸ":8705,"ÑĤÐ°ÑĨÐ¸ÑıÐ»ÑĭÒĽ":8706,"ĠÐ¾ÑĤÑĭÑĢÒĵÐ°Ð½ÑĭÐ½":8707,"ĠÒ±Ð¹ÒĽÑĭ":8708,"Ġ2001":8709,"ĠÑĪÐ°ÑĢÑĤÑĤÑĭ":8710,"ĠÒļÑĥÐ°Ð½ÑĭÑĪ":8711,"ĠÐĸÐŀÐŀ":8712,"ĠÐ°ÑĥÐ´Ð¸ÑĤ":8713,"ĠÑĤÐ°ÑĢÐ°Ð»ÒĵÐ°Ð½":8714,"ÑĢÐ°Ð½ÑĨÑĥÐ·":8715,"ĠÑĢÐ°ÑħÐ¼ÐµÑĤ":8716,"ĠÑĤÒ±ÑĢÒĵÑĭÐ·":8717,"ĠÐłÐµÑģ":8718,"ĠÑģÐ°Ð»Ð°ÑģÑĭÐ½Ð°":8719,"Ð«Ðł":8720,"ÑĢÐ¾Ð¼ÑĤÐ°Ñĥ":8721,"ĠÐ°Ð»Ð¼Ð°ÑģÑĥ":8722,"ĠÒĴÐ°Ð»ÑĭÐ¼":8723,"ĠÐ¾Ð½ÑĭÐ¼ÐµÐ½":8724,"ĠÐ¼ÐµÐ¼Ð¾ÑĢ":8725,"ĠÐ¼Ð°ÒĽÐ°Ð»Ð°Ð½Ñĭ":8726,"ĠÐ¶ÐµÑĤÑĸÐ»Ð´ÑĸÑĢ":8727,"ĠÐ¶Ð°Ð»Ð¿ÑĭÒĵÐ°":8728,"ĠÐ³ÐµÐºÑĤÐ°ÑĢ":8729,"ÑĥÐµÐ½":8730,"ÑĭÐ¼ÑĭÑĢ":8731,"ĠÑģÑĥÑĢÐµÑĤÑĤÐµÑĢ":8732,"ĠÒĽÑĭÐ·Ð¼ÐµÑĤÑĪÑĸÐ»ÐµÑĢÑĸÐ½ÑĸÒ£":8733,"ĠÑĪÐµÐ½":8734,"ĠÒĴÑĭÐ»ÑĭÐ¼Ð¸":8735,"ÑĪÐ°ÒĽÑĤÑĭ":8736,"ĠÑĦÐ¾ÑĤÐ¾Ñģ":8737,"ÐµÑģÑĤÐµ":8738,"ĠÐľÒ±ÒĽ":8739,"ĠÐ·ÑĥÐ±Ð°":8740,"ĠÐ±Ð°ÒĵÑĭÑĤÑĤÐ°ÑĢ":8741,"ĠÐĸÒ±":8742,"ĠÐ¶Ð°Ð»Ð°Ò£":8743,"ĠÑĪÐ°ÒĽÑĭÑĢÐ°Ð´Ñĭ":8744,"ÓĻÐ¶ÑĸÑĢÐ¸Ð±":8745,"Ð°ÒĽÐ°Ð»Ð¿Ð°ÒĽ":8746,"ĠÑģÑĤÑĥÐ´ÐµÐ½":8747,"ĠÐºÐ¾ÑĢÐ¾Ð½ÐºÐ¸":8748,"ĠÐĲÑħ":8749,"ĠÑģÑĥÐ°ÑĢ":8750,"ĠÐ±Ð°ÒĵÐ´Ð°ÑĢÐ»Ð°Ð¼Ð°ÑģÑĭÐ½Ð°":8751,"Ð³ÑĸÐ½Ñĸ":8752,"ĠÐ¶Ò¯ÑĢÐ³ÑĸÐ·Ð³ÐµÐ½":8753,"Ð°Ð³Ð½Ð¾ÑģÑĤ":8754,"Ð´ÓĻÑĢÐ¼ÐµÐº":8755,"Ð°ÑģÑĤÑĢÐ¾ÑįÐ½ÑĤÐµÑĢ":8756,"ĠÑĪÐ°Ñĥ":8757,"ĠÑĪÑĭÒĵÐ°ÑĢÐ´Ñĭ":8758,"ĠÑģÐ°Ð¹ÑĤÑĭÐ½Ð°":8759,"ĠÐ°ÑĥÐºÑĨÐ¸Ð¾Ð½":8760,"ÑĪÑĭÑģÑĭÐ½ÑĭÒ£":8761,"Ð¾Ð»Ð¾Ð³Ð¸ÑıÐ´Ð°ÒĵÑĭ":8762,"ĠÐºÐ¾Ð¼Ð¿Ð°Ð½Ð¸ÑıÐ»Ð°ÑĢ":8763,"iÐ»ÐµÑĤÑĤi":8764,"ĠÑĤÐ¾ÒĽÑĤÐ°ÑĤÑĥ":8765,"ĠÐ´ÐµÐ¹Ð¼ÑĸÐ½":8766,"ĠÐ´ÐµÑģÐµÐº":8767,"ĠÒ±ÑģÑĭÐ½Ð°ÑĤÑĭÐ½":8768,"Ð¢Ò±ÑĢÒĵÑĭÐ½":8769,"ĠÐ¸Ð³Ñĸ":8770,"ĠÐ°Ð»Ð¼Ð°ÑģÑĤÑĭÑĢ":8771,"ĠÐ°ÒĵÐ°ÑĢÑĤÑĥ":8772,"ĠÐºÓ©ÑĤÐµÑĢÐ³ÐµÐ½":8773,"ĠÐ¾ÑĢÑĭÐ½Ð´Ð°ÑĢÑĭÐ½":8774,"ÑĤÑĸÐ»ÐµÐ´Ñĸ":8775,"ĠÐ°Ð³ÐµÐ½ÑĤÑĤÑĸÐº":8776,"ĠÐ¾ÑĢÐ°Ð·Ð°":8777,"ĠÐ¤Ð°ÑĢ":8778,"ĠÐµÐ¼ÑħÐ°Ð½":8779,"Ð¾Ð´Ð°":8780,"ĠÐ·ÐµÑĢÐ´ÐµÐ»":8781,"ĠÐ¶Ò±ÒĽÐ¿Ð°Ð»Ñĭ":8782,"ÑģÐ¸Ð¼":8783,"ĠÐ·Ð°Ò£Ð½ÑĭÒ£":8784,"ĠÑĤÐµÑĢÑĸÐ½ÑĸÒ£":8785,"ÑĸÑģÑĸÐ¼":8786,"ĠÓĻÐ¹ÐµÐ»Ð´ÑĸÒ£":8787,"Ð°ÐºÑĤÐ¸Ð²ÑĤÑĸ":8788,"ĠÐ±ÑĸÐ»ÑĸÐ¼Ð´ÐµÑĢÑĸÐ½":8789,"ĠÓ©ÐºÐ¿Ðµ":8790,"ÑģÑģÐµ":8791,"ĠÐ±ÓĻÐ¹":8792,"ÑħÐ°Ð¼ÐµÐ´":8793,"ĠÑģÐ¾ÒĵÑĭÑģÑĭ":8794,"ĠÐ¶Ð°ÑĢÐ°Ð¼":8795,"ÐµÐ²ÑĩÐµÐ½ÐºÐ¾":8796,"ĠÐŀÑĢÐ°Ð·":8797,"ĠÐºÓ©ÑĢÐ´ÑĸÐ¼":8798,"ĠÐ¾ÑĢÑĭÐ½Ð´Ð°ÑĢÑĭÐ½Ð´Ð°":8799,"ĠÑģÐµÐºÑģ":8800,"Ġ75":8801,"Ð¾Ð»Ð°ÑĢ":8802,"ĠÐ¢Ð°Ð¼ÑĭÐ·":8803,"ĠÐ£Ð¸ÐºÐ¸Ð¿ÐµÐ´":8804,"ĠÐ¶Ð°ÑĢÐ¸ÑıÐ»Ð°Ð¹Ð´Ñĭ":8805,"Ð°ÑĤÑĥÒĵÐ°":8806,"ĠÐ¾Ð±ÑĢÐ°Ð·":8807,"ÐŀÑĤÐ°Ð½":8808,"ÑĤÐ°Ð¹Ð¼ÑĭÐ·":8809,"ĠÐ¼Ð°ÑĥÑģÑĭÐ¼Ð´Ð°":8810,"ĠÒĽÐ°Ð·ÑĭÐ½Ð°":8811,"ĠÐ¡Ð°ÑĥÐ´Ð°":8812,"ĠÐ®ÐĿÐķÐ¡ÐļÐŀ":8813,"ĠÑĤÑĸÐ·Ð±ÐµÑģÑĸ":8814,"ĠÓ©Ð·Ð´ÐµÑĢ":8815,"ĠÐ´ÐµÐ½ÐµÑģÑĸ":8816,"ĠÐĳÐ¾Ñģ":8817,"ĠÐ¶Ð°ÒĵÐ´Ð°Ð¹ÑĭÐ½Ð´Ð°ÒĵÑĭ":8818,"Ñķ":8819,"ĠÐ¶Ò¯ÑĢÐµÐ³Ñĸ":8820,"ÑĢÐ¸ÑĤ":8821,"ĠÑģÐ»Ð°Ð¹Ð´":8822,"ĠÐºÓ©ÑĢÐ¼Ðµ":8823,"ĠÒĽÒ±ÑĢÑĭÐ»ÑĤÐ°Ð¹":8824,"ĠÐ¾ÑĤÐ±Ð°ÑģÑĭÐ»ÑĭÒĽ":8825,"ĠÐ±Ð¾Ð»Ð¼Ð°Ð¹ÑĤÑĭÐ½":8826,"ÐŁÐµÐ´Ð°Ð³Ð¾Ð³Ð¸ÐºÐ°Ð»ÑĭÒĽ":8827,"ĠÐ±ÑĸÐ»ÑĸÐ¼ÑĸÐ½":8828,"ĠÑĤÒ±ÑĢÐ¼ÑĭÑģÑĤÑĭÒĽ":8829,"90":8830,"ĠÑĤÐ°Ò£Ð´Ð°Ð¿":8831,"Ð°ÑĤÑĥÑĢÐ°":8832,"ĠÒĽÐ¾Ð·ÒĵÐ°Ð»ÑĭÑģÑĭ":8833,"Ġon":8834,"ĠÐ¼ÓĻÑģÐ»Ð¸ÑħÐ°ÑĤÑĤÑĭÒ£":8835,"ĠÒĽÑĭÑĢÑĭÒĽ":8836,"ĠÐ±ÓĻÑģÐµÐºÐµÐ»ÐµÑģÑĤÑĸÐº":8837,"ĠÒĽÑĥÑĭÑģÑĭ":8838,"ĠÐľÐ°Ðº":8839,"iz":8840,"ĠÐ¼Ð°ÑĥÑģÑĭÐ¼Ð´Ð°ÒĵÑĭ":8841,"ĠÐºÐ¸ÐµÐ»Ñĸ":8842,"Ð¸Ð±Ð°":8843,"ĠÐ±ÑİÐ´Ð¶ÐµÑĤÐºÐµ":8844,"ĠÐ°ÑħÑĥÐ°Ð»":8845,"ĠÑĪÐµÑĪiÐ¼":8846,"ÒļÐ¾ÒĵÐ°Ð¼":8847,"ÐµÑģÑĸÐ½ÑĪÑĸ":8848,"Ð¾ÑĢÐ³Ð°Ð½":8849,"ĠÐ°Ð¹ÑĤÐ°ÑĤÑĭÐ½":8850,"ĠÐ´ÓĻÑĢÑĸÐ³ÐµÑĢÐ»ÐµÑĢ":8851,"ÐŁÐĺ":8852,"ĠÒĽÐ°ÑĥÑĭÐ¼Ð´Ð°Ñģ":8853,"ym":8854,"Ġ400":8855,"ĠÑĭÒĽÑĭÐ»":8856,"ĠÐ¶Ð°ÑĥÑĭÐ¿":8857,"ĠÐĹÐµÑĢ":8858,"ĠÑģÑĥÐ´ÑĮÑı":8859,"ÒĽÐ¸":8860,"ĠÑĤÓĻÐ»ÑĸÐ¼":8861,"ÑĤÐ°ÑĢÑĭÐ¼ÐµÐ½":8862,"ĠÑĤÑĥÑĢÐ¸ÑģÑĤÑĸÐº":8863,"ÑĤÐ°ÑĥÑĭ":8864,"ĠÐ¿Ð°Ð½Ð¾ÑĢÐ°Ð¼":8865,"ĠÐ¶Ð°ÒĵÐ´Ð°Ð¹Ð»Ð°ÑĢÐ´Ñĭ":8866,"2025":8867,"ĠÐ¶Ð°ÑģÑĭÑĢÑĭÐ½":8868,"ĠÑĤÒ±Ð»ÒĵÐ°ÒĵÐ°":8869,"ĠÑĤÐ°Ð¼Ð°ÒĽÑĤÐ°Ð½":8870,"ĠÐ¼ÑĸÐ½Ð´ÐµÑĤÑĤÐµÑĢÑĸÐ½":8871,"Ð°Ð¹ÑģÑĭÐ·":8872,"ĠÐ°Ð½Ð³Ð¸Ð¼":8873,"ĠÐľÑĭÑģ":8874,"ĠÐ°Ð¹Ð½Ð°Ð»ÑĭÑģÐ°ÑĤÑĭÐ½":8875,"ĠÐ±ÐµÐ»Ð³iÐ»ÐµÐ½Ð³ÐµÐ½":8876,"ĠÒĽÐ¾ÒĵÐ°Ð¼Ð´Ð°":8877,"ĠÐ°Ð»ÑĮ":8878,"ĠÑģÑĥÐ´ÑĭÒ£":8879,"ĠÐ°Ð²ÑĤÐ¾Ð±ÑĥÑģ":8880,"ÐľÒ¯Ð³ÐµÐ´ÐµÐº":8881,"ĠÐ¼Ð°ÒĽÐ°Ð»Ð°Ð½ÑĭÒ£":8882,"ĠÐ±Ð¾ÑĢÑĭÑĪ":8883,"ĠÐľÐ°ÒĽÐ°ÑĤ":8884,"ĠÐ¼Ð°ÑĤÐµÑĢÐ¸Ð°Ð»Ð´Ð°ÑĢÑĭ":8885,"ÑĪÐ°ÑĢÐ°Ð»Ð°ÑĢÐ´Ñĭ":8886,"ĠÑĭÒ£ÒĵÐ°Ð¹Ð»Ñĭ":8887,"ÒĽÑĭÐ½Ñĭ":8888,"ĠÐ¾ÑĤÑĭÑĢÐ°ÑĤÑĭÐ½":8889,"ĠÒĽÐ°Ð¼ÒĽÐ¾ÑĢÑĪÑĭÐ»ÑĭÒĽ":8890,"ĠÑĦÐ¸ÑĢ":8891,"ĠÒ°Ð»ÑĤ":8892,"?âĢĶ":8893,"Ð³ÐµÐ±ÑĢÐ°":8894,"Ð´Ð°Ð½ÑĭÐ¿":8895,"Ð°Ð¿Ð°Ð½":8896,"ÐµÐ¶ÑĸÑĢ":8897,"ĠÐºÒ¯ÑĪÑĸÐ½Ðµ":8898,"ï»":8899,"ĠÑįÐ¼":8900,"ĠÐľÑĥÐ·ÑĭÐºÐ°":8901,"ĠÐ¢ÐľÐĶ":8902,"ĠÑĪÑĭÒĵÐ°ÑĢÐ°ÑĤÑĭÐ½":8903,"ĠÑįÐºÑģÑĤÑĢÐµÐ¼":8904,"ÑĢÐ°Ðº":8905,"ÑĪÑĭÐ»Ð´ÑĭÒĽ":8906,"44":8907,"ĠÑĪÐµÐºÑģÑĸÐ·":8908,"ĠÐ°Ð´Ð°Ð¼Ð·Ð°ÑĤ":8909,"ÑħÐ°Ð»ÑĭÒĽ":8910,"ĠÒĽÒ±ÑĢÑĭÐ»ÒĵÑĭÐ»Ð°ÑĢ":8911,"ĠÑģÓ©Ð·Ð´ÑĸÐº":8912,"ĠÑģÑĥÐ±ÑģÐ¸Ð´Ð¸ÑıÐ»Ð°Ñĥ":8913,"ĠÐĿÐµÐ³Ðµ":8914,"ĠÐºÐµÐ·Ð´ÐµÑģÑĸÐ¿":8915,"ob":8916,"ĠÐĳÐ°ÒĵÐ´Ð°ÑĢÐ»Ð°Ð¼":8917,"Ð¸Ð¸":8918,"ĠÑĤÒ¯ÑģÑĥÐ³Ðµ":8919,"Ð¼ÑĥÐ½Ð¸Ðº":8920,"Ġz":8921,"ĠÐ¶Ð¾Ð»Ð´ÑĭÒ£":8922,"ĠÐ¡Ð°ÑıÑģÐ°ÑĤ":8923,"Ð»ÑĸÐ³ÑĸÐ¼ÐµÐ½":8924,"ĠÐ£ÓĻÐ»":8925,"ĠÑģÐ°Ð´Ð°":8926,"ĠÑģÑĸÐ·Ð´ÐµÑĢÐ³Ðµ":8927,"ĠÐ°Ð·Ð°Ð¼Ð°ÑĤÑĤÐ°ÑĢÒĵÐ°":8928,"ĠÒ±Ð¹ÑĭÐ¼Ð½ÑĭÒ£":8929,"ĠÐ¢Ð°ÒĵÐ°Ð»Ð°":8930,"Ð¸Ð½Ð´Ñĸ":8931,"ĠÐ¾ÑĢÐ³Ð°Ð½ÒĵÐ°":8932,"ĠÓĻÐºÐµÐ¼":8933,"ÐŁÐ¾ÑĢÑĤÐ°Ð»":8934,"ĠÐŀÐ¼Ð°ÑĢ":8935,"ĠÐ¿ÐµÑĢÑģÐ¿ÐµÐº":8936,"Ð±Ð°Ð·":8937,"ĠÒĽÐ°ÑĢÐ°ÑģÑĤÑĭÑĢÑĥ":8938,"ĠÐ°Ð¹Ð´ÑĭÒ£":8939,"ÑĤÑĸÐ½Ð´ÐµÐ¿":8940,"ĠÐ¾ÑĢÐ³":8941,"Ð°Ð³ÐµÑĢÑĸ":8942,"Ð¼Ð°Ð½Ð¾Ð²":8943,"ĠÐºÐ°ÑĤÐµÐ³Ð¾ÑĢÐ¸Ñı":8944,"ĠÐ¼ÓĻÐ½ÑĸÐ½Ð´Ðµ":8945,"Â°":8946,"Ð°Ð¼ÒĽÐ¾ÑĢ":8947,"ĠÑįÐºÐ¾Ð½Ð¾Ð¼Ð¸ÐºÐ°Ð½ÑĭÒ£":8948,"ĠÒĽÑĭÐ·Ð´ÑĭÒ£":8949,"ĠÓ©Ð·Ð´ÐµÑĢÑĸÐ½Ðµ":8950,"ĠÓĺÐ±ÑĸÑĪ":8951,"ĠÑĢÓĻÑģÑĸÐ¼":8952,"ĠÐ¼Ð°ÒĽÑģÐ°ÑĤÑĤÑĭ":8953,"ĠÒĽÐ°ÑĤÑĭÑģÐ°ÑĤÑĭÐ½":8954,"ĠÑĤÐ°ÒĵÐ°Ð¹ÑĭÐ½Ð´Ð°Ð»Ð´Ñĭ":8955,"ĠÑģÒ±Ð»ÑĤÐ°Ð½":8956,"ĠÒĽÑĥÐ°ÑĤÑĤÑĭ":8957,"ÐĶÐµÐ½ÑģÐ°ÑĥÐ»ÑĭÒĽ":8958,"ĠÑĢÐ¾Ð¼Ð°Ð½":8959,"%,":8960,"ÐĲÐ±":8961,"ĠÐ¾ÑıÐ½":8962,"ĠÐ¶Ð°ÑĤÑĤÑĭÒĽ":8963,"ĠÐ°ÑĥÑĭÑĢÑģÑĭÐ½Ñĥ":8964,"ĠÐ¶Ò¯ÑĢÐ³ÑĸÐ·ÑĸÐ»ÑĥÐ´Ðµ":8965,"ĠÐļÐ°ÑģÐ¿Ð¸Ð¹":8966,"ĠÑģÐ°Ð¹ÑĭÑģ":8967,"ĠÐ°Ð½ÑĭÒĽÑĤÐ°Ð¼Ð°Ð»Ð°ÑĢÑĭÐ½":8968,"ĠÐ½Ð¾ÑĤÐ°ÑĢ":8969,"ĠÑģÓ©Ð½Ð´ÑĸÑĢÑĥ":8970,"Ð¾Ð·Ð°":8971,"Ð»ÐµÑĢÐ³":8972,"78":8973,"ÐŁÑĢÐµÐ·Ð¸Ð´ÐµÐ½":8974,"ĠÐ³ÑĥÐ¼Ð°Ð½Ð¸ÑĤÐ°ÑĢÐ»ÑĭÒĽ":8975,"ĠÐ°Ð»Ð°ÑĢ":8976,"Ð°ÑĥÑĭÐ½Ð°":8977,"ĠÐ¼ÐµÑĢÐ·ÑĸÐ¼Ð´Ðµ":8978,"ĠÐ¾ÒĽÑĥÑĪÑĭÐ»Ð°ÑĢÒĵÐ°":8979,"ĠÓĻÐ»ÐµÐ¼Ñĸ":8980,"ĠÐºÐ¾Ð½ÑĤÐµÐ½ÑĤ":8981,"ĠÑģÐ°Ð±Ð°ÒĽÑĤÐ°Ñģ":8982,"ĠÐ±ÐµÑĢÐ¼ÐµÑĥ":8983,"ĠÑħÐ°Ð±Ð°ÑĢÐ»Ð°Ñĥ":8984,"ĠÑĪÑĭÒĵÐ°ÑĢÐ¼Ð°Ð»Ð°ÑĢ":8985,"Ð°Ð¼Ð±ÐµÑĤÐ¾Ð²":8986,"ĠÑĤÐ¾Ñģ":8987,"ÑĤÓ©Ð±Ðµ":8988,"Ð°Ð»ÑĭÒĵÑĭÐ¼ÐµÐ½":8989,"Ð°ÑĤÑĤÐ°Ð»ÒĵÐ°Ð½":8990,"ĠÐ°Ð»Ð°ÒĽÐ°Ð½":8991,"ĠÐ°ÑıÒĵÑĭ":8992,"ĠÑĤÒ¯ÑĢÑĸÐ½Ðµ":8993,"ĠÑĤÓ©Ð»ÐµÐ¼Ð´ÐµÑĢ":8994,"ÒĽÐ°Ð»Ñĭ":8995,"ÑĭÐ±ÑĢÐ¸ÑĤÐ°Ð½":8996,"ĠÒ»":8997,"ĠÐºÐµÑĤÐµ":8998,"ÐļÐ°Ð·":8999,"ĠÐµÐ»Ð´ÐµÑĢÑĸÐ½ÑĸÒ£":9000,"ĠÐ±Ð¸ÐµÐ½ÑĸÒ£":9001,"ÑĤÐ°ÑģÑĤÑĭÑĢ":9002,"ĠÑĤÐ°ÑģÑĤÐ°ÒĵÐ°Ð½":9003,"ĠÐ±Ð¾Ð»Ð°ÑĪ":9004,"ĠÓĻÑģÐµÑĢÑĸÐ½ÐµÐ½":9005,"Â¬":9006,"Ð´ÑĸÐ¼Ð³Ñĸ":9007,"ĠÐĳÐµÐ¹Ð½ÐµÑĥ":9008,"ĠÐĲÐ»ÐµÐºÑģÐ°Ð½Ð´ÑĢ":9009,"ĠÓ©ÑģÑĸÐ¼Ð´ÑĸÐºÑĤÐµÑĢ":9010,"ĠÒĽÐ°Ð½ÑĪÐ°Ð¼Ð°":9011,"ĠÐ¡ÑĭÐ½":9012,"Ð³Ð¾ÑĢ":9013,"ÐºÐµÐ½Ñĸ":9014,"ĠÐºÓ©ÑĢÐ¼ÐµÑģÑĸ":9015,"ÑĥÐ»Ñı":9016,"ĠÐ¡ÐµÐ¹":9017,"ĠÐ´Ð¸Ð°Ð±":9018,"Ð¸Ð¼Ð¸ÑĢ":9019,"ÑĮÑĪ":9020,"ĠÐŁÒļ":9021,"ĠÒĽÐ¸Ð¼":9022,"ĠÒ±Ð·ÑĭÐ½Ð´ÑĭÒĵÑĭ":9023,"ÑĤÐµÑĤÑĸÐ½":9024,"ÑĤÑĸÑĢÑĸÐ¿":9025,"ĠÑĦÐµÐ´ÐµÑĢ":9026,"ĠÐ°Ð½ÑĭÒĽÑĤÐ°Ð¿":9027,"ÑĤÑĸÑģ":9028,"ĠÒĽÐ°ÑĥÐ»ÑĭÑģÑĭÐ¼ÐµÐ½":9029,"ĠÒĽÐ¾Ð»Ð°":9030,"od":9031,"ÑĤÑĭÒĵÑĭÐ½ÑĭÒ£":9032,"ÒĽÐ°ÒĵÐ°Ð½":9033,"Ð´ÑĭÒĵÑĭÐ½ÑĭÒ£":9034,"ÑĦÐ¾ÑĤÐ¾":9035,"ĠÐŀÐ±Ð»ÑĭÑģÑĤÑĭÒĽ":9036,"ĠÐ¸Ð½ÑĤÐµÐ³ÑĢ":9037,"ge":9038,"Ð»Ð°ÑĢÑĭÒ£ÑĭÐ·ÒĵÐ°":9039,"ĠÐŀÐ¹ÑĭÐ½":9040,"ĠÓ©Ð½ÑĸÐ¼Ð½ÑĸÒ£":9041,"ĠÒĽÒ±ÑĢÑĭÐ»ÑĭÑģÑĭÐ½Ð°":9042,"ĠÐ°ÑĢÑĭ":9043,"ÐĳÒ±Ð´Ð°Ð½":9044,"Ð°Ò£ÒĵÑĭ":9045,"ĠÐ´Ð°ÒĵÐ´ÑĭÐ»Ð°ÑĢÑĭÐ½":9046,"SA":9047,"ĠÐ¸Ð½ÑĦÐ¾ÑĢÐ¼":9048,"ĠÐ¶Ð¸ÑĭÐ½ÑĤÑĭÒĵÑĭ":9049,"ÑĩÐ¸Ð½":9050,"ĠÓ©ÐºÑĸÐ»ÐµÑĤÑĤÑĸÐº":9051,"ĠÑĤÐ°ÑĥÐ°ÑĢÐ»Ð°ÑĢ":9052,"2006":9053,"ĠÒĽÐ¾ÑĢÑĭÐ½":9054,"ĠÐĿÐ°Ñĥ":9055,"Ð´iÐ³iÐ½":9056,"ĠÐ»Ð°ÑĥÐ°Ð·ÑĭÐ¼Ð´Ð°ÑĢÒĵÐ°":9057,"ĠÐ¡Ð°Ð±":9058,"ĠÐ¢Ð°Ð¿":9059,"ÑģÑĸÐ»":9060,"ÒļÐ°Ð·ÑĸÑĢ":9061,"ĠÑĤÐ°ÑĤ":9062,"ĠÐ·Ð°Ò£Ð´ÑĭÐ»ÑĭÒĽ":9063,"ĠÒĽÒ±ÑĢÐ°Ð¼ÑĭÐ½Ð´Ð°ÒĵÑĭ":9064,"ĠÑģÑĭÐ¹Ð»ÑĭÒĽÑĤÐ°ÑĢ":9065,"ĠÑĸÑģÐºÐµÑĢÐ»ÑĸÐº":9066,"ĠÐ´Ð°Ð¼ÑĥÑĭÐ½":9067,"52":9068,"ĠÐ¾ÒĽÑĪÐ°Ñĥ":9069,"Ð±iÑĢ":9070,"ĠÑįÑĦÐ¸ÑĢ":9071,"ÐĲÑģ":9072,"ÐĵÐ°Ð·":9073,"ĠÐµÑģÑĤÑĥ":9074,"ĠÑĪÐ°ÑĥÑĭÐ¿":9075,"Ð¡Ð°ÑĢ":9076,"Ð±ÐµÑĢÐ³":9077,"ĠÒļÐ°ÑĢÑĥÐ»Ñĭ":9078,"ï»¿":9079,"ĠÒĽÐ°ÑĢÐ¶ÑĭÐ»Ð°Ð½":9080,"41":9081,"ĠÐĸÐµÑĤÑĸÑģ":9082,"pp":9083,"ÑĤÐ°ÑĢÐ¼Ð°ÒĵÑĭÐ½Ð´Ð°":9084,"ĠÐ´ÐµÒ£Ð³ÐµÐ¹ÑĸÐ½Ð´Ðµ":9085,"ĠÑģÒ¯Ð¹ÑĸÑģÐ¿ÐµÐ½":9086,"ÒļÐļ":9087,"ĠÓ©Ð¼ÑĸÑĢÑĸÐ½ÑĸÒ£":9088,"ĠÐ¶Ð°ÑģÐ°Ð»ÑĭÐ¿":9089,"ĠÑĤÐ°Ð¿ÑģÑĭÑĢÑĥ":9090,"ĠÐ¢ÑĸÐ·":9091,"Ð²ÐµÑĢ":9092,"ĠÒĽÑĭÐ·Ð¼ÐµÑĤÑĤi":9093,"ĠÐºÐµÑĪÐµ":9094,"ĠÐ½Ó©Ð¼ÑĸÑĢÑĸ":9095,"ĠÐĴÐ»Ð°Ð´":9096,"ĠÐ±Ð¾Ð»Ð´ÑĭÑĢÐ¼Ð°Ñĥ":9097,"ĠÐ¶ÐµÑĤÑĸÑģÐ¿ÐµÑĥ":9098,"ĠÐ°ÑĤÑĭÐ¿":9099,"ĠÐ¾ÒĽÑĥÑĪÑĭÑģÑĭ":9100,"49":9101,"ĠÑħÐ°Ð±Ð°ÑĢÐ»Ð°Ð¼Ð°Ð½Ñĭ":9102,"ĠÐ¼ÐµÐ·Ð³ÑĸÐ»Ð´Ðµ":9103,"ĠÐºÒ¯ÑĤÑĥ":9104,"ĠÐ°ÑĥÑĭÐ»Ð´ÑĭÒ£":9105,"ĠÒĽÒ±ÑĢÑĤ":9106,"ÑĭÐ»ÑĥÒĵÐ°":9107,"ĠÐ¢ÑĥÒĵÐ°Ð½":9108,"ĠÑĤÑĸÑĢÐºÐµÐ»Ñĥ":9109,"ĠÐ±Ð°ÑĢÑĥ":9110,"ĠÐ°ÑĥÐ´Ð¸ÑĤÐ¾ÑĢ":9111,"ĠÒĽÐ°ÑĤÑĭÑģÑĭ":9112,"ĠÐºÐµÒ£Ñģ":9113,"ĠÒĽÐ¾Ð»ÑĭÐ½":9114,"ÐµÐ»ÐµÐ¹Ð´Ñĸ":9115,"Ð¸ÑıÑģÑĭÐ½Ð´Ð°":9116,"ĠÐłÑĥÐ´Ð½ÑĭÐ¹":9117,"ĠÐ°ÑģÑĭÒĽ":9118,"ĠSp":9119,"Ð°ÒĵÑĭÐ»":9120,"ĠÑĤÐ¾ÒĵÑĭÐ·ÑĭÐ½ÑĪÑĭ":9121,"Ð¾Ñı":9122,"ĠÐ¿Ð°ÑĢÑĤÐ¸ÑıÑģÑĭÐ½ÑĭÒ£":9123,"ĠÐºÓ©Ð±ÐµÐ¹ÑĤÑĥ":9124,"ĠÐļÐµÑĪ":9125,"Ð¸ÑıÐ·":9126,"Ò°Ðł":9127,"ĠÐ¡ÑĤÑĥÐ´ÐµÐ½ÑĤ":9128,"ĠÐ°Ð·Ð°Ð¼Ð°ÑĤÑĤÐ°ÑĢÑĭ":9129,"ĠÐºÓ©ÑĢÑĸÐ½ÑĸÐ¿":9130,"ĠÐĺÐ·":9131,"ĠÐ±Ð°Ð·Ð°Ð»ÑĭÒĽ":9132,"ĠÒĽÑĭÐ»ÑĭÐ¿":9133,"ĠÐ¾ÑĤÑĭÑĢÑĭÑģÑĭÐ½ÑĭÒ£":9134,"ĠÐµÑĢÑĸÑĤÑĸÐ½Ð´Ñĸ":9135,"ÑĤÓĻÑĢÐ±Ð¸Ðµ":9136,"Ð¸Ð½Ð´Ðµ":9137,"Ð¾ÑĢÐ²ÐµÐ³":9138,"ĠÐ¾ÑģÑĭÐ»Ð°Ð¹ÑĪÐ°":9139,"ĠÐ»Ð°Ð³ÐµÑĢÑĮ":9140,"ĠÐľÐ¾Ð»":9141,"ĠÐ³Ð¸Ð¼Ð½":9142,"ĠÒĽÐ¾ÑĢÑĭÐ½Ð°":9143,"ÐŃÐ»ÐµÐºÑĤÑĢÐ¾Ð½Ð´ÑĭÒĽ":9144,"cri":9145,"ĠÒĴÑĭÐ»ÑĭÐ¼":9146,"ĠÐ±ÑĸÐ»Ðµ":9147,"ĠÓĻÐ¹ÐµÐ»Ñĸ":9148,"ĠÐ°Ð´Ð°Ð¼Ð·":9149,"ĠÑĤÒ±ÑĢÒĵÑĭÐ½Ð´Ð°ÑĢÑĭÐ½":9150,"ĠÐĿÐ°Ð·Ð°ÑĢÐ±Ð°ÐµÐ²ÒĽÐ°":9151,"ÑĥÑĪÑĭÐ»Ð°ÑĢÒĵÐ°":9152,"ĠÒĽÑĭÑĢÒĵÑĭÐ·":9153,"ĠÐŃÐļÐ¡ÐŁÐŀ":9154,"Ð°ÑıÑĤ":9155,"ÑĸÐºÑĤÑĸÑĢÑĥ":9156,"ĠÑĪÐ°":9157,"ĠÑģÐµÐ½Ñĸ":9158,"ĠÐĸÐ°Ò£Ð°ÒĽ":9159,"ĠÒĽÐ¾Ð»Ð´Ð°Ð½ÒĵÐ°Ð½":9160,"ĠÒĽÐ°ÑĤÑĭÑģÑĥÑĪÑĭÐ»Ð°ÑĢÐ´ÑĭÒ£":9161,"ÑĸÑģÑĤÐµ":9162,"ĠÐĸÑĸÐ±ÐµÐº":9163,"ĠÒĽÐ¾Ð»Ð´Ð°ÑĥÑĭÐ¼ÐµÐ½":9164,"Ð°Ð»ÑĮÐ´Ñĸ":9165,"ÐºÑĸÐ½ÑĸÑĪÐºÐµ":9166,"ĠÐ·ÐµÑĢÑĤÑħÐ°Ð½Ð°Ð»ÑĭÒĽ":9167,"Ġ=":9168,"ĠÐ°ÑĤÐ°ÑģÑĭ":9169,"Ð°ÑĦÐ¾Ð½":9170,"ĠÒĽÐ°Ð»Ð°Ð»Ð°ÑĢÐ´ÑĭÒ£":9171,"ÐºÐ°Ð½":9172,"ĠÒĽÐ°Ð»Ð´ÑĭÐ¼":9173,"ĠÐĳÐ°ÑģÑĤÐ°ÑĥÑĭÑĪ":9174,"ĠÐĲÐ»ÑĭÐ¿":9175,"Ð·ÑĭÐ½":9176,"2008":9177,"ĠÓ©ÑģÐµÐ´Ñĸ":9178,"ÑĸÐ»Ð¼ÐµÐ³ÐµÐ½":9179,"Ð°Ð¹ÑĭÑĢ":9180,"Ð¢ÓĻÑĥÐµÐ»":9181,"ĠÐ¶ÐµÑĢÑĸÐ½Ðµ":9182,"ĠÐ±ÑĸÑĢÐ»ÐµÑģÐµ":9183,"ĠÒ®Ð½Ð´Ñĸ":9184,"ĠÑĤÐ°Ð¿ÑģÑĭÑĢÐ´Ñĭ":9185,"ĠÐ¶Ò±Ð¼ÑĭÑģÑĤÑĭÒ£":9186,"ĠÐ¥ÑĢÐ¾Ð¼ÑĤÐ°Ñĥ":9187,"ĠÐ»Ð°ÑĥÐ°Ð·ÑĭÐ¼Ð´Ð°ÑĢÐ´Ð°":9188,"ĠÑĢÒ±ÒĽÑģÐ°ÑĤÑĭÐ½":9189,"ĠÐ¶Ð°ÑģÑĤÐ°ÑĢÐ´Ñĭ":9190,"ĠÐķÐ²":9191,"ÑĭÑģÑĭÐ·":9192,"Ð¾Ð¹Ð½Ñĭ":9193,"ÐĳÒ¯Ð³ÑĸÐ½Ð´Ðµ":9194,"ĠÐ¼Ð³":9195,"ĠÓ¨Ð»ÐµÒ£":9196,"ĠÐºÓ©ÑĢÑģÐµÑĤÑĸÒ£ÑĸÐ·":9197,"ÑĪÑĸÐ»ÐµÑĢÐ³Ðµ":9198,"ÑĭÒ£Ð½Ð°Ð½":9199,"Ð±ÐµÑĢÐºÑĥÐ»":9200,"ĠÐµÑĪÐ±ÑĸÑĢ":9201,"Ġ99":9202,"ĠÑĤÐ°Ð½ÑĭÐ»ÒĵÐ°Ð½":9203,"Ð´ÑĸÑĢÑĸÐ»Ð³ÐµÐ½":9204,"ĠÒĽÐ¾Ð»Ð´ÑĭÒ£":9205,"ĠÐ±Ð°Ð»Ð»":9206,"ĠÐ¾Ð¹Ñĭ":9207,"ÐĲÐłÐĲÐ¢":9208,"ÐĶÑĸÐ½Ð¸":9209,"ĠÒĽÐ°Ð±ÑĭÐ»Ð´Ð°Ð¿":9210,"ĠÑĥÐ»ÑĮÑĤÑĢ":9211,"ĠÐºÐµÑĪÑĸ":9212,"ÒļÐ°Ð·Ð°ÒĽÑĪÐ°":9213,"ĠÐ±Ð°ÑıÐ½Ð´Ð°Ð¼Ð°":9214,"ĠÐ°Ð»ÑĭÐ½Ð°ÑĤÑĭÐ½":9215,"ÐŀÑĢÑĤÐ°Ð»ÑĭÒĽ":9216,"ĠÑģÐ¸ÑĭÑĢ":9217,"ĠÐ»Ð¸":9218,"ÐµÑĢÐ°Ð½":9219,"ÑģÐ°ÑĢÐ¸Ð½":9220,"ÒĵÑĭÐ½Ð´Ð°ÒĵÑĭ":9221,"ĠÐ¶Ð°ÑģÐ°ÑĥÐ´Ñĭ":9222,"ĠiÑĪiÐ½Ð´Ðµ":9223,"ĠÐ±Ð°ÑģÒĽÐ°Ð½":9224,"ĠÓ©Ð½ÐµÑĢÑĸÐ½":9225,"ĠÐ¢Ó©ÑĤÐµÐ½ÑĪÐµ":9226,"ĠÐ¶ÐµÑĢÐ´ÐµÐ³Ñĸ":9227,"ĠÐ±Ó©Ð»ÑĸÐ½Ð´Ñĸ":9228,"ĠÐºÓ©ÑĢÐ½ÐµÐºÑĤÑĸ":9229,"ĠÐ°ÑĤÒĽÐ°ÑĢÑĭÐ¿":9230,"Ð¾Ð²Ð½Ð°":9231,"ĠÐºÒ¯ÑĢÑĤ":9232,"ĠÐ±Ð°ÑıÐ½Ð´Ð°Ð¼":9233,"Ð°ÒĽÑĤÑĭÒ£":9234,"ĠÐ±Ð°Ð¹ÒĽÐ°ÑĥÒĵÐ°":9235,"ĠÑģÐ¸Ð¼Ð²Ð¾Ð»":9236,"ĠÐ¶Ò±Ð¼ÑĭÑģÐºÐµÑĢÑĸ":9237,"ĠÒĽÐ¾Ò£ÑĭÑĢÐ°Ñĥ":9238,"ĠÐ±ÐµÐºiÑĤÑĥ":9239,"ĠÑĪÐ¾ÒĽ":9240,"ĠÐ¶Ð°ÑģÑĭÐ½Ð´Ð°":9241,"Ò®Ð¹":9242,"ĠÑģÒ¯ÑĤÑĸ":9243,"ĠÐ¼Ð°Ð¼Ð°Ð½Ð´Ð°ÑĢÒĵÐ°":9244,"ĠÐ¿ÑģÐ¸ÑħÐ¸ÐºÐ°Ð»ÑĭÒĽ":9245,"ĠÐºÐµÑĪÑĸÐºÑĤÑĸÑĢ":9246,"ĠÐ°ÑĢÑĥ":9247,"ĠÐ¶Ð°ÑĤÑĭÑĢÐ¼ÑĭÐ·":9248,"ĠÐ¶Ò¯ÑĢÐ³ÐµÐ½ÑĸÐ½":9249,"ĠÒ±ÑıÐ»Ñĭ":9250,"Ð°Ð´ÑĭÒĽ":9251,"ĠÐ¾ÑĢÐ³Ð°Ð½Ñĭ":9252,"ÑĤÑĸÐ½ÑĸÒ£":9253,"ÐºÐ¾Ð³":9254,"ĠÑĨÐ¸ÑĢ":9255,"ĠÒĽÒ±ÑĢÑĭÐ¿":9256,"ĠÐ²ÐµÐ´Ð¾Ð¼ÑģÑĤÐ²Ð¾Ð»ÑĭÒĽ":9257,"ÑĢÐ¸ÑĤÐµÑĢ":9258,"Ð´Ð°Ð»Ð´Ñĭ":9259,"ĠÑģÐ°ÒĽÑĤÐ°ÒĵÐ°Ð½":9260,"ÐĲÒĽÑĤÓĻ":9261,"ĠÐĸÐ°ÑĢÐ±Ð¸Ð¼":9262,"ĠÐ¶Ò±ÑĢÑĤÑĪÑĭÐ»ÑĭÒĽ":9263,"ĠÒĽÐ¸Ð½":9264,"ĠÐ³Ð¾ÑĢÐ¼Ð¾Ð½":9265,"ĠÐ°ÑĪÑĭÐ»ÑĭÐ¿":9266,"ĠÒĽÐ¾ÑģÑĥÒĵÐ°":9267,"ĠÐ°Ð»ÑĭÐ½Ð°Ð´Ñĭ":9268,"ĠÐļÒ¯Ð»":9269,"ĠÐ¾ÑĢÑĭÐ½Ð´Ð°ÑĢÑĭÐ½Ð°":9270,"ĠÐĲÒĵÑĭÐ»ÑĪÑĭÐ½":9271,"Ð°ÑĤÑĭÐ½Ð°Ð½":9272,"ÐľÓĻÒ£Ð³ÑĸÐ»ÑĸÐº":9273,"ĠÑģÑĤÑĥÐ´ÐµÐ½ÑĤÑĤÐµÑĢÑĸÐ½ÑĸÒ£":9274,"Ð¿ÐµÑģ":9275,"ĠÐ¿Ð°ÑĢÐ°Ð¼ÐµÑĤÑĢ":9276,"ĠÐ¼Ð°Ð¼ÑĭÑĢÐ´Ð°ÒĵÑĭ":9277,"ĠÐ¼Ð¼":9278,"ĠÒ±ÑĢÐ¿Ð°ÒĽÒĽÐ°":9279,"ĠÐ°ÑĥÒĽÑĭÐ¼":9280,"ĠÐ¸Ñģ":9281,"ĠÐºÐµÐ·Ð´ÐµÑĢÑĸ":9282,"ĠÐ¡ÓĻÑĥÐ»ÐµÑĤ":9283,"Ð°Ð¹Ð´ÑĭÒ£":9284,"ĠÐ°Ð²Ð¸":9285,"ĠÐºÓĻÑģÑĸÐ¿Ð¾ÑĢÑĭÐ½Ð´Ð°ÑĢ":9286,"ĠÒĽÐ¸Ñģ":9287,"ĠÐ¾Ð»Ð¸Ð¼Ð¿Ð¸Ð°Ð´":9288,"ĠÐºÐ¾Ð½ÑģÑĥÐ»":9289,"ÑĢÐ°Ð¸":9290,"Ð°ÑĤÑĤÐ°Ð½Ð´ÑĭÑĢÑĥ":9291,"ĠÒĽÐ°ÑĢÐ°ÑĥÒĵÐ°":9292,"ĠÐºÓ©ÐºÐµÐ¹":9293,"ÐµÐ»iÐº":9294,"ĠÐ±ÐµÐ¹ÑĸÐ¼Ð´ÐµÐ»":9295,"Ð¢Ó©ÑĢÑĤÑĸÐ½ÑĪÑĸ":9296,"ĠÐ´ÐµÒ£Ð³ÐµÐ¹ÑĸÐ½Ðµ":9297,"ĠÐµÑĢÐµÐ¶ÐµÐ»ÐµÑĢ":9298,"ĠÐ½Ò±ÑģÒĽÐ°ÑģÑĭ":9299,"Ð»Ð°Ð¹ÑĤÑĭÐ½":9300,"ĠÑģÐµÐ±ÐµÐ¿ÑĤÐµÑĢÑĸ":9301,"ĠÑģÐ°Ð»ÑĭÐ½Ð´Ñĭ":9302,"ĠÐļÓ©Ð¿ÑĤÐµÐ³ÐµÐ½":9303,"ĠÐ¶Ð°ÑĢÐ°ÒĽÐ°ÑĤ":9304,"Ð¡Ð¾Ò£ÒĵÑĭ":9305,"Ð¾Ð²Ð¸Ñĩ":9306,"Ð¸Ð²ÑĤÑĸÐº":9307,"ÐŃÐļ":9308,"ĠÐĳÐ¸Ð¾Ð»Ð¾Ð³Ð¸Ñı":9309,"Ð¼Ð¸Ð½Ð¸ÑģÑĤÑĢÑĸ":9310,"ĠÑĤiÐ»":9311,"ĠÐµÑĢÐ»ÑĸÐº":9312,"ĠÐ¶ÑĸÐ³Ñĸ":9313,"ĠÓ©ÑĤÐºÑĸÐ·ÑĥÐ´Ñĸ":9314,"ÐķÐ½Ð´Ñĸ":9315,"ĠÓ©Ð¼ÑĸÑĢÐ»ÑĸÐº":9316,"ĠÐ¸Ð³ÐµÑĢÑĸÐ»ÑĥÑĸ":9317,"ÑģÐ°Ð¿":9318,"ĠÒĵÒ±Ð»":9319,"Ð±ÑĸÐ»ÑĸÐ¼":9320,"ĠÐ¿Ð°Ð¹Ð´Ð°Ð»Ð°Ð½ÑĭÐ»Ð°ÑĤÑĭÐ½":9321,"ĠÓĻÐ»Ð´ÐµÒĽÐ°Ð¹Ð´Ð°":9322,"ĠÐ¶Ð°ÑģÑĤÐ°ÑĢÒĵÐ°":9323,"ĠÐŁÐ¾":9324,"ÐĲÐĻ":9325,"ĠÒļÐ¾Ð¶":9326,"ĠÐ±Ð°ÑģÑĪÑĭÑģÑĭÐ½Ð°":9327,"ĠÐ¶ÐµÑĤÐºÑĸÐ·ÑĸÐ¿":9328,"ĠÐ±Ð°ÑģÑĭÐ½ÑĭÒ£":9329,"ĠÓĻÐ¼ÑĸÑĢ":9330,"ÑĥÑĪÑĭÒĵÐ°":9331,"ĠÐ¼Ò±ÑĢÐ°ÒĵÐ°ÑĤÑĤÐ°ÑĢ":9332,"Ð¾Ð¿Ð°ÑĤ":9333,"Ð°ÒĵÐ°Ð»Ð¸":9334,"Ð°ÑĥÑĭÐ·":9335,"ĠÑĤÐµÐ±":9336,"Ġ47":9337,"ĠÒĽÐ¾ÑĢÒĵÐ°Ð½ÑĪÑĭÐ»ÑĭÒĽ":9338,"ĠÐ±Ð°ÑģÒĽÐ°ÑĢÑĥÐ´ÑĭÒ£":9339,"ĠÓĻÐ´ÑĸÑģÑĤÐµÑĢÑĸÐ½":9340,"ĠÐ¼iÐ½Ð´ÐµÑĤÑĤi":9341,"ÐºÑĸÑĤ":9342,"ÐµÐ±Ð°ÐµÐ²":9343,"ĠÑįÐ¼Ð¾":9344,"ĠÐĵÐµÐ½":9345,"ĠÐ±Ð°ÑģÑĤÐ°Ð¼Ð°":9346,"Ġ33":9347,"ĠÐĺÐ½Ð²ÐµÑģÑĤÐ¸ÑĨÐ¸ÑıÐ»Ð°ÑĢ":9348,"ĠÐľÐ¸ÑıÐ»Ñĭ":9349,"ĠÐºÐ¾Ð¼Ð°Ð½Ð´Ð°ÑģÑĭ":9350,"ĠÑĤÒ¯Ð¿Ð½Ò±Ñģ":9351,"ĠÐ¶Ð¾Ð±Ð°Ð»Ð°ÑĢÑĭ":9352,"ĠÐŀÐ»Ð°ÑĢÒĵÐ°":9353,"ĠÒļÐ°Ð¹ÑĤÐ°":9354,"ĠÑģÐ°Ð½Ð°ÑĤÑĭ":9355,"ĠÐ¼ÐµÐ¼Ð»ÐµÐºÐµÑĤÑĤÐµÑĢÐ´ÑĸÒ£":9356,"ĠÑĦÐ¸Ð»Ð¾ÑģÐ¾ÑĦÐ¸ÑıÐ»ÑĭÒĽ":9357,"ĠÐ±ÑĸÑĢÑĪÐ°Ð¼Ð°":9358,"Ð¸Ð½Ð¾":9359,"ÒĽÑĭÐ·Ð¼ÐµÑĤ":9360,"ĠÐ°ÑĤÐ°Ð½ÒĵÐ°Ð½":9361,"ĠÐ°ÒĽÐ°Ñĥ":9362,"ĠÐ±ÐµÐ»Ð´ÐµÑĥ":9363,"ĠÒĽÐ¾Ð¹ÑĭÐ»Ð°Ð´Ñĭ":9364,"ĠÑĤÒ¯ÑĤÑĸÐ½":9365,"ĠÒ¯Ð»Ð³ÐµÑĢÐ³ÐµÐ½":9366,"ĠÒļÐ°Ð¿ÑĪÐ°ÒĵÐ°Ð¹":9367,"ĠÐºÐµÑĤÑģÐµ":9368,"ĠÒĽÐ¸ÑıÐ»":9369,"ĠÐ¶ÐµÐºÐµÑĪÐµÐ»ÐµÐ½":9370,"ĠÒĽÐ°Ð»ÑģÐ°":9371,"ĠÐºÑĸÑĢÑĥ":9372,"ĠÐ¼Ð°ÒĽÑģÐ°ÑĤÑĤÐ°ÑĢÑĭ":9373,"ĠÑĤÐµÑĢÐ°Ð¿Ð¸Ñı":9374,"ÉĻÑĢ":9375,"ÐĲÐ³":9376,"ĠÐ¶Ð°Ð½Ð´Ð°ÑĢ":9377,"ĠÓĻÑĥÐµÐ¶":9378,"Ð¾Ð¹ÑĭÐ·":9379,"ĠÓ©ÐºÑĸÐ»ÐµÑĤÑĤÑĸ":9380,"ĠÐ¶Ð°ÑĢÐ°ÑĤÑĭÐ»ÑĭÑģÑĤÐ°Ð½Ñĥ":9381,"ĠÒ±Ð·Ð°ÒĽÑĤÑĭÒĵÑĭ":9382,"ĠÐ±ÑĸÑĢÐµÑĥÑĸ":9383,"ĠÐ¶Ð¾Ð»ÑĭÐ½Ð´Ð°ÒĵÑĭ":9384,"ĠÒ±ÑģÑĤÐ°Ð½ÑĭÐ¼":9385,"ĠÑģÒ±Ð»ÑĥÐ»ÑĭÒĽ":9386,"Ð°Ð»ÐµÑĢÐµÑı":9387,"ĠÑĤÒ±ÑģÐ°Ñĥ":9388,"ĠÒĽÐ°Ð¶ÐµÑĤÑĸ":9389,"ÑĤÑĸÑĢÑĸÐº":9390,"ĠÑģÐ¾ÒĵÐ°Ð´Ñĭ":9391,"ĠÐ¿Ð°Ð¹Ð´Ð°Ð»Ð°Ð½Ð°Ð´Ñĭ":9392,"Ð¾Ñĥ":9393,"ĠÐµÑĢÐµÑģÐµÐº":9394,"ĠÐ³Ó©ÑĢÑĸ":9395,"ĠÐ°Ð»Ð°ÑģÑĭÐ·Ð´Ð°ÑĢ":9396,"ĠÐ¶ÓĻÑĢÐ¼ÐµÒ£":9397,"ĠÐ±ÐµÑĤÑĤÐµÑĢ":9398,"Ġ05":9399,"ÐĽÐķÐļ":9400,"ĠÐļÐµÐ¹Ð´Ðµ":9401,"Ð¼ÐµÐ¼Ð»ÐµÐºÐµÑĤÑĤÑĸÐº":9402,"ĠÓ©Ð¼ÑĸÑĢÑĸÐ½Ðµ":9403,"Ð°ÒĽÑĭÑĤÑĭ":9404,"Ó¨ÑĤÐºÐµÐ½":9405,"ĠÑĤÓ©Ò£ÑĸÑĢÐµÐ³ÑĸÐ½Ð´Ðµ":9406,"ĠÑĤÑĸÑģ":9407,"ĠÒĽÐ°Ð»Ñĥ":9408,"ĠÐ°Ð¹ÑĤÑĭÐ»Ð°Ð´Ñĭ":9409,"ĠÐ¾ÑĢÑĤÐ°Ð»ÑĭÒĵÑĭÐ½Ð°":9410,"Ð´Ð¸ÐµÐ²":9411,"ÒĵÑĭÐ½Ñĭ":9412,"ĠÐ±Ð°Ð¿ÑĤÑĭÒ£":9413,"ĠÐĿÐ°ÑĢ":9414,"ĠÐ¾ÑĢÐ½Ð°ÑĤÑĭÐ»":9415,"ÐµÐ¼ÐµÐ»":9416,"ĠÐ¶Ð¶":9417,"ĠÐ¿ÐµÑĢÐ·":9418,"ÑĭÑĢÐ·Ð°":9419,"ĠÐĲÑĪÑĭÒĽ":9420,"ĠÐ¡ÑĤÐ°ÑĤÐ¸ÑģÑĤÐ¸ÐºÐ°":9421,"Ð±ÐµÑĢÐºÑĥÐ»ÐµÐ·":9422,"ĠÑĢÐµÑģÐµÐ¹Ð»ÑĸÐº":9423,"ĠÐļÐµÒ£ÐµÑģÑĸÐ½ÑĸÒ£":9424,"ĠÐĶÐ°ÑĢ":9425,"ĠÑģÐ°Ð»Ð¼Ð°ÒĵÑĭ":9426,"Ð¢Ò¯ÑĢÐºÑĸÑģÑĤÐ°Ð½":9427,"Ġ49":9428,"ÐµÐ³ÐµÐ¹Ð»Ñĸ":9429,"ĠÒ¯ÑģÑĤÐµÐ¼Ð´ÑĸÐ³Ñĸ":9430,"ĠÐ±ÑĸÑĢÑĤÒ±ÑĤÐ°Ñģ":9431,"ĠÐºÐ³":9432,"Ð°ÑĤÐ¾Ð¼":9433,"ĠÐ±ÑĸÑĢÑĤÑĸÐ½Ð´ÐµÐ¿":9434,"ĠÑĪÐ°Ò»":9435,"Ð¸ÑģÑĮ":9436,"Ð¸Ð¶":9437,"ĠÐĲÐ»Ð´Ñĭ":9438,"ĠÑĤÐ°Ð»Ð°Ð±Ñĭ":9439,"ĠÐ´ÓĻÑĢÐµÐ¶ÐµÐ´Ðµ":9440,"Ð¼iÑĢ":9441,"ĠÐºÐµÐ·ÐµÒ£Ð³Ðµ":9442,"ÐºÑĸÑģÑĸ":9443,"ÐľÐµÐ´Ð¸ÑĨÐ¸Ð½Ð°Ð»ÑĭÒĽ":9444,"ÑĤÐ°Ð»Ð¼ÑĭÑĪ":9445,"ÐµÑĨ":9446,"ĠÐ¿ÑĢÐ¾ÑĨÐµÐ½ÑĤ":9447,"ĠÐ°Ð²ÑĤÐ¾Ð±ÑĥÑģÑĤÐ°ÑĢ":9448,"ðŁ":9449,"ĠÐºÐµÑĤÑĸÐ¿ÑĤÑĸ":9450,"ĠÐĲÐ»Ð»Ð°ÒĵÐ°":9451,"ĠÑĥÐ½Ð¸Ð²ÐµÑĢÑģÐ¸ÑĤÐµÑĤÑĸÐ½Ð´Ðµ":9452,"ĠÐĶÐ°Ñĥ":9453,"ĠÐºÓ©ÑĢÐµÑĤÑĸÐ½":9454,"Ð´ÐµÐ½Ñĸ":9455,"ĠÐµÑģÑĸÐ¼Ð´Ñĸ":9456,"ĠÐĲÑĥÐ´Ð°Ð½Ð´ÑĭÒĽ":9457,"Ġv":9458,"ĠÑĪÐµÑĪÑĸÐ¼ÑĸÐ¼ÐµÐ½":9459,"Ð°Ð½Ð´ÑĥÐ¼":9460,"ĠÐ¶Ð°Ð½ÑĭÐ½Ð´Ð°":9461,"ĠÓ©ÐºÑĸÐ¼":9462,"ĠÐ¼ÓĻÒ£Ð³ÑĸÐ»ÑĸÐº":9463,"ĠÒĽÑĭÐ·Ð¼ÐµÑĤÐºÐµÑĢÐ»ÐµÑĢÑĸÐ¼ÐµÐ½":9464,"ĠÐºÐµÒ£ÐµÑģÑĤÐµÑĢ":9465,"ÒĽÐ°Ð½ÑĪÐ°":9466,"ĠÐ±ÑĸÐ»ÑĸÐºÑĤÑĸÐ»ÑĸÐºÑĤÑĸ":9467,"Ð¸ÑħÐ°Ð½Ð¾Ð²":9468,"ĠÐ¸ÐµÐ»ÑĸÐº":9469,"ĠÐ±Ò±Ð¹ÑĭÐ¼Ð´Ð°ÑĢ":9470,"ĠÐĹÐ°Ò£Ð½ÑĭÒ£":9471,"ĠÐ°ÑģÑĤÑĭÒĽ":9472,"ĠÐ»Ð°ÑĥÐ°Ð·ÑĭÐ¼Ð´Ð°ÑĢÑĭÐ½Ð°":9473,"Ð¼Ð¾ÑģÑĦÐµÑĢ":9474,"ĠÐĳÐµÑģ":9475,"ĠÐ±Ð°ÑĢÐ°ÑĤÑĭÐ½":9476,"Ġ56":9477,"ĠÐłÐ°Ð¼Ð°Ð·Ð°Ð½":9478,"ĠÐºÓ©Ò£ÑĸÐ»ÑĸÐ½":9479,"ĠÐ³Ð°":9480,"ĠÐ±ÑĸÑĢÐ»ÑĸÐ³Ñĸ":9481,"ĠÐºÓ©Ð»ÐµÐ¼ÑĸÐ½Ð´ÐµÐ³Ñĸ":9482,"ĠÐºÓ©ÑĢÑĸÐ½ÐµÑĤÑĸÐ½":9483,"Ò£Ð³Ñĸ":9484,"ĠÐ¶ÐµÐ»ÑĸÑģÑĸ":9485,"Ð°Ò£Ð´Ñĭ":9486,"ĠÐ±ÐµÑĢÑĥÑĸ":9487,"Ð´ÑĸÐ³":9488,"ĠÑģÓ©Ð·Ð±ÐµÐ½":9489,"ĠÑģÓ©Ð¹Ð»ÐµÐ¿":9490,"ĠÑĤÑĢÐ°ÐºÑĤÐ¾ÑĢ":9491,"ĠÐĲÑģÑĤÐ°Ð½Ð°Ð½ÑĭÒ£":9492,"Ð»ÐµÑĤÐº":9493,"ĠÐºÓ©ÑĤÐµÑĢÑĸÐ»ÑĸÑģ":9494,"ĠÐºÐ¾Ð½ÑĨÐµÐ½ÑĤÑĢ":9495,"ÐĳÐ¸Ð·Ð½ÐµÑģ":9496,"ÐŀÐ±Ð»ÑĭÑģÑĤÑĭÒ£":9497,"ĠÑģÓĻÐ»ÐµÐ¼":9498,"Ð²Ð¾Ðº":9499,"Ð³ÑĸÐ½ÐµÐ½":9500,"ĠÑĦÐ¾ÑĤÐ¾":9501,"Ð¾Ò£ÒĵÐ¾Ð»":9502,"ĠÐ¸ÐµÐ³ÐµÑĢÑĸ":9503,"ĠÐ±Ð¾ÑģÑĤÐ°Ð½Ð´ÑĭÒĵÑĭÐ½Ð°Ð½":9504,"ĠÑĤÐ°Ð¼ÑĪÑĭ":9505,"Ð°Ð»Ð°ÒĽ":9506,"ĠÐ°ÑıÒĽÑĤÐ°Ð»Ð´Ñĭ":9507,"Ð°Ð»Ð°ÑĢÑĭÐ¼ÑĭÐ·":9508,"ĠÐ¡ÓĻÑĤ":9509,"Ð´ÑĸÐ»":9510,"ĠÐºÐµÐ»ÑĥÑĸ":9511,"ĠÒĽÐ°Ð±Ð°ÑĤ":9512,"iÑģÑĤi":9513,"ĠÐ´Ð°ÑĢÐ°":9514,"ĠÐ°ÑĢÐ°ÑģÑĭÐ½Ð°Ð½":9515,"ĠÐľÐ°ÒĽÐ°Ð»Ð°Ð»Ð°ÑĢÐ´Ñĭ":9516,"Ð¾Ð»Ð¾Ð³Ð¸ÑıÑģÑĭ":9517,"ÑĤÑĥÑĢ":9518,"ĠÐ°ÒĽÐ¿Ð°ÑĢÐ°ÑĤÑĤÐ°Ð½Ð´ÑĭÑĢÑĥ":9519,"ĠÐ½Ð°ÑĢÑĭÒĵÑĭÐ½":9520,"ÑĭÑģÑĭÐ½Ð°Ð½":9521,"ĠÑĤÑĸÐ½Ð´ÐµÑĢÑĸÐ½ÑĸÒ£":9522,"ĠÐºÐ¾Ð½ÑģÑĤÐ¸ÑĤÑĥ":9523,"ĠÐķÐ½Ð´ÐµÑĪÐµ":9524,"Ð»Ð°Ð·":9525,"ĠÐ½ÓĻ":9526,"ĠÐ¨ÑĭÒ£ÒĵÑĭÑģ":9527,"ĠÐ°Ð½ÑĭÒĽÑĤÐ°Ð»":9528,"ĠÐ¶Ò¯ÑĢÐ´Ñĸ":9529,"ĠÓ©Ð¼ÑĸÑĢÐ´ÐµÐ½":9530,"ÑĤÒ¯ÑģÑĤÑĸ":9531,"ÒĵÑĭÐ»ÑĭÒĽÑĤÑĭ":9532,"ÑĨÐµÐ²":9533,"ĠÐ°ÑĢÑĤÑĭÒĽÑĪÑĭÐ»ÑĭÒĽ":9534,"ĠÐ±Ð°ÒĵÐ´Ð°ÑĢÐ»Ð°Ð¼Ð°Ð½ÑĭÒ£":9535,"Ð³iÐ»iÐºÑĤi":9536,"ĠÐ¶Ð°ÑĢÐ¸ÑıÐ»Ð°Ð´Ñĭ":9537,"ĠÐ¨Ð¸ÐµÐ»Ñĸ":9538,"ĠÐ¾ÒĽÑĥÑĪÑĭÐ»Ð°ÑĢÑĭÐ½ÑĭÒ£":9539,"Ð¿Ð°Ñģ":9540,"ĠÒĽÐ°ÑĤÑĭÑģÑĥÑĭ":9541,"Ð±Ð°ÒĵÐ°Ð»Ð°Ñĥ":9542,"ĠÑĤÐµÑĤÑĸÐº":9543,"ĠÒĽÐ°Ð±Ð°ÑĤÑĤÑĭ":9544,"ĠÐºÑĸÑĢÐ³ÑĸÐ·":9545,"Ð¢Ð°ÒĵÑĭ":9546,"ĠÒĽÐ°ÑģÐ¸ÐµÑĤÑĤÐµÑĢÑĸ":9547,"ÐľÒ±ÒĵÐ°Ð»":9548,"ĠÒ¯ÐºÑĸÐ¼ÐµÑĤÑĤÑĸÐº":9549,"ÐĲÐłÐ«":9550,"Ð¼ÑĭÐ·ÒĵÐ°":9551,"ĠÐ»Ð¸Ð·":9552,"ĠÒĽÑĭÐ·Ð¼ÐµÑĤÑĪÑĸÐ»ÐµÑĢÐ´ÑĸÒ£":9553,"ĠÐ¶Ð¸Ð½Ð°ÒĽÑĤÐ°ÑĥÑĪÑĭ":9554,"eg":9555,"Ð±ÑĥÑĢÐ³":9556,"ĠÐ¿ÑģÐ¸ÑħÐ¾Ð»Ð¾Ð³":9557,"ÑĭÑģÑĭÐ¿":9558,"ĠÐ¡ÑĤÐµÐ¿":9559,"ĠÐĲÒĽÑģÐ°Ð¹":9560,"ĠÑģÓĻÐ¹Ðº":9561,"ĠÐ¶ÐµÑĤÐºÑĸÐ·ÑĥÐ³Ðµ":9562,"ĠÒĽÐ°ÑĢÐ°Ð¶Ð°ÑĤÑĭ":9563,"ĠÐµÑĢÐµÐ¶ÐµÐ»ÐµÑĢÑĸ":9564,"ÑĪÑĭÐ»Ð°ÑĢÐ´Ñĭ":9565,"ÐŁÐĲÐłÐĲÐ¢":9566,"ĠÐ¿Ð»Ð°ÑĤ":9567,"ĠÑģÐ¸Ð¿Ð°ÑĤÑĤÐ°ÒĵÑĭ":9568,"ÐºÐ¾Ð»Ð¾Ð³Ð¸ÑıÐ»ÑĭÒĽ":9569,"der":9570,"ÑĢÑĭ":9571,"ÒļÑĭÑĢ":9572,"cript":9573,"ĠÐºÐ°Ð»":9574,"Ð»ÑĸÐ³ÑĸÐ½Ð´Ðµ":9575,"ĠÐ±Ò±Ð¹ÑĢÑĭÒĽ":9576,"ÑĭÐ½Ð´Ð°Ð¹":9577,"ÑĨÐ¸Ð¸":9578,"Ð¢ÐĲÐł":9579,"Ð¸ÑĤÐµÑĤÑĤÑĸÒ£":9580,"ĠÐºÐ°Ð¼ÐµÑĢ":9581,"Ð¡Ð°Ð¼":9582,"ĠÐºÓ©ÑĢÑģÐµÑĤÐºÑĸÑĪÑĸ":9583,"ĠÐ¶Ð°Ð¹Ð»":9584,"ĠÐ¡Ò¯Ð»ÐµÐ¹Ð¼ÐµÐ½":9585,"ĠÐ´ÓĻÐ¹":9586,"ĠÐ¶ÐµÑĤÐºÑĸÐ·Ðµ":9587,"ĠÑĪÐ¾Ð»ÑĥÐ»Ð°ÑĢ":9588,"ĠÐºÐ¾Ð´ÐµÐºÑģÑĸ":9589,"ÑĭÑģÑĤÐ°ÑĢÑĭ":9590,"ĠÐļÐµÑĥÐ´Ðµ":9591,"ĠÒĵÐ¸Ð¼Ð°ÑĢÐ°ÑĤÑĤÐ°ÑĢ":9592,"ĠÑĪÐ°ÑĢÑĥÐ°ÑĪÑĭÐ»ÑĭÒĽÑĤÑĭÒ£":9593,"ĠÐ±ÐµÐ»Ð´ÑĸÐº":9594,"Ð«ÐĿÐ«Ò¢":9595,"ĠÐ¶ÓĻÐ½":9596,"ĠÓĺÐ»Ñĸ":9597,"ĠÐ°Ð´Ð°Ð¼Ð´Ð°ÑĢÐ¼ÐµÐ½":9598,"Ð¾Ð½Ð½ÑĭÒ£":9599,"ĠÒ¯Ð³Ñĸ":9600,"Ð»Ò±Ð¼":9601,"ĠÐļÒ¯ÑĪ":9602,"ĠÐ¼Ð°ÒĽÑģÐ°ÑĤÒĽÐ°":9603,"ĠÐ´ÐµÐ¿ÑĥÑĤÐ°ÑĤÑĤÐ°ÑĢÑĭ":9604,"ĠÐºÐ¾Ð½ÑĦÐµÑĢÐµÐ½ÑĨÐ¸ÑıÑģÑĭ":9605,"Ð¿Ð°Ð´Ñĭ":9606,"ĠJav":9607,"ĠÓ©Ð·ÑĸÒ£ÑĸÐ·Ð´ÑĸÒ£":9608,"ĠÑĪÐµÑĪÑĸÐ¼ÑĸÐ½Ðµ":9609,"ĠÐ±ÑĥÑħ":9610,"ĠÓ©Ð·Ð´ÐµÑĢÑĸÐ½":9611,"iÐ½iÑĪ":9612,"Ð¸ÐºÐ°Ð½Ñĭ":9613,"ĠÒĽÑĭÐ·Ð¼ÐµÑĤÑĤÐµÑĢÑĸÐ½ÑĸÒ£":9614,"ĠÐ¾Ð»Ð¸Ð¼Ð¿Ð¸Ð°Ð´Ð°":9615,"ĠÐ°ÑĥÑĭÐ·ÑĪÐ°":9616,"ÑģÑĤÑĮ":9617,"Ð¿ÐµÑĢÐ¸":9618,"ÑĪÑĸÑģÑĸÐ½ÑĸÒ£":9619,"ÑĸÐºÑĸ":9620,"Ð½ÑĭÑħ":9621,"ĠÐ°Ð³ÑĢÐ¾Ó©Ð½ÐµÑĢÐºÓĻÑģÑĸÐ¿ÑĤÑĸÐº":9622,"ĠÑģÑĥÐ´Ñĭ":9623,"Ð´ÐµÑģÑĸÐ½":9624,"ĠÐ´ÐµÑĥÐ³Ðµ":9625,"ĠÑĤÑĥÑĭÐ¿":9626,"ĠÐ±Ð°Ð»Ð°ÑģÑĭÐ½ÑĭÒ£":9627,"ĠÑģÐ¾ÒĽÒĽÐ°Ð½":9628,"ĠÑģÓ©Ð·Ð´ÐµÑĢÑĸ":9629,"ÐµÐºÑĪÑĸ":9630,"Ġ1999":9631,"Ò£Ð³ÑĸÑĢ":9632,"ĠÑĤÐ¾Ð»ÑĭÐ¿":9633,"ĠÐ±ÐµÐ¹Ð½ÐµÑģÑĸ":9634,"ĠÐ¶Ð°Ð»ÒĵÐ°ÑģÑĤÑĭÑĢÑĭÐ¿":9635,"ĠÐ¶Ð°Ð»Ð¿":9636,"ĠÐĲÐ·Ð°Ð¼Ð°ÑĤÑĤÐ°ÑĢ":9637,"ĠÐ½ÓĻÑĢÑģÐµÐ½Ñĸ":9638,"Ð´ÑĸÑĢÑĸÐ¿":9639,"ĠÐķÑĢÐ»Ð°Ð½":9640,"Ð½Ð¾Ð³Ð¾ÑĢ":9641,"ĠÐ¾ÑģÑĭÐ½Ð´Ð°":9642,"ĠÐĸÑĥÑĢÐ½Ð°Ð»":9643,"ĠÐ»Ð°ÑĥÑĢÐµÐ°ÑĤÑĭ":9644,"ĠÑĤÐ¸iÑģ":9645,"ĠÐĺÐ½Ð´ÐµÑĢ":9646,"ĠÒ¯Ð¹Ð»ÐµÑĢÑĸ":9647,"ĠÐ±ÑĸÑĤÑĸÑĢÑĸÐ¿":9648,"ĠÐºÓ©Ð»ÐµÒ£ÐºÐµ":9649,"ÒĵÐ°Ñİ":9650,"ĠÐ¶Ò¯ÑĢÐ³ÑĸÐ·Ð´Ñĸ":9651,"ĠÑĤÒ±ÑĢÒĵÑĭÐ½Ð´Ð°ÑĢÐ´ÑĭÒ£":9652,"ÑĤÑĭÐ»Ð°ÑĤÑĭÐ½":9653,"ĠÑģÑĤÑĥÐ´ÐµÐ½ÑĤÑĸ":9654,"ĠÐ¹":9655,"Ð±Ó©Ð»":9656,"Ð¿Ð¾ÑĢÑĤÑĭ":9657,"ĠÑħÐ¸ÑĢÑĥÑĢÐ³Ð¸ÑıÐ»ÑĭÒĽ":9658,"ĠÐŀÐ±Ð»ÑĭÑģ":9659,"Ð¢Ð°ÑĢÐ¸Ñħ":9660,"ĠÓĻÐºÑĸÐ¼Ð´ÐµÑĢÑĸ":9661,"ĠÐºÓ©Ð±Ñĸ":9662,"ĠÑģÐ°Ð¿Ð°ÑĢÑĭ":9663,"ĠÑĤÓĻÐ¶ÑĸÑĢÐ¸Ð±ÐµÑģÑĸÐ½":9664,"ĠÐ¼Ð°ÒĵÑĭÐ½Ð°":9665,"ĠÒ¯Ð»Ð³ÑĸÑģÑĸ":9666,"ĠÐ°ÑĥÐ¼Ð°ÒĵÑĭÐ½Ð´Ð°ÒĵÑĭ":9667,"ĠÐºÐ°Ð´Ð°ÑģÑĤÑĢÐ»ÑĭÒĽ":9668,"ĠÐ¾ÑĢÐ³Ð°Ð½Ð´Ð°ÑĢÑĭÐ½Ð°":9669,"Ð»Ð¸Ð¼":9670,"ĠÐ¼ÓĻÐ¶ÑĸÐ»ÑĸÑģ":9671,"Ð·Ð°Ð¹ÑĭÐ¿ÑĤÑĭ":9672,"Ð¶ÑĭÑĢ":9673,"ĠÐºÐ°Ð½Ð´Ð¸Ð´Ð°ÑĤÑĤÐ°ÑĢÐ´Ñĭ":9674,"ĠÓ©ÑģÑĤÑĸ":9675,"Ð½Ð°ÑĢ":9676,"ĠÐ±Ð°Ð¹Ð»Ð°Ð½ÑĭÑģÑĤÐ°":9677,"ĠÓ©Ð½ÑĸÐ¼Ð´ÑĸÐ»ÑĸÐ³Ñĸ":9678,"Ð¸Ñŀ":9679,"ĠÐµÐ»ÐµÑģÑĤ":9680,"ĠÐµÐ³Ñĸ":9681,"ÑĤÐ¸Ð·Ð¼":9682,"ĠÑģÑĭÐ»":9683,"ÐĴÑģÐµ":9684,"ĠÑĢÐ°Ð´Ð¸Ð¾":9685,"ĠÐľÐ°Ð¼":9686,"ist":9687,"ĠÐľÐµÐ´Ð¸ÑĨÐ¸Ð½Ð°Ð»ÑĭÒĽ":9688,"ĠÑĤÒ¯ÑģÑĸÐ½ÑĸÐºÑĤÑĸ":9689,"ĠÐ¾ÑĢÑĭÐ½Ð´ÑĭÒĽ":9690,"ĠÐĳÐ°Ð½":9691,"ĠÐ°ÐºÑĤÐµÑĢ":9692,"ĠÐ±Ð°Ð»Ð°ÑģÑĭÐ½":9693,"ĠÐĳÑĢ":9694,"ĠÒ±ÑıÐ»":9695,"ÐļÐµÐ¹":9696,"ĠÑĪÐ°Ò£ÑĭÑĢÐ°ÒĽ":9697,"ĠÑĪÐ¾Ñĥ":9698,"ÐļÐµÒ£Ó©Ð·ÐµÐº":9699,"Ð¸ÐºÐ°ÑģÑĭÐ½ÑĭÒ£":9700,"Ð¶Ð°ÑģÑĭÐ»":9701,"ĠÐ¼ÐµÐºÑĤÐµÐ±ÑĸÐ½Ð´Ðµ":9702,"ĠÐ±Ò±Ð·ÑĭÐ»ÑĭÑģ":9703,"Ð¸ÐºÐ°ÑģÑĭÐ½":9704,"ĠÐ¨ÑĸÐ»":9705,"ĠÓĻÐ´":9706,"Ð´Ð°Ð¼ÑĭÐ·":9707,"ĠÒĽÒ±ÒĽÑĭÒĵÑĭÐ½Ð´Ð°":9708,"Ð¶Ðµ":9709,"ĠÑĤÐµÑħÐ½Ð¾Ð»Ð¾Ð³Ð¸ÑıÑģÑĭ":9710,"ĠÑĤÑĸÐ»Ð´ÑĸÐº":9711,"ÐµÑĤÐµÑĢÐ¸Ð½Ð°ÑĢÐ¸Ñı":9712,"ĠÐ¸Ð½Ð¶ÐµÐ½ÐµÑĢ":9713,"Ð¨Ð°ÑĢ":9714,"2009":9715,"46":9716,"ĠÐºÒ¯Ð¹Ñĸ":9717,"ĠÐºÐµÐ»Ð¼ÐµÐ¹ÑĤÑĸÐ½":9718,"ĠÐĿÐµÐ³ÑĸÐ·":9719,"ĠÒĽÒ±ÑĢÐ°ÑģÑĤÑĭÑĢÑĥ":9720,"ĠÐ¶Ð°Ð»Ð°ÒĽÑĭ":9721,"ÑĪÐ¸":9722,"ĠÐĺÑģ":9723,"ĠÐ±Ð°ÑĢÐ»Ð°Ñĥ":9724,"ĠÐºÓ©ÑĤÐµÑĢÐ´Ñĸ":9725,"ĠÑģÑĭÑĢÑĭÐ½":9726,"ĠÒĽÐ°ÒĵÑĭÐ¿":9727,"ÑĪÑĭÒĵ":9728,"ĠÑĤÐ°ÑĢÑĤÑĤÑĭ":9729,"ĠÐ°ÑĥÑĭÑģÑĤÑĭÑĢÑĥÒĵÐ°":9730,"ÒĵÐ°Ð½Ð½Ð°Ð½":9731,"ĠÐµÐ»Ð´ÐµÐ³Ñĸ":9732,"ĠÐ¾Ò£Ð°Ð»ÑĤÑĥ":9733,"ĠÑģÒ¯ÑĢÐ³ÐµÐ½":9734,"ĠÐľÐµ":9735,"Ð´Ð°Ð¹Ñĭ":9736,"ĠÐºÒ¯Ð½ÑĸÐ½":9737,"ĠÐ±ÐµÑĤÑĸÐ½Ð´ÐµÐ³Ñĸ":9738,"ĠÒĽÐ°ÑĥÐ¿Ñĸ":9739,"ĠÐ±ÐµÐ¹Ð½ÐµÐ»ÐµÑĥ":9740,"âĢ¢":9741,"ĠÐ±ÑĸÐ»ÐµÐ¼ÑĸÐ·":9742,"ĠÑģÑĤÐ°Ð½Ð´Ð°ÑĢÑĤÑĤÐ°ÑĢÒĵÐ°":9743,"ĠÐµÒ£Ð±ÐµÐºÐºÐµ":9744,"ĠÑĢÐµÐ´Ð°ÐºÑĤÐ¾ÑĢ":9745,"ĠÐ¶Ð°Ð¼Ð±Ð°ÑģÑĤÑĭÒ£":9746,"ĠÑģÐ°Ð½Ð°Ð»Ð°ÑĤÑĭÐ½":9747,"ĠÐµÑģÑĸÑĢÑĤ":9748,"ĠÑĤÐ°Ð½ÑĭÐ¿":9749,"ÐĸÐ°ÑģÑĤÐ°ÑĢ":9750,"ĠÐºÐ¾Ð¾Ð¿ÐµÑĢ":9751,"ÐŀÑĤ":9752,"ĠÑĤÐ¾Ð¿ÑĤÐ°Ð¼":9753,"ÑĤÐ°Ð±Ñĭ":9754,"ĠÒļÐ°Ð·Ð°ÒĽÑĤÑĭÒ£":9755,"ĠÑĪÐµÐºÐ°ÑĢÐ°":9756,"ĠÐ°ÑıÑģÑĭÐ½Ð´Ð°ÒĵÑĭ":9757,"ÑĤÐµÑĢÐ°Ð¿Ð¸Ñı":9758,"ĠÐ°ÒĽÑģÐ°ÒĽÐ°Ð»":9759,"ĠÐ¶Ð¾Ð±Ð°Ð½ÑĭÒ£":9760,"ĠÒĽÐ°Ð»Ð°ÒĵÐ°Ð½":9761,"ĠÒĽÐ°Ð·Ð°ÒĽÑĤÐ°ÑĢ":9762,"ĠÑĤÒ¯Ð±ÐµÐ³ÐµÐ¹Ð»Ñĸ":9763,"ÐµÑĤÑĸÐ¿":9764,"ÑģÑĤÐ°ÑĦ":9765,"ĠÑĪÐµÐ¶ÑĸÑĢ":9766,"ĠÐ±ÑĸÑĢÑĸÐ½Ð´Ðµ":9767,"ĠÐ°Ð¹ÑĤÑĭ":9768,"ĠÐ¼Ð°ÒĽÒ±Ð»":9769,"ĠÐ´ÑĢ":9770,"ĠÐ¼ÐµÑĢÐµÐºÐµÑģÑĸ":9771,"Ð°Ð´ÑĭÐ±":9772,"ÑĢÐ¸ÑģÑĤ":9773,"ĠÑĥÐ°ÒĽÑĤÑĭ":9774,"ĠÐ±Ð°ÒĵÐ°Ð»Ð°Ð½":9775,"ĠÑĪÐ°ÒĽÑĭÑĢÐ´Ñĭ":9776,"ĠÑĩÐµÐ»":9777,"ĠÐºÓ©ÑĢÐºÐµÐ¼Ð´ÑĸÐº":9778,"ĠÐ¼ÑĥÐ»ÑĮ":9779,"ÐĸÐ¸":9780,"Ð²Ð°Ð½":9781,"ĠÑĤÐ°ÑĥÐ°ÑĢÐ»Ð°ÑĢÐ´Ñĭ":9782,"ĠÐ¾ÑĢÑĤÐ°Ð»ÑĭÒĽÑĤÐ°ÑĢ":9783,"ĠÐ±Ð¾Ð»Ð°Ð¼ÑĭÐ·":9784,"ĠÐ½ÓĻÑĤÐ¸Ð¶ÐµÐ»ÐµÑĢÑĸÐ½":9785,"ÑĭÐ»ÑģÑĭÐ½":9786,"ĠÒĽÒ±Ð¶Ð°ÑĤÑĤÐ°ÑĢÑĭÐ½":9787,"ÐķÐ¢Ð¢ÐĨÐļ":9788,"ĠÓ©ÑĤÐµÐ¼":9789,"ĠÑĤÑĥÐ°":9790,"Ð¿ÐµÐ¹ÑĤÑĸÐ½":9791,"ÑĭÐ±ÐµÐº":9792,"Ð°ÑĨÐ¸ÑıÐ½ÑĭÒ£":9793,"ĠÒ±Ð¿Ð°Ð¹":9794,"ĠÑĤÐ¸ÑĸÐ¼Ð´ÑĸÐ»ÑĸÐ³Ñĸ":9795,"aS":9796,"ĠÐ°ÑĥÑĭÐ»ÒĵÐ°":9797,"Ð¸ÑĤÑĢ":9798,"ĠÐ¶Ò¯Ð¹ÐµÐ½ÑĸÒ£":9799,"ÐĲÐ»Ð³ÐµÐ±ÑĢÐ°":9800,"ĠÒĽÐ¾Ð¼":9801,"ĠÑģÐ°ÑĢÐ°Ð¹":9802,"ÐĳÐµÐ»":9803,"ĠÐ±Ð¸ÑĢÐ¶":9804,"ĠÐºÐµÐ»Ñĸ":9805,"ĠÐĲÐ»Ð»Ð°Ò»ÑĤÑĭÒ£":9806,"ÐľÐ°ÑĢ":9807,"Ð¾Ð·Ñĭ":9808,"Ġ46":9809,"ĠÐ¸ÐµÐ»ÐµÑĢÑĸ":9810,"ĠÐ°ÑĥÑĢÑĥÐ´Ñĭ":9811,"Ð²ÐµÑĤ":9812,"ĠÐ±Ð°ÑģÑĭÒ£ÑĭÐ·":9813,"ĠÐłÑĥÑģ":9814,"ĠÐ¶Ð°Ð½Ð°Ð¼Ð°":9815,"ĠÒ¯Ð»Ð³ÑĸÐ»ÐµÑĢ":9816,"ĠÐłÐµÐ½ÑĤÐ³ÐµÐ½":9817,"ĠÑĤÐ¾Ð»ÑĤÑĭÑĢÑĥ":9818,"ĠÐ¶Ò±ÑĢÑĤÑĤÑĭÒ£":9819,"ĠÑģÑĤÐ°Ð½ÑĨÐ¸Ñı":9820,"Â»-":9821,"ĠÓĻÐºÐµÑģÑĸÐ½ÑĸÒ£":9822,"ĠÐ°Ð½Ð°Ð»Ð¸Ð·":9823,"ĠÐ¿ÑĢÐ¾ÑĦÐ¸Ð»Ð°ÐºÑĤÐ¸ÐºÐ°ÑģÑĭ":9824,"ĠÐ°Ð¹ÑĤÑĭÐ»Ð´Ñĭ":9825,"ÑįÐ¿":9826,"ÑĤÐ¾Ðº":9827,"ĠÓĺÐ»Ð³Ñĸ":9828,"ĠÐĸÐµÑĢÐ³ÑĸÐ»ÑĸÐºÑĤÑĸ":9829,"ĠÒĽÐ¾Ð»Ð´Ð°Ð½Ð°Ð´Ñĭ":9830,"ĠÐ¼Ð¸Ð´ÑĭÒ£":9831,"ÐµÑĤÑĤÐµÐ½":9832,"ĠÐ°ÑģÐ°Ð´Ñĭ":9833,"ĠÐĳÐ°ÒĽÑĭÑĤÐ¶Ð°Ð½":9834,"ĠÐ¤Ð¾ÑĤ":9835,"Ð³Ó©Ð·":9836,"ĠÐ°ÒĽÐ¸ÒĽÐ°ÑĤ":9837,"ĠÐ¼Ð°ÒĵÐ»Ò±Ð¼":9838,"ĠÐ£Ð¸ÐºÐ¸Ð¿ÐµÐ´Ð¸ÑıÒĵÐ°":9839,"ĠÑĤÑĥÐ´ÑĭÑĢÐ°Ð´Ñĭ":9840,"iÐºÑĤi":9841,"ĠÐ¶Ð°ÒĵÑĭÐ¼Ð´Ñĭ":9842,"ĠÒĽÐ¾Ð¹Ð½Ð°ÑĥÑĭÐ½":9843,"ĠÑĤÓ©Ð»ÐµÐ½ÐµÑĤÑĸÐ½":9844,"ĠÑĦÐ¸Ð½Ð°Ð»":9845,"ĠÐ¶Ð¾ÑģÐ¿Ð°ÑĢÐ»Ð°Ð½":9846,"ĠÐ°ÑģÑĭÑĢÑĭÐ»Ð°ÑĤÑĭÐ½":9847,"ÑĸÐ»ÑĥÑĸÐ½Ðµ":9848,"ĠÒĽÐ¾ÑĢÐ¶ÑĭÐ½":9849,"ĠÒ±ÑĢÑĭÐ¿":9850,"ĠÑģÐ¾Ð²":9851,"ĠÑĦÐ¾Ð½":9852,"Ð¾ÐºÑĢÐ°ÑĤÐ¸Ñı":9853,"iÐ³i":9854,"Ð»ÑĭÒĽÐ¿ÐµÐ½":9855,"ĠÒĽÐ°ÑĤÐµ":9856,"Ð¸Ð´Ð¶":9857,"ÑĤÒĽÐ°":9858,"ÐºÐµÑĢÐ´ÑĸÒ£":9859,"Ð±Ð¸Ð·":9860,"ĠÒĵÐ¸Ð±Ð°":9861,"Ð¿ÑĭÐ·":9862,"ÐķÐľÐĽÐķÐļ":9863,"ĠÐ±ÑĸÐ»Ð´ÑĸÐ¼":9864,"ĠÑĤÒ¯ÑģÑĸÐ½ÑĸÐ¿":9865,"ĠÐ¢Ñĥ":9866,"ĠÐĿÐ¾ÑĢÐ²ÐµÐ³":9867,"ĠÐµÐ½ÐµÐ´Ñĸ":9868,"ĠÐºÐ°Ð½Ð°Ð»":9869,"ĠÐłÑĭÑģ":9870,"ÐļÐ¢":9871,"Ð´ÑĸÐºÐºÐµ":9872,"ĠÐ¶Ò±Ð±Ð°Ð¹":9873,"ĠÐ¿Ð°Ð¹Ð´Ð°ÑģÑĭ":9874,"ĠÐ´Ð¸Ð¿Ð»Ð¾Ð¼Ð°ÑĤ":9875,"ĠÐ¢Ò±Ò£ÒĵÑĭÑĪ":9876,"Ð¿ÑģÐ¸Ñħ":9877,"ĠÑģÓ©Ð·ÑĸÐ½Ð´Ðµ":9878,"ĠÐ¶Ð°Ò£Ð°Ð»ÑĭÒĽÑĤÐ°ÑĢÑĭ":9879,"ĠÐµÑĢÐ»ÐµÑĢ":9880,"Ð°ÑıÒĽÑĤÑĭÒ£":9881,"ĠÐµÐ´":9882,"ÑĤÐµÑĢÑĸÐ½ÐµÐ½":9883,"ĠÑģÐ°Ð½Ð°Ð»Ñĭ":9884,"Ð¿Ð°Ð½Ð¸Ñı":9885,"ĠÐ´ÐµÑĤÐµÐ¹":9886,"ĠÐŀÐ»Ð°Ð¹":9887,"ĠÐ¼Ð°ÒĽÑģÐ°ÑĤÑĤÐ°ÒĵÑĭ":9888,"ĠÐŁÐ°Ð¹ÒĵÐ°Ð¼Ð±Ð°ÑĢÑĭÐ¼ÑĭÐ·":9889,"ĠÐ¢ÐµÒ£ÑĸÐ·":9890,"42":9891,"ĠÑĢÐµÐ½ÑĤÐ³ÐµÐ½":9892,"ĠÐŁÓĻÐ½":9893,"ĠÐ¿ÐµÑĢÑģÐ¿ÐµÐºÑĤÐ¸Ð²":9894,"ĠÑģÐ°Ð»Ð°Ð´Ð°":9895,"Ġ09":9896,"ĠÓ©Ð»ÑĪÐµÑĥ":9897,"ĠÓĻÐºÑĸÐ¼ÑĪÑĸÐ»ÑĸÐ³ÑĸÐ½ÑĸÒ£":9898,"ÑĭÑģÑĥ":9899,"ĠÑĢÑĥÑģ":9900,"ĠÐ´ÓĻÑĢÐµÐ¶ÐµÑģÑĸ":9901,"Ð±ÑĸÑĢÑĸ":9902,"ĠÐ¶ÐµÑĢÐ»ÐµÑģ":9903,"ĠÐ¸Ð´ÐµÑıÑģÑĭ":9904,"ĠÒĽÐ°Ð¼ÒĽÐ¾ÑĢÐ»ÑĭÒĽ":9905,"ĠÓ¨Ò£ÑĸÑĢ":9906,"ĠÐ°Ð»Ð´ÑĭÒĽ":9907,"ÑĭÑŀ":9908,"Ð¿Ð°Ð·Ñĭ":9909,"ĠÐ°Ð¹Ð»Ð°ÑĢÑĭÐ½Ð´Ð°":9910,"ĠÐ¾ÑĤÐ±Ð°ÑģÑĭÐ½ÑĭÒ£":9911,"ĠÐµÑĢÐµÐ¶ÐµÐ»ÐµÑĢÑĸÐ½":9912,"ĠÑĪÐ°Ñħ":9913,"Ð¶Ð°ÒĵÐ°ÑĢ":9914,"AM":9915,"ĠÐ±ÑĭÐ»ÑĤÑĭÑĢ":9916,"ĠÐ¼Ð°Ð¼Ð°Ð½Ð´Ð°ÑĢÐ´ÑĭÒ£":9917,"Ð¿ÑĸÐºÑĸÑĢ":9918,"ĠÑįÑģÑģÐµ":9919,"ĠÐºÐ¾Ð¼Ð¿ÑĮÑİÑĤÐµÑĢÐ»ÑĸÐº":9920,"ĠÐ±Ð°ÑģÐ¿Ð°":9921,"ĠÐŀÑĤÑĭÑĢ":9922,"ĠÐ±Ð°ÑģÒĽÐ°ÑĢÑĥÒĵÐ°":9923,"ĠÐ¨Ð°Ð»ÒĽÐ°ÑĢ":9924,"ĠÒļÒ±Ð»ÑģÐ°ÑĢÑĭ":9925,"ĠÑĤÐ°Ð½ÑĭÑģÑĤÑĭ":9926,"ĠÐ±Ð°ÑģÑĤÐ°Ð»ÑĭÐ¿":9927,"ÐĨÐł":9928,"ĠÐ¿Ð¾Ñĩ":9929,"ĠÑĢÐµÑĦÐµÑĢÐ°ÑĤÑĤÐ°ÑĢ":9930,"ĠÒ®ÐºÑĸÐ¼ÐµÑĤÑĸ":9931,"ĠÐ°Ð¹ÑĤÑģÐ°ÒĽ":9932,"ĠÐ¨ÐµÑĤÐµÐ»":9933,"ĠÐ¼Ð°ÒĽÑģÐ°ÑĤÑĤÐ°":9934,"ĠÐ¾Ð¹Ð½Ð°Ð¿":9935,"Ð½Ð´Ð°Ð¹":9936,"ĠÒĽÐ¾ÑĢÒĵÐ°ÑĥÒĵÐ°":9937,"ÓĺÑĥÐµÐ·Ð¾Ð²":9938,"ĠÐ¿Ð¾Ð¹ÑĭÐ·":9939,"ĠÐ¨Ð°ÑĢÐ´Ð°ÑĢÐ°":9940,"ĠÒļÐ°ÑĥÑĸÐ¿ÑģÑĸÐ·Ð´ÑĸÐº":9941,"ĠÐ±ÐµÐ¹Ð±ÑĸÑĤÑĪÑĸÐ»ÑĸÐº":9942,"ĠÐķÑģÐµÐ½":9943,"ĠÐºÓĻÐ´ÑĸÐ¼Ð³Ñĸ":9944,"ÒĽÐ¾ÑģÑĭÐ¼ÑĪÐ°":9945,"ĠÐ¾ÑĤÑĭÑĢÑĥ":9946,"ÐĶÒ¯Ð½Ð¸":9947,"ĠÑĤÑĥÑĭÐ½Ð´Ð°":9948,"ĠÒĽÐ°ÑĤÐ°ÑĢÑĭÐ½Ð°Ð½":9949,"ÐļÓĻÑģÑĸÐ¿ÐºÐµÑĢÐ»ÑĸÐº":9950,"ĠÐ¨Ð°Ð¹":9951,"ĠÐ¼ÐµÒ£Ð³ÐµÑĢÐ³ÐµÐ½":9952,"Ð°Ð»Ð°Ð¹ÑĤÑĭÐ½":9953,"ĠÐĳÐ¾Ð½":9954,"ĠÒĽÐ°ÑĥÐ»ÑĭÑģÑĭ":9955,"ĠÐ¿Ð°ÑĢÐ°ÒĽÑĪ":9956,"ĠÐ¶ÑĭÐ»Ð¶":9957,"ĠÐ´ÐµÐ¿ÑĤÑĸ":9958,"ĠÐ¶Ð°ÑģÑĤÐ°":9959,"ĠÐļÐ¾Ð½ÐºÑĥÑĢÑģ":9960,"ĠÑĢÐ¾Ð»":9961,"ĠÐ±Ó©Ð»ÑĸÐ¼Ð´ÐµÑĢÑĸÐ½ÑĸÒ£":9962,"Ð¢ÑĥÒĵÐ°Ð½":9963,"ĠÓ©ÑĪ":9964,"ĠÒ¯Ð¹Ð´Ñĸ":9965,"ĠÐĲÐ¹Ð½Ð°Ð»":9966,"ĠÒĽÑĭÑģÒĽÐ°ÑĪÐ°":9967,"ÐĲÐ»Ð»Ð°":9968,"ĠÑĭÐ´ÑĭÑģÑĤÑĭ":9969,"ĠÒ¯ÐºÑĸÐ¼ÐµÑĤÑĸ":9970,"Ð»Ð¾Ð³":9971,"Ð´Ð°ÑĤÑĭÐ¿":9972,"ĠÐ°ÑĪÑĥÒĵÐ°":9973,"ĠÑģÑĤÐ°ÑĨÐ¸Ð¾Ð½":9974,"ĠÑĤÒ¯Ð»":9975,"Ð¸ÐµÐ²Ð°":9976,"ĠÐ±Ò¯Ð¹ÑĸÑĢ":9977,"ĠÐ±ÑĥÑħÐ³Ð°Ð»":9978,"ÑģÑı":9979,"Ġ120":9980,"ĠÒ¯ÑģÑĤÑĸÐ½ÐµÐ½":9981,"Ð¿Ð¾Ð½":9982,"ĠÐĳÑĥÑĭÐ½":9983,"ĠÐ±ÐµÑĢÑģÑĸÐ½":9984,"ĠÐºÓ©Ð¼Ðµ":9985,"ĠÐ¼ÓĻÐ¼ÑĸÐ»ÐµÐ»ÐµÑĢÐ´Ñĸ":9986,"ÒļÐ°Ð½":9987,"ÑģÐ°ÑĥÐ¸":9988,"Ð¸ÑĤÐ¸ÐºÐ°Ð»ÑĭÒĽ":9989,"ĠÑĪÐ°Ð¼Ð°ÑģÑĭ":9990,"ĠÒĽÐ¾Ð»Ð´Ð°Ð½ÑĭÐ¿":9991,"ĠÐ¶Ð¾Ð»Ð´Ð°Ð½":9992,"ĠÒĽÐ°Ð·Ð°Ð½Ð´Ð°ÒĵÑĭ":9993,"ÐµÑĢÐ»ÐµÑĢÑĸ":9994,"ĠÑĤÓ©ÑĢÐ°ÒĵÐ°Ð»ÑĭÒĵÑĭÐ¼ÐµÐ½":9995,"ĠÐ¿Ð°Ð¹Ð´Ð°Ð»Ð°Ð½ÑĭÐ»Ð°Ð´Ñĭ":9996,"ĠÐºÑĥÑĢÑģÑĤÑĭÒĽ":9997,"ĠÐ¤Ð¸Ð·Ð¸ÐºÐ°":9998,"ĠÒĽÐ°ÑĢÐ°Ñģ":9999,"ĠÒĽÐ¾ÑĢÑĭÒĽ":10000,"ĠÑĭÐ»ÒĵÐ°Ð»":10001,"ĠÓĻÐºÐµÐ»ÑĥÑĸ":10002,"ĠÐĶÓĻÑĢÑĸ":10003,"ĠÒĽÐ°ÑĤÐµÐ»ÑĸÐº":10004,"ĠÐ´ÐµÐ³ÐµÐ½Ð´ÐµÐ¹":10005,"ĠÐ³ÐµÐ¾Ð³ÑĢÐ°ÑĦÐ¸ÑıÑģÑĭ":10006,"ĠÐ¼ÑĭÐ½Ð°Ñĥ":10007,"ÑĤÐ°Ð¿ÒĽÑĭ":10008,"ĠÐºÓ©Ð»ÐµÐ¼Ð´Ðµ":10009,"ĠÐ°Ð±Ð·Ð°Ð»":10010,"ÐºÐµÑĪ":10011,"ĠÐ½Ð°ÑĢÐ°Ð·":10012,"ĠÒĽÐ°ÑĢÐ°ÒĽ":10013,"ĠÓĺÑĢÑĸ":10014,"ĠÑģÒ±ÑĢÐ°Ð´Ñĭ":10015,"ĠÐ¿ÐµÐ´Ð°Ð³Ð¾Ð³Ð¸ÐºÐ°":10016,"ĠÐ¶Ð°Ò£Ð°ÑĢÑĤÑĭÐ»ÒĵÐ°Ð½":10017,"ĠÐĸÐµÒ£ÑĸÑģ":10018,"ÑĭÐ¼Ð´Ð°Ñĥ":10019,"ĠÐºÐµÐ¼ÐµÐ»ÐµÑĢÐ´ÑĸÒ£":10020,"ĠÐ±Ð¸Ð¾Ð»Ð¾Ð³Ð¸ÑıÐ»ÑĭÒĽ":10021,"ĠÐĲÐ¹ÑĤÐ°":10022,"Ð¢ÐµÑħÐ½":10023,"ĠÑĸÑģÑĸÐ½Ðµ":10024,"ĠÒĽÒ±Ð¼Ð°ÑĢ":10025,"ĠÐ¼Ò¯ÑĪÐµÐ»ÐµÑĢ":10026,"ĠÐ¾Ð±ÑĬÐµÐºÑĤÑĸÐ»ÐµÑĢ":10027,"ÐĨÒ¢":10028,"ĠÑĢÓĻÑģÑĸÐ¼ÑĸÐ½Ðµ":10029,"Ð¾Ð²ÐºÐ¸Ð½":10030,"Ð°Ð»Ñĥ":10031,"ĠÐ°ÒĽÑĭÐ»Ð´Ñĭ":10032,"ÒļÒ±Ð»":10033,"ĠÐµÑĤÑĥÐ´Ñĸ":10034,"ĠÐľÐ°ÑħÐ°Ð¼Ð±ÐµÑĤ":10035,"Ð´ÐµÑģÑĸ":10036,"ĠÒĽÐ°Ð·ÑĭÐ½Ð°Ð»ÑĭÒĽ":10037,"ĠÐ±Ð°ÒĵÐ°ÑģÑĭÐ½":10038,"ĠÐ²ÐµÐ»":10039,"ĠÐ°ÑĢÑĤÐµÑĢ":10040,"ĠÐºÑĸÑĤÐ°Ð¿ÑĤÐ°ÑĢ":10041,"99":10042,"ĠÒĽÒ±Ñİ":10043,"ĠÐ¶Ð¾ÑģÐ¿Ð°ÑĢÐ»Ð°ÑĢÑĭ":10044,"ĠÑĤÐ°ÑĢÐ°ÑĤÑĭÐ»":10045,"ĠÐ±ÐµÑĤÑĸ":10046,"ĠÐ±Ð°Ð¹Ð»Ð°Ð½ÑĭÑģÑĭ":10047,"Ð½Ð¸ÑĤ":10048,"ĠÑĤÐ°Ð¿ÑģÑĭÑĢÐ°Ð¼ÑĭÐ½":10049,"ÓĬ":10050,"ÑĤÐ¾ÒĵÐ°Ð¹":10051,"ĠÐľÐ°Ð¼Ð°Ð½":10052,"ĠÑĸÐ»ÑĸÐ¼":10053,"ĠÐ¿Ð»Ð°ÑģÑĤ":10054,"ÑĥÑĢÐ°Ð±Ð°Ð¹":10055,"Ó¨Ð¼ÑĸÑĢ":10056,"ÑĥÐ½Ð´":10057,"75":10058,"ĠÒĽÐ°ÑĢÐ°Ð¼Ð°":10059,"Ð±Ð°Ð»Ð°":10060,"ĠÒĽÐ¾Ð»Ñĭ":10061,"ĠÐ¶Ð¾ÒĽÒĽÐ°":10062,"ĠÐ¼Ð°ÒĽÑģÐ°ÑĤÑĤÐ°ÑĢ":10063,"ÐĳÐĺ":10064,"ĠÑĥÐ°ÒĽÑĭÑĤÑĭÐ½":10065,"ĠÑĦÐ°ÐºÑĤÐ¾ÑĢÐ»Ð°ÑĢ":10066,"ĠÐ¸Ð½ÑĤÐµÐ»Ð»ÐµÐº":10067,"ÑĤÐµÒ£Ð³Ðµ":10068,"ĠÐºÑĸÑĤÐ°Ð¿ÑĤÐ°ÑĢÐ´Ñĭ":10069,"ĠÓĻÐ¹ÐµÐ»Ð´ÐµÑĢÐ´ÑĸÒ£":10070,"ĠÐ¶Ó©":10071,"ĠÒ±ÑģÑĭÐ½ÑĭÐ¿":10072,"ĠÒĽÐ°ÑĢÑģÑĭÐ»ÑĭÒĽ":10073,"ÒĴÑĭÐ»ÑĭÐ¼Ð¸":10074,"Ð¿ÐµÐ½ÑĸÒ£":10075,"ĠÐ¿ÑĢÐ¾ÑĨÐµÐ´":10076,"Ð¾Ð»ÑĮÐº":10077,"Ð°Ð±ÑĢ":10078,"ĠÐĸÐµÑĤÑĸÑģÑĥ":10079,"ÐµÐ½Ðµ":10080,"Ð´ÑĸÐ³ÑĸÐ¼ÐµÐ½":10081,"ĠÑĤÐ°Ò£Ð´Ð°ÒĵÐ°Ð½":10082,"ĠÐ¡ÑĥÑĢÐµÑĤ":10083,"ĠÐ¶ÑĥÑĢ":10084,"Ð¹ÑĭÒĽ":10085,"ĠÒĽÐ°Ð»ÑĭÐ¿ÑĤÐ°ÑģÑĥÑĭ":10086,"ĠÐ½ÐµÐº":10087,"Ġ43":10088,"ĠÐ²ÐµÐ´Ð¾Ð¼ÑģÑĤÐ²Ð¾Ð°ÑĢÐ°Ð»ÑĭÒĽ":10089,"ĠÐºÓ©ÑĢÐ¼ÐµÐ³ÐµÐ½":10090,"ĠÑĸÑģÑĸÐ½ÑĸÒ£":10091,"ĠÑģÐ¸Ð½Ð´ÑĢÐ¾Ð¼Ñĭ":10092,"ĠÐºÐ¾Ð½ÑģÑĥÐ»ÑĮÑĤÐ°ÑĨÐ¸Ñı":10093,"ÑĸÒ£Ð´ÐµÑĢ":10094,"ĠÒĽÐ°ÑĢÐ°Ð¹ÑĤÑĭÐ½":10095,"ĠÐ¸Ð¿Ð¾ÑĤÐµÐº":10096,"ĠÐļÑĥ":10097,"ĠÑĢÐ°ÑģÑģÐº":10098,"ĠÒĽÐ°Ð±ÑĭÐ»Ð´Ð°Ð½Ð°Ð´Ñĭ":10099,"ĠÐľÐķÐľÐĽÐķÐļ":10100,"Ð»Ð°Ð½Ð°":10101,"ĠÐ¶Ò¯ÑĢÐ³ÑĸÐ·ÑĸÐ»ÐµÑĤÑĸÐ½":10102,"ÑıÐ·":10103,"ĠÐ±Ð¾Ð»Ð¼Ð°ÑģÑĭÐ½":10104,"ĠÐŀÒĽÑĥÑĪÑĭÐ»Ð°ÑĢÐ´ÑĭÒ£":10105,"Ġg":10106,"ĠÑĤÓĻÑģÑĸÐ»Ð´ÐµÑĢÑĸ":10107,"ĠÐ°ÐºÐ°Ð´ÐµÐ¼Ð¸ÑıÑģÑĭÐ½ÑĭÒ£":10108,"ĠÑĤÐ¾Ð¿ÑĭÑĢ":10109,"ĠÐ¡Ð¾ÒĵÐ°Ð½":10110,"ĠÑĤÐ¾Ð½Ð½":10111,"ĠÐ´ÐµÐ´ÑĸÐ¼":10112,"ĠÑĤÐ°Ð»ÒĽÑĭÐ»Ð°Ð½Ð´Ñĭ":10113,"ĠÐĸÐ¾Ð»Ð´Ð°ÑĥÑĭÐ½ÑĭÒ£":10114,"ÐŁÑĢ":10115,"Ð¼Ð°Ð´":10116,"ĠÐ¡ÑĸÐ·Ð³Ðµ":10117,"ĠÑĤÐµÐ»ÐµÑĦÐ¾Ð½Ñĭ":10118,"ÐµÐ½Ð´":10119,"ĠÒ¯Ð»Ð³ÑĸÐ»ÑĸÐº":10120,"ĠÓ©Ð·Ð³ÐµÑĢÑĸÐ¿":10121,"ÑĤÐ°ÑģÑĭÐ¿":10122,"ĠÐ´Ð¸ÑĢÐµÐºÑĤÐ¾ÑĢÑĭÐ½ÑĭÒ£":10123,"ĠÐ¿Ð¾Ð»Ð¸Ð³":10124,"Ð¾ÑĢÑĥÐ¼":10125,"ĠÑĪÐ°ÑĤ":10126,"ĠÑĪÐµÑĪÑĸÐ¿":10127,"ĠÑģÐ°Ð»ÑĭÐ½ÑĭÐ¿":10128,"ĠÑģÐ°Ð»Ð°Ð´Ð°ÒĵÑĭ":10129,"ĠÒļÑĭÑģ":10130,"ÑĸÒ£ÑĸÐ·Ð´Ðµ":10131,"ĠÑĤÐ°ÒĵÑĭÐ»ÑĭÐ¼":10132,"ĠÐ¢ÐµÐºÑģÐµÑĢ":10133,"Ð¿ÑĸÐ½Ðµ":10134,"ÒĵÐ°Ð¹Ð´Ð°ÒĵÑĭ":10135,"ĠÑģÐ¿Ð¾ÑĢÑĤÑĪÑĭ":10136,"ĠÐ½Ð°Ð·Ð°ÑĢÑĭÐ½Ð°":10137,"ĠÐ¢Ò¯ÑĢÑĸÐº":10138,"ĠÐ°ÑĤÐ°Ð»ÑĭÐ¿":10139,"ĠÐĳÒ¯Ð¹ÑĢÐµÐºÑĤÑĸÒ£":10140,"ĠÐ£Ð°ÒĽÑĭÑĤ":10141,"ĠÐºÒ¯Ð½Ð´ÐµÑĢ":10142,"ĠÐķÐ»Ð±Ð°Ñģ":10143,"ĠÐĹÐ°Ò£ÑĭÐ½Ð°":10144,"ĠÐ¶ÑĭÐ»Ð°Ð¿":10145,"ĠÐµÐ»Ð´ÐµÑĢÐ´Ðµ":10146,"Ð²Ð°":10147,"ĠÑĤÐ°Ð»Ð°Ð¿ÑĤÐ°ÑĢÑĭ":10148,"ÐºÐµÑĢÐ»ÐµÑĢÐ´Ñĸ":10149,".\"":10150,"ĠÑģÒ¯Ð»":10151,"ÑģÐºÐ¸Ðµ":10152,"Ð¾Ð·Ð¸ÑĤÐ¾ÑĢ":10153,"Ġ2002":10154,"ĠÐºÓĻÑģiÐ¿":10155,"ĠÐĳÐ¾Ð»Ð°ÑĪÐ°ÒĽ":10156,"ĠÐĸÒ¯ÑģÑĸÐ¿":10157,"ĠÐ°ÑĢÐ½Ð°ÒĵÐ°Ð½":10158,"ĠÒĽÐ°ÑĥÑĸÐ¿ÑģÑĸÐ·Ð´ÑĸÐ³ÑĸÐ½":10159,"ĠÐĶÐµÑĢ":10160,"ĠÐµÐ»ÑĸÐ½Ðµ":10161,"ĠÒļÐ°Ð·Ò°":10162,"ÐĳÐĳ":10163,"ĠÐ°Ð´Ð°Ð¼Ð½Ð°Ð½":10164,"ĠÓ©ÑĤÑĸÐ½ÑĸÐ¼":10165,"ĠÐ¡Ð°ÒĽ":10166,"ĠÐ¢Ð°ÑĪ":10167,"ĠÐ±Ð°ÑģÒĽÐ°ÑĢÑĥÑĪÑĭ":10168,"ĠÐ¼Ò¯ÑĪÐµÐ»ÐµÑĢÑĸÐ½":10169,"Ð¾Ð»Ð¿Ð°Ð½":10170,"ĠÓĻÑĢÐºÑĸÐ¼":10171,"ĠÑģÐ°ÑĥÐ¼Ð°Ð»":10172,"Ð½ÐµÐ²":10173,"ĠÐºÓ©ÐºÓ©Ð½":10174,"ĠÐºÑĢÐ¸ÑĤÐµÑĢ":10175,"ĠÒĽÐ°Ð»ÑĥÑĭ":10176,"ĠÑĤÐ°Ð±Ð°Ð´Ñĭ":10177,"ari":10178,"ĠÑģÐ¾ÑĩÐ¸Ð½":10179,"ÒļÐ°Ð¹ÑĭÑĢÐ±ÐµÐºÐ¾Ð²Ð°":10180,"ÐµÑĤÐ°Ð½":10181,"ĠÑĢÐ°Ð¹Ñĭ":10182,"ĠÐ½Ð¾ÑĢÐ¼Ð°ÑĤÐ¸Ð²":10183,"ÑĪÑĸÐ¼":10184,"ĠÒĽÑĥÑĭÑĢ":10185,"ĠÓ©Ð·Ð³":10186,"ĠÐºÓ©Ð·Ð´ÐµÑĢÑĸ":10187,"ĠÑĤÐ°Ò£ÐµÑĢÑĤÐµÒ£":10188,"ĠÐ°ÑĥÑĢÑĥÑħÐ°Ð½Ð°ÒĵÐ°":10189,"Ð¼ÐµÐ½ÑĸÒ£":10190,"ĠÓĺÐ¹ÐµÐ»":10191,"ĠÐ°ÑĥÐ´Ð°ÑĢÐ´Ñĭ":10192,"ĠÓ©Ð½ÐµÑĢÐ¿Ð°Ð·":10193,"ĠÐµÑĢÐµÐºÑĪÐµÐ»ÑĸÐºÑĤÐµÑĢÑĸÐ½":10194,"Ġ1997":10195,"Ð¡Ð°Ð»":10196,"ĠÒ±ÑĪÑĭÑĢÐ°ÒĵÐ°Ð½":10197,"ĠÐ¶Ð¾ÑİÒĵÐ°":10198,"ĠÑĥÐ°ÒĽÑĤÑĭÐ»Ñĭ":10199,"ĠÓ©ÑģÑĤÑĸÐ¿":10200,"ĠÐ¼Ð°ÒĽÐ°Ð»Ð°Ð»Ð°ÑĢ":10201,"ÑħÐµÐ¼":10202,"ĠÐ±ÑĸÑĢÑĸÐºÑĤÑĸÑĢÑĥ":10203,"ĠÒ¯Ð»ÐµÑģÑĸÐ½":10204,"ĠÑģÑĭÐ¹Ð»ÑĭÒĵÑĭÐ½ÑĭÒ£":10205,"Ð°ÑĤÐ¾ÑĢÐ»Ð°ÑĢ":10206,"ĠÐ±Ð¸Ð·Ð½ÐµÑģÑĤÑĸÒ£":10207,"ĠÐ¼Ò¯Ð´Ð´ÐµÐ»Ñĸ":10208,"ĠÐĿÐ¸Ðº":10209,"ĠÐ°ÒĽÑĭÐ½Ð´Ð°ÑĢ":10210,"ÒĵÐ°Ð»Ð¸Ò±Ð»Ñĭ":10211,"ĠÐºÓ©ÑĢÑģÐµÑĤÐºÑĸÑĪÑĤÐµÑĢÑĸ":10212,"ĠÐĴÐ»Ð°Ð´Ð¸Ð¼Ð¸ÑĢ":10213,"ĠÑĤÑĸÐ»Ð´ÑĸÒ£":10214,"ĠÓĻÐ´ÐµÐ±Ð¸ÐµÑĤÑĸÐ½ÑĸÒ£":10215,"ĠÐ±ÑĢÐ¾Ð½":10216,"ĠÐ»Ð¾Ð³Ð¸ÐºÐ°Ð»ÑĭÒĽ":10217,"ĠÑģÐµÑĢÐ¿ÑĸÐ½":10218,"ĠÒĽÐ¾Ð¹ÑĭÐ»ÑĭÐ¼":10219,"ĠÐĳÒ¯ÐºÑĸÐ»":10220,"ĠÓ¨ÑĢ":10221,"ĠÑĤÐ°ÒĵÐ°Ð¹ÑĭÐ½Ð´Ð°":10222,"ĠÐŀÐ¼ÑĭÑĢÑĤÒĽÐ°":10223,"ĠÐ¾Ð½Ð´Ð°ÒĵÑĭ":10224,"ĠÓĻÑĢÐµÐºÐµÑĤÑĸ":10225,"ÑĤÐ¾Ð¿":10226,"ĠÑģÐ¿ÐµÐº":10227,"ÐµÐ»Ð³ÐµÐ½":10228,"ÑĸÐºÑĤÑĸÐ³Ñĸ":10229,"ĠÒļÒ±ÒĽÑĭÒĽ":10230,"ÐµÐ¼ÒĽÐ¾ÑĢÐ»ÑĭÒĽÐ¿ÐµÐ½":10231,"ÑĦÐ¸Ð»":10232,"ĠÑĤÒ¯ÑģÑĸÑĢÐ³ÐµÐ½":10233,"ĠÓ©ÑģÑĸÐ¼":10234,"ĠÐ¶Ð¾Ð»Ð´Ð°ÑĢÑĭÐ½ÑĭÒ£":10235,"ĠÒ¯Ð¹ÑĸÐ½ÑĸÒ£":10236,"ĠÐºÐµÐ»ÑĤÑĸÑĢÐ³ÐµÐ½":10237,"ĠÐ¼Ò¯Ð»ÑĸÐºÐ¿ÐµÐ½":10238,"ĠÐ´Ð¸Ð°Ð»Ð¾Ð³":10239,"ÑĭÐ»Ð¼Ð°Ð¹ÑĤÑĭÐ½":10240,"ĠÐ±Ð°ÑģÑĪÑĭÐ»Ð°ÑĢÑĭÐ½Ð°":10241,"ĠÑģÑĭÑĢÑĤÑĭÐ½Ð´Ð°ÒĵÑĭ":10242,"ĠÑħÐ°Ð»ÒĽÑĭÐ¼ÑĭÐ·Ð´ÑĭÒ£":10243,"ĠÐºÐµÐ¹ÑĸÐ½Ð½ÐµÐ½":10244,"ĠÐ¿ÓĻÐ»":10245,"ĠÑĤÐ°ÑģÑĭÐ¼Ð°Ð»Ð´Ð°ÑĥÐ´Ñĭ":10246,"ĠÐľÓĺ":10247,"ĠÐ¼ÓĻÑģÐµÐ»ÐµÐ³Ðµ":10248,"ÐµÑĤÑĸÐ½Ð´Ðµ":10249,"ĠÐ¡ÑĥÐ½":10250,"ĠÐĳÑĸÑĢÑĸÐºÐºÐµÐ½":10251,"ĠÐ¾ÑĢÐ½Ð°Ð»Ð°ÑģÑĥ":10252,"ĠÒĽÒ±Ð»ÑĭÐ½":10253,"ĠÐľÐµÐ¼Ð»ÐµÐºÐµÑĤÑĤiÐº":10254,"ĠÐ°Ð¹Ð½Ð°Ð»ÑĭÐ¼Ñĭ":10255,"Â»)":10256,"ĠÐĳÓ©":10257,"ÑĤÒĽÑĭÑĪ":10258,"ĠÑĸÑģÑĤÐµÐ¼":10259,"Ð¸Ð´Ð´ÐµÑĢ":10260,"art":10261,"ĠÑĢÐµÐ´Ð°ÐºÑĨÐ¸ÑıÐ´Ð°":10262,"43":10263,"ĠÐ¶Ò±Ð¼ÑĭÑģÑģÑĭÐ·":10264,"ÐĿÐķ":10265,"ĠÐ¥ÒļÐļÐŀ":10266,"Ð±Ð°Ð»Ð°ÑĢ":10267,"ĠÑĪÐ°ÒĽÑĭÑĢÑĥ":10268,"ĠÐ¶ÐµÒ£ÑĸÐ¼Ð¿Ð°Ð·Ð´Ð°ÑĢÑĭ":10269,"ĠÐ±ÑĸÐ»ÐµÐ¼ÑĸÐ½":10270,"ĠÑĤÐµÐ¼ÑĸÑĢÐ¶Ð¾Ð»":10271,"ĠÐ°Ð¹Ð»Ð°ÑĢÑĭÐ½Ð´Ð°ÒĵÑĭ":10272,"ĠÐ½Ð°ÒĽ":10273,"Ð°ÑĤÐ¸ÐºÐ°Ð»ÑĭÒĽ":10274,"ĠÐ¶Ò¯Ð¹ÑĢ":10275,"Ð¾Ð¹ÑĭÐ½":10276,"ĠÐĸÐ¾Ð»Ð´Ð°ÑĥÑĭÐ½Ð´Ð°":10277,"ÐµÐ´Ð¸Ð°ÑĤÑĢ":10278,"ÑĪÑĸÑģÑĸÐ½Ðµ":10279,"ĠÐĲÑģÐ°Ð½":10280,"ÐĲÑĤÐ°Ð»ÒĵÐ°Ð½":10281,"ĠÐ±Ð¾Ð»ÑĭÐ¿ÑĤÑĭ":10282,"ĠÐ¸Ð´ÐµÑıÐ»Ð°ÑĢ":10283,"ĠÐ¿ÑĢÐµÐ¿Ð°ÑĢÐ°ÑĤ":10284,"Ð½Ð¾Ð³Ð¾":10285,"ĠÐ¶Ð°ÑģÑĤÑĭÒĽ":10286,"ĠÒĽÐ°ÑĢÐ°Ð¶Ð°ÑĤÑĤÑĭ":10287,"ĠÐ¼Ð°ÑĪÐ¸Ð½Ð°":10288,"ĠÐ¶ÐµÒ£ÑĸÐ¼Ð¿Ð°Ð·Ñĭ":10289,"ÑĤÐµÑĥÐ³Ðµ":10290,"Ð½Ð¾Ð³Ð¾ÑĢÑģÐº":10291,"ÑĸÐ¼Ð´ÑĸÐ»ÑĸÐºÑĤÑĸÒ£":10292,"Ð¸ÑĤÑĤÑĸÒ£":10293,"ĠÐ»Ð°ÑĥÐ°Ð·ÑĭÐ¼ÒĵÐ°":10294,"ĠÑģÐµÐ·ÑĸÐ¼ÑĤÐ°Ð»":10295,"ÑĪÐ°Ð¹ÑĭÐ¼":10296,"ĠÐ¾ÒĽÑĭÑĤÑĥÑĪÑĭ":10297,"ĠÒĽÐ°Ð»Ð´ÑĭÑĢÑĭÐ¿":10298,"ĠÐ½Ð°ÑĥÒĽÐ°ÑģÑĤÑĭÒ£":10299,"ĠÑĪÐ°Ð¿ÒĽÐ°Ð½":10300,"Ð¸ÑĤÑĭÐ½":10301,"ĠÐ±ÐµÑĢiÐ»Ð³ÐµÐ½":10302,"ĠÐ³Ð¸Ð³Ð¸ÐµÐ½":10303,"ĠÒļÐ°Ð±ÑĭÐ»":10304,"ĠÐĽÐµÐ½":10305,"Ð´ÐµÐ»ÐµÑĢ":10306,"Ð¸Ð°Ð»Ð´ÑĭÒĽ":10307,"ĠÒĽÑĭÐ·Ð´Ñĭ":10308,"ÐĽÐ«":10309,"ĠÓ©ÑģÑĸÑĢÑĥ":10310,"ĠÒļÐĲÐĹÐĲÒļ":10311,"ĠÐ¡Ó©ÑĢ":10312,"ÐľÓĻÑģ":10313,"ĠÑĤÐ°Ð»Ð°Ð¿ÑĤÐ°ÑĢÒĵÐ°":10314,"ĠÑģÒ±ÑĢÐ°ÒĵÐ°Ð½":10315,"ĠÑĤÐ°Ð±ÑĭÐ»Ð´Ñĭ":10316,"ĠÐ´Ò¯Ð½Ð¸ÐµÐ¶Ò¯Ð·ÑĸÐ»ÑĸÐº":10317,"ord":10318,"ĠÐĲÑıÐ³Ó©Ð·":10319,"ĠÐ¿ÑĭÑģÑĭÒĽ":10320,"ÑĪÐ°Ð½":10321,"ĠÓ©ÑĤiÐ½iÑĪ":10322,"ĠÐ°ÑĥÐ´Ð°Ð½Ð°ÑĢÐ°Ð»ÑĭÒĽ":10323,"ĠÐļÐ¾Ð¼Ð¸ÑģÑģÐ¸Ñı":10324,"ĠÐºÓĻÑĢ":10325,"ĠÐ¾Ñİ":10326,"ÑĭÑģÑĤÐ°ÑĢÑĭÐ½ÑĭÒ£":10327,"ĠÐ°Ð»Ð³ÐµÐ±ÑĢÐ°":10328,"ĠÐ°Ð¹ÑĭÑĢÐ¼Ð°ÑĪÑĭÐ»ÑĭÒĽ":10329,"ĠÑģÑĭÒ£":10330,"ĠÒĽÐ°Ð¶ÐµÑĤÑĤÑĸÐ»ÑĸÐ³Ñĸ":10331,"ĠÐ¶Ò¯ÑĢÐ³ÑĸÐ·ÑĥÑĪÑĸ":10332,"ĠÐ±ÐµÑĢÑĸÒ£ÑĸÐ·":10333,"ĠÐ±Ð¾ÑģÑĤÐ°Ð½Ð´ÑĭÒĽ":10334,"Ð¶Ð°Ð¹ÑĭÐ½":10335,"ĠÐ±Ð°ÒĵÐ´Ð°ÑĢÐ»Ð°Ð¼Ð°Ð»Ð°ÑĢÑĭÐ½ÑĭÒ£":10336,"ÐļÑĸÑĤÐ°Ð¿":10337,"ĠÐ±Ð°ÒĵÐ´Ð°ÑĢÐ»Ð°Ð¼Ð°Ð»Ð°ÑĢÐ´Ñĭ":10338,"ĠÐĳÐ°ÑģÑĤÑĭ":10339,"ĠÐºÓ©ÑĤÐµÑĢÑĸÐ»Ð³ÐµÐ½":10340,"ĠÐĳÐ¾Ð»Ð°ÑĤ":10341,"ĠÐĿÐ¾Ð²":10342,"ĠÒĽÐ¾Ð»ÑĤÐ°Ò£Ð±Ð°":10343,"ĠÐ¼Ò±ÑĢÑĭÐ½":10344,"ĠÐľÑĭÐ½Ð°":10345,"Ð¼ÑĭÐ·Ð´Ð°":10346,"ĠÒĽÑĭÐ·ÑĭÒĵÑĭ":10347,"ÐĲÒļÐ¨":10348,"Ð·ÑĭÐ¼":10349,"ĠÑĤÒ¯ÑĢÐ³Ðµ":10350,"ĠÑĤÐµÑĢÑĢÐ¸ÑĤÐ¾ÑĢ":10351,"ĠÐ¶Ò¯ÑĢÐ³iÐ·Ñĥ":10352,"ĠÐ»Ð¸Ð³":10353,"ĠÐºÐ¾Ð½ÑĦ":10354,"ĠÒĽÐ°Ð»Ð´ÑĭÑĢÒĵÐ°Ð½":10355,"ĠÐ·Ð¾ÑĢÐ»ÑĭÒĽ":10356,"ĠÐ¿Ð°Ðº":10357,"Ä±":10358,"ĠÐ¼Ð¾Ð»ÐµÐºÑĥÐ»":10359,"ĠÑĤÐ°Ð½ÑĭÑĤÑĭÐ¿":10360,"ÑĸÐ¼Ð´ÐµÑĢÐ´ÑĸÒ£":10361,"Ð¸ÑģÑĤÐ¸ÐºÐ°":10362,"ĠÐĸÒ±Ð¼Ð°Ð½":10363,"ĠÐĸÐ°Ò£Ð°Ð»ÑĭÒĽÑĤÐ°ÑĢ":10364,"ĠÐ°Ð±Ñģ":10365,"ĠÐ±ÑĸÑĤÑĸÑĢÑĥ":10366,"ĠÐ±Ó©Ð»ÑĸÐ¼ÑĸÐ½Ðµ":10367,"ĠÐ´Ð°ÑıÑĢÐ»ÑĭÒĵÑĭ":10368,"ĠÐŀÑģÑĭÐ½ÑĭÒ£":10369,"ĠÑģÐ°Ð»Ð°Ð»Ð°ÑĢ":10370,"ĠÐµÑģÑĤÑĸÐ¿":10371,"ÑĸÑĤÑĸ":10372,"Ð°ÒĵÐ°Ð·":10373,"ÑĭÐ±Ð°ÐµÐ²":10374,"ĠÓĻÐ¹ÑĤÐµÑĥÑĸÑĢ":10375,"ÓĻÐºÓĻÑĢÑĸÐ¼":10376,"ĠÑģÒ±Ð¹ÑĭÒĽÑĤÑĭÒĽ":10377,"ÐµÐ»ÐµÑĢÐ´Ðµ":10378,"ĠÒĽÐ°ÑģÐ¸ÐµÑĤÑĤÐµÑĢÑĸÐ½":10379,"ĠÑģÐ¾ÒĵÑĭÑģÑĭÐ½ÑĭÒ£":10380,"Ð»ÐµÐºÑĤÑĢÐ¾":10381,"Ð¢Ó©":10382,"ĠÐ±Ó©Ð»Ð¼Ðµ":10383,"ĠÓ©Ð½Ð´ÑĸÑĢÑĸÑģÑĸ":10384,"72":10385,"...Â»":10386,"ĠÐ¶ÐµÐ»ÑĤÐ¾ÒĽÑģÐ°Ð½Ð´Ð°":10387,"ĠÑĤÐ°Ð·Ð°Ð»Ð°Ñĥ":10388,"ĠÐ°ÑĪÐ°Ð´Ñĭ":10389,"ĠÐ½Ð¾ÑĢÐ¼Ð°Ð»Ð°ÑĢÑĭÐ½":10390,"ĠÒĽÐ°Ð»Ð°Ñĥ":10391,"ÐºÑĸÐ½ÑĸÒ£":10392,"ĠÐ¿ÓĻÐ½Ð´ÐµÑĢ":10393,"ĠÑĪÑĭÐ³":10394,"ĠÒĽÐ°Ð»Ð°Ð´Ð°":10395,"ĠÐ¾ÑĤÑĭÑĢÑģÐ°Ò£ÑĭÐ·":10396,"ĠÒ±ÑģÑĤÐ°Ð½ÑĭÒ£":10397,"Ð´Ð°Ð½Ð°":10398,"ÑĭÐ»ÑĭÒĵÑĭ":10399,"Ð»ÐµÐ½Ð´ÑĸÑĢÑĥ":10400,"ĠÑĨÐ¸ÐºÐ»":10401,"ĠÐĿÐ¾ÑĢÐ²ÐµÐ³Ð¸Ñı":10402,"ĠÑĪÑĭÐ´Ð°Ð¼":10403,"Ð´Ð°ÑģÑĤÑĭÑĢ":10404,"ĠÑĦÑĢÐ°Ð½ÑĨÑĥÐ·":10405,"ĠÑĤÒ¯ÑģÐµ":10406,"ĠÑĤÓ©Ð³ÑĸÐ»":10407,"ĠÐºÐ¾Ð´ÐµÐºÑģÑĸÐ½ÑĸÒ£":10408,"ĠÒĽÑĭÐ¼ÑĭÐ·ÑĭÐ½":10409,"ĠÐºÑĸÑĢÑĸÑģÑĤÑĸ":10410,"ĠÑĤÐ¾Ð¿ÑĤÑĭÒ£":10411,"ĠÑĤÐ°Ð»Ð°Ð±ÑĭÐ½Ð°":10412,"ĠÐºÒ¯ÑĤÐºÐµÐ½":10413,"Ð±ÑĸÐ½":10414,"ĠÒĽÐ¾ÒĵÐ°Ð¼Ð´Ð°ÒĵÑĭ":10415,"ĠÐ½ÐµÐ¼ÑĸÑģ":10416,"ĠÒĽÐ°ÑĢÒĵÐ°Ð¼":10417,"ÑĸÑĢÑĸ":10418,"Ð¸Ð·Ð¼Ð½ÑĸÒ£":10419,"ĠÐ±ÐµÑģÑĸÐº":10420,"ĠÑģÒ±ÑĢÐ°ÒĽÒĽÐ°":10421,"ĠÑĪÐ°Ð¹ÒĽÐ°Ñģ":10422,"ĠÐ¡Ð°Ð¿Ð°ÑĢ":10423,"ĠÐ°Ð·Ð°Ð¼Ð°ÑĤÑĤÑĭÒ£":10424,"ĠÐ´Ð¸ÐµÑĤ":10425,"ĠÐĲÑĤÐ±Ð°ÑģÐ°ÑĢ":10426,"ĠÐ¶ÐµÐºÐµÑĪÐµ":10427,"ĠÓĺÐ´ÑĸÐ»":10428,"Ð¼Ð°ÑģÑĭÐ½ÑĭÒ£":10429,"ĠÐ·Ð¸ÑıÑĤ":10430,"ĠÐĲÑĥÒĵÐ°Ð½":10431,"aScript":10432,"line":10433,"ĠÐĲÑĤÐ°Ð¼":10434,"Ġ85":10435,"ĠÐ¶Ò±Ð¼ÑĭÑģÑĤÐ°Ð½":10436,"ĠÒ°Ð»ÑĭÐ±ÑĢÐ¸ÑĤÐ°Ð½":10437,"ĠÐ¶Ð°ÑģÐ°Ð»ÑĥÑĭ":10438,"ĠÓĺÐ´ÐµÑĤÑĤÐµ":10439,"Ð¿ÐµÐ½Ð´Ñĸ":10440,"ĠÐ¾ÒĽÑĥÑĪÑĭÐ»Ð°ÑĢÐ´Ñĭ":10441,"ĠÑĥÓĻÐº":10442,"ĠÐļÑĥÑĢ":10443,"68":10444,"ĠÐ¶Ð¾Ð»ÑĭÐ½Ð°":10445,"ÐĳÑĸÑĢÐ°ÒĽ":10446,"ĠÐ±ÑĸÐ»Ð¼ÐµÐ¹Ð´Ñĸ":10447,"ÑĢÐ°Ð¿":10448,"ĠÐ±Ð¾Ð»Ð¼Ð°Ð´Ñĭ":10449,"ĠÑĪÐ¸Ð¿":10450,"ĠÐ°Ð»ÑĥÑĪÑĭÐ»Ð°ÑĢÐ´ÑĭÒ£":10451,"ĠStan":10452,"71":10453,"Ð¾Ð·Ð´Ñĭ":10454,"ĠÐµÒ£Ð±ÐµÐºÑĤÐµÑĢÑĸ":10455,"ĠÐ¼ÐµÐ´Ð°Ð»Ñĸ":10456,"Ð´Ð¸ÑıÑģÑĭÐ½ÑĭÒ£":10457,"ĠÐ¶ÑĸÐ³ÐµÑĢ":10458,"Ð´ÐµÑĤÑĥ":10459,"ÓĺÐ±":10460,"ĠÐ¶ÑĭÐ»Ð´ÑĭÒĽÒĽÐ°":10461,"ĠÐºÒ¯Ð¹ÑĸÐ½Ð´Ðµ":10462,"Ð±Ñĭ":10463,"ĠÐ¼Ð°ÒĽÐ°Ð»Ð°ÑģÑĭ":10464,"ĠÐµÐºÑĸÐ½ÑĪÑĸÑģÑĸ":10465,"ĠÐ±Ð¸ÐµÐ»ÐµÑĢÐ´Ñĸ":10466,"ĠÐ¡Ð°Ð»ÑĭÒĽ":10467,"ĠÐµÐºÐµÐ½ÑĸÐ½Ðµ":10468,"ĠÑĤÑĸÑĢÐºÐµÑģ":10469,"ĠÐ±Ð¾Ð»ÑĤÐ°Ð½":10470,"ĠÐ¼ÓĻÑĢÑĤÐµÐ±ÐµÑģÑĸÐ½":10471,"ĠÐ¼Ð°ÒĵÑĭÐ½Ð°ÑģÑĭ":10472,"ĠÐ¡Ð¾Ð»Ð°ÑĢÐ´ÑĭÒ£":10473,"ĠÐ°ÒĽÑĪÐ°Ð½Ñĭ":10474,"Ð°Ð¹ÑĭÐ¿":10475,"ÐĹÐ°Ð¼Ð°Ð½":10476,"ĠÑĸÐ»Ð³ÐµÑĢ":10477,"ĠÐŀÐ¼ÑĭÑĢÑĤÒĽÐ°Ð½ÑĭÒ£":10478,"ĠJavaScript":10479,"ĠÐºÐ¾Ð½ÑģÐµÑĢÐ²":10480,"uc":10481,"ÑģÑĥÐ»":10482,"ĠÓ©ÑĤÐºÐµÑĢ":10483,"ÑĭÑģÑĤÐ°ÑĢÒĵÐ°":10484,"ĠÒĽÐ¾ÑİÒĵÐ°":10485,"ĠÐ°Ð»Ð°Ò£ÑĭÐ½Ð´Ð°":10486,"og":10487,"ĠÓĻÑĥÐµÐ½":10488,"ĠÐ¶Ò±Ð¼ÑĭÐ»Ð´ÑĭÑĢÑĥ":10489,"ĠÐĳÐ°ÑĢÐ»ÑĭÒĵÑĭ":10490,"ĠÐľÐ°ÒĵÐ°Ð½":10491,"ÑĪÑĸÐ»ÐµÑģ":10492,"Ð½ÐµÐ¼":10493,"ĠÑĤÐ°ÑĢÑĤÐ°Ð´Ñĭ":10494,"ĠÐ¿ÑĢÐ¾Ð²":10495,"ÑĢÐ°Ð½Ñģ":10496,"ĠÑħÐ°ÒĽ":10497,"Ġkz":10498,"ment":10499,"ĠÐ¶ÑĭÐ»Ð´Ñĭ":10500,"ĠÐºÐ¾Ð¼Ð¿Ð°Ð½Ð¸ÑıÐ½ÑĭÒ£":10501,"dar":10502,"ÑĪÑĸÐ»ÑĸÐ³ÑĸÐ¼ÐµÐ½":10503,"Ð±ÐµÑĤÐ¾Ð²":10504,"ĠÑĤÓ©Ð·Ð±ÐµÑĥ":10505,"ĠÐ¼ÓĻÐ´ÐµÐ½Ð¸ÐµÑĤÑĤÑĸ":10506,"ĠÓ©Ð·ÐµÐ½ÑĸÐ½ÑĸÒ£":10507,"ĠÐ°ÑģÑĤÐ°Ð½Ð°ÑģÑĭ":10508,"ĠÑįÐ½ÐµÑĢÐ³ÐµÑĤÐ¸ÐºÐ°":10509,"ĠÑĪÐµÑĪÐµÐ½":10510,"ĠÐµÑģÑĤÐµÐ»ÑĸÐº":10511,"ÐµÑĢÐ´ÑĸÒ£":10512,"Ð°ÑĤÐ¾Ð½":10513,"ÑĭÑĢÐ´Ð°":10514,"ĠÐ·ÐµÑĢÑĤÑĤÐµÐ¿":10515,"ĠÒĽÐ¾ÒĽ":10516,"ĠÒ®Ð·Ð´ÑĸÐº":10517,"Ð°Ð±Ð¾Ð»":10518,"ÐĸÐ°Ð»":10519,"ĠÐ¶Ð°Ð½ÐºÒ¯Ð¹":10520,"Ð°Ò£Ð´Ð°ÑĢ":10521,"ĠÑĤÑĸÐ·ÑĸÐ»ÑĸÐ¼":10522,"ĠÐºÐ¾ÑĢÐ¿Ð¾ÑĢÐ°ÑĨÐ¸ÑıÑģÑĭ":10523,"ÑĢÐ°Ð¼Ð¿":10524,"ĠÐ±Ð°ÒĵÑĭÑĤÑĭÐ½Ð´Ð°ÒĵÑĭ":10525,"ĠÓĻÑĢÐµÒ£":10526,"ÐµÐ³ÑĸÐ½ÐµÐ½":10527,"ĠÑģÐ°Ð»ÑĤÑĭÐ½":10528,"ĠÐºÐ¸ÑĸÐ·":10529,"ĠÐ¾ÑĤÐ°Ñĥ":10530,"ÐĲÐ»Ð°ÑĪ":10531,"ĠÑģÑĤÑĥÐ´ÐµÐ½ÑĤÑĤÐµÑĢÐ´ÑĸÒ£":10532,"ÒļÑĭÑĤÐ°Ð¹":10533,"ÐµÐ¼Ð¸Ð½Ð°ÑĢ":10534,"Ð¸ÑĤÑĮ":10535,"ĠÑĤÒ±ÑģÑĤÐ°":10536,"ÒĵÒ±Ð»":10537,"Ð¿Ð¸":10538,"ĠÑħÐ°Ð»ÑĭÒĽÑĤÑĭÒĽ":10539,"ĠÑĤÑĥÑĭÐ»ÒĵÐ°Ð½":10540,"ĠÐ¾ÑģÑĭÐ½ÑĭÒ£":10541,"ĠÐłÐ¸Ð´Ð´ÐµÑĢ":10542,"ĠÐºÑĸÑĪÐºÐµÐ½Ðµ":10543,"ĠÒĽÐ°Ð·Ð°Ð½Ð´Ð°":10544,"ĠÐµÑĢÐµÐºÑĪÐµÐ»ÐµÐ½ÐµÐ´Ñĸ":10545,"ĠÐ¶ÐµÑĢÐ³iÐ»iÐºÑĤi":10546,"ĠÐ¨Ð°Ð¼":10547,"ĠÐ¶Ð¾Ð»Ð´Ñĭ":10548,"ĠÐĸÐ¾Ð»Ð´Ð°ÑĥÑĭÐ½":10549,"ĠÐ¼Ò¯Ð¼ÐºÑĸÐ½Ð´ÑĸÐºÑĤÐµÑĢÑĸÐ½":10550,"ÑģÑĤÐ²Ð¾":10551,"ĠÐ¿ÑĸÑĪÑĸÐ½":10552,"ĠÑĤÐ°Ð»Ð°Ð¿ÑĤÐ°ÑĢÐ´Ñĭ":10553,"ĠÓ©Ð½ÑĸÐ¼Ð´ÐµÑĢÑĸÐ½ÑĸÒ£":10554,"ĠÐ¾Ñģ":10555,"ĠÑģÐ°Ð»ÑĭÑģÑĤÑĭÑĢÐ¼Ð°Ð»Ñĭ":10556,"ĠÐ³Ð¾Ð»":10557,"ĠÑĤÑĥÑĭÐ½Ð´Ð°Ð¹ÑĤÑĭÐ½":10558,"ĠÐ¿ÐµÑĢÑģÐ¾Ð½":10559,"ĠÑĪÐµÐ»ÐµÐº":10560,"ĠÐºÐµÒ£ÐµÑģÑĤÑĸÒ£":10561,"Ð¾Ð»ÑĮÐºÐ»Ð¾ÑĢ":10562,"ĠÐĳÓĻÐ¹":10563,"ĠÐ¶ÑĭÐ»ÒĽÑĭÐ½ÑĭÒ£":10564,"ĠÐ¶ÑĸÐ³ÑĸÑĤÑĤÑĸÒ£":10565,"ĠÐ°ÑĢÑĤÑĤÑĭÑĢÐ°Ð´Ñĭ":10566,"ĠÐ¼ÓĻÐ½ÑĸÐ½":10567,"ĠÑĤÑĸÐ»Ð³Ðµ":10568,"ĠÑģÐ°ÑıÑģÐ°ÑĤÑĭÐ½ÑĭÒ£":10569,"ĠÑĪÐ°ÒĽÒĽÐ°Ð½Ð´Ð°ÒĵÑĭ":10570,"Ð±Ð¸Ð·Ð½ÐµÑģ":10571,"ĠÐ¢Ð°Ð±":10572,"ĠÑģÐ°ÒĽÑĤÐ°Ð¹":10573,"ĠÑģÓ©Ð·ÑĸÐ½Ðµ":10574,"ĠÐ¶Ð°Ð±ÑĭÒĽ":10575,"Ð°ÑĢÐ»Ñĭ":10576,"ÐľÐ°ÒĽÑģÐ°ÑĤÑĭ":10577,"ĠÐºÓ©ÑĪÑĸÑĢÐ¼ÐµÑģÑĸ":10578,"ÒĽÐ¸Ð¼ÑĭÐ»Ð´ÑĭÒ£":10579,"Ð¶ÑĸÑĢ":10580,"ĠÐ¶Ò¯ÑĢÐ¼ÑĸÐ½":10581,"ĠÐ¸Ð½Ð²ÐµÑģÑĤÐ¸ÑĨÐ¸ÑıÐ»Ð°ÑĢ":10582,"ĠÑĤÓ©Ð¼ÐµÐ½Ð´ÐµÑĥÑĸ":10583,"ĠÑĩÐµÐ»Ñİ":10584,"Ð¼Ð¾Ð¹Ð½Ñĭ":10585,"ĠÐĲÐºÐ°Ð´ÐµÐ¼":10586,"ĠÐ¶ÑĸÐ³ÑĸÑĤÑĤÐµÑĢ":10587,"ÑĤÐ°ÑĢÐ¼Ð°ÒĵÑĭÐ½ÑĭÒ£":10588,"ĠÐľÐļ":10589,"ĠÐ²Ð°Ð³":10590,"ĠÑģÑĭÑĢÑĤÑĤÐ°Ð¹":10591,"Ð«Ð¡":10592,"ĠÐĲÒļÐŁÐĲÐłÐĲÐ¢":10593,"ĠÐ±ÑĢÐµÐºÐµÑĤÐ¾Ð²":10594,"ĠÑĩÐµÐ»ÑİÑģÑĤÑĮ":10595,"ĠÑģÒ¯ÑĢÑĸÐ¿":10596,"ĠÑĪÐ¾Ð»Ñĥ":10597,"ĠÒĽÐ¾ÑģÑĭÐ»Ð°Ð´Ñĭ":10598,"ĠÐ±Ð¸Ð·Ð½ÐµÑģÑĤÑĸ":10599,"Ð¾Ð±ÑĭÐ»":10600,"ĠÐ½ÐµÐ¹":10601,"ÐľÐĸ":10602,"ĠÒ±Ð·Ð°ÑĢ":10603,"ĠÐ·Ð°Ð»ÑĭÐ½Ð´Ð°":10604,"ĠÐ´ÐµÐºÐ»Ð°ÑĢ":10605,"ĠÐ¸Ð³ÐµÑĢÑĥ":10606,"ÑĸÐ±ÑĸÑĢ":10607,"ĠÐĳÑĥÑĭÐ½Ð½ÑĭÒ£":10608,"ĠÐ¶ÑĭÐ»ÑĭÐ½Ð´Ð°":10609,"ĠÒĽÐ°ÑĪÑĭÐ¿":10610,"ĠÐ¢ÓĻÐ¶ÑĸÐºÑģÑĤÐ°Ð½Ð½ÑĭÒ£":10611,"ĠÑģÓ©ÑĢ":10612,"ĠÐľÐµÐ¼":10613,"Ð´Ð¸Ñı":10614,"ĠÐļÐ°Ð½":10615,"ĠÓ©ÑĤÐºÑĸÐ·ÑĸÐ»ÑĸÐ¿":10616,"Ð°Ð»ÑĮÐ½Ð°Ñı":10617,"ĠÐ½Ð°Ð¹":10618,"ĠÑĢÒ±ÒĽÑģÐ°ÑĤÑĭÐ½ÑģÑĭÐ·":10619,"ĠÐ°ÑĥÑĭÑĢÑĭÐ¿":10620,"Ð¡ÑĸÐ·Ð´ÑĸÒ£":10621,"ĠÐĲÒĽÐ¿Ð°ÑĢÐ°ÑĤÑĤÑĭÒĽ":10622,"Ð¡Ðķ":10623,"ĠÐºÐµÐ»ÑĸÑģÑĸÐ¼Ð³Ðµ":10624,"ĠÐķÑģÐµÐ¿":10625,"Ð³ÐµÑĢÑĸÐ¼":10626,"ĠÐ¶ÑĭÐ»Ð´Ð°ÑĢÐ´Ð°ÒĵÑĭ":10627,"ĠÐ¾ÑĤÐ°ÑĢ":10628,"ĠÒĽÐ°Ð»Ð´ÑĭÑĢÑĥ":10629,"ĠÐ¿Ñĥ":10630,"Ð´ÑĭÐ»ÑĭÒĽ":10631,"ÐĸÐ°ÑĥÐ°Ð¿":10632,"Ð¨ÐµÑĤ":10633,"ĠÐ±ÐµÐ»Ð³ÑĸÐ»ÐµÐ½ÐµÐ´Ñĸ":10634,"ÑĤÓĻÑģÑĸÐ»":10635,"ĠÒĽÒ±ÑĢÒĵÐ°Ð½":10636,"ĠÐ¶Ð¸Ð½Ð°ÒĵÐ°Ð½":10637,"ĠÐ´Ò±ÒĵÐ°":10638,"ĠÐĲÑģÑĭÐ»":10639,"ĠÐŁÑģÐ¸Ñħ":10640,"Ġ160":10641,"ÐµÑģÑĤÐµÑĢ":10642,"ĠÐľÐµÐº":10643,"Ð¡Ð¾":10644,"Ð´ÐµÐ½ÑĸÒ£":10645,"ĠÓ©Ð·Ð±ÐµÐº":10646,"ĠÑĤÐ°Ð¼ÑĭÑĢÐ»Ð°ÑĢÑĭÐ½ÑĭÒ£":10647,"Ð°ÑģÑĤÑĭÒĽ":10648,"azakh":10649,"ÑĸÒ£ÑĸÐ·Ð´ÑĸÒ£":10650,"Ð¾Ð³ÐµÐ½Ð´ÑĸÐº":10651,"ĠÑģÐ°ÒĵÐ°ÑĤÑĭ":10652,"Ð°Ð·Ð²":10653,"ĠÐĳÐ°Ð¹ÒĽÐ°Ñĥ":10654,"ĠÐ¶ÑĭÐ»Ð´Ð°ÑĢÑĭÐ½Ð´Ð°":10655,"ĠÐºÐ¾Ð½ÑģÑĤÑĢÑĥÐºÑĨÐ¸Ñı":10656,"ĠÑĤÐ°Ð½ÑĭÑģÑĥ":10657,"ĠÐ¿ÑĢÐµÐ¿Ð°ÑĢÐ°ÑĤÑĤÐ°ÑĢÐ´Ñĭ":10658,"Ð¾Ð·Ð¸ÑĤ":10659,"ĠÐ¾Ð±ÑĬÐµÐºÑĤÑĸÐ»ÐµÑĢÑĸÐ½ÑĸÒ£":10660,"ĠÐµÑĢÐºÐµÐº":10661,"ĠÐ²Ð¸Ð´Ðµ":10662,"Ð¿Ð°Ñĥ":10663,"Ð´Ð°Ð½Ñĭ":10664,"iÐ¼Ð´i":10665,"ĠÐ±Ð°Ð»Ð°Ð±Ð°ÒĽÑĪ":10666,"ĠÑĤÐ°Ò£ÒĵÐ°Ð»":10667,"Ð¸Ð»Ð°":10668,"leÒ£":10669,"ĠÐĳÐ°Ð¹ÒĽÐ¾Ò£ÑĭÑĢ":10670,"ĠÑĦÐ¸Ð»Ð¾ÑģÐ¾ÑĦÐ¸Ñı":10671,"ĠÐļÐ¾Ð´ÐµÐº":10672,"ÐºÐ¾Ð³Ð¾Ð»ÑĮ":10673,"ĠÓ©leÒ£":10674,"ĠÐ¶ÐµÑĤÑĸÑģÑĤÑĸÐºÑĤÐµÑĢÑĸ":10675,"ĠÑĢÓ©Ð»ÑĸÐ½":10676,"ĠÑĤiÐ·":10677,"ĠÑĸÑĪÑĸ":10678,"ĠÐ±ÑİÐ´Ð¶ÐµÑĤÑĤÑĸÒ£":10679,"ĠÑģÑĬÐµÐ·":10680,"Ð°ÒĵÐ°Ð»Ñĭ":10681,"Ġ42":10682,"ĠÓ©ÑĤÑĥÑĸ":10683,"ĠÐ¶Ð°ÑĢÑĭÐ»ÑĭÑģ":10684,"ĠÒĽÐ¾ÒĵÐ°Ð¼ÒĵÐ°":10685,"ĠÓĻÑĢÐµÐºÐµÑĤÑĤÐµÑģ":10686,"ĠÐ¾Ð»Ð°ÑĢÐ¼ÐµÐ½":10687,"ĠÐºÓĻÑģÑĸÐ¿Ð¾ÑĢÐ½Ñĭ":10688,"ĠÐºÐµÑĤÑĥÑĸ":10689,"ĠÑģÒ±Ð¼":10690,"ĠÐ¾ÑĢÐ½Ð°ÑĤÑĭÐ»ÒĵÐ°Ð½":10691,"ĠÐ¿ÑĸÐºÑĸÑĢÐ»ÐµÑĢ":10692,"ĠÑĪÑĥÐ¼Ð°ÒĽ":10693,"ĠÐºÐµÐ»ÐµÑĪÐµÐº":10694,"ĠÐ°ÑģÑĭÑĢÑĭÐ»ÑĥÑĭ":10695,"Ġtak":10696,"Ð°Ð¼Ð¸":10697,"ĠÐ¶Ð°ÒĵÐ´Ð°Ð¹Ð»Ð°ÑĢÐ´ÑĭÒ£":10698,"ĠÐĶÐµÐ½Ð¸Ñģ":10699,"1983":10700,"ĠÐ¨ÑĸÐ»Ð´Ðµ":10701,"Ð½Ð´Ð°":10702,"ĠÐĲÐ·Ð°ÑĤÑĤÑĭÒĽ":10703,"ÑĢÐ¾ÑĢ":10704,"ĠÐ°ÑĢÒĽÐ°Ñĥ":10705,"ÑĸÐ»Ð¼ÐµÐ¹Ð´Ñĸ":10706,"ĠÐłÐ°Ñģ":10707,"ĠÐ¼ÑĭÒ£Ð´Ð°ÒĵÐ°Ð½":10708,"ĠÐ¶Ð°ÑĤÑĤÑĭÒĽÑĤÑĭÑĢÑĥ":10709,"ĠÐ³ÑĢÐµÐº":10710,"ĠÐ¾ÑĢÑĭÐ½Ð±Ð°ÑģÐ°ÑĢÑĭÐ½ÑĭÒ£":10711,"ĠÐ¼Ð°ÒĽÑĤÐ°Ð½ÑĭÑĪ":10712,"ĠÐºÓ©ÑĢÑĸÐ½Ð³ÐµÐ½":10713,"Ð¼ÐµÐ³Ðµ":10714,"ĠÒĽÑĭÐ»ÑĭÒĽ":10715,"ĠÐĳÐ¾ÑĢ":10716,"ĠÒ±ÒĵÑĭÐ½":10717,"ĠÐ¶ÑĸÐ±ÐµÑĢÑĸÐ»ÐµÐ´Ñĸ":10718,"ÑĥÐ»Ð°ÑĤÐ¾ÑĢ":10719,"ĠÐ¿ÑĥÐ½ÐºÑĤ":10720,"ĠÐºÐ°Ð»ÑĮ":10721,"ĠÐ¾ÑĢÐ°Ð¼Ð°Ð»":10722,"ĠÑĤÐ°Ò£ÒĵÑĭ":10723,"ĠÐ¡ÑĤÐµÐ¿Ð½Ð¾Ð³Ð¾ÑĢÑģÐº":10724,"ĠÒļÐ¸ÒĵÐ°ÑĪ":10725,"Ð¾ÑģÐ°Ð½":10726,"ĠÓĻÐ»ÐµÑĥÐµÑĤÑĸÐ½":10727,"Ð¼ÓĻ":10728,"ĠÐ°Ð¹Ð¼Ð°ÒĽÑĤÐ°":10729,"ĠÐ±Ð¾Ð»ÑģÐ°Ò£ÑĭÐ·":10730,"ĠÐºÓ©ÑĢÑģÐµÑĤiÐ»ÐµÑĤiÐ½":10731,
[...]
